<unk>	0
<s>	0
</s>	0
story_separator_special_tag	0
▁the	-3.08788
▁,	-3.12589
▁.	-3.44729
▁"	-3.79778
▁a	-3.83841
▁to	-3.90136
▁	-4.04904
▁and	-4.08303
▁of	-4.10976
▁in	-4.19803
▁'	-4.26712
s	-4.49642
▁s	-4.56628
▁that	-4.67487
-	-4.92735
▁for	-4.96583
▁on	-5.00992
▁was	-5.02424
▁it	-5.05095
▁is	-5.0661
▁he	-5.13764
ed	-5.20082
ing	-5.23338
▁with	-5.28289
.	-5.39597
▁at	-5.47686
▁as	-5.4972
▁his	-5.51542
▁be	-5.55591
▁but	-5.67499
▁from	-5.68521
▁t	-5.69716
▁an	-5.69877
▁:	-5.703
▁has	-5.72465
▁have	-5.73435
▁reports	-5.73905
▁her	-5.75609
▁i	-5.78749
▁are	-5.81218
▁by	-5.81468
▁said	-5.81598
▁she	-5.81971
d	-5.83964
▁not	-5.86564
▁this	-5.87873
▁who	-5.87911
—	-5.8823
▁they	-5.93134
▁says	-5.94785
▁’	-5.95753
▁-	-5.9859
▁)	-6.09736
(	-6.10098
▁one	-6.1087
▁been	-6.14624
▁had	-6.15776
▁will	-6.1605
▁were	-6.17227
▁after	-6.17395
▁you	-6.20556
▁about	-6.2246
▁more	-6.24634
▁new	-6.24723
▁we	-6.24763
▁or	-6.30942
▁out	-6.31026
ly	-6.3302
▁their	-6.3337
▁up	-6.35323
▁when	-6.37576
▁which	-6.38953
▁“	-6.46583
▁people	-6.47317
▁”	-6.49442
▁all	-6.56443
▁what	-6.57604
▁police	-6.60848
▁also	-6.63387
▁no	-6.63587
▁can	-6.64518
▁there	-6.64699
▁would	-6.66058
▁two	-6.68088
▁so	-6.69922
▁just	-6.71171
▁$	-6.72748
▁if	-6.72807
▁than	-6.73622
▁him	-6.74044
▁say	-6.7473
y	-6.74971
▁news	-6.75792
▁us	-6.78006
▁its	-6.79059
▁some	-6.79588
▁time	-6.79978
▁other	-6.82615
▁trump	-6.83991
▁last	-6.85235
▁over	-6.85663
▁now	-6.86105
▁like	-6.88323
▁into	-6.88794
▁first	-6.8895
year	-6.91051
▁times	-6.92027
old	-6.94246
▁years	-6.96317
▁could	-6.96524
▁?	-7.01626
▁per	-7.02224
e	-7.02434
▁re	-7.02607
▁while	-7.02765
▁them	-7.04791
▁tells	-7.0613
▁found	-7.06812
▁president	-7.08808
▁notes	-7.09012
▁may	-7.11298
▁told	-7.12244
▁year	-7.12709
▁do	-7.12736
▁post	-7.13386
▁;	-7.13453
▁because	-7.13534
▁get	-7.1509
▁before	-7.15477
▁york	-7.15937
▁only	-7.16213
▁my	-7.168
▁man	-7.18285
▁state	-7.18375
▁according	-7.19496
▁being	-7.21027
▁ap	-7.25066
▁our	-7.25373
▁today	-7.26213
▁back	-7.26953
▁how	-7.28138
▁your	-7.28848
▁...	-7.29023
▁%	-7.29538
▁off	-7.31658
▁even	-7.32907
▁made	-7.33884
▁family	-7.34977
▁where	-7.35209
▁most	-7.35808
a	-7.36669
▁show	-7.36975
▁down	-7.37592
▁day	-7.39854
▁three	-7.40886
▁home	-7.41172
▁during	-7.41686
▁those	-7.41955
▁still	-7.42467
n	-7.42586
▁don	-7.42735
▁house	-7.43258
▁another	-7.43601
▁any	-7.44612
▁million	-7.44973
▁did	-7.48308
▁way	-7.48505
▁make	-7.48701
▁then	-7.49241
▁since	-7.50725
▁week	-7.509
▁me	-7.5155
▁see	-7.52377
▁world	-7.52746
t	-7.52794
▁going	-7.53149
▁around	-7.53652
▁including	-7.54255
▁though	-7.565
▁m	-7.57482
▁!	-7.5752
▁didn	-7.58092
▁very	-7.5843
▁woman	-7.58443
▁well	-7.59104
▁here	-7.59298
▁got	-7.607
▁called	-7.60861
▁know	-7.61464
▁night	-7.6281
▁many	-7.6308
▁much	-7.63338
▁take	-7.63524
▁life	-7.6363
▁city	-7.63731
▁against	-7.64792
▁video	-7.64972
▁obama	-7.65241
▁washington	-7.65388
▁death	-7.68357
▁go	-7.6891
▁think	-7.69589
▁these	-7.70295
▁case	-7.70333
▁company	-7.70666
▁write	-7.71252
es	-7.71352
▁part	-7.71361
▁women	-7.718
▁court	-7.7249
▁long	-7.72523
▁white	-7.73863
▁should	-7.74402
▁own	-7.76437
▁good	-7.76867
▁cnn	-7.77031
▁through	-7.77198
▁want	-7.77293
▁come	-7.79494
▁under	-7.79821
▁ve	-7.80163
▁school	-7.80927
▁such	-7.80969
▁report	-7.81169
▁officials	-7.81672
i	-7.8197
▁statement	-7.81997
▁former	-7.82042
▁both	-7.82185
▁never	-7.83264
▁country	-7.83361
▁right	-7.83429
▁between	-7.8386
▁help	-7.8403
▁work	-7.85071
▁national	-7.86172
▁monday	-7.87983
▁later	-7.88054
▁d	-7.88147
▁took	-7.88194
▁used	-7.88336
▁next	-7.88693
▁days	-7.88794
▁place	-7.89016
▁government	-7.89502
▁least	-7.89792
▁public	-7.90956
▁saying	-7.91395
▁car	-7.92383
▁children	-7.9246
▁high	-7.92714
▁believe	-7.92925
▁10	-7.93015
▁four	-7.93084
▁tuesday	-7.93515
o	-7.93569
▁died	-7.93634
▁group	-7.94085
▁left	-7.9417
▁killed	-7.94237
▁went	-7.94451
▁story	-7.94911
▁month	-7.95143
▁same	-7.95711
▁study	-7.96675
▁put	-7.9709
▁w	-7.97309
▁facebook	-7.97658
▁american	-7.98105
▁friday	-7.98179
▁might	-8.00638
▁big	-8.01121
▁mean	-8.01554
▁media	-8.02113
▁too	-8.023
/	-8.02434
▁press	-8.03335
▁use	-8.03504
m	-8.03579
▁came	-8.04417
on	-8.04589
▁wednesday	-8.04667
▁office	-8.05471
▁law	-8.05573
▁away	-8.05828
▁every	-8.06096
▁taken	-8.06339
▁clear	-8.06421
▁north	-8.06518
▁few	-8.06573
▁campaign	-8.06611
▁why	-8.06622
▁department	-8.06899
▁authorities	-8.07421
▁daily	-8.07981
▁doesn	-8.08065
▁thursday	-8.08288
▁county	-8.08345
▁support	-8.08502
▁really	-8.08901
▁sunday	-8.09227
er	-8.09471
▁mother	-8.09589
▁five	-8.09605
▁star	-8.09912
▁men	-8.10106
▁hospital	-8.11249
▁health	-8.11478
▁something	-8.12013
▁set	-8.12046
▁un	-8.12175
▁twitter	-8.12452
▁won	-8.12638
com	-8.12771
▁asked	-8.13463
▁morning	-8.14326
▁end	-8.14405
▁journal	-8.14524
▁reported	-8.14547
▁team	-8.14959
▁things	-8.15208
▁bbc	-8.15926
▁yesterday	-8.15977
▁little	-8.16816
▁until	-8.17753
▁already	-8.18023
▁far	-8.18302
▁months	-8.18451
▁hit	-8.18486
▁name	-8.18586
▁best	-8.19548
▁street	-8.19602
▁call	-8.19751
▁released	-8.19788
▁among	-8.20313
▁security	-8.20408
▁person	-8.20563
▁water	-8.20637
▁photo	-8.207
▁shot	-8.20831
the	-8.21255
▁ll	-8.21347
▁official	-8.21614
▁full	-8.21621
▁head	-8.2164
▁child	-8.21673
▁states	-8.21977
▁1	-8.22027
▁second	-8.22108
▁find	-8.22147
▁live	-8.2238
▁seen	-8.22488
▁university	-8.22722
▁likely	-8.22792
▁earlier	-8.23101
▁local	-8.23157
▁researchers	-8.2338
▁need	-8.23497
▁ago	-8.23555
▁nbc	-8.23781
▁money	-8.23835
▁son	-8.24301
▁hours	-8.24434
▁tell	-8.24535
▁trying	-8.24598
▁look	-8.24608
▁body	-8.24884
▁south	-8.25441
▁al	-8.255
without	-8.25909
▁20	-8.26266
▁near	-8.26507
▁six	-8.26717
▁however	-8.26765
▁dead	-8.27054
▁arrested	-8.27096
▁30	-8.27389
▁calls	-8.27737
▁clinton	-8.27885
▁read	-8.27888
in	-8.28358
▁actually	-8.28384
▁reuters	-8.28667
▁wall	-8.28754
▁isn	-8.28869
▁information	-8.2895
▁again	-8.29169
▁black	-8.29382
▁making	-8.29533
▁father	-8.29566
▁john	-8.29996
▁fire	-8.30011
▁wife	-8.30084
▁himself	-8.30326
▁wasn	-8.30603
▁guardian	-8.30683
▁ever	-8.30749
▁top	-8.30785
▁party	-8.30905
▁point	-8.30914
▁apparently	-8.31121
▁known	-8.31143
▁getting	-8.31145
▁bill	-8.31778
▁lot	-8.31798
r	-8.31808
▁saturday	-8.32145
▁give	-8.3319
▁number	-8.33228
▁los	-8.33737
▁early	-8.33893
▁along	-8.35059
▁click	-8.35658
▁service	-8.35722
▁started	-8.35739
▁yet	-8.36007
▁members	-8.36062
▁investigation	-8.36093
▁wrote	-8.36202
▁love	-8.36211
▁start	-8.36212
▁area	-8.36276
▁attack	-8.36349
▁once	-8.36436
▁each	-8.36515
▁move	-8.36646
▁deal	-8.36762
▁great	-8.36871
▁less	-8.37298
▁angeles	-8.37481
▁daughter	-8.37636
▁charges	-8.37856
▁several	-8.38194
while	-8.38446
▁federal	-8.38459
▁having	-8.38622
▁face	-8.3891
▁thing	-8.38973
▁using	-8.39048
an	-8.39142
▁fox	-8.39188
th	-8.39211
▁couple	-8.39712
▁does	-8.39746
▁data	-8.40303
▁thought	-8.40457
▁page	-8.41263
▁u	-8.41888
▁america	-8.41896
▁2	-8.4229
▁keep	-8.42307
▁air	-8.42338
▁girl	-8.42414
▁taking	-8.42607
▁others	-8.42708
▁able	-8.4287
▁history	-8.42989
▁added	-8.43177
▁young	-8.43243
▁better	-8.43363
▁incident	-8.44599
▁attorney	-8.44847
▁business	-8.44894
▁rep	-8.44966
▁behind	-8.45203
▁list	-8.45563
▁appear	-8.46082
▁chief	-8.46278
▁social	-8.46307
▁change	-8.4653
▁site	-8.46923
▁co	-8.47291
▁officer	-8.47867
▁release	-8.48146
▁location	-8.48164
▁fact	-8.48536
▁military	-8.48581
▁shooting	-8.48583
▁baby	-8.48593
▁judge	-8.49192
▁republican	-8.4945
▁adds	-8.4963
▁enough	-8.49631
▁run	-8.49728
▁parents	-8.49779
▁doing	-8.49927
▁california	-8.50176
▁tweet	-8.5075
▁officers	-8.50799
▁real	-8.50975
▁suspect	-8.51123
▁interview	-8.51148
▁internet	-8.51171
▁boy	-8.51505
▁medical	-8.52154
▁web	-8.52289
▁expected	-8.52334
▁lost	-8.52556
▁charged	-8.52705
▁kind	-8.52831
▁working	-8.53171
▁friends	-8.53507
▁general	-8.53595
▁looking	-8.53648
▁someone	-8.53794
▁war	-8.53945
▁recently	-8.54024
▁gun	-8.54131
▁p	-8.54233
▁kids	-8.54284
▁decision	-8.54294
▁abc	-8.54309
▁via	-8.54389
▁--	-8.54599
▁past	-8.54678
▁given	-8.54757
▁center	-8.54805
▁let	-8.54907
▁online	-8.55094
▁pay	-8.55471
▁recent	-8.55483
▁announced	-8.55896
▁hard	-8.55935
▁close	-8.56044
▁nearly	-8.56111
▁shows	-8.5626
▁instead	-8.56465
▁politico	-8.5701
▁always	-8.57148
▁saw	-8.57225
▁happened	-8.5799
▁outside	-8.58058
▁weeks	-8.58249
▁bad	-8.58279
hether	-8.58288
▁care	-8.5863
▁stop	-8.58923
▁san	-8.58962
▁free	-8.58971
▁5	-8.59026
▁late	-8.59191
▁inside	-8.59321
▁plan	-8.5942
▁political	-8.59426
▁posted	-8.59791
▁order	-8.59804
▁film	-8.599
▁15	-8.59928
▁tweeted	-8.59988
▁human	-8.60693
▁prison	-8.60718
▁age	-8.60904
▁sure	-8.61406
▁food	-8.61599
▁archive	-8.61694
▁possible	-8.61946
▁source	-8.61946
▁romney	-8.61952
▁system	-8.62428
▁sex	-8.6257
▁job	-8.62728
▁reportedly	-8.63358
▁tried	-8.63525
▁wanted	-8.63539
▁director	-8.63696
▁photos	-8.63961
▁sent	-8.64053
▁husband	-8.64113
▁florida	-8.64221
▁become	-8.6427
▁usa	-8.64373
▁game	-8.6458
▁evidence	-8.64748
▁students	-8.65131
▁murder	-8.65344
▁friend	-8.65552
▁open	-8.65642
▁phone	-8.65717
▁link	-8.65723
▁different	-8.66081
▁together	-8.66361
▁donald	-8.66488
▁calling	-8.66499
▁3	-8.66573
▁following	-8.6668
▁whose	-8.66758
▁third	-8.66883
▁sources	-8.67482
▁pages	-8.6749
▁small	-8.67703
man	-8.67775
▁issue	-8.67847
▁f	-8.67964
▁park	-8.68277
▁soon	-8.6859
▁drug	-8.68633
▁line	-8.68666
▁senate	-8.69416
▁include	-8.69501
▁held	-8.69761
▁o	-8.70014
▁b	-8.70264
▁across	-8.70275
▁china	-8.70282
▁search	-8.70302
▁gave	-8.70334
▁lead	-8.7035
▁heart	-8.70461
▁almost	-8.7047
▁turned	-8.70706
▁began	-8.70776
▁done	-8.70994
▁accused	-8.7128
▁original	-8.71431
▁united	-8.71587
▁west	-8.71831
▁half	-8.71977
ally	-8.72014
al	-8.72074
▁involved	-8.72089
▁vote	-8.72128
▁cbs	-8.72192
▁minutes	-8.72415
▁miles	-8.72496
▁12	-8.72635
▁claims	-8.72711
▁allow	-8.72966
▁billion	-8.72991
▁movie	-8.73027
▁legal	-8.7322
▁plans	-8.73235
▁texas	-8.7357
▁probably	-8.73791
▁anything	-8.74011
▁bring	-8.74067
▁rights	-8.74117
▁am	-8.74284
▁major	-8.74378
▁large	-8.74675
▁often	-8.75086
▁100	-8.7519
▁spokesman	-8.75258
▁11	-8.75391
▁act	-8.76079
ers	-8.76165
▁details	-8.76299
▁side	-8.76363
allegedly	-8.76668
▁old	-8.77065
▁sexual	-8.77109
▁election	-8.77146
▁international	-8.77147
▁russia	-8.77188
▁must	-8.77249
to	-8.77435
▁problem	-8.77448
▁mr	-8.77582
▁record	-8.77631
▁c	-8.77717
▁heard	-8.77722
▁nothing	-8.77741
▁50	-8.7812
▁received	-8.78405
▁michael	-8.78864
▁march	-8.78872
▁explains	-8.7889
▁result	-8.79142
▁seem	-8.79181
▁4	-8.792
▁assault	-8.79267
▁flight	-8.7993
▁scene	-8.80014
▁latest	-8.80071
▁email	-8.80255
▁tv	-8.80315
▁hand	-8.8038
▁russian	-8.80535
▁image	-8.80554
▁control	-8.81151
▁due	-8.81298
▁idea	-8.81441
it	-8.81502
▁letter	-8.81572
▁stay	-8.81588
▁similar	-8.81731
▁leave	-8.81787
▁coming	-8.81808
▁front	-8.82073
▁play	-8.82286
▁research	-8.8249
▁feel	-8.82507
▁victims	-8.82917
▁everyone	-8.83131
▁wants	-8.83134
▁paul	-8.83173
▁room	-8.83333
amp	-8.83405
▁2016	-8.83453
▁korea	-8.83703
▁watch	-8.83768
▁david	-8.83778
▁plane	-8.83994
▁anyone	-8.84348
▁raise	-8.84429
▁lawyer	-8.84597
;	-8.84704
▁sign	-8.84822
▁cause	-8.85005
▁adding	-8.85034
▁la	-8.85125
c	-8.8562
▁missing	-8.85659
▁claim	-8.85677
▁website	-8.8582
▁filed	-8.863
▁sheriff	-8.86341
▁comment	-8.86735
▁book	-8.86871
▁feet	-8.87029
▁points	-8.87154
▁focus	-8.87333
▁meeting	-8.87353
▁scientists	-8.87448
▁power	-8.87464
▁gop	-8.87584
▁remains	-8.88059
▁science	-8.88347
▁leader	-8.88421
▁decided	-8.88423
▁jail	-8.8861
▁administration	-8.88626
▁certain	-8.89437
▁personal	-8.89522
▁americans	-8.89581
▁agency	-8.896
▁hope	-8.89631
time	-8.90013
▁comments	-8.90158
▁kim	-8.90234
▁despite	-8.90339
▁words	-8.90384
▁course	-8.90496
▁april	-8.90541
▁republicans	-8.90542
▁process	-8.90559
▁board	-8.90764
▁makes	-8.90782
▁single	-8.90786
▁risk	-8.91076
▁future	-8.9122
▁suggest	-8.9128
▁de	-8.91315
▁question	-8.91328
▁community	-8.91474
▁event	-8.91605
▁justice	-8.91639
▁fbi	-8.91672
▁force	-8.91726
▁june	-8.91805
▁student	-8.91848
▁running	-8.91859
▁within	-8.91874
▁seems	-8.92026
▁confirmed	-8.92114
▁account	-8.92115
▁weekend	-8.92255
▁appeared	-8.92406
▁response	-8.92803
▁6	-8.92821
▁mark	-8.92911
▁led	-8.92926
▁seven	-8.93053
▁cancer	-8.93289
▁july	-8.9337
▁pretty	-8.93822
▁broken	-8.93936
▁policy	-8.94143
▁district	-8.94184
▁currently	-8.94264
▁message	-8.94331
▁victim	-8.94331
▁mom	-8.94472
▁host	-8.94519
▁special	-8.94565
▁lives	-8.94697
▁apple	-8.94852
▁driver	-8.94865
▁fight	-8.95001
▁talk	-8.95029
▁chicago	-8.95136
▁dog	-8.95319
▁continue	-8.95402
▁wrong	-8.95714
ies	-8.95739
▁based	-8.95853
▁2014	-8.9594
▁published	-8.96078
▁eight	-8.96096
▁tax	-8.96469
▁matter	-8.96533
us	-8.9655
▁james	-8.96579
▁staff	-8.96852
▁town	-8.96891
▁lawsuit	-8.96926
▁further	-8.9699
▁7	-8.97163
▁2012	-8.9731
▁whole	-8.97458
▁anti	-8.97492
▁safety	-8.97571
▁18	-8.97806
▁station	-8.98084
▁piece	-8.98178
▁role	-8.98278
▁review	-8.98353
▁try	-8.98479
▁program	-8.98571
▁blood	-8.98683
▁building	-8.98766
▁alleged	-8.98772
▁previously	-8.98787
▁speech	-8.98858
▁member	-8.9889
▁hill	-8.98942
▁discovered	-8.99415
▁2015	-8.99429
▁win	-8.99521
▁race	-8.99573
▁bit	-8.99592
▁cases	-8.99841
▁reason	-8.99846
▁important	-8.99998
▁8	-9.00201
and	-9.00521
▁series	-9.00569
▁google	-9.00626
▁arrest	-9.00641
▁return	-9.00777
▁increase	-9.00898
▁workers	-9.00947
am	-9.01007
▁issues	-9.01016
▁killing	-9.01042
▁investigators	-9.01192
▁ended	-9.01315
▁brown	-9.01431
▁caused	-9.01491
▁nation	-9.0164
▁crime	-9.01645
▁music	-9.01681
▁longer	-9.01782
▁40	-9.01936
▁injured	-9.02025
▁action	-9.02148
▁minister	-9.02148
▁everything	-9.02195
▁attempt	-9.02353
▁church	-9.02572
▁defense	-9.02849
▁private	-9.03052
▁debate	-9.03142
▁happy	-9.03202
▁serious	-9.03379
▁trial	-9.03476
▁female	-9.03594
▁presidential	-9.03625
▁contact	-9.03708
▁either	-9.03724
▁test	-9.0381
▁identified	-9.03827
▁cut	-9.03905
▁walk	-9.03965
▁spent	-9.0406
▁living	-9.04093
▁college	-9.0419
▁democrats	-9.04253
▁turn	-9.0433
came	-9.04341
▁british	-9.04345
▁situation	-9.04693
h	-9.04861
▁brought	-9.04864
▁25	-9.04881
▁condition	-9.04985
▁looks	-9.05049
▁final	-9.051
▁marriage	-9.05197
▁light	-9.05373
▁low	-9.05426
▁committee	-9.05517
▁tmz	-9.05555
▁available	-9.05559
▁word	-9.05578
▁short	-9.05629
▁worked	-9.05704
▁brother	-9.05784
▁current	-9.05863
▁store	-9.06004
▁red	-9.0623
▁vehicle	-9.06382
▁toward	-9.06542
▁effort	-9.06619
▁aren	-9.06686
▁democratic	-9.06836
▁met	-9.06846
▁described	-9.06989
▁couldn	-9.0702
▁space	-9.07024
▁fired	-9.0706
▁13	-9.07222
▁finally	-9.07595
▁version	-9.0783
▁foreign	-9.07835
▁brain	-9.07943
we	-9.08301
▁created	-9.08383
▁criminal	-9.08628
▁immediately	-9.08714
▁crash	-9.08728
▁9	-9.08844
▁gone	-9.08953
▁ground	-9.09245
▁describe	-9.09449
▁violence	-9.09476
▁crawls	-9.09716
▁hollywood	-9.09728
ity	-9.09926
▁note	-9.10035
▁knew	-9.10108
▁attention	-9.10281
▁fans	-9.10831
▁cost	-9.10978
▁hearing	-9.11027
▁means	-9.11158
▁wouldn	-9.11229
▁injuries	-9.11465
▁biggest	-9.11546
▁check	-9.11703
▁14	-9.11879
▁2013	-9.11949
▁amount	-9.1204
▁network	-9.12129
▁named	-9.1232
▁attacks	-9.12461
▁employees	-9.12733
▁guy	-9.12777
▁safe	-9.12901
▁island	-9.13068
▁hands	-9.13666
▁arrived	-9.13856
▁animal	-9.13884
▁related	-9.13966
associated	-9.13975
▁worth	-9.14044
▁relationship	-9.14134
▁doctors	-9.14311
▁congress	-9.14501
▁gay	-9.14676
▁paid	-9.1468
▁period	-9.14697
en	-9.14748
▁r	-9.15157
l	-9.15169
▁thousands	-9.15231
▁fell	-9.15338
▁road	-9.15396
▁non	-9.15427
rather	-9.15468
▁secretary	-9.15544
▁visit	-9.15751
▁rest	-9.1594
▁ask	-9.16053
▁birth	-9.1642
▁carry	-9.16518
▁changed	-9.1669
▁h	-9.16697
▁project	-9.16954
▁land	-9.17072
▁king	-9.17204
▁ex	-9.17253
▁chance	-9.173
he	-9.17301
▁tweets	-9.17326
▁quickly	-9.17359
▁reporter	-9.17501
▁users	-9.17601
▁access	-9.17606
▁images	-9.17663
▁emergency	-9.17822
▁disease	-9.17829
▁countries	-9.17829
▁revealed	-9.17954
▁hillary	-9.18141
▁married	-9.18273
▁sun	-9.18338
▁driving	-9.1835
▁16	-9.18385
re	-9.18718
▁price	-9.18721
▁candidate	-9.18748
▁bank	-9.18903
▁17	-9.18965
▁reference	-9.19459
▁st	-9.19514
▁pulled	-9.19688
▁born	-9.19711
▁allowed	-9.19716
▁middle	-9.19736
▁sea	-9.19989
▁leaving	-9.19991
▁organization	-9.20014
▁request	-9.20187
▁talking	-9.20321
▁share	-9.20341
up	-9.20357
▁forward	-9.20444
▁helped	-9.20481
▁border	-9.20548
▁season	-9.20559
▁moment	-9.20566
▁hopes	-9.20574
▁companies	-9.20652
▁issued	-9.2066
▁girls	-9.20725
▁ceo	-9.20741
▁popular	-9.20778
▁else	-9.20889
▁telling	-9.21116
▁total	-9.21273
▁jobs	-9.21328
▁airport	-9.21363
▁strong	-9.21389
▁london	-9.21513
▁results	-9.21604
▁exactly	-9.2185
▁actor	-9.2187
▁paper	-9.22039
▁experts	-9.22132
▁remain	-9.22329
▁conference	-9.2255
▁dozen	-9.22596
▁kill	-9.22636
▁suffer	-9.22958
▁fall	-9.22972
▁multiple	-9.23014
▁true	-9.23071
▁hold	-9.23098
▁market	-9.23171
▁mayor	-9.23334
://	-9.23393
▁picture	-9.23422
▁hasn	-9.23489
▁e	-9.23606
kept	-9.23621
▁follow	-9.23779
▁owner	-9.23903
▁residents	-9.23993
▁experience	-9.24111
simply	-9.24212
▁expect	-9.24394
▁included	-9.24431
▁treatment	-9.24579
▁questions	-9.24696
▁perhaps	-9.24854
▁syria	-9.24887
▁figure	-9.24981
▁especially	-9.24984
able	-9.25012
▁maybe	-9.25179
▁george	-9.25206
pm	-9.25248
▁beach	-9.25255
▁contain	-9.25259
▁giving	-9.25437
▁problems	-9.25716
▁happen	-9.25873
▁add	-9.25919
▁union	-9.26055
▁french	-9.26113
▁goes	-9.26116
▁herself	-9.26125
▁broke	-9.26269
▁join	-9.2627
▁send	-9.26294
▁needed	-9.26302
day	-9.26351
▁accident	-9.26376
▁coast	-9.2641
▁gas	-9.26465
▁ban	-9.26518
▁written	-9.26687
▁meet	-9.26747
though	-9.2675
▁drugs	-9.2679
▁nuclear	-9.26923
▁prosecutors	-9.26959
▁secret	-9.26998
▁protect	-9.27041
▁sister	-9.2707
▁returned	-9.27136
is	-9.27219
▁level	-9.27223
▁claimed	-9.2724
▁view	-9.27403
▁crew	-9.27415
▁stand	-9.27486
▁ryan	-9.27548
▁groups	-9.27573
▁2011	-9.27595
▁financial	-9.27679
▁caught	-9.27687
▁storm	-9.27892
▁chris	-9.2791
▁wide	-9.28047
▁bush	-9.28067
▁felt	-9.28083
▁themselves	-9.28214
▁cover	-9.28236
▁failed	-9.2834
▁leaders	-9.28458
▁potential	-9.28502
▁thinks	-9.28666
▁break	-9.28692
▁teen	-9.28711
▁itself	-9.28733
▁hotel	-9.28914
▁fair	-9.28919
quite	-9.29061
▁extreme	-9.29299
▁allegations	-9.29436
▁january	-9.29453
▁huge	-9.29529
▁telegraph	-9.29561
▁thanks	-9.29564
▁24	-9.29713
▁families	-9.30048
▁offered	-9.3006
▁self	-9.30309
▁date	-9.30361
▁boston	-9.30387
▁average	-9.30408
▁file	-9.30485
▁planned	-9.30572
▁door	-9.30663
▁charge	-9.3072
▁mexico	-9.30728
▁ran	-9.30769
▁abuse	-9.30946
▁guilty	-9.30979
▁executive	-9.31023
▁previous	-9.31052
▁rock	-9.31081
▁asking	-9.31223
▁goal	-9.313
▁sen	-9.31331
▁avoid	-9.31522
▁needs	-9.31529
▁takes	-9.31602
▁services	-9.31609
▁travel	-9.31737
▁documents	-9.3174
▁critics	-9.318
ness	-9.31995
▁entire	-9.32021
▁buy	-9.32025
▁rate	-9.32236
▁passed	-9.32342
▁leading	-9.32353
▁specific	-9.32393
▁customers	-9.32475
▁male	-9.32737
▁eventually	-9.32899
▁continued	-9.33111
▁looked	-9.33154
▁wedding	-9.33171
▁21	-9.33239
▁fear	-9.33376
▁suit	-9.33435
▁september	-9.3348
▁played	-9.33516
▁sites	-9.33587
▁suicide	-9.33814
▁higher	-9.33946
▁november	-9.3404
▁earth	-9.34119
▁forced	-9.34125
▁hot	-9.34356
▁learn	-9.34367
▁trip	-9.34627
▁records	-9.34725
▁nine	-9.3492
▁prime	-9.3505
▁followed	-9.3512
▁ahead	-9.35163
▁address	-9.35184
▁below	-9.35383
▁removed	-9.35634
▁doctor	-9.35639
▁hundreds	-9.3571
▁moved	-9.35787
▁blame	-9.35791
▁custody	-9.35861
▁fine	-9.3591
▁step	-9.35972
▁enforcement	-9.36146
▁east	-9.36162
▁robert	-9.36492
▁iran	-9.36771
▁scott	-9.36814
▁complete	-9.36866
p	-9.37033
▁afternoon	-9.37205
▁reach	-9.37278
▁offer	-9.37309
▁60	-9.3732
▁percent	-9.3734
▁decades	-9.37359
▁spoke	-9.37412
▁common	-9.37441
▁singer	-9.37476
▁damage	-9.37488
▁magazine	-9.37529
▁independent	-9.37564
▁responded	-9.3761
▁animals	-9.37653
▁please	-9.3784
▁behavior	-9.37869
▁sanders	-9.38024
▁form	-9.38158
▁example	-9.38187
▁provide	-9.38269
▁carolina	-9.38271
▁alone	-9.38403
▁regard	-9.38457
▁intelligence	-9.38561
▁summer	-9.38574
▁weapons	-9.3863
▁jones	-9.38686
▁joe	-9.38696
▁alcohol	-9.39001
▁stage	-9.3904
▁understand	-9.39071
▁k	-9.39076
▁wearing	-9.39179
▁opened	-9.39201
▁yes	-9.39295
▁numbers	-9.39363
▁collection	-9.39432
▁key	-9.3945
▁johnson	-9.3964
▁19	-9.40067
▁williams	-9.40104
▁conservative	-9.402
▁expert	-9.40206
k	-9.40301
▁suggests	-9.40383
▁dad	-9.40419
▁stone	-9.40548
▁newspaper	-9.40829
▁amazon	-9.40942
▁smith	-9.40995
▁2010	-9.41046
▁francisco	-9.41188
▁restaurant	-9.41245
▁central	-9.41263
▁stopped	-9.41278
▁considered	-9.41425
▁pair	-9.41563
less	-9.41774
st	-9.41805
▁august	-9.41955
▁god	-9.42088
▁reporters	-9.42261
▁governor	-9.42361
▁green	-9.42375
▁investigating	-9.42398
▁manager	-9.42493
▁supreme	-9.42627
▁thank	-9.42654
▁stories	-9.42682
▁2017	-9.42687
▁crawl	-9.42765
▁mass	-9.42827
▁spotted	-9.42949
▁hour	-9.42999
▁bloomberg	-9.43156
▁article	-9.43279
▁separate	-9.43385
▁showing	-9.43539
▁playing	-9.43583
▁global	-9.43585
▁seat	-9.4385
as	-9.44049
▁sold	-9.44055
▁agreed	-9.44183
▁npr	-9.4419
▁song	-9.44252
▁rare	-9.44265
▁explain	-9.4427
▁author	-9.44312
▁insider	-9.44368
▁dangerous	-9.44516
▁hear	-9.44552
▁prevent	-9.44676
▁guard	-9.448
▁apartment	-9.44923
▁industry	-9.44953
ther	-9.44978
▁ice	-9.4499
▁france	-9.45065
▁eye	-9.45077
▁n	-9.45104
▁target	-9.45135
▁cruz	-9.4525
▁worst	-9.45366
▁die	-9.45509
▁mind	-9.45524
▁ordered	-9.4558
▁dr	-9.45614
▁speaking	-9.45637
▁korean	-9.45651
▁voters	-9.4574
▁sense	-9.45785
▁holding	-9.45793
▁sales	-9.45818
▁difficult	-9.45938
▁writing	-9.45944
▁drive	-9.45991
▁save	-9.46011
▁chinese	-9.46085
▁uk	-9.46253
▁nearby	-9.46442
▁december	-9.46473
▁jersey	-9.46568
▁fast	-9.46597
▁whom	-9.4671
▁sound	-9.46776
ting	-9.46817
▁radio	-9.46818
▁hurt	-9.46829
▁civil	-9.46945
▁sentence	-9.46957
▁witness	-9.47038
▁researcher	-9.47248
▁create	-9.47505
▁mike	-9.47667
▁forces	-9.47683
▁shared	-9.47814
▁machine	-9.47855
▁israel	-9.48076
▁property	-9.48168
comes	-9.48191
▁blog	-9.48223
ic	-9.48263
▁class	-9.48493
▁actress	-9.48546
▁passengers	-9.48646
▁super	-9.4867
▁october	-9.48713
▁answer	-9.48765
▁remember	-9.4881
▁lake	-9.48836
▁dropped	-9.48887
▁whe	-9.49084
▁design	-9.49185
▁region	-9.49196
▁block	-9.49216
▁learned	-9.4932
▁above	-9.49365
▁canada	-9.49395
▁g	-9.49396
▁rescue	-9.4956
▁deaths	-9.49567
▁army	-9.49602
▁appeal	-9.49819
▁links	-9.49829
▁gold	-9.49854
▁intended	-9.49897
▁loss	-9.49922
▁ready	-9.49926
▁oil	-9.49981
or	-9.50131
▁rape	-9.50219
▁gets	-9.50498
▁throw	-9.50609
▁mail	-9.5065
▁illegal	-9.50723
▁warning	-9.5073
▁tribune	-9.50803
▁virginia	-9.50944
▁model	-9.50964
▁senior	-9.50979
▁train	-9.51134
▁threat	-9.51144
▁marijuana	-9.51229
▁ruling	-9.51282
▁l	-9.51386
▁admitted	-9.51428
▁voice	-9.51618
▁cops	-9.51806
▁products	-9.51893
out	-9.51995
▁begin	-9.51998
▁jackson	-9.52025
▁ship	-9.52029
▁ohio	-9.52089
▁fellow	-9.52196
▁isis	-9.52292
▁martin	-9.5235
▁22	-9.52382
▁lower	-9.52423
▁continues	-9.52474
▁putin	-9.52519
▁australia	-9.52542
▁interest	-9.52641
▁prince	-9.52917
▁crowd	-9.53044
▁firm	-9.53292
▁honor	-9.53401
▁unclear	-9.53667
▁museum	-9.53681
▁ultimate	-9.53712
▁kelly	-9.53988
▁surprise	-9.54092
▁traffic	-9.54147
▁pregnant	-9.54151
▁bodies	-9.54192
▁convicted	-9.54317
▁works	-9.5444
f	-9.54446
▁names	-9.5447
▁analyst	-9.54593
▁escape	-9.5471
▁career	-9.54726
▁rules	-9.54812
▁evening	-9.54817
appears	-9.54832
▁perform	-9.54832
▁haven	-9.54872
▁impact	-9.54935
foot	-9.54951
ted	-9.54988
at	-9.55005
▁occurred	-9.55011
▁patients	-9.55039
▁field	-9.55102
▁track	-9.55167
▁paris	-9.5539
▁moving	-9.55445
▁events	-9.5563
▁pre	-9.55643
▁cash	-9.5565
▁choice	-9.55661
▁otherwise	-9.55747
▁size	-9.55899
▁japan	-9.56116
▁employee	-9.56151
est	-9.56186
▁houston	-9.56246
▁areas	-9.56308
▁initially	-9.56342
▁performance	-9.56355
▁consider	-9.5636
▁position	-9.5651
▁palin	-9.566
▁instagram	-9.56732
▁upon	-9.5677
▁fake	-9.56848
▁fighting	-9.56871
▁complain	-9.56974
▁pilot	-9.56975
▁http	-9.57077
▁apologize	-9.57197
▁seeking	-9.57379
▁faces	-9.57447
▁lack	-9.5752
▁supporters	-9.57689
▁spokesperson	-9.57717
▁spot	-9.57792
▁population	-9.57798
▁surgery	-9.5788
▁credit	-9.57991
▁protesters	-9.58001
▁effect	-9.58049
▁professor	-9.58176
▁main	-9.58192
▁lived	-9.58266
▁famous	-9.58595
▁parts	-9.58641
▁weather	-9.58676
ce	-9.58789
▁present	-9.58834
▁council	-9.58838
▁hair	-9.58862
▁bar	-9.58957
▁23	-9.58967
▁scheduled	-9.58969
▁closed	-9.59054
▁signed	-9.59074
▁boys	-9.59092
▁speak	-9.59397
▁launch	-9.59432
▁indeed	-9.59435
▁club	-9.59499
▁option	-9.59523
▁february	-9.59711
▁trouble	-9.59859
▁gov	-9.59886
▁technology	-9.5991
▁christmas	-9.60056
▁camp	-9.60326
▁reporting	-9.60422
▁pain	-9.60499
▁efforts	-9.60598
▁believes	-9.60763
▁southern	-9.60787
▁sometimes	-9.60831
▁pro	-9.60856
▁base	-9.6095
▁energy	-9.61225
▁youtube	-9.61258
▁treated	-9.61415
▁sell	-9.61417
▁sports	-9.61426
▁deputy	-9.6143
▁fix	-9.61581
▁items	-9.61663
▁refused	-9.61754
▁plus	-9.61824
▁largest	-9.6192
▁rough	-9.61926
▁terms	-9.61987
▁truck	-9.62019
▁pressure	-9.62039
▁cars	-9.62143
▁floor	-9.62161
▁camera	-9.62164
▁economic	-9.62182
▁pass	-9.62196
▁reality	-9.62243
▁spread	-9.62586
▁lee	-9.62625
▁capital	-9.62667
▁puts	-9.62754
▁tour	-9.62846
▁protest	-9.62972
▁bus	-9.63082
▁2018	-9.63097
▁blue	-9.63132
▁coverage	-9.63246
▁worse	-9.63295
▁2009	-9.63319
▁band	-9.63353
ment	-9.63531
▁finds	-9.63546
▁poll	-9.63575
▁exchange	-9.63611
▁spending	-9.63708
▁served	-9.63773
▁dogs	-9.63782
▁deep	-9.63784
▁denied	-9.63868
▁nature	-9.63876
▁conversation	-9.63888
▁2008	-9.63982
▁completely	-9.64042
▁possibly	-9.64062
▁joke	-9.64266
▁survey	-9.64274
▁meaning	-9.64288
▁trade	-9.64397
▁neighbor	-9.64441
▁struck	-9.64718
reached	-9.64728
▁changes	-9.64981
▁poor	-9.65064
▁app	-9.65108
▁stars	-9.65121
▁fun	-9.65189
▁miami	-9.65254
▁jan	-9.65378
▁positive	-9.65392
▁weren	-9.65505
▁brand	-9.65726
ry	-9.65745
▁herald	-9.65918
▁enjoy	-9.66079
▁beyond	-9.66094
▁primary	-9.66167
▁millions	-9.66374
▁steve	-9.66408
▁miss	-9.66419
▁linked	-9.66452
▁laws	-9.66549
son	-9.66551
▁signs	-9.66696
▁tonight	-9.66844
▁fish	-9.66911
▁dna	-9.66958
▁term	-9.67018
▁subject	-9.67019
▁ma	-9.67022
▁appearance	-9.67088
▁syrian	-9.67099
▁audience	-9.67105
▁dark	-9.67108
▁river	-9.67114
▁pick	-9.67124
▁th	-9.67244
▁conduct	-9.67294
▁society	-9.67305
▁significant	-9.67319
▁games	-9.6732
▁determined	-9.67404
of	-9.67429
▁match	-9.67463
▁absolute	-9.67594
▁hate	-9.67617
▁wake	-9.67846
▁pictures	-9.6789
▁receive	-9.67999
▁chronicle	-9.68055
▁grand	-9.68058
▁provided	-9.68082
▁boat	-9.68384
▁cold	-9.68501
▁j	-9.68552
▁responsible	-9.68729
▁fatal	-9.68751
▁talks	-9.6877
▁van	-9.68776
▁bay	-9.68866
based	-9.68971
▁lady	-9.6898
▁referr	-9.68981
▁battle	-9.69007
▁artist	-9.69044
▁stock	-9.69137
▁discovery	-9.69162
▁lawyers	-9.69187
▁huffington	-9.69215
▁globe	-9.69254
▁false	-9.69271
▁growing	-9.69318
▁conditions	-9.69325
▁quotes	-9.69341
▁journalist	-9.69372
▁launched	-9.6957
▁turns	-9.69605
▁peace	-9.69688
▁seeing	-9.69733
▁27	-9.69739
▁climate	-9.69828
▁character	-9.69868
▁28	-9.69882
▁200	-9.69916
▁art	-9.69931
▁serve	-9.69949
▁award	-9.69951
▁spend	-9.70062
▁alive	-9.70482
▁eyes	-9.70502
▁sleep	-9.70576
▁afp	-9.70604
▁particular	-9.70664
▁respect	-9.70668
▁mitt	-9.70728
▁cast	-9.70739
▁rose	-9.70916
▁iraq	-9.71062
▁26	-9.71066
▁finding	-9.71115
▁treat	-9.71128
▁levels	-9.71175
▁require	-9.71407
▁highest	-9.71443
▁refer	-9.71445
▁contract	-9.71462
▁divorce	-9.71468
▁arizona	-9.71537
▁reaction	-9.71543
▁putting	-9.71576
▁german	-9.71631
▁massive	-9.7176
▁humans	-9.71811
▁majority	-9.71861
▁passenger	-9.71884
▁eat	-9.72003
▁actions	-9.72007
▁announcement	-9.72007
▁none	-9.72047
▁onto	-9.72093
▁supposed	-9.7213
▁offering	-9.72192
▁spokeswom	-9.72236
particularly	-9.72369
▁70	-9.7253
▁addition	-9.72595
▁discuss	-9.72655
▁training	-9.72786
▁box	-9.72897
▁ocean	-9.72933
▁videos	-9.72982
▁partner	-9.73001
▁weight	-9.73031
▁association	-9.7316
▁warned	-9.73251
▁tough	-9.73341
▁decade	-9.73381
▁rise	-9.73417
▁players	-9.73469
▁tests	-9.7347
▁european	-9.73487
▁drinking	-9.73524
▁90	-9.73811
x	-9.73821
▁built	-9.73889
▁candidates	-9.73995
▁troops	-9.74006
▁bought	-9.7401
▁limit	-9.74022
▁perry	-9.74065
▁mission	-9.74124
▁sarah	-9.74233
▁device	-9.74242
▁alert	-9.74399
▁germany	-9.74403
▁twice	-9.74579
▁concerns	-9.74611
▁meant	-9.74692
▁species	-9.74726
▁successful	-9.74762
▁product	-9.74859
▁planning	-9.74936
▁keeping	-9.75006
▁ok	-9.75048
▁explained	-9.75094
▁immigration	-9.75109
▁older	-9.75161
▁hall	-9.75175
▁teacher	-9.75204
▁education	-9.75272
▁television	-9.75291
▁ad	-9.75443
▁development	-9.75454
▁publicly	-9.75529
▁europe	-9.75619
▁sentenced	-9.75701
▁walking	-9.75725
▁45	-9.7573
▁politics	-9.75873
▁shut	-9.75974
▁29	-9.76045
▁waiting	-9.76079
▁mid	-9.76115
▁display	-9.76185
▁economy	-9.76217
▁complaint	-9.76267
▁thinking	-9.76338
▁suspects	-9.76348
▁critical	-9.76367
▁sorry	-9.76373
▁christian	-9.764
▁natural	-9.76423
g	-9.76467
▁sort	-9.76478
▁thomas	-9.76636
▁drop	-9.76639
▁debt	-9.76767
▁ruled	-9.76835
▁content	-9.76869
▁india	-9.7689
▁stuff	-9.76921
▁easy	-9.76921
▁footage	-9.77151
▁picked	-9.77172
▁moore	-9.77183
▁detail	-9.77277
side	-9.77362
▁agree	-9.77428
▁unusual	-9.77484
▁mostly	-9.77682
▁tomorrow	-9.7773
▁seriously	-9.7774
▁drink	-9.77776
▁reveal	-9.77778
not	-9.77838
▁mental	-9.77872
▁agent	-9.78115
▁challenge	-9.7813
▁healthy	-9.78221
▁push	-9.78236
▁predict	-9.78433
▁sitting	-9.78515
▁manage	-9.78577
▁confirm	-9.78613
▁physical	-9.78618
▁produce	-9.78642
▁bear	-9.78667
▁range	-9.78676
▁surveillance	-9.78677
▁richard	-9.78683
▁african	-9.78779
▁knows	-9.78825
▁register	-9.78846
▁witnesses	-9.78935
▁canadian	-9.78937
▁concerned	-9.78965
▁eating	-9.78977
▁realize	-9.79084
▁movement	-9.7924
▁cities	-9.79337
▁attempted	-9.79394
▁heavy	-9.79405
▁stores	-9.79464
▁flow	-9.79503
month	-9.79517
▁northern	-9.7954
▁measure	-9.79637
▁nor	-9.79649
▁dc	-9.79809
▁pounds	-9.79966
▁35	-9.79991
▁foundation	-9.79993
▁breaking	-9.80033
▁michigan	-9.8011
▁annual	-9.80153
▁accounts	-9.80176
▁tom	-9.80207
▁ways	-9.80216
▁fan	-9.803
▁senator	-9.80368
▁argument	-9.80488
▁license	-9.80492
▁victory	-9.80515
▁amid	-9.80613
▁1,000	-9.80673
▁girlfriend	-9.80711
▁fac	-9.80769
▁reads	-9.80777
long	-9.80798
▁declared	-9.80842
▁determine	-9.80849
▁bomb	-9.8098
▁unit	-9.81187
▁basic	-9.81197
▁various	-9.81227
▁80	-9.81336
▁monitor	-9.81337
▁replace	-9.81369
▁feeling	-9.81395
▁beginning	-9.81557
w	-9.81606
▁watching	-9.81659
▁chain	-9.81661
ation	-9.81683
▁budget	-9.81713
▁cell	-9.81851
▁lose	-9.81852
▁text	-9.82034
▁opening	-9.82061
▁britain	-9.82208
▁offers	-9.82293
▁standing	-9.823
▁type	-9.82315
▁severe	-9.82338
▁peter	-9.82418
▁vice	-9.82439
▁fashion	-9.82441
ve	-9.82451
▁effective	-9.82599
▁reasons	-9.82661
▁production	-9.82703
▁square	-9.82727
▁snow	-9.82847
▁jury	-9.82978
▁scandal	-9.82995
▁commission	-9.83003
▁domain	-9.83037
▁operation	-9.83103
▁facility	-9.83127
▁winning	-9.83131
▁identify	-9.83174
▁football	-9.83203
▁gingrich	-9.83416
▁democrat	-9.83445
▁pennsylvania	-9.83547
▁philadelphia	-9.83554
▁loved	-9.83583
▁wait	-9.83616
▁normal	-9.83628
ner	-9.83673
▁ones	-9.83688
▁agreement	-9.83869
▁moon	-9.83915
▁sale	-9.83922
▁insist	-9.83963
▁royal	-9.83972
▁additional	-9.84007
▁pope	-9.84134
▁attacked	-9.84137
▁zoo	-9.84298
▁500	-9.843
▁reading	-9.84338
▁skin	-9.84342
▁computer	-9.84376
▁afghanistan	-9.84661
▁mountain	-9.84674
▁concern	-9.84678
▁armed	-9.84703
▁affected	-9.8471
▁protection	-9.84816
▁modern	-9.8482
▁argue	-9.84891
▁authors	-9.84957
▁colorado	-9.84983
▁sept	-9.85226
▁demand	-9.8541
▁costs	-9.85432
by	-9.85456
▁schools	-9.85465
▁atlantic	-9.85518
▁ha	-9.85546
▁helping	-9.85616
▁sudden	-9.8562
▁involve	-9.85685
▁911	-9.8594
▁homes	-9.85954
ley	-9.86029
▁detroit	-9.86096
▁lawmakers	-9.86152
▁increasing	-9.86297
▁player	-9.86354
▁mccain	-9.8637
▁success	-9.86381
▁shoot	-9.86386
▁dec	-9.86396
▁considering	-9.86486
▁william	-9.86488
me	-9.86512
▁title	-9.86558
▁rick	-9.86561
▁somebody	-9.86662
▁justin	-9.8675
▁happens	-9.86793
▁guns	-9.86944
▁century	-9.86961
▁pull	-9.87046
▁bond	-9.87067
?	-9.87132
▁fourth	-9.87137
▁giant	-9.87155
▁crisis	-9.87155
▁coffee	-9.87159
▁simple	-9.87225
▁emails	-9.87247
▁nfl	-9.87261
▁privacy	-9.87266
▁individual	-9.87267
▁features	-9.87302
▁bag	-9.8734
▁caption	-9.87391
▁findings	-9.87429
▁broad	-9.87477
▁tree	-9.87497
▁beautiful	-9.87502
▁saudi	-9.87504
▁celebrity	-9.87518
▁count	-9.87535
▁wild	-9.87645
▁protests	-9.87657
▁extra	-9.87706
▁bridge	-9.87712
▁plant	-9.87733
▁taylor	-9.87804
▁insurance	-9.87855
▁split	-9.87941
be	-9.87988
▁required	-9.88118
▁prize	-9.88125
▁lines	-9.88235
▁hoping	-9.88239
▁rule	-9.88304
▁mention	-9.88378
▁oct	-9.884
▁emotional	-9.88512
▁weekly	-9.88542
▁africa	-9.88544
▁argu	-9.88591
▁planet	-9.88627
ton	-9.88705
▁beat	-9.88736
▁nov	-9.8874
▁stolen	-9.88774
▁sounds	-9.88823
▁shortly	-9.88913
▁mcdonald	-9.89017
▁controversial	-9.89058
▁rally	-9.89071
▁weapon	-9.89122
▁chair	-9.89236
▁domestic	-9.8929
▁cat	-9.89306
▁connection	-9.89343
▁deliver	-9.8948
▁nasa	-9.89488
▁pop	-9.89488
ll	-9.89539
▁approach	-9.89562
▁australian	-9.89729
▁worried	-9.89762
▁amazing	-9.8987
▁adviser	-9.89889
ey	-9.9002
▁anthony	-9.90086
▁messages	-9.90179
▁accept	-9.90272
▁declined	-9.90351
▁collect	-9.90436
▁violent	-9.90552
▁opportunity	-9.90587
▁adult	-9.90603
▁becoming	-9.9086
▁rolling	-9.90861
▁initial	-9.90891
▁defend	-9.9104
▁ability	-9.91084
▁build	-9.91283
▁caus	-9.91327
▁threatened	-9.91328
▁truth	-9.91357
▁investigate	-9.91494
tv	-9.91568
▁jr	-9.91666
▁crimes	-9.91674
▁iphone	-9.91681
▁headlines	-9.91702
▁profile	-9.91705
▁finish	-9.91813
rs	-9.91828
▁winner	-9.91884
▁crazy	-9.91902
▁usually	-9.91917
▁acting	-9.92009
▁remove	-9.92034
▁eric	-9.92053
▁birthday	-9.9206
▁selling	-9.92081
▁injury	-9.92083
▁prior	-9.92103
▁anonymous	-9.92111
▁danger	-9.92136
2	-9.92161
▁client	-9.92168
▁complex	-9.9222
▁delivered	-9.92523
▁user	-9.92573
▁dating	-9.92644
▁opposition	-9.92659
▁throughout	-9.92703
▁neighborhood	-9.92746
▁freedom	-9.92833
▁language	-9.92872
▁ride	-9.92942
▁younger	-9.93013
▁code	-9.93027
▁highly	-9.93063
▁sad	-9.93179
▁agents	-9.93255
▁western	-9.93265
▁aware	-9.93301
▁powerful	-9.93408
▁chemical	-9.93476
ng	-9.93514
▁favorite	-9.9359
▁seek	-9.93604
▁highway	-9.93751
▁remarks	-9.93799
▁georgia	-9.93805
▁everybody	-9.94037
▁fund	-9.94077
▁nice	-9.94079
▁plead	-9.94103
▁institute	-9.94117
▁religious	-9.94481
▁votes	-9.94497
▁wish	-9.94524
▁citizens	-9.94561
▁mo	-9.94604
▁material	-9.9463
▁worker	-9.94656
le	-9.9468
▁suspended	-9.94698
▁copyright	-9.94792
▁muslim	-9.9488
▁practice	-9.95206
▁dallas	-9.95387
▁episode	-9.95446
▁dress	-9.95481
▁petition	-9.95496
▁criticism	-9.9555
▁serving	-9.95551
▁entertainment	-9.95667
hour	-9.95761
▁cross	-9.95796
u	-9.95919
▁andrew	-9.95953
▁channel	-9.95973
related	-9.96019
▁label	-9.96029
▁double	-9.96083
▁seattle	-9.96102
▁survived	-9.96155
▁ring	-9.9616
▁strike	-9.96175
▁attend	-9.96244
▁harry	-9.96253
▁bieber	-9.96328
▁boyfriend	-9.96338
▁31	-9.96344
▁suffering	-9.96362
▁captured	-9.96486
▁iowa	-9.96569
▁perfect	-9.96581
▁jeff	-9.96654
▁round	-9.96668
▁ticket	-9.9672
▁chairman	-9.96754
▁touch	-9.96829
▁flying	-9.96838
▁feature	-9.96888
▁jay	-9.9707
▁possibility	-9.97167
like	-9.97375
▁inter	-9.97414
▁concert	-9.97433
▁rates	-9.97442
▁disorder	-9.9745
▁angry	-9.97465
▁welcome	-9.97479
▁christie	-9.97484
▁theory	-9.97484
gotten	-9.9755
▁studies	-9.97556
▁variety	-9.97564
▁arms	-9.97585
▁vegas	-9.97618
estimated	-9.9764
▁shouldn	-9.97644
▁culture	-9.97648
▁auction	-9.97657
▁dollars	-9.97781
▁directly	-9.97822
▁growth	-9.97837
▁navy	-9.97854
▁card	-9.97899
▁views	-9.97996
▁hurricane	-9.98273
b	-9.9828
▁stephen	-9.98289
▁straight	-9.98297
▁adults	-9.98304
▁alaska	-9.98353
▁fully	-9.98391
▁drove	-9.98416
▁chose	-9.9844
▁respond	-9.98459
off	-9.98484
▁window	-9.9851
▁arm	-9.98581
▁bigger	-9.9862
▁wear	-9.98671
▁indicate	-9.98704
▁compare	-9.98706
▁activity	-9.98793
▁1996	-9.98802
▁enter	-9.98949
▁proud	-9.98975
▁active	-9.98998
▁paying	-9.99127
▁native	-9.99226
▁banned	-9.99288
▁viral	-9.99312
▁el	-9.99387
▁album	-9.99433
▁recorded	-9.99457
▁airlines	-9.99508
▁beast	-9.99561
▁decide	-9.9957
▁soldiers	-9.99628
▁10,000	-9.99669
promised	-9.99766
▁plenty	-9.99784
carried	-9.99891
▁express	-9.99901
▁babies	-9.9992
▁aircraft	-9.99959
▁resident	-9.99979
▁route	-9.99991
▁atlanta	-10.0001
▁controversy	-10.0008
▁jim	-10.0011
▁2006	-10.0024
▁threats	-10.0025
▁patient	-10.0029
▁direct	-10.0034
▁standard	-10.0035
▁parent	-10.0035
▁village	-10.0037
▁barack	-10.0038
▁league	-10.0043
▁negative	-10.0044
▁actual	-10.0049
▁kardashian	-10.0051
▁holiday	-10.0065
▁sky	-10.0071
▁shown	-10.0075
▁tech	-10.0082
ending	-10.0084
▁winter	-10.0085
▁miller	-10.0086
▁ben	-10.0088
▁leg	-10.0136
▁tea	-10.0145
▁swift	-10.0145
▁vehicles	-10.0146
▁mistake	-10.0162
▁grow	-10.0163
▁labor	-10.0168
▁nations	-10.0179
▁francis	-10.0193
▁testing	-10.0199
▁prosecutor	-10.02
▁awards	-10.0201
▁neither	-10.0202
▁favor	-10.0208
▁editor	-10.0212
▁firefighter	-10.0214
▁covered	-10.0225
▁sick	-10.0229
▁companion	-10.0235
▁screen	-10.0245
▁whatever	-10.0246
▁minor	-10.0252
▁preserved	-10.0254
▁activist	-10.0255
▁bottom	-10.0256
▁status	-10.0257
▁founder	-10.026
▁jon	-10.0266
▁funeral	-10.0269
back	-10.0274
▁books	-10.028
▁slate	-10.0283
▁ceremony	-10.0289
▁unable	-10.0294
▁quote	-10.0298
men	-10.031
▁necessary	-10.031
▁smoke	-10.0311
▁apparent	-10.0318
▁estate	-10.0323
▁speed	-10.033
age	-10.0336
▁highlights	-10.0348
▁shift	-10.035
▁writer	-10.0377
▁england	-10.0384
z	-10.0392
▁value	-10.0393
this	-10.0394
▁plastic	-10.0402
▁bid	-10.041
▁comedy	-10.0416
1	-10.042
▁aug	-10.0426
▁shares	-10.0434
▁influence	-10.0444
▁path	-10.0445
▁ministry	-10.0453
▁counts	-10.0456
▁oh	-10.0458
▁larger	-10.0462
entered	-10.0464
▁las	-10.0464
▁utah	-10.0475
▁upset	-10.0478
▁flag	-10.0481
co	-10.0483
▁guess	-10.0484
▁failure	-10.049
▁coach	-10.0496
▁narrow	-10.0498
management	-10.0514
▁saved	-10.0528
▁joint	-10.0529
▁2007	-10.0533
▁owners	-10.0537
▁kid	-10.0539
▁willing	-10.0539
▁pregnancy	-10.0559
▁cuts	-10.0566
▁wonder	-10.0572
▁voted	-10.0578
▁silver	-10.0581
▁cohen	-10.0601
▁warrant	-10.0603
▁spring	-10.0617
▁feb	-10.062
degree	-10.0622
▁fat	-10.0629
▁rid	-10.0632
▁panel	-10.0633
▁boost	-10.0644
▁delete	-10.0669
term	-10.068
▁deputi	-10.0687
▁runs	-10.0689
▁trigger	-10.069
▁involv	-10.0691
▁ill	-10.0693
▁kate	-10.0701
▁warn	-10.0701
▁obtained	-10.0706
▁dinner	-10.0708
▁foot	-10.0713
▁taxes	-10.0724
▁wildlife	-10.0725
▁sam	-10.0731
▁surprised	-10.0735
▁analysis	-10.0769
▁trail	-10.0777
▁feels	-10.0789
▁kansas	-10.0794
▁losing	-10.0805
▁update	-10.0819
▁prove	-10.0821
▁located	-10.0827
▁definitely	-10.0835
▁wood	-10.0838
▁identity	-10.0841
▁buried	-10.0853
▁mouth	-10.086
▁radar	-10.0865
▁interesting	-10.0868
▁rich	-10.0876
party	-10.0878
▁guys	-10.0878
▁closer	-10.0882
▁potentially	-10.0882
▁bail	-10.0886
▁policies	-10.0895
▁representative	-10.0896
▁bowl	-10.0908
▁cook	-10.091
▁happening	-10.091
▁digital	-10.0911
▁islamic	-10.0914
▁effects	-10.0915
▁valley	-10.0921
▁eastern	-10.0923
▁places	-10.0928
▁clean	-10.0928
▁imagine	-10.0937
▁benefits	-10.0937
▁signal	-10.0939
▁quick	-10.094
▁israeli	-10.094
▁woods	-10.0951
▁militant	-10.0951
▁cool	-10.0959
▁responsibility	-10.0965
▁fuel	-10.0979
▁thus	-10.0982
▁turkey	-10.0985
▁conclude	-10.099
▁tragedy	-10.0993
▁killer	-10.0999
▁fed	-10.1003
▁trust	-10.1012
▁tied	-10.1013
▁parking	-10.1025
▁recognize	-10.1025
▁denver	-10.1027
▁deeply	-10.1029
▁elizabeth	-10.1039
▁reform	-10.1039
▁apology	-10.1045
▁terrorist	-10.1047
▁academy	-10.1048
▁brian	-10.1056
▁prices	-10.1056
▁moments	-10.1057
▁queen	-10.1058
ion	-10.1068
▁davis	-10.1073
▁tim	-10.1074
▁maintain	-10.1075
▁unknown	-10.1076
▁talked	-10.1077
▁aid	-10.1079
▁racist	-10.1081
▁jennifer	-10.1082
▁sexually	-10.1087
▁ancient	-10.1093
▁crashed	-10.1106
▁elsewhere	-10.1108
▁stuck	-10.111
▁yahoo	-10.1119
▁100,000	-10.1125
▁encounter	-10.1136
▁cruise	-10.1139
▁convention	-10.114
▁quit	-10.1142
citing	-10.1146
raising	-10.1151
▁neighbors	-10.1155
▁shooter	-10.1157
▁fresh	-10.1158
▁massachusetts	-10.116
▁frequently	-10.1169
▁myself	-10.1169
▁teens	-10.1178
▁instance	-10.1185
▁seconds	-10.1186
▁watched	-10.1194
▁shark	-10.1201
▁bin	-10.1203
▁beer	-10.1207
▁300	-10.1207
red	-10.1208
▁surface	-10.1213
▁devices	-10.1221
▁boehner	-10.1225
▁authority	-10.1238
▁glass	-10.1238
▁applications	-10.1243
▁tiger	-10.1246
▁buzzfeed	-10.125
▁searching	-10.1256
▁celebrate	-10.1262
▁matt	-10.1264
▁task	-10.1268
▁milk	-10.1273
▁airline	-10.1282
▁regular	-10.1295
ar	-10.1295
▁english	-10.1297
▁ensure	-10.1299
▁le	-10.1307
▁oppose	-10.1312
▁possession	-10.1317
▁rumors	-10.1321
▁represent	-10.1323
▁disney	-10.1327
▁patrol	-10.1329
▁viewers	-10.1329
▁10-	-10.1332
▁felony	-10.1338
▁louis	-10.1343
▁gender	-10.1345
▁zero	-10.1346
▁catch	-10.1347
▁meat	-10.1354
▁mashable	-10.1359
▁parties	-10.1367
▁debut	-10.1368
▁harris	-10.1368
▁neck	-10.1369
▁campus	-10.1373
▁remained	-10.1376
▁da	-10.1381
typically	-10.1386
▁emerged	-10.1387
▁customer	-10.1398
▁mystery	-10.1406
▁sit	-10.1414
▁conflict	-10.1419
▁mary	-10.1422
▁abortion	-10.1423
▁section	-10.1425
▁funny	-10.1426
▁jump	-10.1427
▁nobody	-10.143
▁drunk	-10.1443
▁pic	-10.1446
▁santa	-10.1447
▁notice	-10.1451
▁cosby	-10.1451
▁2005	-10.1453
ous	-10.1455
▁expand	-10.1466
▁falling	-10.1468
▁advice	-10.1486
▁inches	-10.1494
▁wind	-10.1495
▁doubt	-10.151
▁obamacare	-10.1514
▁broadcast	-10.1517
▁congressional	-10.1519
▁exercise	-10.1521
▁dream	-10.1533
▁exit	-10.1535
▁operations	-10.154
▁nominee	-10.1549
▁theft	-10.1549
▁walker	-10.1551
▁receiving	-10.1556
▁ads	-10.1558
▁drivers	-10.1563
ary	-10.1569
▁movies	-10.157
▁wilson	-10.157
▁japanese	-10.1582
▁charlie	-10.1584
▁sees	-10.1588
▁mexican	-10.159
▁consumers	-10.1595
▁column	-10.1597
▁encourage	-10.1603
led	-10.1603
▁length	-10.1608
▁ongoing	-10.1618
▁charles	-10.1619
▁approved	-10.1623
▁shots	-10.1627
▁mobile	-10.1644
▁ball	-10.1647
▁individuals	-10.1649
▁stewart	-10.1654
▁settlement	-10.1659
▁pushed	-10.1667
▁progress	-10.167
v	-10.1671
▁legislation	-10.168
▁pot	-10.1686
org	-10.1696
▁background	-10.1702
▁heat	-10.1704
▁indian	-10.1707
▁turning	-10.1713
▁environment	-10.1713
▁deadly	-10.1719
▁acknowledge	-10.1721
▁recording	-10.1721
▁tower	-10.175
▁pa	-10.175
▁voting	-10.175
▁noticed	-10.1753
▁affect	-10.1773
▁sides	-10.1775
▁interested	-10.178
▁familiar	-10.1782
▁strange	-10.1783
ever	-10.1784
▁allen	-10.1788
▁funds	-10.1795
▁overall	-10.1797
▁presence	-10.1798
▁moscow	-10.181
▁scientist	-10.1815
▁scientific	-10.1824
▁michelle	-10.1829
▁nomination	-10.1831
▁obviously	-10.1831
▁truly	-10.1832
▁aggressive	-10.1842
▁pointed	-10.1845
▁compar	-10.1853
▁continu	-10.1855
twitter	-10.1867
▁environmental	-10.187
▁alabama	-10.1883
▁cia	-10.1891
▁ages	-10.1893
▁brothers	-10.1897
▁mueller	-10.1906
▁jack	-10.1906
▁donating	-10.1907
▁terrible	-10.1909
▁commercial	-10.1913
▁mount	-10.1915
▁choose	-10.1924
▁diego	-10.193
▁fled	-10.1936
▁italy	-10.1937
▁comey	-10.1945
▁gift	-10.1946
▁direction	-10.1952
▁visited	-10.1953
▁fraud	-10.1965
▁limited	-10.1965
▁amendment	-10.1966
ie	-10.1978
▁kennedy	-10.198
▁diet	-10.1982
▁outlet	-10.1983
▁sought	-10.1983
▁wine	-10.1987
minute	-10.1994
▁pool	-10.1996
▁oregon	-10.2003
▁v	-10.2008
▁summit	-10.2024
▁brief	-10.2033
▁smart	-10.2042
▁greater	-10.2045
one	-10.2046
▁statements	-10.2052
▁proposal	-10.2059
▁oklahoma	-10.2062
▁graham	-10.2064
▁hunt	-10.2073
▁recall	-10.2081
▁difference	-10.2083
▁praise	-10.2084
then	-10.2086
▁gang	-10.2093
ne	-10.2095
jumped	-10.2103
▁citizen	-10.2109
▁clip	-10.2112
▁memorial	-10.2122
▁roof	-10.2126
▁anywhere	-10.2137
▁marine	-10.2141
▁uber	-10.2143
▁polls	-10.2151
▁proposed	-10.2157
▁counter	-10.216
▁jordan	-10.2162
▁professional	-10.2164
▁firing	-10.2171
▁32	-10.2174
▁walmart	-10.2178
▁table	-10.2178
▁steps	-10.2186
▁cooper	-10.2188
▁collapse	-10.2196
▁rubio	-10.2199
▁adam	-10.2218
▁bed	-10.2225
▁entirely	-10.2228
▁ambassador	-10.2237
▁jong	-10.224
▁speaker	-10.2241
▁quarter	-10.2243
▁festival	-10.2247
▁exclusive	-10.2251
▁bathroom	-10.2251
▁shock	-10.2252
▁rounds	-10.2257
▁espn	-10.226
her	-10.2267
▁suffere	-10.2273
▁smoking	-10.2275
▁bob	-10.2276
▁assistant	-10.2279
▁document	-10.2291
▁pakistan	-10.2301
▁harassment	-10.2302
▁memo	-10.2305
▁smaller	-10.2306
▁affair	-10.2318
▁resources	-10.2339
▁tip	-10.2347
▁measures	-10.2349
▁income	-10.2349
▁catholic	-10.2358
▁egypt	-10.2359
▁tested	-10.2359
▁pack	-10.236
▁20-	-10.2363
▁gain	-10.2363
▁expressed	-10.2366
▁unlikely	-10.2368
▁color	-10.2387
▁yourself	-10.2389
▁nurse	-10.2403
▁apart	-10.2408
sharing	-10.2413
▁struggle	-10.2413
▁developed	-10.2414
▁repeatedly	-10.2414
▁shocked	-10.2415
▁daughters	-10.2427
▁biden	-10.243
▁carter	-10.2435
▁disappeared	-10.244
▁destroyed	-10.2441
▁helicopter	-10.2444
▁charity	-10.2446
▁recovered	-10.2457
▁anniversary	-10.2461
▁sued	-10.247
▁gawker	-10.247
▁funding	-10.2474
▁reflect	-10.248
ia	-10.2501
▁figures	-10.2507
4	-10.2509
▁golden	-10.2511
▁hawaii	-10.2514
▁streets	-10.2529
▁tennessee	-10.2536
▁faced	-10.2544
▁benefit	-10.2544
▁frank	-10.2547
officially	-10.2547
how	-10.2547
▁sanctions	-10.2568
no	-10.2574
▁cdc	-10.2575
▁taste	-10.2575
▁leadership	-10.2585
▁jet	-10.2587
▁feed	-10.2591
▁virus	-10.2595
▁agencies	-10.2597
▁engaged	-10.2602
▁relatives	-10.2631
▁suing	-10.2631
▁manhattan	-10.2636
▁wounded	-10.264
▁posting	-10.2644
▁oscar	-10.2645
▁equipment	-10.2649
▁letters	-10.2653
▁illness	-10.2654
▁survive	-10.2664
▁veteran	-10.2665
▁producer	-10.2669
▁404	-10.2669
▁minnesota	-10.2673
▁strategy	-10.2676
▁ford	-10.2677
▁italian	-10.2678
▁latter	-10.2684
unless	-10.2691
▁filing	-10.2696
▁rejected	-10.2707
▁rain	-10.2708
▁ukraine	-10.2716
▁anybody	-10.2717
▁score	-10.2721
▁terror	-10.2725
▁lohan	-10.2731
▁33	-10.2731
▁disaster	-10.2733
you	-10.2734
▁drew	-10.2735
▁kevin	-10.2736
cited	-10.274
▁reduce	-10.2756
▁participant	-10.2757
era	-10.2758
▁kanye	-10.2763
▁missile	-10.2766
▁cable	-10.2768
▁deadline	-10.2769
▁pushing	-10.2776
▁precise	-10.2779
▁fly	-10.278
7	-10.2786
▁wisconsin	-10.2811
▁except	-10.2814
▁indiana	-10.2816
▁spanish	-10.282
▁businesses	-10.2823
▁dance	-10.2825
▁unique	-10.2831
▁factor	-10.2842
▁pacific	-10.2848
▁sessions	-10.2851
▁prompt	-10.2882
▁widely	-10.2888
▁bars	-10.2888
▁systems	-10.289
▁uses	-10.2893
▁gray	-10.2893
▁metal	-10.2894
▁causes	-10.29
▁netflix	-10.291
▁dan	-10.2921
▁cameras	-10.2922
▁18-	-10.2927
▁stands	-10.2927
▁santorum	-10.2936
▁advertisement	-10.2936
▁promise	-10.294
▁recovery	-10.2944
▁fifth	-10.295
▁stress	-10.2951
▁platform	-10.2954
▁alexa	-10.2959
▁harm	-10.2962
▁believ	-10.297
▁violat	-10.2986
▁rais	-10.2987
▁msnbc	-10.3
▁colleagues	-10.3001
▁republic	-10.3003
▁baltimore	-10.3005
▁competition	-10.301
▁essentially	-10.3022
▁visitors	-10.3024
▁inspired	-10.3029
▁aide	-10.3037
▁setting	-10.304
▁threatening	-10.3042
▁engineer	-10.3046
all	-10.305
▁approval	-10.3053
if	-10.3068
ized	-10.3068
▁embargo	-10.3068
ism	-10.307
▁lying	-10.3071
▁calif	-10.3073
▁locked	-10.3077
▁criticized	-10.3082
▁ties	-10.3085
▁excited	-10.3094
called	-10.3099
▁visiting	-10.31
▁medicine	-10.3101
ville	-10.3103
▁oldest	-10.3108
▁deserve	-10.3114
▁headline	-10.3117
▁tiny	-10.3118
▁fame	-10.3118
▁jimmy	-10.312
▁zuckerberg	-10.3122
▁newly	-10.3126
▁mad	-10.3133
▁handle	-10.3135
▁rush	-10.3142
▁ron	-10.3144
▁handed	-10.3145
▁legs	-10.3145
▁missed	-10.3149
▁blow	-10.3159
▁fortune	-10.3165
▁x	-10.3172
▁sweet	-10.3188
▁chicken	-10.3189
▁hampshire	-10.319
▁accusations	-10.3198
▁retire	-10.3206
▁2004	-10.3206
▁sean	-10.3207
▁donate	-10.3211
▁complaints	-10.3211
▁dealing	-10.3217
▁gunman	-10.3226
▁filled	-10.3231
▁fla	-10.3235
▁literally	-10.3249
▁opinion	-10.3255
▁bills	-10.3268
▁tape	-10.3269
ty	-10.3273
▁construction	-10.3278
▁regime	-10.3281
▁gather	-10.3286
▁pizza	-10.3302
▁warren	-10.3307
▁hole	-10.3313
▁buying	-10.332
▁elections	-10.3327
▁memory	-10.3328
▁grew	-10.3334
▁cells	-10.334
▁promote	-10.3342
▁joseph	-10.3346
▁slow	-10.335
american	-10.3358
▁36	-10.3359
te	-10.3359
▁featured	-10.3361
▁ca	-10.3365
▁style	-10.3365
▁ba	-10.3366
▁internal	-10.3367
▁vacation	-10.3373
j	-10.3374
▁symptoms	-10.3375
▁elected	-10.3395
land	-10.3396
▁cleveland	-10.3398
▁couples	-10.3406
▁jewish	-10.3407
▁discussion	-10.3408
▁testimony	-10.341
▁falls	-10.3414
▁belong	-10.342
▁weigh	-10.3437
▁diagnosed	-10.3438
▁accuse	-10.345
▁weinstein	-10.3455
▁tragic	-10.3466
▁traveling	-10.3473
▁weird	-10.3477
▁dispute	-10.3482
star	-10.3483
▁lindsay	-10.3487
▁rebels	-10.3491
▁worldwide	-10.3495
▁ending	-10.3497
▁canceled	-10.3498
▁orlando	-10.3501
▁detained	-10.3502
▁quality	-10.3503
▁banks	-10.3503
▁guests	-10.3505
▁shopping	-10.3508
▁toronto	-10.3509
▁topic	-10.3511
▁penalty	-10.3512
▁impossible	-10.3515
▁changing	-10.3518
▁pentagon	-10.3522
▁introduced	-10.3522
▁listen	-10.3522
▁easily	-10.3525
▁12-	-10.3526
▁degrees	-10.3528
▁consumer	-10.3531
▁profit	-10.3532
▁contest	-10.3545
▁cnbc	-10.3551
▁cards	-10.3552
▁odd	-10.3553
▁tend	-10.3553
▁bottle	-10.3558
▁forbes	-10.3558
▁oppos	-10.3561
▁lucky	-10.357
▁worry	-10.3579
▁illinois	-10.358
▁manag	-10.358
▁15-	-10.3584
▁bones	-10.3594
▁daniel	-10.3596
▁clothes	-10.3609
▁incidents	-10.3615
▁infant	-10.3617
▁knowledge	-10.3617
▁raid	-10.3623
▁probe	-10.363
▁mall	-10.3641
▁kicked	-10.3641
▁expensive	-10.3644
▁plot	-10.3648
▁rifle	-10.3648
sex	-10.3649
▁relations	-10.3651
▁cop	-10.3654
▁bullet	-10.3667
▁capture	-10.3671
▁targeted	-10.3676
▁flights	-10.3687
▁roll	-10.3697
▁30-	-10.3697
▁morgan	-10.3701
▁resort	-10.3732
▁wave	-10.3735
▁mess	-10.3741
▁missouri	-10.3741
▁plea	-10.3742
▁blast	-10.3745
um	-10.3748
▁salt	-10.3749
▁thoughts	-10.3752
▁offensive	-10.3757
▁journey	-10.3757
▁relatively	-10.3759
▁vladimir	-10.3763
▁waters	-10.3764
▁traditional	-10.3766
includes	-10.3777
▁climb	-10.3795
▁hell	-10.3797
▁cup	-10.3798
▁rank	-10.3801
stood	-10.3802
▁hired	-10.3805
▁3-	-10.3814
▁allege	-10.3819
▁passing	-10.3819
▁amy	-10.3827
▁alex	-10.3829
▁films	-10.3834
▁inmates	-10.3839
▁liberal	-10.3856
▁communications	-10.3861
▁drama	-10.3868
▁buildings	-10.3876
▁mix	-10.3883
cbc	-10.3883
▁fit	-10.3887
▁nazi	-10.3887
free	-10.3893
▁olympic	-10.3893
▁homicide	-10.3895
▁bell	-10.3899
▁ii	-10.3941
▁heads	-10.3943
▁jason	-10.3945
▁depression	-10.3952
▁returning	-10.3959
▁microsoft	-10.3969
▁urged	-10.3972
▁austin	-10.3978
urls	-10.3982
▁stick	-10.3982
▁forest	-10.3984
▁150	-10.3988
▁spain	-10.3992
▁experienced	-10.3992
▁rising	-10.3996
she	-10.3996
▁creat	-10.3997
▁inappropriate	-10.4004
▁mcconnell	-10.4011
▁archaeologist	-10.4012
▁standards	-10.4013
▁tesla	-10.4013
▁di	-10.4014
▁gofundme	-10.4014
▁kick	-10.4015
▁rapper	-10.4018
▁shop	-10.4022
▁homeless	-10.4024
▁damages	-10.4026
▁robbery	-10.403
▁purpose	-10.4034
▁anyway	-10.4034
▁suv	-10.4034
▁conspiracy	-10.4044
▁historic	-10.4045
▁37	-10.4051
▁tweeting	-10.4055
▁parliament	-10.4056
▁advance	-10.406
▁zone	-10.4066
▁17-	-10.4069
▁rating	-10.4071
▁copy	-10.4085
▁embassy	-10.4085
▁vatican	-10.4086
▁immediate	-10.4088
▁slightly	-10.4092
▁celebrities	-10.41
▁reveals	-10.4105
▁rob	-10.4106
▁struggling	-10.411
▁anderson	-10.4118
▁tickets	-10.4119
▁switch	-10.4127
▁captain	-10.4135
▁foods	-10.4139
▁failing	-10.414
▁partners	-10.4142
▁musk	-10.4148
▁edge	-10.4152
▁landing	-10.4154
▁shelter	-10.4161
▁farm	-10.4162
▁maryland	-10.4166
▁destroy	-10.4167
▁2,000	-10.4178
▁bacteria	-10.4195
▁function	-10.4197
▁occur	-10.4204
▁supply	-10.4214
▁software	-10.4219
▁revenue	-10.4219
▁capitol	-10.422
▁knife	-10.4224
▁port	-10.4226
▁guest	-10.4239
▁terrorism	-10.4239
▁greatest	-10.4241
▁conducted	-10.4249
▁behalf	-10.4263
▁informed	-10.4267
▁exposed	-10.4269
▁leak	-10.4277
▁immigrants	-10.4284
▁starbucks	-10.4287
▁files	-10.4287
▁outrage	-10.4295
▁surrounding	-10.4299
▁faith	-10.4302
▁committ	-10.4302
▁5,000	-10.4302
▁sample	-10.4304
▁orange	-10.4317
▁comedian	-10.4318
la	-10.432
▁harvard	-10.4327
▁battery	-10.4328
▁warm	-10.4334
▁supporting	-10.4335
▁accidentally	-10.4339
▁improve	-10.4346
ee	-10.4362
▁wreck	-10.4365
▁gallery	-10.4374
▁crack	-10.4383
▁programs	-10.4385
▁anger	-10.4393
▁twin	-10.4398
▁48	-10.4406
▁proof	-10.4406
www	-10.4409
▁addressed	-10.441
▁bird	-10.4415
▁34	-10.4416
▁roger	-10.4422
mile	-10.4422
hitting	-10.4424
▁samples	-10.4428
▁songs	-10.4428
pending	-10.443
▁cellphone	-10.4433
▁suspicion	-10.4433
for	-10.4435
▁fda	-10.4444
▁75	-10.4447
▁christopher	-10.445
▁matters	-10.4451
▁sentinel	-10.4454
▁afterward	-10.446
▁investment	-10.4466
▁earthquake	-10.4471
▁chest	-10.4473
▁murdered	-10.4474
▁closing	-10.4475
go	-10.4477
right	-10.4477
▁veterans	-10.4478
▁trees	-10.4478
▁options	-10.4486
▁wa	-10.4487
▁smell	-10.4489
▁execution	-10.449
▁stunt	-10.4491
▁lab	-10.4493
▁taliban	-10.4499
▁prepared	-10.4505
▁surprising	-10.4506
▁windows	-10.4511
▁bizarre	-10.4514
▁chase	-10.452
▁lots	-10.4522
▁minute	-10.4524
▁wound	-10.4524
▁suspicious	-10.4528
▁provid	-10.4529
▁wire	-10.4534
▁factors	-10.4538
▁activities	-10.454
ory	-10.4541
▁followers	-10.4542
▁documentary	-10.4545
▁16-	-10.4551
▁38	-10.4565
▁con	-10.4571
▁drawing	-10.4574
▁locations	-10.4577
▁anymore	-10.458
▁teeth	-10.4588
▁2001	-10.46
▁pyongyang	-10.4607
▁produc	-10.4615
▁ballot	-10.4616
▁zimmerman	-10.462
▁reviews	-10.4643
▁accepted	-10.4653
▁shore	-10.4654
▁marks	-10.4657
qaeda	-10.4658
they	-10.466
▁connected	-10.4674
▁learning	-10.4682
▁hackers	-10.4687
▁unveil	-10.4698
5	-10.4703
▁distance	-10.4706
▁appropriate	-10.4707
▁laden	-10.4713
▁rival	-10.4722
▁stepped	-10.4724
▁howard	-10.4726
▁punishment	-10.473
▁hitler	-10.4732
▁shirt	-10.4733
▁holds	-10.4737
▁apply	-10.4742
▁loud	-10.4743
▁cousin	-10.4745
▁estimates	-10.4747
▁temperatures	-10.4747
▁44	-10.4757
▁senators	-10.4757
▁kentucky	-10.476
▁easier	-10.4761
▁describ	-10.4762
▁sheen	-10.4765
▁posts	-10.4768
▁command	-10.4769
▁develop	-10.4769
▁package	-10.4776
▁bureau	-10.4785
▁transition	-10.4785
▁recount	-10.4788
▁investors	-10.4788
▁dismissed	-10.4791
▁autopsy	-10.4792
▁engine	-10.4795
▁error	-10.4795
▁row	-10.4807
▁earned	-10.4809
▁procedure	-10.4815
▁bernie	-10.4815
124;	-10.4818
▁characters	-10.4828
▁breast	-10.4834
▁solar	-10.4837
▁leaves	-10.4837
▁trapped	-10.4843
▁winds	-10.4849
▁phones	-10.4853
▁stupid	-10.4856
▁quiet	-10.4857
▁talent	-10.4858
▁legally	-10.4858
▁interviews	-10.4859
▁gunshot	-10.4861
▁iranian	-10.4862
▁lesson	-10.4863
▁explanation	-10.4864
neath	-10.4884
life	-10.4884
▁wealth	-10.4885
▁1980	-10.4887
▁transportation	-10.4888
▁rent	-10.4896
▁twins	-10.4898
▁schumer	-10.4908
▁knowing	-10.4916
▁arrests	-10.4921
▁satellite	-10.4922
▁olympics	-10.4925
▁secure	-10.4929
▁42	-10.493
▁violate	-10.4933
law	-10.4933
▁midnight	-10.494
▁crying	-10.4943
▁decline	-10.4943
▁steven	-10.4952
▁directed	-10.4958
▁staying	-10.496
▁circumstances	-10.4961
▁gizmodo	-10.497
▁assistance	-10.497
▁drone	-10.4976
▁dying	-10.4977
king	-10.4982
▁https	-10.4986
▁harvey	-10.4987
▁holmes	-10.4988
▁naked	-10.4989
▁snowden	-10.4991
▁fill	-10.4994
▁brutal	-10.4995
▁probation	-10.4996
▁nsa	-10.4996
▁lane	-10.5
▁400	-10.5005
▁replied	-10.5006
▁colbert	-10.5011
▁likes	-10.5013
▁committe	-10.5017
▁youth	-10.5021
▁provides	-10.5026
▁permit	-10.5026
▁kidnapping	-10.5034
▁usual	-10.5034
▁ends	-10.5035
▁approached	-10.5039
▁object	-10.5051
▁teachers	-10.5061
way	-10.5065
▁pet	-10.5075
mph	-10.5076
▁brad	-10.5077
▁unlike	-10.5081
ch	-10.5081
▁contribute	-10.5082
▁eu	-10.5086
▁hiv	-10.5091
▁maine	-10.5097
▁carson	-10.5099
▁permission	-10.5101
▁pronounced	-10.5103
▁expecting	-10.5104
▁mile	-10.5107
▁empty	-10.5112
▁routine	-10.5114
▁bright	-10.5116
▁rescued	-10.5116
▁advantage	-10.512
▁mc	-10.5123
▁dump	-10.5125
▁papers	-10.5127
▁49	-10.5131
▁cocaine	-10.5134
▁bombing	-10.5134
▁reid	-10.5141
▁solution	-10.5143
▁innocent	-10.515
▁grant	-10.5154
▁shocking	-10.5156
▁mars	-10.5167
▁sa	-10.5176
rushed	-10.518
▁stomach	-10.5183
so	-10.5184
▁wi	-10.5192
ring	-10.5194
▁homeland	-10.5195
▁louisiana	-10.5214
▁personnel	-10.5216
▁hidden	-10.5221
▁golf	-10.5222
profile	-10.5226
▁soldier	-10.5229
▁answers	-10.5233
▁14-	-10.5236
▁unfortunately	-10.5238
▁correction	-10.5248
news	-10.525
▁19-	-10.5258
▁discussed	-10.5259
▁damaged	-10.5261
▁afghan	-10.5265
▁vision	-10.5273
▁remaining	-10.5274
▁teenager	-10.5284
▁wh	-10.5288
▁studio	-10.529
▁mentioned	-10.5298
▁pledge	-10.5298
▁hero	-10.5305
▁numero	-10.5305
well	-10.5305
▁chuck	-10.531
▁remind	-10.5315
▁infection	-10.5316
▁5-	-10.5316
▁matthew	-10.533
▁beijing	-10.5334
▁coroner	-10.5335
▁orders	-10.5336
▁remote	-10.5337
▁announce	-10.5339
▁clothing	-10.534
▁sleeping	-10.5343
▁map	-10.5344
▁2003	-10.5348
▁jesus	-10.5349
▁arabia	-10.5352
▁fault	-10.5352
▁fence	-10.5363
▁typical	-10.5364
▁shout	-10.5367
▁confront	-10.5369
▁asia	-10.5369
▁toll	-10.5376
▁checked	-10.5378
▁maximum	-10.5382
▁connecticut	-10.5383
▁net	-10.5385
▁teams	-10.5395
▁tribute	-10.5396
▁gaga	-10.5397
▁violation	-10.5398
▁attempts	-10.5413
▁constant	-10.5414
▁speculation	-10.5419
▁granted	-10.542
▁porn	-10.5424
▁inc	-10.5425
▁mississippi	-10.5425
▁birds	-10.5428
▁explosion	-10.543
▁racial	-10.5432
▁disturbing	-10.5434
▁prominent	-10.5437
▁nose	-10.5443
▁grabb	-10.5446
▁leads	-10.5448
▁fears	-10.5452
▁restaurants	-10.5452
▁accusing	-10.546
▁questioned	-10.5461
▁spirit	-10.5462
▁survivors	-10.547
▁delivery	-10.5472
9	-10.5472
▁spoken	-10.5475
▁generation	-10.548
▁busy	-10.5483
▁kerry	-10.5487
▁markets	-10.5492
3	-10.5495
▁donations	-10.5502
▁flash	-10.5503
▁trooper	-10.5504
▁featur	-10.5506
▁print	-10.5509
▁decisions	-10.5515
▁tourists	-10.5518
▁55	-10.552
▁bears	-10.5523
▁theater	-10.5526
▁facts	-10.5528
▁palm	-10.553
▁fallen	-10.5532
ts	-10.5533
▁duty	-10.5541
coming	-10.5543
▁2-	-10.5545
▁incredible	-10.5548
▁affairs	-10.5557
▁marry	-10.5561
▁subsequent	-10.5572
▁sandy	-10.5585
operating	-10.5586
▁pattern	-10.5592
▁waste	-10.5593
▁responding	-10.5594
▁painting	-10.5595
▁correct	-10.5611
▁uncovered	-10.5612
▁stable	-10.5622
▁trash	-10.5624
▁wars	-10.5636
▁custom	-10.5637
▁values	-10.5638
▁substance	-10.564
▁lie	-10.564
▁brooklyn	-10.5642
▁24-	-10.5643
▁hanging	-10.5645
down	-10.5646
▁marketing	-10.5648
▁housing	-10.5657
▁consequences	-10.5661
▁conviction	-10.5663
▁follows	-10.5663
▁stole	-10.5664
▁trailer	-10.5675
▁pence	-10.5676
▁library	-10.5681
▁seized	-10.5687
▁mar	-10.5692
▁alexander	-10.5697
▁tips	-10.5698
▁calm	-10.5698
▁completed	-10.5701
▁seal	-10.5702
▁purchase	-10.5703
▁39	-10.5706
▁baseball	-10.5712
▁reactions	-10.5716
▁bags	-10.5717
▁confirms	-10.5719
▁developing	-10.5723
▁combat	-10.5726
▁unnamed	-10.573
▁boast	-10.5731
▁collins	-10.5733
▁classic	-10.574
▁apologiz	-10.575
▁engagement	-10.5751
▁closely	-10.5752
▁shape	-10.5752
▁blogger	-10.5755
▁formal	-10.5756
there	-10.5758
▁salon	-10.5762
▁hook	-10.5766
▁afraid	-10.577
▁ratings	-10.5777
▁burned	-10.5778
▁plants	-10.5783
▁13-	-10.5785
▁religion	-10.5785
▁41	-10.5793
▁reward	-10.5795
▁observe	-10.5797
▁trend	-10.58
▁li	-10.5811
▁deem	-10.5812
▁advocate	-10.5816
▁breach	-10.5816
▁bo	-10.5825
▁tampa	-10.5826
▁hunting	-10.5827
▁disappearance	-10.5832
▁territory	-10.5832
▁residence	-10.5835
▁phrase	-10.5836
▁politicians	-10.5836
totally	-10.5846
▁heading	-10.5848
▁nevada	-10.5851
▁lion	-10.5852
▁somewhere	-10.5857
▁strongly	-10.5869
▁moves	-10.5872
▁classified	-10.5873
▁associate	-10.5874
▁developments	-10.5877
▁photograph	-10.5879
▁statue	-10.5883
os	-10.5889
▁stream	-10.5892
▁jokes	-10.5892
▁drinks	-10.5893
▁upper	-10.5901
▁minimum	-10.5904
▁beauty	-10.5908
▁ebola	-10.5909
▁medal	-10.5909
bound	-10.5915
▁regional	-10.5915
▁aboard	-10.5917
▁equal	-10.5917
▁pray	-10.5917
▁sat	-10.5917
▁screaming	-10.5918
▁abandoned	-10.5925
slammed	-10.5928
▁boss	-10.5935
▁somewhat	-10.5938
▁motive	-10.5943
▁columbia	-10.5944
▁advertising	-10.5946
▁commander	-10.5947
▁ambulance	-10.5957
▁rehab	-10.5961
▁invited	-10.5962
ad	-10.5966
▁sons	-10.5969
ay	-10.597
▁palace	-10.5975
▁unexpected	-10.5978
▁grandmother	-10.5988
▁discover	-10.5993
▁livescience	-10.5998
▁photographer	-10.6001
▁updated	-10.6007
▁rumor	-10.6008
el	-10.6009
▁retailer	-10.601
▁misconduct	-10.6012
▁seats	-10.6017
▁rice	-10.6021
▁mine	-10.6025
▁random	-10.6026
▁verge	-10.6031
▁confident	-10.6033
▁admits	-10.6035
▁anthem	-10.6035
▁conservatives	-10.6036
▁brazil	-10.6048
▁47	-10.6049
▁editorial	-10.6049
sa	-10.6051
▁presidency	-10.6052
▁province	-10.6052
▁nancy	-10.6061
▁mirror	-10.6067
▁proceed	-10.6077
▁ideas	-10.608
▁degree	-10.6083
▁/	-10.6088
▁43	-10.6089
▁1990	-10.6098
gun	-10.6099
▁grave	-10.6102
▁sh	-10.6104
▁plays	-10.6104
▁jane	-10.6105
▁testifie	-10.6111
▁resolution	-10.6116
▁embed	-10.6118
▁50,000	-10.6119
▁alarm	-10.612
▁pulling	-10.6128
▁entering	-10.6131
▁laid	-10.6135
▁category	-10.6138
▁beating	-10.614
▁stabbed	-10.614
▁cliff	-10.614
▁jose	-10.614
▁stadium	-10.6141
▁exist	-10.6145
▁bunch	-10.6148
▁libya	-10.6152
▁depend	-10.616
gonna	-10.6163
▁protected	-10.6174
▁luck	-10.6181
▁en	-10.6191
▁pink	-10.6195
▁avenue	-10.6202
▁exact	-10.6204
▁desperate	-10.6226
▁sweden	-10.6231
▁constitution	-10.6234
▁understanding	-10.6236
▁simpson	-10.624
▁intense	-10.624
▁leaked	-10.6247
▁announc	-10.6248
▁hiding	-10.6252
▁4-	-10.6253
▁virtual	-10.6256
▁couch	-10.627
▁novel	-10.6275
▁22-	-10.6277
▁offender	-10.6284
▁denies	-10.6289
▁resignation	-10.6289
▁weiner	-10.629
▁roberts	-10.6291
▁guards	-10.6294
▁permanent	-10.6296
▁2014.	-10.6297
▁lewis	-10.6302
▁hoped	-10.631
▁exposure	-10.6314
▁prisoners	-10.6317
gt	-10.6317
▁sugar	-10.6323
▁purchased	-10.6324
▁9/11	-10.6325
▁heavily	-10.634
▁dry	-10.6344
▁entry	-10.635
▁overnight	-10.6351
▁breathing	-10.6358
▁va	-10.6361
▁outbreak	-10.6367
▁cain	-10.6367
▁hide	-10.637
▁pm	-10.6376
▁---	-10.6379
▁cats	-10.638
▁delay	-10.6383
▁ridiculous	-10.6384
▁hi	-10.6387
▁experiment	-10.6392
▁desire	-10.6401
▁starts	-10.6401
▁tunnel	-10.6401
▁models	-10.6404
▁estimate	-10.6405
▁draw	-10.6421
point	-10.6423
▁peak	-10.6424
▁sustain	-10.6429
▁unemployment	-10.6433
▁burning	-10.6436
▁ms	-10.6441
▁65	-10.6445
▁eggs	-10.6446
▁vow	-10.6448
▁contribut	-10.6451
▁planes	-10.6455
▁hunter	-10.6456
▁conclusion	-10.6457
▁repeal	-10.6463
ive	-10.6463
▁surround	-10.6463
▁fees	-10.6464
▁grab	-10.6469
▁detective	-10.6476
▁cheap	-10.6478
▁gap	-10.6484
▁6-	-10.6487
▁shootings	-10.6488
▁2000	-10.6489
▁horse	-10.649
but	-10.6498
▁sue	-10.6504
▁soccer	-10.6509
▁gulf	-10.651
▁terrorists	-10.651
volving	-10.6513
▁requests	-10.6522
▁cheese	-10.6523
▁seemingly	-10.6531
▁penn	-10.6533
▁waves	-10.6538
▁tourist	-10.6541
▁stretch	-10.6542
▁undergo	-10.6543
ny	-10.6561
▁arab	-10.6561
▁gates	-10.6568
▁genetic	-10.6568
▁forever	-10.6571
▁examiner	-10.6584
▁cutting	-10.6597
▁tony	-10.66
▁centers	-10.6607
election	-10.6607
▁commissioner	-10.6608
▁negotiations	-10.6617
field	-10.662
▁temporar	-10.6626
▁backed	-10.6626
au	-10.6628
▁burger	-10.6629
▁nato	-10.663
▁ray	-10.6632
▁refugees	-10.6634
▁motion	-10.6638
▁jerry	-10.6645
▁relief	-10.6648
▁afford	-10.6649
▁grace	-10.6649
owned	-10.6651
▁gross	-10.6652
nd	-10.6654
▁strength	-10.6658
▁quartz	-10.666
▁delegate	-10.6662
aught	-10.6674
▁reputation	-10.6675
▁bone	-10.6676
▁muslims	-10.668
ns	-10.669
▁musical	-10.6694
▁actors	-10.6695
▁float	-10.6695
▁7-	-10.6708
▁discrimination	-10.6711
▁gear	-10.6717
▁buyer	-10.6718
▁intend	-10.6719
▁debris	-10.6719
▁flat	-10.6729
▁wonderful	-10.6743
6	-10.6744
▁islands	-10.6748
▁defeat	-10.6751
wood	-10.6753
▁prepar	-10.6762
▁tears	-10.677
▁scale	-10.677
▁fought	-10.6774
▁trading	-10.6777
▁approximate	-10.6781
▁organizer	-10.6787
▁21-	-10.679
▁communities	-10.6796
▁clinic	-10.6799
▁25-	-10.6804
▁bannon	-10.6805
▁whale	-10.6806
▁southwest	-10.6809
born	-10.6818
▁thompson	-10.6819
▁forget	-10.682
▁medication	-10.6823
▁types	-10.6826
loved	-10.6833
▁notification	-10.6835
▁relative	-10.6838
▁rocks	-10.684
▁zealand	-10.6845
▁paint	-10.6846
▁master	-10.6854
▁patrick	-10.6855
▁basis	-10.6855
▁arkansas	-10.6858
larry	-10.6859
▁repair	-10.686
▁lies	-10.6861
▁sharp	-10.6861
▁po	-10.6863
▁premiere	-10.6865
▁finger	-10.6866
▁transport	-10.6868
▁agrees	-10.6873
landed	-10.6874
▁folks	-10.6879
▁resigned	-10.6882
▁compound	-10.6884
▁beck	-10.6885
▁confirmation	-10.6897
▁audio	-10.6898
▁geographic	-10.6905
▁filming	-10.6906
ily	-10.6912
▁egyptian	-10.6916
▁20,000	-10.6917
▁oprah	-10.6922
▁stealing	-10.6933
▁dancing	-10.6936
style	-10.6949
▁susan	-10.6954
▁1970	-10.6956
▁headquarter	-10.6963
▁alternative	-10.6967
▁carbon	-10.6968
▁parole	-10.6973
▁hills	-10.6974
▁handgun	-10.6975
▁doors	-10.698
▁pitt	-10.6983
▁counsel	-10.6986
▁division	-10.6987
town	-10.699
▁lopez	-10.6994
▁verdict	-10.6995
▁civilians	-10.6997
crawl	-10.7012
▁lights	-10.7016
▁bedroom	-10.7021
page	-10.7023
attended	-10.7023
▁reserve	-10.7029
▁deals	-10.7029
▁mor	-10.703
▁canno	-10.7035
▁46	-10.7052
▁cit	-10.7056
▁electric	-10.7057
▁helps	-10.7058
▁cite	-10.7073
▁swedish	-10.7075
▁coalition	-10.7075
▁jonathan	-10.7076
▁garner	-10.7083
▁portland	-10.7096
▁2015.	-10.7098
▁keeps	-10.7105
▁unidentified	-10.7107
▁teenage	-10.7111
▁session	-10.7113
▁badly	-10.7115
▁performing	-10.7117
▁everywhere	-10.7118
▁heroin	-10.7118
ta	-10.7119
▁wolf	-10.7122
jessica	-10.7129
ling	-10.7134
ance	-10.7137
▁wikileaks	-10.7137
na	-10.7139
▁subjects	-10.7142
▁convinced	-10.7142
▁seed	-10.7142
▁surfaced	-10.7153
dressed	-10.7153
▁minority	-10.7155
▁covering	-10.7159
▁joy	-10.7161
▁reduced	-10.7164
▁winners	-10.7169
▁info	-10.7172
that	-10.7174
▁thanksgiving	-10.7177
▁dropping	-10.718
▁recommend	-10.7183
▁shoes	-10.7184
▁twist	-10.7188
▁interviewed	-10.7194
▁athletes	-10.7198
do	-10.7202
▁condemn	-10.7204
▁rap	-10.7213
▁illegally	-10.7216
▁unprecedented	-10.7217
▁cultural	-10.722
▁getty	-10.722
▁cuba	-10.7222
▁shutdown	-10.7222
▁prayers	-10.7225
▁solid	-10.7226
ated	-10.723
▁pitch	-10.7237
▁crown	-10.7239
▁lay	-10.7241
▁2016.	-10.7245
▁carrier	-10.7253
▁billboard	-10.7256
▁earning	-10.7256
▁sport	-10.7257
▁josh	-10.7268
▁nick	-10.7271
updated	-10.7273
▁graduate	-10.7278
▁ho	-10.7279
▁quake	-10.7286
▁henry	-10.7286
spread	-10.7292
▁mysterious	-10.7298
▁adopted	-10.73
▁kitchen	-10.7303
▁marathon	-10.7314
▁retirement	-10.732
▁marked	-10.7323
urging	-10.7324
▁disappointed	-10.7326
▁8-	-10.7329
▁pe	-10.733
▁q	-10.7332
▁gate	-10.7336
▁basketball	-10.7337
▁cap	-10.7337
▁fo	-10.734
▁horrible	-10.734
known	-10.7354
▁extended	-10.7355
author	-10.7357
▁murders	-10.7357
▁demanding	-10.7367
▁networks	-10.7369
▁questioning	-10.737
▁tool	-10.737
▁lincoln	-10.7372
▁deleted	-10.7378
▁gained	-10.7395
▁addiction	-10.74
▁lawrence	-10.74
▁kiss	-10.74
▁guide	-10.7406
▁elderly	-10.7408
handling	-10.7409
▁grateful	-10.7409
▁harder	-10.7421
▁devastating	-10.7424
▁replacement	-10.7431
▁2002	-10.7436
▁appreciate	-10.7437
▁dakota	-10.744
▁allies	-10.7445
▁element	-10.7445
▁payment	-10.7448
▁extend	-10.7452
▁strikes	-10.7453
▁cloud	-10.7457
▁massacre	-10.7457
▁saving	-10.7459
▁se	-10.7459
▁mitch	-10.7462
▁skull	-10.7464
▁blam	-10.7464
ra	-10.7466
▁cyber	-10.7466
▁resign	-10.747
▁focuse	-10.7479
▁tale	-10.7482
▁torture	-10.7485
▁interior	-10.7486
▁meetings	-10.7489
▁commit	-10.7493
▁trauma	-10.7494
▁lisa	-10.7498
▁speaks	-10.75
▁mixed	-10.7502
▁subdomain	-10.7502
▁misdemeanor	-10.7503
▁diplomat	-10.7511
8	-10.7512
▁meal	-10.7514
▁desert	-10.7517
line	-10.7518
pistorius	-10.7528
▁chocolate	-10.7529
▁chances	-10.7529
▁grown	-10.753
▁scream	-10.7532
▁vast	-10.7537
▁fort	-10.7541
▁percentage	-10.7553
▁mediaite	-10.7553
▁tracks	-10.7554
▁edward	-10.756
▁sisters	-10.7564
▁schedule	-10.7565
▁payments	-10.7578
▁2012.	-10.7578
▁defended	-10.7581
▁yo	-10.7582
▁scared	-10.7587
▁corporate	-10.7595
▁maria	-10.7599
▁katie	-10.7599
▁painful	-10.7602
▁era	-10.7603
▁lists	-10.761
▁pen	-10.7619
▁corner	-10.7621
▁tank	-10.7624
▁ferguson	-10.763
▁baldwin	-10.7631
id	-10.7632
▁nude	-10.7635
▁branch	-10.7635
▁wright	-10.7639
times	-10.764
▁beef	-10.7641
▁3,000	-10.7643
▁interests	-10.7643
▁challenges	-10.7649
▁fate	-10.7649
▁nationwide	-10.7651
▁pittsburgh	-10.7652
▁sole	-10.7652
▁subway	-10.7654
▁assessment	-10.7655
▁hong	-10.7657
▁returns	-10.7662
▁fruit	-10.7667
my	-10.7667
▁staffers	-10.767
▁gary	-10.767
▁portion	-10.7673
▁sibling	-10.7679
▁bull	-10.768
▁wired	-10.7685
▁rachel	-10.7687
pound	-10.7693
▁risks	-10.7694
▁bachmann	-10.7694
▁bruce	-10.7696
▁participate	-10.7697
▁diamond	-10.7698
▁spray	-10.7698
▁nobel	-10.7699
▁murphy	-10.7699
▁upcom	-10.7699
▁websites	-10.7706
▁detectives	-10.7708
▁temperature	-10.7713
▁readers	-10.7714
▁briefly	-10.7714
▁recover	-10.7716
▁dates	-10.7716
▁draft	-10.7719
necessarily	-10.772
▁studied	-10.7724
▁volunteer	-10.7734
▁auto	-10.7735
▁swimming	-10.7739
▁ranking	-10.7741
▁foster	-10.7742
▁rocket	-10.7745
▁tens	-10.775
▁pr	-10.775
▁spy	-10.7751
headed	-10.7752
▁cave	-10.7753
▁vp	-10.776
▁manning	-10.7765
▁iron	-10.7767
▁kimmel	-10.7771
▁lo	-10.7771
▁clark	-10.7776
▁loose	-10.7779
▁jolie	-10.7782
▁raw	-10.7783
▁weak	-10.7784
▁frozen	-10.7788
▁indication	-10.779
▁obvious	-10.7792
▁inmate	-10.7794
▁parker	-10.7796
made	-10.7797
▁vanity	-10.7804
▁blocked	-10.7805
▁silence	-10.781
▁resist	-10.7811
▁regret	-10.7811
▁donors	-10.7816
▁dramatic	-10.7822
▁striking	-10.7825
▁51	-10.7826
ial	-10.7827
sky	-10.7829
ard	-10.7833
▁marco	-10.7833
▁advocates	-10.7843
▁manner	-10.7852
▁hospitals	-10.7858
▁infected	-10.7865
inch	-10.7866
▁scenes	-10.787
▁arrival	-10.7872
▁castro	-10.7873
▁phoenix	-10.7874
▁complicated	-10.7877
▁mccarthy	-10.7889
▁suggestion	-10.7897
▁clock	-10.7902
▁tired	-10.7903
▁nypd	-10.7905
▁investigat	-10.7906
▁glad	-10.7908
▁prescription	-10.7911
▁structure	-10.7914
▁beyonce	-10.7919
▁chamber	-10.7923
▁cha	-10.7928
▁jews	-10.7929
▁kavanaugh	-10.7935
▁transplant	-10.7945
▁kong	-10.7946
▁weighed	-10.7946
activists	-10.7947
▁volunteers	-10.7955
▁anchor	-10.7956
▁ki	-10.7958
▁cameron	-10.7958
▁sight	-10.7961
▁bump	-10.797
▁rang	-10.7979
▁touched	-10.7993
▁principal	-10.7997
▁prefer	-10.7997
▁courtesy	-10.8003
▁celebrating	-10.8014
▁wounds	-10.8015
▁ross	-10.8019
▁targets	-10.8021
▁billionaire	-10.8021
▁sand	-10.8022
▁horrific	-10.8028
▁mere	-10.8031
ler	-10.8035
▁53	-10.8036
▁balance	-10.8037
▁keith	-10.8041
▁context	-10.8042
▁ten	-10.8042
▁adams	-10.8048
founder	-10.8048
ities	-10.8056
▁wheel	-10.806
run	-10.8062
▁reagan	-10.8064
▁princess	-10.8065
▁robin	-10.8068
▁whales	-10.8068
▁lifetime	-10.8071
▁judges	-10.8073
se	-10.8073
▁download	-10.8075
▁incredibl	-10.8083
▁departure	-10.8085
▁ireland	-10.8086
▁knocked	-10.8087
▁edit	-10.8098
▁dispatch	-10.8102
▁extensive	-10.8107
▁stern	-10.8112
ether	-10.8112
▁stronger	-10.8112
▁differences	-10.8113
▁11-	-10.8114
▁barbar	-10.8115
wing	-10.8118
▁tall	-10.8132
▁max	-10.8133
▁prosecution	-10.8134
▁joining	-10.8134
▁burns	-10.8139
▁23-	-10.814
▁pants	-10.8144
▁bound	-10.8147
▁fishing	-10.8153
▁irish	-10.8156
▁toilet	-10.8156
▁y	-10.8156
dedicated	-10.8159
▁operator	-10.8162
▁enable	-10.8162
▁legend	-10.8162
▁proper	-10.8163
▁strip	-10.8168
▁creative	-10.8169
▁tradition	-10.8169
▁requirement	-10.8171
▁evil	-10.8176
▁indicat	-10.8185
▁hernandez	-10.8189
▁honest	-10.8194
▁syndrome	-10.8195
▁lift	-10.8197
▁victoria	-10.8198
▁depict	-10.8201
▁overdose	-10.8202
puerto	-10.8208
▁uncle	-10.8209
our	-10.8216
▁detention	-10.8218
▁nelson	-10.822
▁toddler	-10.8222
▁wins	-10.8225
▁connect	-10.8226
▁proved	-10.8227
▁recalls	-10.8229
▁gadhafi	-10.8236
▁todd	-10.8239
▁ra	-10.8242
air	-10.8243
▁parks	-10.8244
▁checks	-10.8245
▁600	-10.8246
▁plain	-10.825
▁consent	-10.825
downtown	-10.8253
▁nba	-10.8254
▁tattoo	-10.8254
ier	-10.8256
▁alter	-10.8269
▁newt	-10.8274
▁highlight	-10.8285
▁opponents	-10.8287
▁asian	-10.8287
▁visible	-10.8288
▁constitutional	-10.829
▁scheme	-10.8292
▁producers	-10.8293
▁finance	-10.8296
▁updates	-10.8296
▁elementary	-10.8308
▁burn	-10.8315
▁proceeding	-10.8316
▁judgment	-10.8316
▁surprisingly	-10.8318
▁barely	-10.8319
▁regulations	-10.8321
▁fighters	-10.8322
lew	-10.8323
rd	-10.8323
▁combined	-10.8329
▁greece	-10.8332
▁description	-10.8333
▁promot	-10.8334
more	-10.8335
▁vulnerable	-10.8335
▁declare	-10.8348
▁breakfast	-10.8357
▁corruption	-10.836
▁jenner	-10.8365
▁ceiling	-10.8366
▁communication	-10.8367
▁52	-10.8367
▁promises	-10.837
▁supplies	-10.8372
▁ann	-10.8374
▁transgender	-10.8378
▁sydney	-10.8378
▁guarantee	-10.8379
▁ipad	-10.8383
▁blind	-10.8389
▁parade	-10.8392
▁turner	-10.8392
▁faster	-10.8396
▁attacking	-10.84
▁lottery	-10.8401
▁impressive	-10.8402
▁regularly	-10.8402
▁bottles	-10.8405
▁plaintiff	-10.8407
▁dave	-10.8409
▁acknowledg	-10.8413
▁rebel	-10.8416
▁eve	-10.8417
wife	-10.8421
▁mercury	-10.8422
▁daniels	-10.8429
▁item	-10.8434
▁achieve	-10.8437
▁recalled	-10.8438
▁bee	-10.8444
▁universe	-10.8454
▁humor	-10.8454
▁correspondent	-10.8455
▁hospitalize	-10.8458
▁op	-10.8458
▁2013.	-10.8462
▁unconscious	-10.8463
▁sentiment	-10.8465
▁relationships	-10.8467
▁simon	-10.8469
berg	-10.8474
▁arrive	-10.8476
▁server	-10.8483
▁du	-10.8484
▁wrapped	-10.849
▁hack	-10.8493
▁initiative	-10.8494
▁rihanna	-10.8496
▁executed	-10.8503
▁mac	-10.8504
▁physically	-10.8506
▁dear	-10.8514
▁hacked	-10.8515
▁fisher	-10.8515
▁sixth	-10.852
▁filmed	-10.8524
▁amanda	-10.8529
▁idaho	-10.8536
▁legacy	-10.8537
▁crystal	-10.8545
▁foul	-10.8554
▁rural	-10.8561
▁bet	-10.8565
▁alleg	-10.8567
▁opposite	-10.8568
▁lowest	-10.8572
presented	-10.8573
▁gen	-10.8573
▁aggravated	-10.8587
un	-10.8588
▁passport	-10.859
▁agenda	-10.8593
▁tablet	-10.8599
▁ali	-10.8604
▁chapter	-10.8608
▁represents	-10.861
▁historical	-10.862
▁smile	-10.8621
▁pastor	-10.8621
▁applied	-10.8624
▁assets	-10.8634
▁materials	-10.864
▁wondering	-10.8643
▁moral	-10.8643
▁properly	-10.8643
▁maker	-10.8647
▁antonio	-10.8647
▁30,000	-10.8647
▁assad	-10.865
▁button	-10.8653
▁netanyahu	-10.8653
▁egg	-10.8655
il	-10.8657
▁donation	-10.8657
▁extraordinary	-10.8661
▁hiring	-10.8664
▁wage	-10.8668
▁awful	-10.8671
▁underground	-10.8677
▁succeed	-10.8678
▁heritage	-10.8679
▁douglas	-10.8681
▁hint	-10.8682
▁charlotte	-10.8682
▁racism	-10.8684
▁prepare	-10.8687
▁repeated	-10.8699
▁benjamin	-10.8699
▁dutch	-10.8702
▁historian	-10.8705
▁blaze	-10.8708
▁wor	-10.8709
▁hbo	-10.8714
▁therapy	-10.8722
▁orleans	-10.8724
▁nonprofit	-10.8724
▁newsweek	-10.8725
▁safely	-10.8725
▁iraqi	-10.8725
▁loves	-10.873
▁caution	-10.8732
▁scores	-10.8734
▁signing	-10.8737
▁tissue	-10.8738
▁jumping	-10.8744
▁panic	-10.8746
▁liberty	-10.8749
▁slowly	-10.8753
▁vanished	-10.8753
▁corporation	-10.8754
▁install	-10.8756
▁episodes	-10.8756
▁2020	-10.8763
▁moderate	-10.8767
▁sub	-10.8777
▁soul	-10.8779
▁ar	-10.8779
▁harsh	-10.8782
week	-10.8782
ap	-10.8785
▁electronic	-10.8789
▁cry	-10.8795
▁guidelines	-10.8797
state	-10.8799
▁murray	-10.8805
▁nickname	-10.8805
▁duke	-10.8805
▁circuit	-10.8807
▁tight	-10.8813
▁releas	-10.882
▁attached	-10.8822
▁bu	-10.8825
▁liquid	-10.8826
▁resume	-10.8837
▁selfie	-10.8842
0	-10.8844
▁demands	-10.8847
▁turkish	-10.8847
▁vessel	-10.8849
▁oliver	-10.8853
▁projects	-10.8854
▁rescuer	-10.8856
▁z	-10.8857
▁confidence	-10.8862
▁sony	-10.8866
▁compete	-10.8867
▁drawn	-10.8868
▁burglary	-10.887
▁childhood	-10.8871
held	-10.8878
▁snake	-10.888
▁method	-10.8881
▁noise	-10.8883
▁facilities	-10.889
▁500,000	-10.889
▁fiscal	-10.8894
▁diplomatic	-10.8895
▁normally	-10.8897
▁pursue	-10.8902
▁montana	-10.8903
▁johnny	-10.8904
▁miracle	-10.8906
▁bombs	-10.8908
▁54	-10.891
▁dig	-10.8911
▁overseas	-10.8915
▁crossing	-10.8924
▁dust	-10.8924
▁trillion	-10.8926
▁shoulder	-10.8928
▁designer	-10.8931
▁frequent	-10.8938
▁settled	-10.894
▁1998	-10.8941
▁lawmaker	-10.8947
,	-10.8947
▁keys	-10.8948
▁sandwich	-10.895
▁publisher	-10.895
▁unfair	-10.895
▁fields	-10.8952
▁speculate	-10.8954
▁commitment	-10.8954
▁dirty	-10.8956
▁phil	-10.8962
▁feelings	-10.8965
▁cabinet	-10.8966
▁similarly	-10.8969
ified	-10.8971
▁horror	-10.8974
▁referenc	-10.8975
▁teaching	-10.8983
▁odds	-10.8984
▁sensitive	-10.899
▁established	-10.8995
▁personality	-10.8997
▁jo	-10.8998
▁greg	-10.9
▁core	-10.9002
▁exec	-10.9003
▁monument	-10.9003
▁gene	-10.9006
▁breath	-10.9006
▁dylan	-10.9014
▁tokyo	-10.9014
▁biological	-10.9017
▁delayed	-10.9021
▁screening	-10.9022
▁coins	-10.9028
▁champion	-10.9029
▁jerusalem	-10.9036
▁attending	-10.9041
▁assist	-10.9044
▁scary	-10.9045
▁celebration	-10.9045
▁laugh	-10.9048
▁knight	-10.9053
▁grandfather	-10.9054
▁grounds	-10.9059
▁garden	-10.9063
▁application	-10.9069
▁killings	-10.9071
▁ro	-10.9073
▁brains	-10.908
▁yard	-10.9081
century	-10.9083
driven	-10.9084
▁reddit	-10.9086
▁tie	-10.909
▁bias	-10.9091
▁dow	-10.9095
▁stroke	-10.9096
▁streaming	-10.9097
▁solve	-10.9098
▁tools	-10.9103
▁retail	-10.9109
▁voter	-10.9109
▁backlash	-10.911
▁greek	-10.9111
▁emerging	-10.9113
▁singing	-10.9113
▁intention	-10.9114
▁holder	-10.9125
▁alzheimer	-10.9134
▁250	-10.9137
▁mandate	-10.9137
▁skills	-10.9139
▁rodriguez	-10.9142
▁conservation	-10.9147
▁tear	-10.9153
▁toxic	-10.9164
▁chaos	-10.9169
▁roads	-10.9183
▁steel	-10.9183
▁yellow	-10.9189
▁trick	-10.919
▁sperm	-10.9194
▁settle	-10.9195
ri	-10.9198
▁tracking	-10.9201
▁outcome	-10.9205
▁minneapolis	-10.9208
▁yeah	-10.9209
▁peaceful	-10.9217
▁hashtag	-10.9227
level	-10.9227
▁vietnam	-10.9233
▁ski	-10.9234
▁ruin	-10.9235
▁spike	-10.9248
▁buzz	-10.9257
class	-10.9258
▁booked	-10.9261
▁madonna	-10.9263
▁supposedly	-10.9274
llegedly	-10.9275
▁password	-10.9278
▁flu	-10.9278
▁deny	-10.9283
▁200,000	-10.9283
▁flames	-10.9283
▁26-	-10.9284
▁indictment	-10.9285
▁disagree	-10.9296
▁edwards	-10.93
▁edition	-10.9312
▁exciting	-10.9317
▁1.5	-10.9318
▁lunch	-10.9318
raped	-10.9326
▁gathering	-10.9328
▁belief	-10.9328
▁fa	-10.9337
▁mansion	-10.934
▁observer	-10.9341
▁awareness	-10.9346
▁missiles	-10.9352
▁positions	-10.9353
▁dean	-10.9356
lindsey	-10.9356
▁roles	-10.9359
▁pac	-10.9367
▁epa	-10.9367
▁perez	-10.9367
▁bible	-10.937
▁murdoch	-10.9373
▁apps	-10.938
▁pit	-10.9383
▁segment	-10.9386
▁motor	-10.9386
▁monkey	-10.9387
▁desk	-10.9389
over	-10.9394
ma	-10.9394
▁mice	-10.9395
ist	-10.9402
▁select	-10.9407
▁abused	-10.9409
▁muscle	-10.9411
▁garage	-10.9411
▁stance	-10.9413
▁stranger	-10.9413
▁craft	-10.9413
▁mon	-10.9417
▁copies	-10.9418
▁reasonable	-10.9418
▁recommendation	-10.9423
▁pose	-10.9426
▁breaks	-10.9427
▁islam	-10.9428
▁concept	-10.9431
▁bankruptcy	-10.9435
▁sacramento	-10.9438
▁refus	-10.9439
▁disabled	-10.9439
▁mont	-10.9442
▁lord	-10.9451
▁explore	-10.9451
▁warner	-10.9454
▁operate	-10.9455
▁promising	-10.9456
▁sharks	-10.9456
▁parked	-10.9457
story	-10.9459
slaughter	-10.9466
▁bride	-10.9467
▁recruit	-10.9468
▁organized	-10.9469
▁1999	-10.9472
▁rolled	-10.9476
▁surgeon	-10.9481
▁combination	-10.9485
▁serial	-10.9489
▁notorious	-10.9491
▁aim	-10.9494
▁remarkable	-10.9496
▁christ	-10.9498
▁mood	-10.9499
de	-10.9507
▁ships	-10.9508
▁riot	-10.9509
▁automatic	-10.9513
▁stunning	-10.9515
▁gig	-10.9518
▁plate	-10.952
▁bike	-10.9526
▁cabin	-10.9528
▁recovering	-10.9531
▁jean	-10.9531
med	-10.9537
▁lifestyle	-10.9545
▁comfortable	-10.9546
▁starr	-10.9546
▁menu	-10.955
▁smartphone	-10.955
▁atmosphere	-10.955
▁ignored	-10.9551
▁controlled	-10.9566
▁congressman	-10.9582
▁intent	-10.9587
▁halloween	-10.9589
▁reject	-10.9589
▁robinson	-10.9591
▁steal	-10.9605
▁donor	-10.9612
▁kasich	-10.9613
ayback	-10.9618
word	-10.9618
▁hang	-10.962
▁democracy	-10.9622
▁mountains	-10.9623
▁frame	-10.9624
▁sentencing	-10.9624
▁depart	-10.9637
▁prompting	-10.9639
▁cnet	-10.9647
ability	-10.9651
▁investigations	-10.9653
▁detected	-10.9653
▁hacking	-10.9654
▁boxes	-10.9657
▁transcript	-10.9658
▁establishment	-10.9665
▁assembly	-10.9665
▁crossed	-10.9666
▁gossip	-10.9668
▁survival	-10.9669
▁throat	-10.9676
▁morris	-10.9687
▁pump	-10.9687
▁temporarily	-10.9691
▁capabl	-10.9691
▁northeast	-10.9692
▁longest	-10.9696
▁tyler	-10.9696
▁oxygen	-10.9703
▁index	-10.9705
▁lawsuits	-10.9707
▁evacuated	-10.9707
▁distress	-10.972
▁mis	-10.9725
▁northwest	-10.9725
▁thrilled	-10.973
▁youngest	-10.9731
▁mate	-10.9731
ned	-10.9733
▁dennis	-10.9745
▁magic	-10.9747
▁devastated	-10.9752
▁dollar	-10.9753
▁yorker	-10.9755
▁boycott	-10.9757
▁aged	-10.9759
der	-10.9764
▁kingdom	-10.9772
▁fee	-10.9774
ine	-10.9775
▁dis	-10.9777
▁fail	-10.978
▁tune	-10.978
▁restrictions	-10.9781
▁careful	-10.9785
▁prayer	-10.9785
▁radical	-10.9791
▁pure	-10.9793
▁beside	-10.9793
its	-10.9795
▁concrete	-10.9797
▁bomber	-10.9799
▁gesture	-10.98
▁investigator	-10.98
▁donnell	-10.9802
▁heather	-10.9806
▁urban	-10.9807
▁springs	-10.9808
▁del	-10.9808
▁incoming	-10.981
▁valuable	-10.9814
▁database	-10.9821
▁winfrey	-10.9822
▁knock	-10.9825
▁visits	-10.9829
▁bleeding	-10.9829
▁liked	-10.9831
▁jacket	-10.9836
▁accurate	-10.9839
▁tons	-10.9842
▁sum	-10.9843
▁expenses	-10.9843
▁loaded	-10.9845
▁juvenile	-10.9848
▁laughing	-10.9868
▁courts	-10.987
▁transported	-10.9871
▁consumption	-10.9877
tic	-10.9878
▁destruction	-10.9881
et	-10.9883
▁hearts	-10.9883
▁holy	-10.9887
▁computers	-10.9887
▁hip	-10.989
▁protein	-10.9891
▁ronald	-10.9892
▁invest	-10.9896
▁nj	-10.9903
▁giuliani	-10.9903
▁courtroom	-10.9903
▁silent	-10.9907
▁realiz	-10.9909
▁ethics	-10.9913
▁loan	-10.9916
▁solo	-10.9928
▁russell	-10.993
▁protective	-10.9936
▁overwhelming	-10.9938
▁advanced	-10.9945
▁walls	-10.9945
▁unfortunate	-10.9948
▁pleased	-10.9948
▁encouraging	-10.9949
▁uniform	-10.9951
▁57	-10.9954
▁lightning	-10.9955
▁fundraising	-10.9955
▁56	-10.9962
▁objects	-10.9966
▁facial	-10.9966
▁hat	-10.9966
▁endorse	-10.9968
▁ken	-10.9971
▁climbing	-10.9972
▁dick	-10.9975
▁jeb	-10.9978
▁et	-10.998
▁waited	-11
▁loving	-11.0001
bit	-11.0006
▁belt	-11.0007
▁mothers	-11.0008
▁roman	-11.0019
▁repeat	-11.0019
▁portray	-11.0021
▁teach	-11.0022
▁franchise	-11.0022
▁soil	-11.0026
▁barry	-11.0027
▁existing	-11.0034
▁sullivan	-11.0041
▁diabetes	-11.0041
▁reserved	-11.0042
▁carrie	-11.0044
▁laura	-11.0052
▁reckless	-11.0052
▁stake	-11.0057
▁soft	-11.006
▁insult	-11.006
▁spider	-11.006
▁cage	-11.0068
▁underway	-11.0071
▁aaron	-11.0072
▁glenn	-11.0072
▁theories	-11.0072
▁penis	-11.0073
▁1.	-11.0079
▁pat	-11.008
▁cheer	-11.0081
▁rio	-11.0083
▁tumor	-11.0086
▁emerge	-11.0092
▁procedures	-11.0102
▁observed	-11.0103
▁orbit	-11.0105
▁patent	-11.0111
▁monster	-11.0115
▁luxury	-11.0117
▁diseases	-11.0117
▁flynn	-11.0117
▁underwater	-11.0119
▁deficit	-11.0119
▁diagnosis	-11.0125
▁romantic	-11.0127
▁spots	-11.0139
lly	-11.0141
▁endorsement	-11.0141
▁equivalent	-11.0142
▁superintendent	-11.0143
▁exclusively	-11.0144
▁beverage	-11.0147
▁practices	-11.0152
▁malaysia	-11.0153
▁aside	-11.0161
▁benghazi	-11.0168
▁resolve	-11.017
▁math	-11.017
▁meals	-11.0173
▁timing	-11.0174
▁comic	-11.0176
▁houses	-11.0177
▁forum	-11.018
▁mosque	-11.0183
aimed	-11.0185
▁lt	-11.0185
▁candy	-11.0189
▁circle	-11.019
▁symbol	-11.0191
▁jared	-11.0192
▁ny	-11.0193
▁digg	-11.0198
▁destination	-11.0199
▁mitchell	-11.0201
▁pelosi	-11.0202
▁taxpayer	-11.0203
▁distribution	-11.0207
▁touching	-11.0209
▁testify	-11.0213
▁caller	-11.0217
▁9-	-11.0219
▁infamous	-11.0225
▁economist	-11.0227
▁technical	-11.0233
▁delta	-11.0237
ship	-11.0238
▁huckab	-11.0238
▁mask	-11.0244
▁ear	-11.0249
▁bang	-11.0249
▁85	-11.0256
▁replac	-11.0257
▁transferr	-11.0259
▁hatch	-11.026
▁invasion	-11.0261
▁hail	-11.0266
▁spark	-11.0271
▁hopefully	-11.0273
▁citizenship	-11.0279
▁handful	-11.0279
bury	-11.0279
▁pipeline	-11.0281
▁reilly	-11.0282
▁farmers	-11.0297
▁explosive	-11.0302
▁28-	-11.0303
▁specialist	-11.0306
▁sheet	-11.0308
▁boot	-11.0309
conic	-11.0312
▁developer	-11.0313
winning	-11.0319
▁creek	-11.0322
▁nerve	-11.0323
▁obtain	-11.0324
▁corp	-11.0335
▁unacceptable	-11.034
▁dui	-11.0342
ful	-11.0343
▁admit	-11.0347
▁principle	-11.036
▁anne	-11.0363
▁brave	-11.0363
▁forensic	-11.0364
▁temple	-11.0372
▁beaten	-11.0372
▁articles	-11.0375
threatening	-11.0385
▁declar	-11.0387
▁martinez	-11.0391
▁confused	-11.0396
▁shower	-11.0396
▁holocaust	-11.0397
▁ward	-11.0403
▁cambridge	-11.0408
▁compromise	-11.0409
▁substantial	-11.041
▁civilian	-11.0416
▁scotland	-11.0418
▁courthouse	-11.0423
▁2011.	-11.0424
▁canyon	-11.0424
▁furious	-11.0425
▁priority	-11.0426
▁violations	-11.0427
melania	-11.0431
third	-11.0434
▁threaten	-11.0434
▁answered	-11.0435
▁comfort	-11.0436
▁critic	-11.0436
ro	-11.0437
▁advised	-11.0443
▁aviation	-11.0446
night	-11.0449
▁forms	-11.045
▁brands	-11.045
ol	-11.0453
▁flooding	-11.0454
▁anxiety	-11.0456
▁squad	-11.0458
▁khan	-11.0464
▁publicity	-11.0466
▁classes	-11.0466
▁creation	-11.0469
▁semi	-11.0469
▁signature	-11.0475
▁shame	-11.0481
▁charlottesville	-11.0482
im	-11.0484
▁multi	-11.0486
▁toys	-11.0487
▁hood	-11.0489
▁string	-11.0493
water	-11.0501
▁genuine	-11.0505
▁recipient	-11.0505
getty	-11.0508
▁tsa	-11.051
▁awesome	-11.0512
ca	-11.0516
▁popularity	-11.0517
▁cake	-11.0518
▁brady	-11.0525
▁factory	-11.0526
▁establish	-11.0529
▁township	-11.0531
▁pole	-11.0531
▁stat	-11.0533
▁fires	-11.0536
▁paramedic	-11.0538
▁universal	-11.0546
▁metro	-11.0549
▁hosts	-11.0553
▁58	-11.0556
▁bolt	-11.0558
▁ivanka	-11.0559
▁powers	-11.0559
▁indianapolis	-11.0559
▁naval	-11.0562
▁existence	-11.0564
▁eligible	-11.057
▁founded	-11.0573
rew	-11.0577
▁ge	-11.0578
▁feeding	-11.0585
▁rico	-11.0589
▁pickup	-11.0595
▁polling	-11.0604
▁confess	-11.061
▁root	-11.0613
▁firearms	-11.0615
▁columbus	-11.0618
▁survivor	-11.0618
▁logo	-11.0619
▁escort	-11.0621
what	-11.0626
chelsea	-11.0627
▁holes	-11.0631
▁posed	-11.0636
shirt	-11.0641
▁visa	-11.0642
hi	-11.0646
▁salary	-11.0647
woman	-11.0647
▁lung	-11.0647
▁bristol	-11.0648
▁bite	-11.065
▁melissa	-11.0653
▁welfare	-11.0654
▁flick	-11.0661
▁romance	-11.0661
▁picking	-11.067
▁portrait	-11.0672
▁trademark	-11.0675
▁cleaning	-11.068
▁assert	-11.0686
▁800	-11.069
▁consistent	-11.0698
▁attendant	-11.07
▁aclu	-11.0701
▁roy	-11.0702
▁properties	-11.0702
▁knee	-11.0707
▁wishes	-11.071
▁endangered	-11.0713
▁genes	-11.0714
▁affordable	-11.0716
▁elephants	-11.0717
▁represented	-11.0719
▁psychological	-11.072
▁rooms	-11.0721
ke	-11.0722
▁mainly	-11.0725
▁armstrong	-11.073
▁dawn	-11.0733
▁cape	-11.0734
▁fundraiser	-11.0738
▁pardon	-11.0738
▁ashley	-11.0741
▁politically	-11.0742
▁accidental	-11.0744
▁ch	-11.0746
▁fighter	-11.0757
▁treasury	-11.0761
▁rarely	-11.0762
▁freed	-11.0764
▁sets	-11.0771
▁stem	-11.0775
▁venue	-11.0776
▁virgin	-11.0784
▁opponent	-11.0786
nt	-11.0787
▁confusion	-11.0791
▁spotlight	-11.0791
▁palestinian	-11.0794
▁erupt	-11.0797
▁script	-11.0799
▁yards	-11.0807
▁chat	-11.0807
▁arriv	-11.0809
▁cincinnati	-11.082
▁intentionally	-11.082
▁cream	-11.0822
▁capacity	-11.0826
▁ri	-11.0829
▁harbor	-11.0834
▁household	-11.0838
▁carpet	-11.0841
▁delaware	-11.0847
da	-11.0847
▁norway	-11.0848
▁compensation	-11.0849
▁poisoning	-11.085
ir	-11.085
▁59	-11.0851
▁gps	-11.0851
▁shkreli	-11.0852
▁perfectly	-11.086
▁philip	-11.086
▁chef	-11.0862
plus	-11.0863
▁warnings	-11.0863
▁choices	-11.0864
▁graphic	-11.0865
▁memoir	-11.0869
▁independence	-11.0873
▁enormous	-11.0877
▁parenthood	-11.0877
▁surrender	-11.0878
▁priest	-11.0878
▁southeast	-11.0879
▁50-	-11.0881
▁empire	-11.0881
▁woke	-11.0887
▁patch	-11.0889
▁lethal	-11.0893
▁hu	-11.0899
▁nra	-11.0901
▁echo	-11.0904
▁fundamental	-11.0905
▁classroom	-11.0907
▁sweep	-11.0917
▁sketch	-11.0919
▁margin	-11.092
▁hundred	-11.0924
▁mtv	-11.0926
elect	-11.093
▁endanger	-11.0932
▁maps	-11.0932
▁intervention	-11.0936
▁bipartisan	-11.0936
▁craig	-11.0938
▁leonard	-11.0941
▁aka	-11.0941
▁healthcare	-11.0941
▁jurors	-11.0945
▁1997	-11.0949
▁nicole	-11.0957
▁grade	-11.096
▁zika	-11.0964
▁thorough	-11.0964
▁nightmare	-11.0967
▁rat	-11.0967
▁campbell	-11.097
▁politician	-11.0971
▁ne	-11.0992
▁jamie	-11.1
▁arts	-11.1
▁widow	-11.1
▁impressed	-11.1005
▁assume	-11.1005
when	-11.1012
▁creator	-11.1012
▁dealer	-11.1019
▁recommended	-11.1023
▁explicit	-11.1023
▁advisor	-11.1025
▁swiss	-11.1028
▁examined	-11.1029
▁pills	-11.1032
▁fluid	-11.1033
▁swim	-11.1034
▁shipping	-11.1036
tan	-11.1037
▁vocal	-11.1037
▁notable	-11.1038
▁diversity	-11.104
▁cuban	-11.104
▁chemicals	-11.1041
▁yelling	-11.1042
▁lit	-11.1047
▁regulator	-11.1049
▁kidney	-11.1054
▁kyle	-11.1057
▁offense	-11.1058
▁rome	-11.1058
▁vermont	-11.106
▁oakland	-11.106
▁males	-11.1071
cy	-11.1075
▁oscars	-11.1075
▁aftermath	-11.1083
face	-11.1084
▁jewelry	-11.1086
ney	-11.1087
▁privilege	-11.109
▁enemy	-11.1093
▁yemen	-11.1098
▁costume	-11.11
▁tsarnaev	-11.1112
▁nazis	-11.1114
▁radiation	-11.1114
▁bullets	-11.1118
▁handled	-11.1121
▁pretend	-11.1125
▁fe	-11.1126
▁ugly	-11.1132
port	-11.1133
▁attract	-11.1133
▁wipe	-11.1133
end	-11.1139
▁fleeing	-11.1145
▁nervous	-11.1145
▁hamilton	-11.1149
▁thousand	-11.115
▁casino	-11.1151
▁voices	-11.1154
▁humanity	-11.1155
▁disgusting	-11.1157
ha	-11.1158
▁su	-11.116
▁heels	-11.116
▁elaborate	-11.1163
viewed	-11.1165
▁manafort	-11.1172
▁tariff	-11.1172
▁tillerson	-11.1173
▁neil	-11.1174
▁tone	-11.1177
▁partially	-11.1182
▁par	-11.1183
some	-11.1184
▁blunt	-11.1185
▁transfer	-11.1189
▁iceland	-11.1191
▁happiness	-11.1194
▁jesse	-11.1197
▁27-	-11.1199
▁franklin	-11.1203
▁administrative	-11.1203
person	-11.1204
▁perspective	-11.1205
▁columnist	-11.1207
▁25,000	-11.1208
▁drought	-11.1209
▁slash	-11.1212
area	-11.1216
▁sentences	-11.1219
▁carefully	-11.1219
▁29-	-11.122
▁communicate	-11.1221
▁hire	-11.1223
▁rage	-11.1227
▁kris	-11.1231
▁ellen	-11.1233
▁occupy	-11.1233
▁interstate	-11.1235
▁preliminary	-11.1236
ell	-11.1239
▁poland	-11.1244
▁punched	-11.1246
written	-11.1249
▁adopt	-11.1249
▁jaw	-11.1253
pping	-11.1254
▁demonstrate	-11.1257
▁35-	-11.1257
▁elite	-11.1259
▁addresses	-11.1263
▁berlin	-11.1268
▁bra	-11.1269
▁dated	-11.1274
▁engage	-11.1275
▁employers	-11.1282
▁rand	-11.1283
▁tensions	-11.1285
▁4,000	-11.1287
significantly	-11.1292
▁cemetery	-11.1295
▁tsunami	-11.1299
▁busted	-11.1307
▁pocket	-11.1316
▁caucus	-11.1318
▁gibson	-11.1324
▁purposes	-11.1324
▁mohammed	-11.1326
▁deer	-11.1327
▁elder	-11.1328
▁wayne	-11.1328
▁99	-11.133
▁ga	-11.1332
▁dose	-11.1338
▁forth	-11.1338
▁nebraska	-11.134
▁1994	-11.1342
▁volume	-11.1348
sen	-11.1351
reaching	-11.1351
▁flood	-11.1353
▁affidavit	-11.1355
▁artificial	-11.1355
▁convince	-11.1358
▁jezebel	-11.1359
▁excessive	-11.1362
▁1995	-11.1363
▁epic	-11.1366
▁challenging	-11.137
▁acid	-11.1371
▁wells	-11.1373
▁earn	-11.1376
▁height	-11.1379
▁na	-11.138
▁marvel	-11.1381
▁treasure	-11.1382
▁openly	-11.1383
▁asleep	-11.1383
let	-11.1386
▁trace	-11.1389
▁1960	-11.1393
▁snapped	-11.1395
▁nyc	-11.1398
▁publication	-11.1406
▁brett	-11.1407
▁lyrics	-11.1407
▁terminal	-11.1408
▁vital	-11.1412
▁checking	-11.1414
▁tag	-11.1415
▁suspension	-11.1417
▁explosives	-11.1424
▁lock	-11.1426
▁timeline	-11.143
▁flags	-11.1436
▁spears	-11.1444
▁prank	-11.1447
▁peninsula	-11.1448
▁evacuation	-11.145
▁barrel	-11.1451
▁legitimate	-11.1453
▁comparison	-11.1455
ck	-11.1459
▁examples	-11.1462
▁hammer	-11.1464
▁impose	-11.147
looking	-11.1474
▁eagle	-11.1478
▁excerpt	-11.1478
blew	-11.1479
▁pollution	-11.1481
▁jeffrey	-11.1481
▁kush	-11.1482
▁firearm	-11.1485
▁superior	-11.1489
▁15,000	-11.149
▁deceased	-11.1492
▁poverty	-11.1493
▁cox	-11.1495
▁chan	-11.1497
▁hike	-11.1499
▁creatures	-11.1504
▁dial	-11.1507
▁vox	-11.1511
▁cyrus	-11.1512
▁potter	-11.1513
▁damag	-11.1514
▁wash	-11.1516
▁medicare	-11.1517
▁mu	-11.152
allowing	-11.152
▁seth	-11.152
▁hostage	-11.1523
▁whet	-11.1527
▁definition	-11.1528
▁executives	-11.1531
▁duck	-11.1536
▁expectations	-11.1536
▁stunned	-11.1546
▁alan	-11.1546
▁shake	-11.1547
▁consult	-11.1548
▁gallon	-11.155
▁occasional	-11.1553
▁friendly	-11.1563
▁amber	-11.1564
ai	-11.1564
ping	-11.1565
▁naturally	-11.1566
▁irs	-11.1567
▁battl	-11.1573
▁bashar	-11.1573
▁feat	-11.1573
▁confrontation	-11.1575
▁1,500	-11.1577
assad	-11.1577
▁madison	-11.1578
▁remov	-11.1579
▁currency	-11.158
▁hudson	-11.1581
▁immune	-11.1581
▁des	-11.1582
▁rings	-11.1583
▁employment	-11.1593
▁prevention	-11.1593
▁deposit	-11.1594
▁cents	-11.16
▁institution	-11.1602
▁conway	-11.1607
▁reynolds	-11.1607
▁ukrainian	-11.1607
▁boeing	-11.1608
ur	-11.1621
▁methods	-11.1629
sung	-11.1634
▁buffalo	-11.1638
▁angelina	-11.1639
▁flowers	-11.164
▁creature	-11.1642
▁carl	-11.1648
▁improvement	-11.1654
▁carey	-11.1654
▁cancel	-11.1655
▁publishing	-11.1669
▁embrace	-11.1669
▁newborn	-11.167
▁hilarious	-11.1671
▁haul	-11.1672
▁burial	-11.1672
▁signatures	-11.1673
▁cent	-11.1677
making	-11.1678
▁noon	-11.1679
▁moms	-11.1686
▁excuse	-11.1687
▁ignore	-11.1696
▁phenomenon	-11.1699
▁ranch	-11.17
▁counties	-11.1704
▁icon	-11.1708
▁discount	-11.171
▁covers	-11.1712
▁experiences	-11.1712
▁soviet	-11.1713
▁borders	-11.1717
▁recognition	-11.1723
▁industrial	-11.1724
▁restore	-11.1731
▁requir	-11.1732
▁95	-11.1736
▁pile	-11.1737
▁nasty	-11.1738
trump	-11.1739
▁punish	-11.1742
▁hug	-11.1743
▁warming	-11.1746
▁mrs	-11.1747
▁retweet	-11.1748
▁reminder	-11.1749
▁supporter	-11.175
▁72	-11.1757
▁pics	-11.1762
▁limbaugh	-11.1764
▁propaganda	-11.1765
▁troubled	-11.1765
▁skeptical	-11.1769
▁workplace	-11.177
▁opt	-11.1779
▁submitted	-11.1781
▁painted	-11.1784
▁mammal	-11.1789
▁spice	-11.1795
▁dragged	-11.1798
▁colleague	-11.1803
trained	-11.1803
▁urine	-11.1804
▁contrast	-11.1805
▁improved	-11.1805
▁fiance	-11.1806
▁surviv	-11.1811
▁negotiate	-11.1813
▁soda	-11.1813
▁700	-11.1817
▁magnitude	-11.1817
▁rats	-11.1825
▁collision	-11.1828
▁physician	-11.1829
▁smithsonian	-11.183
▁2.5	-11.1834
▁closest	-11.1835
▁sterling	-11.1837
traveled	-11.1841
▁interaction	-11.1852
▁wallet	-11.1852
▁defendant	-11.1855
▁mistakes	-11.1857
▁pakistani	-11.186
▁66	-11.186
▁photographs	-11.1872
▁viewing	-11.1878
▁robot	-11.1884
▁awkward	-11.1884
ter	-11.1889
▁extent	-11.1894
▁relevant	-11.1896
▁hometown	-11.1899
▁leap	-11.1917
▁rivals	-11.1917
▁powder	-11.1919
▁thin	-11.1921
▁elevator	-11.1926
▁junior	-11.1927
▁watson	-11.1927
▁detect	-11.1928
▁ranks	-11.1934
▁certificate	-11.1935
▁embarrassing	-11.1935
▁hoax	-11.1936
▁beliefs	-11.194
elected	-11.1944
security	-11.1949
▁belonging	-11.195
▁halt	-11.1951
▁participat	-11.1953
▁mentally	-11.1957
▁120	-11.1959
▁phase	-11.1963
▁yell	-11.1965
▁32-	-11.1976
▁cow	-11.1981
▁em	-11.1981
▁suburb	-11.1982
▁subscribe	-11.1986
▁hospitaliz	-11.1988
▁revenge	-11.1989
▁bi	-11.1989
▁id	-11.1991
▁hilton	-11.1993
are	-11.1998
▁revelation	-11.1999
▁angel	-11.2
▁outrageous	-11.2002
lifted	-11.2008
▁scratch	-11.2008
▁cargo	-11.2009
jaze	-11.2017
▁aunt	-11.2019
▁joking	-11.202
▁butter	-11.2023
inquirer	-11.2026
▁spencer	-11.2028
house	-11.2032
▁castle	-11.204
▁pour	-11.2041
▁2.	-11.2046
▁deeper	-11.2048
▁ingredients	-11.2048
▁withdraw	-11.2049
▁angela	-11.2053
▁surge	-11.2055
▁milestone	-11.2057
▁approve	-11.2059
after	-11.2061
▁exploded	-11.2061
▁vi	-11.2064
▁gordon	-11.2067
▁appearances	-11.2068
ham	-11.2068
▁tongue	-11.2073
▁quest	-11.2073
▁revolution	-11.2081
▁ta	-11.2084
▁partnership	-11.2092
▁smiling	-11.2093
▁stor	-11.2094
▁wow	-11.2096
▁complications	-11.2103
▁ripped	-11.2106
▁quot	-11.211
▁abroad	-11.2112
▁migrants	-11.2114
▁cycle	-11.2115
▁loans	-11.2116
▁prais	-11.2118
▁progressive	-11.2119
▁reverse	-11.2121
▁attacker	-11.2121
▁osama	-11.2122
▁inspiration	-11.2123
▁insight	-11.2124
▁dug	-11.2135
▁62	-11.2141
▁liver	-11.2143
▁250,000	-11.2144
▁flaw	-11.2145
scale	-11.2151
▁organs	-11.2158
▁pride	-11.2158
▁supervisor	-11.2159
▁tries	-11.216
▁marshal	-11.2164
▁trips	-11.2165
▁stepping	-11.2169
▁absence	-11.2169
ably	-11.2171
▁julian	-11.2172
▁writ	-11.2173
▁presumabl	-11.2179
tourism	-11.218
▁gains	-11.2182
▁indict	-11.2182
▁gaza	-11.2184
▁pace	-11.2186
▁stressed	-11.2187
▁sergeant	-11.219
ka	-11.2196
▁hopeful	-11.2196
▁slide	-11.2197
▁traffick	-11.2198
▁playboy	-11.2198
▁stevens	-11.2201
▁gym	-11.2204
▁divorced	-11.2207
▁nowhere	-11.2211
ford	-11.2213
▁criminals	-11.2215
▁61	-11.2218
▁wonders	-11.222
▁hispanic	-11.2223
▁bust	-11.2224
▁exists	-11.2225
▁freak	-11.2226
▁burst	-11.2231
▁chronic	-11.2236
▁occasion	-11.2239
▁simmons	-11.224
▁bloody	-11.224
▁fitness	-11.2244
▁integr	-11.2244
▁vaccine	-11.2246
▁losses	-11.2247
▁heaven	-11.2248
▁polish	-11.2248
▁intel	-11.2248
▁40-	-11.2248
▁flip	-11.2254
▁col	-11.2259
▁connor	-11.2261
▁fascinating	-11.2264
▁coal	-11.2268
▁grass	-11.2274
▁makeup	-11.2281
▁ourselves	-11.2289
▁laptop	-11.2289
▁spacecraft	-11.2289
▁jets	-11.2291
▁clue	-11.2292
▁assess	-11.2295
▁flint	-11.2299
pped	-11.23
ate	-11.231
▁submit	-11.2311
▁ladies	-11.2312
▁scare	-11.2317
▁react	-11.2321
▁attackers	-11.2323
▁musician	-11.233
▁67	-11.2333
▁circulat	-11.2336
▁flee	-11.2337
▁organ	-11.2339
▁strict	-11.234
▁briefing	-11.2341
▁poster	-11.2343
▁lawn	-11.2343
▁accidents	-11.2349
ish	-11.2352
lipped	-11.2353
▁ease	-11.2354
▁gifts	-11.236
▁extension	-11.236
▁ordeal	-11.2364
▁marc	-11.2364
▁juice	-11.2366
▁billy	-11.2366
▁enquirer	-11.2368
▁prisoner	-11.2369
▁rhetoric	-11.2369
▁indonesia	-11.237
iness	-11.237
▁famously	-11.2374
picer	-11.2385
▁lynch	-11.2387
▁cnnmoney	-11.2392
▁caribbean	-11.2392
▁refuse	-11.2393
▁bucket	-11.2397
▁retrieve	-11.2404
▁recession	-11.2406
▁analyz	-11.2409
▁banner	-11.2412
▁bullying	-11.2415
▁treatments	-11.2416
▁rex	-11.2418
▁stabbing	-11.2429
▁31-	-11.2436
▁yield	-11.2439
▁texts	-11.2443
▁differently	-11.2455
▁infrastructure	-11.2461
▁memories	-11.2463
hand	-11.2464
▁optimistic	-11.2464
▁pornography	-11.2465
technically	-11.2475
▁64	-11.2477
unconstitutional	-11.2481
▁lapd	-11.2481
▁blanket	-11.2481
▁employer	-11.2483
▁businessman	-11.2488
▁rivers	-11.2489
▁1992	-11.2493
▁exception	-11.2494
▁2010.	-11.2495
/1	-11.2497
▁mi	-11.2498
refore	-11.25
▁depp	-11.2502
▁basement	-11.2505
▁breitbart	-11.2505
▁jacob	-11.2506
▁corps	-11.2515
▁anna	-11.2515
▁experienc	-11.2518
▁grocery	-11.2528
argues	-11.2528
▁berry	-11.2528
▁electricity	-11.2531
▁tobacco	-11.2537
▁lgbt	-11.2538
▁admission	-11.2538
▁emissions	-11.254
▁ordinary	-11.2542
▁pundit	-11.2547
tribune	-11.2552
▁shield	-11.2557
sange	-11.2559
▁grabbe	-11.2561
ill	-11.2562
journal	-11.2564
▁stopping	-11.2565
▁jeremy	-11.2567
▁mini	-11.257
▁import	-11.257
than	-11.2573
▁arctic	-11.2575
▁abu	-11.2575
▁2009.	-11.2578
▁garcia	-11.2579
▁confidential	-11.2581
▁emma	-11.2581
▁cruel	-11.2582
▁responses	-11.2585
▁tube	-11.2586
▁panda	-11.2588
▁sticking	-11.259
▁singapore	-11.259
▁sweat	-11.2596
head	-11.2597
▁tomatoes	-11.2599
▁scout	-11.2607
▁scenario	-11.2612
▁opinions	-11.2613
▁container	-11.2615
▁travelers	-11.2616
▁punch	-11.2617
▁klein	-11.2621
▁comply	-11.2622
▁cheating	-11.2627
▁sexy	-11.2627
▁javascript	-11.2631
▁phillips	-11.2634
▁feud	-11.2635
isolated	-11.2636
▁teenagers	-11.2644
▁firms	-11.266
▁consume	-11.2667
▁attendance	-11.2667
▁duties	-11.2668
▁seoul	-11.2668
▁exam	-11.2669
▁engineering	-11.2669
▁fierce	-11.2669
▁backpack	-11.2671
▁proven	-11.2671
▁airstrikes	-11.2671
▁thieves	-11.2672
▁consultant	-11.2673
▁gore	-11.2673
▁bennett	-11.2674
▁inform	-11.2674
▁classmate	-11.2681
▁lately	-11.2684
funded	-11.2693
▁quietly	-11.2693
▁dubbe	-11.2694
▁doug	-11.2697
▁centuries	-11.2701
▁athlete	-11.2701
▁33-	-11.2707
▁brilliant	-11.2712
▁prevented	-11.2713
▁cairo	-11.2715
▁terry	-11.2717
▁fingers	-11.2725
▁shell	-11.273
▁nightclub	-11.2739
▁milwaukee	-11.274
▁stones	-11.2747
▁profound	-11.2748
▁newser	-11.2751
▁asteroid	-11.276
▁elephant	-11.2761
▁abbott	-11.2762
▁saint	-11.2769
▁pursu	-11.2769
▁compet	-11.277
▁switzerland	-11.2772
▁glasses	-11.2773
▁utter	-11.2776
▁strongest	-11.2784
▁writers	-11.2787
▁300,000	-11.2792
▁acres	-11.2794
▁swing	-11.2801
▁taxi	-11.2808
▁seventh	-11.2813
▁evolution	-11.2817
▁motorcycle	-11.2817
▁68	-11.2818
▁android	-11.2819
▁sir	-11.282
▁accompany	-11.2822
▁coin	-11.2824
han	-11.2826
▁origin	-11.2826
▁journalism	-11.2828
▁tha	-11.283
▁sorts	-11.2831
▁adjust	-11.2844
▁drones	-11.2845
▁netherlands	-11.2846
▁crucial	-11.2848
▁aisle	-11.2848
▁miley	-11.2849
▁swept	-11.2852
▁removal	-11.2854
▁annually	-11.2865
▁arena	-11.2866
▁lauren	-11.2867
mentioned	-11.2871
▁spill	-11.2871
▁modest	-11.2878
▁garbage	-11.2878
▁cure	-11.288
▁dispatcher	-11.2881
▁carries	-11.2882
▁affleck	-11.2882
▁commerce	-11.2883
▁40,000	-11.2884
▁camps	-11.2885
▁coma	-11.2888
▁exhibit	-11.2898
▁clues	-11.29
ery	-11.29
white	-11.2903
▁mason	-11.2905
▁academic	-11.2906
▁cookies	-11.2907
▁slam	-11.2909
▁scrutiny	-11.2914
gov	-11.2916
ides	-11.2916
parked	-11.292
▁friendship	-11.2926
▁venture	-11.2926
▁offended	-11.2928
▁tomb	-11.2929
▁baker	-11.2929
ian	-11.2934
▁herman	-11.2936
▁instructions	-11.2937
▁inspector	-11.2941
▁pipe	-11.2944
▁habit	-11.2945
▁promotion	-11.2947
▁culprit	-11.295
▁silicon	-11.2952
▁thick	-11.2953
▁inquiry	-11.2953
▁carlson	-11.2956
▁assumed	-11.2959
▁export	-11.296
▁harper	-11.2964
▁improper	-11.2965
▁hunger	-11.2966
▁curb	-11.2978
▁instrument	-11.2984
▁bernardino	-11.2986
▁kenneth	-11.2987
▁vomit	-11.2988
tz	-11.299
▁respectively	-11.299
▁sta	-11.2991
▁brazilian	-11.2992
▁suburban	-11.2994
▁cruelty	-11.2994
▁sadden	-11.2997
▁mubarak	-11.3001
▁spin	-11.3006
▁pill	-11.3006
▁barrier	-11.3007
▁deployed	-11.3009
▁specifics	-11.3011
ut	-11.3014
▁rear	-11.3016
▁fi	-11.3021
▁invite	-11.3022
▁asylum	-11.3022
▁thankful	-11.3023
▁bystander	-11.3024
▁quarterback	-11.3025
▁campaigns	-11.3027
▁rotten	-11.3028
▁yale	-11.3028
▁versions	-11.3029
▁separation	-11.3031
▁applaud	-11.3034
ew	-11.3034
▁goods	-11.3036
▁dish	-11.3045
▁accessible	-11.3045
▁ideal	-11.3045
ak	-11.3048
▁abortions	-11.3053
▁unaware	-11.3059
▁ammunition	-11.3059
▁poison	-11.3059
▁slept	-11.3061
▁washed	-11.3063
▁lions	-11.3067
▁vet	-11.3067
▁mortgage	-11.307
▁ka	-11.307
▁races	-11.3071
▁libyan	-11.3072
▁oral	-11.3073
▁inauguration	-11.3076
▁dreams	-11.3084
gan	-11.3086
▁visual	-11.309
▁verbal	-11.3093
▁fallon	-11.3094
▁verizon	-11.3095
▁dialogue	-11.3095
▁opportunities	-11.3095
▁agriculture	-11.3096
▁scan	-11.3096
▁2017.	-11.3097
▁unlawful	-11.3098
▁oversight	-11.3098
▁supremacist	-11.3103
▁reunion	-11.3103
▁span	-11.311
▁wages	-11.3117
▁sometime	-11.3124
rated	-11.3127
new	-11.3129
▁tornado	-11.3135
▁defendants	-11.3135
▁arnold	-11.3136
▁convictions	-11.3137
▁terrifying	-11.3138
▁drowned	-11.3144
▁rapidly	-11.3145
▁bread	-11.3146
▁honored	-11.315
▁paula	-11.3152
▁mel	-11.3152
ssociated	-11.3153
▁meth	-11.3156
▁opens	-11.3156
▁fever	-11.3157
▁demonstrator	-11.316
▁cease	-11.3161
▁insect	-11.3165
bobby	-11.3167
▁predecessor	-11.3169
▁gomez	-11.3174
▁concentration	-11.3174
▁arrangement	-11.3175
▁powell	-11.3179
▁hart	-11.3182
▁cpr	-11.3182
▁courage	-11.3183
▁bow	-11.3186
▁attendee	-11.3188
▁calories	-11.3196
▁boo	-11.3205
▁venezuela	-11.3207
▁bat	-11.3209
▁divided	-11.321
▁fines	-11.3215
▁barnes	-11.3222
▁trucks	-11.3222
▁seasons	-11.323
▁sector	-11.3236
▁debates	-11.3241
▁abandon	-11.3243
▁0	-11.3244
▁trayvon	-11.3244
▁joshua	-11.3244
▁tournament	-11.3244
▁divers	-11.3246
▁sanchez	-11.3247
▁spurr	-11.3247
world	-11.3248
▁generations	-11.325
▁emily	-11.3253
▁juan	-11.3253
▁ditch	-11.3254
▁insane	-11.3255
▁infections	-11.3256
▁hamas	-11.3263
▁cannon	-11.3265
▁noah	-11.3266
▁consum	-11.3275
▁trap	-11.3275
▁34-	-11.3276
▁techcrunch	-11.3281
▁volcano	-11.3283
▁centre	-11.3285
▁tennis	-11.3291
▁vest	-11.3296
▁prohibit	-11.3306
▁qualified	-11.3306
▁critically	-11.331
▁prom	-11.3312
▁cord	-11.3315
▁retain	-11.3323
▁eighth	-11.3323
school	-11.3327
▁stranded	-11.3328
▁habitat	-11.3329
▁telephone	-11.3334
▁kissing	-11.3334
▁notion	-11.3339
ain	-11.3342
gregory	-11.335
▁institutions	-11.335
▁forgotten	-11.335
▁goals	-11.3352
▁plague	-11.3354
▁bitter	-11.3355
▁wyoming	-11.3357
▁dementia	-11.3357
▁undercover	-11.3359
▁continent	-11.3359
▁secrets	-11.3361
▁urge	-11.3364
▁pepper	-11.3368
▁attracted	-11.3368
▁borrow	-11.337
ah	-11.3377
▁fixed	-11.3392
▁humanitarian	-11.3395
▁jefferson	-11.3395
mail	-11.3396
▁roundup	-11.3397
▁alliance	-11.3397
▁trans	-11.3399
▁fireworks	-11.3403
▁eaten	-11.341
▁responder	-11.3413
▁packages	-11.3419
▁lu	-11.3422
▁impression	-11.3424
▁counting	-11.3429
▁jackpot	-11.3431
▁1989	-11.3432
▁trudeau	-11.3436
▁estranged	-11.3438
reprints	-11.3438
▁evans	-11.3439
▁69	-11.3439
▁runway	-11.3446
▁patriots	-11.3446
▁essential	-11.3447
most	-11.3451
goldman	-11.3457
▁secretly	-11.3457
▁mega	-11.3458
contrary	-11.3462
▁philippines	-11.3463
ina	-11.3464
▁denmark	-11.3468
▁referendum	-11.3468
square	-11.3471
▁intoxicated	-11.3471
▁resistance	-11.3472
▁benedict	-11.3473
▁sank	-11.3474
▁obesity	-11.3475
▁remark	-11.3478
▁identical	-11.3479
▁skip	-11.348
nes	-11.3482
▁sacrifice	-11.3488
▁carlos	-11.3495
psychiatric	-11.3497
▁blake	-11.3499
▁katy	-11.3502
▁watt	-11.3502
waiting	-11.3506
▁knox	-11.3507
▁gunfire	-11.3507
▁iii	-11.351
▁sequel	-11.3512
▁dancer	-11.3516
▁farmer	-11.3518
▁boring	-11.352
listening	-11.3523
▁revive	-11.353
0,000	-11.3532
▁situations	-11.3532
▁ke	-11.3534
▁dumb	-11.3534
ent	-11.3535
▁entrance	-11.3539
▁holidays	-11.3541
▁nuts	-11.3546
size	-11.3549
▁uncomfortable	-11.355
▁premium	-11.355
▁reduction	-11.3552
hood	-11.3556
▁marshall	-11.3558
▁headache	-11.3562
▁pond	-11.3563
▁essay	-11.3566
▁theaters	-11.3568
▁chi	-11.3568
▁bitcoin	-11.3572
▁dana	-11.3573
don	-11.3575
▁helpful	-11.3578
▁drain	-11.358
▁narrative	-11.3582
▁reception	-11.3584
▁nephew	-11.3594
▁runner	-11.3603
▁rapid	-11.3605
▁credible	-11.3608
▁oversee	-11.3613
▁nail	-11.3614
▁absurd	-11.3619
▁cartoon	-11.3619
▁adventure	-11.362
▁gifford	-11.3621
▁legislature	-11.3622
▁wallace	-11.3624
▁enemies	-11.3626
▁precious	-11.3628
▁latin	-11.3629
▁berkeley	-11.3629
charging	-11.363
▁comprehensive	-11.363
▁colin	-11.3632
▁sporting	-11.3638
▁accord	-11.3639
▁allegation	-11.3645
▁deen	-11.3649
▁wrap	-11.365
▁minds	-11.3654
▁females	-11.3654
▁fugitive	-11.3659
▁mainstream	-11.3661
▁bold	-11.3663
▁credits	-11.3663
▁bradley	-11.3663
▁backyard	-11.3665
force	-11.3667
▁peterson	-11.367
▁refugee	-11.3674
▁tackle	-11.3675
▁renewed	-11.3677
▁disclosed	-11.368
▁warehouse	-11.3682
▁snl	-11.3685
▁hawking	-11.3686
▁strategist	-11.3688
▁deck	-11.3695
▁diana	-11.3699
▁lied	-11.37
▁legislative	-11.3701
▁consideration	-11.3701
▁paltrow	-11.3702
▁brien	-11.3707
▁implications	-11.3709
per	-11.3713
stone	-11.3716
▁everest	-11.372
▁govern	-11.3722
▁overturned	-11.3724
▁publicist	-11.3727
▁bishop	-11.3735
▁machines	-11.3737
▁leaks	-11.3739
pieces	-11.3749
▁frankly	-11.3751
▁gm	-11.3752
host	-11.3753
▁equality	-11.3754
▁karen	-11.3755
▁drill	-11.3757
▁controls	-11.3758
▁commenter	-11.376
▁pets	-11.3763
▁peanut	-11.3765
▁63	-11.3766
▁attitude	-11.3769
▁inbox	-11.3772
▁poses	-11.3778
▁lesbian	-11.3779
▁assassination	-11.3779
▁expedition	-11.3779
▁qualify	-11.378
▁costa	-11.3789
▁wise	-11.3792
▁embarrassed	-11.3795
▁franco	-11.3799
his	-11.38
▁tremendous	-11.3805
▁equally	-11.3806
second	-11.3806
▁reduc	-11.3808
▁concede	-11.3812
▁lamar	-11.3814
▁autism	-11.3817
▁unhappy	-11.3818
▁charleston	-11.382
▁transaction	-11.3821
▁underwear	-11.3823
▁resemble	-11.3826
constitution	-11.383
▁rallie	-11.383
▁astronomer	-11.3834
appeals	-11.3835
▁recipe	-11.3836
▁outstanding	-11.3837
▁towns	-11.3843
▁speeding	-11.3843
care	-11.3849
▁escap	-11.3854
▁belgium	-11.3854
frustrated	-11.3855
▁airing	-11.3864
▁christina	-11.387
▁2008.	-11.3872
▁jake	-11.3873
▁com	-11.3875
▁afore	-11.3879
▁puzzle	-11.3881
▁groom	-11.3881
▁forecast	-11.3883
▁brush	-11.3884
▁1993	-11.3884
den	-11.3884
▁marie	-11.3889
▁sandra	-11.3894
▁paperwork	-11.3895
▁advocacy	-11.3896
▁taiwan	-11.3897
▁snap	-11.3897
▁condolences	-11.3901
▁lone	-11.3901
government	-11.3901
rich	-11.3902
ble	-11.3904
▁curry	-11.3904
▁criticiz	-11.3909
▁oregonian	-11.3912
▁airports	-11.3913
▁phys	-11.3916
▁fracture	-11.392
▁mode	-11.3921
▁strangers	-11.3922
▁fool	-11.3923
▁dnc	-11.3933
▁hung	-11.3934
▁medicaid	-11.3934
▁unsuccessful	-11.3934
▁closure	-11.3935
▁drank	-11.3938
▁stops	-11.394
too	-11.3945
▁staffer	-11.3947
▁walter	-11.3949
▁broadway	-11.3949
▁grandson	-11.395
▁kristen	-11.3952
▁presentation	-11.3958
▁butler	-11.3959
▁protesting	-11.3959
▁discharge	-11.3959
▁rip	-11.3974
being	-11.3981
ni	-11.3982
▁nursing	-11.3983
▁deliberately	-11.3984
▁etc	-11.3986
▁kfc	-11.3988
▁burden	-11.399
▁faa	-11.3992
▁worn	-11.3995
▁edt	-11.3995
▁chunk	-11.3995
ning	-11.3997
▁1.2	-11.3999
▁dive	-11.4
▁competitive	-11.4004
▁championship	-11.4008
▁inner	-11.401
▁consulate	-11.4015
▁brooks	-11.4016
ledger	-11.4017
▁stanford	-11.4017
▁deportation	-11.4017
▁clinical	-11.4021
▁middleton	-11.4022
▁celebs	-11.4024
▁demi	-11.4024
▁unspecifi	-11.4027
em	-11.403
ron	-11.4033
▁blown	-11.4036
▁introduce	-11.4036
▁envelope	-11.4045
▁grey	-11.4047
▁grief	-11.4054
▁acquire	-11.4055
stein	-11.4057
▁nixon	-11.406
▁gu	-11.4061
▁confederate	-11.4063
▁hiker	-11.4064
▁strengthen	-11.4081
▁passion	-11.409
▁sandusky	-11.4096
▁peer	-11.4097
▁log	-11.4099
▁epidemic	-11.4099
▁doubled	-11.41
▁kutcher	-11.4101
food	-11.4102
▁stanley	-11.4104
▁tanks	-11.4107
▁generate	-11.4112
action	-11.4115
fi	-11.412
▁clash	-11.4124
▁appointed	-11.4129
▁cubs	-11.4131
▁crackdown	-11.4137
▁strategic	-11.4138
▁mari	-11.4142
▁clerk	-11.4142
▁default	-11.4142
▁pierce	-11.4147
▁manufacturing	-11.4151
▁euro	-11.4158
▁increas	-11.4159
▁interrupt	-11.4169
▁bother	-11.4171
▁harrison	-11.4172
▁linda	-11.4181
▁rebecca	-11.4183
▁freeze	-11.4184
▁aging	-11.4184
uomo	-11.4184
▁expression	-11.419
▁kidnapp	-11.4192
▁logan	-11.4194
▁doll	-11.4194
people	-11.4194
▁tropical	-11.4199
ization	-11.4199
▁decid	-11.42
▁angle	-11.4201
▁contend	-11.4209
▁transform	-11.421
▁pistol	-11.4212
michele	-11.4216
▁editors	-11.4216
▁subscription	-11.4221
▁buffett	-11.4221
▁premature	-11.4223
▁cannabis	-11.4223
▁vulture	-11.4224
▁decent	-11.4232
▁valued	-11.4235
▁habits	-11.4235
▁bug	-11.4237
▁preserve	-11.4243
▁shoppers	-11.4243
▁transit	-11.425
▁horses	-11.4252
▁dirt	-11.4253
▁sexist	-11.4254
▁offenses	-11.4255
▁happier	-11.4258
▁selection	-11.4267
▁browser	-11.4269
▁goldberg	-11.427
flown	-11.4271
▁formula	-11.4274
▁tail	-11.4274
▁reunited	-11.4279
▁hungry	-11.428
▁advise	-11.4282
▁steep	-11.4283
▁define	-11.4287
▁unfold	-11.4287
▁patriot	-11.429
▁extract	-11.4292
▁administer	-11.4295
▁nashville	-11.43
ek	-11.431
▁shadow	-11.4312
▁intimate	-11.4319
▁pageant	-11.432
husband	-11.432
▁tossed	-11.4329
▁analyze	-11.4334
▁airplane	-11.4336
▁chant	-11.4336
▁lip	-11.4339
▁whitney	-11.434
▁immigrant	-11.4343
▁emmy	-11.4344
ked	-11.4344
▁screenshot	-11.4345
▁purple	-11.4348
▁paintings	-11.4349
▁nam	-11.4349
▁collector	-11.435
▁accompanie	-11.4353
▁nominat	-11.4356
▁hacker	-11.436
▁xi	-11.4367
▁disrupt	-11.4367
▁steam	-11.4367
▁useful	-11.4373
▁cigarettes	-11.4376
▁choos	-11.4376
▁fragment	-11.4383
signed	-11.4383
▁appointment	-11.4383
▁unnecessary	-11.4385
▁passage	-11.4386
will	-11.4387
▁assuming	-11.4388
▁argentina	-11.4389
▁superhero	-11.4389
ung	-11.4395
dale	-11.4397
▁catching	-11.4397
▁130	-11.4401
▁intercept	-11.4402
cing	-11.4404
▁mourning	-11.4404
▁robbed	-11.4405
▁suspend	-11.4407
▁technique	-11.4418
▁gilbert	-11.4423
▁wrongdoing	-11.4424
▁caffeine	-11.4426
▁fl	-11.4428
▁cafe	-11.4428
▁hid	-11.443
▁sang	-11.4431
▁engaging	-11.4431
▁lava	-11.4432
▁understood	-11.4433
▁amnesty	-11.4434
▁rhode	-11.4436
▁jacki	-11.4438
ud	-11.444
▁kremlin	-11.444
▁wings	-11.4445
▁contributions	-11.4446
▁concealed	-11.4447
sh	-11.4448
▁smash	-11.4451
▁plunge	-11.4452
▁oval	-11.4462
▁triple	-11.4464
▁marketwatch	-11.4465
▁hannity	-11.4469
▁aleppo	-11.4469
▁clarify	-11.4469
▁layer	-11.4474
▁newsletter	-11.4475
q	-11.4477
▁solved	-11.448
▁injur	-11.448
▁vague	-11.4484
▁colombia	-11.4484
▁separat	-11.4484
▁nominations	-11.4486
nce	-11.4486
/2	-11.4486
5,000	-11.4487
▁griffin	-11.4488
with	-11.449
▁speeches	-11.4492
▁ethan	-11.4494
si	-11.4495
▁roots	-11.45
▁pi	-11.45
▁counterparts	-11.4501
▁penalties	-11.4507
▁helicopters	-11.4508
▁opioid	-11.451
▁breathe	-11.451
▁sidewalk	-11.451
▁dismiss	-11.451
▁norwegian	-11.4511
▁2019	-11.4511
▁fried	-11.4519
▁evolve	-11.4519
▁capt	-11.4523
▁bio	-11.453
asks	-11.453
▁honestly	-11.4542
▁designe	-11.4546
▁precaution	-11.4549
▁brussels	-11.455
▁unanimous	-11.4554
▁adoption	-11.4556
▁tribe	-11.4557
▁pioneer	-11.4559
▁punished	-11.4559
▁wit	-11.4561
▁guinness	-11.4564
▁richardson	-11.4564
▁lobster	-11.4568
▁bro	-11.4576
▁documented	-11.4577
went	-11.4577
▁71	-11.4588
▁elon	-11.4588
tting	-11.459
▁administrator	-11.4591
▁cardiac	-11.4591
▁anticipated	-11.4592
▁eyebrow	-11.4592
▁valid	-11.4593
now	-11.4595
▁manchester	-11.4598
▁pu	-11.46
▁achievement	-11.4602
wide	-11.4603
▁bloom	-11.4606
▁nominate	-11.4611
▁ram	-11.4615
▁animated	-11.4616
▁chambers	-11.463
▁kenya	-11.4631
▁organic	-11.4633
▁1988	-11.4633
▁presents	-11.4634
▁wikipedia	-11.4635
▁unresponsive	-11.4635
▁deadliest	-11.4638
▁goodbye	-11.4643
▁schultz	-11.4644
▁vancouver	-11.4644
▁prospect	-11.4644
▁curious	-11.4646
▁rely	-11.465
▁okay	-11.465
▁gazette	-11.4651
▁exceed	-11.4652
ok	-11.4654
▁meyer	-11.4658
▁denying	-11.466
▁performances	-11.4663
ired	-11.4671
▁cigarette	-11.4674
▁inspection	-11.4677
▁implement	-11.468
worthy	-11.4682
▁commentary	-11.4682
▁innovation	-11.4683
▁bubble	-11.4684
▁fossil	-11.4685
▁wooden	-11.4688
▁telescope	-11.4689
▁joel	-11.4691
▁savings	-11.4691
▁eruption	-11.4693
▁tooth	-11.4697
▁laughed	-11.4702
▁eclipse	-11.4705
▁merit	-11.4709
▁landscape	-11.471
▁disclose	-11.4713
▁strain	-11.4717
▁crushed	-11.4717
shot	-11.4719
▁shy	-11.4722
▁ranger	-11.4722
▁expansion	-11.4722
▁breakthrough	-11.4723
▁harmful	-11.4724
▁excellent	-11.4728
▁yoga	-11.4729
▁generous	-11.473
▁judicia	-11.4732
▁podcast	-11.4733
▁shade	-11.4735
▁privately	-11.4736
brandon	-11.4736
▁damon	-11.4737
domain	-11.4737
▁coat	-11.4738
▁coastal	-11.4742
▁mayer	-11.4742
▁provision	-11.4749
bc	-11.4749
▁makers	-11.4754
ski	-11.4755
▁slave	-11.4756
▁pleasure	-11.4756
▁casual	-11.4757
▁vs	-11.4761
▁prey	-11.4761
▁candidacy	-11.4762
▁dubai	-11.4764
ware	-11.4764
▁tehran	-11.4764
▁hannah	-11.4767
generated	-11.4768
▁graves	-11.4769
▁pepsi	-11.4769
▁1950	-11.4769
▁worries	-11.477
▁fantasy	-11.4773
▁millennial	-11.4779
▁rocky	-11.4779
ray	-11.4782
▁exploit	-11.4786
▁kelley	-11.4792
imothy	-11.4793
iest	-11.4797
▁athletic	-11.4809
▁slogan	-11.4811
▁instant	-11.4813
▁scali	-11.4814
▁reply	-11.4822
▁commentator	-11.4825
▁predator	-11.4825
▁verified	-11.4831
driving	-11.4833
▁recogniz	-11.4849
▁psychologist	-11.485
▁pyramid	-11.485
▁giraffe	-11.4852
▁geological	-11.4855
▁eager	-11.4856
stephanie	-11.4856
▁affiliate	-11.4859
▁invitation	-11.4859
▁tactics	-11.486
▁withdrawal	-11.4862
▁courtney	-11.4863
▁attractive	-11.4864
▁britney	-11.4865
▁commonly	-11.4868
▁ja	-11.4869
▁corn	-11.4871
▁employed	-11.4878
▁dental	-11.4879
▁45-	-11.488
▁taco	-11.4885
ice	-11.489
▁abrupt	-11.4893
▁anchorage	-11.4896
▁lobby	-11.4896
▁fogle	-11.4896
▁flavor	-11.4898
▁pete	-11.4898
▁ontario	-11.4899
▁ted	-11.4899
▁fraternity	-11.4901
▁misleading	-11.4902
har	-11.4902
▁secured	-11.4903
▁bailey	-11.4904
▁farms	-11.4905
▁penned	-11.4905
▁heated	-11.4905
▁boom	-11.4905
duty	-11.4908
ki	-11.4909
▁sc	-11.491
▁shook	-11.491
▁2,500	-11.4913
▁pause	-11.4914
▁sneak	-11.4918
▁meteor	-11.4919
▁lucas	-11.4922
▁dot	-11.4923
▁sober	-11.493
▁grande	-11.4932
▁picks	-11.4933
▁lungs	-11.4935
▁richmond	-11.4937
▁avalanche	-11.4937
▁structures	-11.4938
▁damn	-11.4941
▁abusive	-11.4941
▁bachelor	-11.4942
▁arthur	-11.4944
▁travis	-11.4944
▁walsh	-11.4944
▁courier	-11.4946
▁veto	-11.4948
▁bans	-11.4948
▁occasions	-11.4948
▁flooded	-11.4949
▁rampage	-11.495
00	-11.4951
mes	-11.4956
▁shak	-11.496
▁ashes	-11.4964
▁omar	-11.4968
▁permanently	-11.497
▁preparation	-11.4971
▁fetus	-11.4972
▁tabloid	-11.498
▁ktla	-11.498
▁subpoena	-11.4981
▁1.3	-11.4982
iston	-11.4982
▁1984	-11.4983
▁chapman	-11.4984
▁biologist	-11.4984
▁emanuel	-11.4985
place	-11.4986
▁obituary	-11.4986
screen	-11.4987
▁medium	-11.4992
▁extinction	-11.4992
ich	-11.4992
▁ku	-11.4993
▁improving	-11.4997
▁searches	-11.4998
gay	-11.4998
▁evaluation	-11.5001
▁stint	-11.5007
▁providers	-11.5011
▁stripped	-11.5012
▁letterman	-11.5013
▁cri	-11.5015
▁....	-11.5015
▁meters	-11.5016
▁trader	-11.5016
▁balloon	-11.5017
▁1991	-11.5024
▁dodge	-11.5026
▁frustration	-11.5026
▁ballistic	-11.5027
▁meteorologist	-11.5027
▁electoral	-11.5028
▁monroe	-11.5028
▁momentum	-11.5029
▁categories	-11.503
▁vitamin	-11.503
om	-11.5039
▁aids	-11.5041
▁technica	-11.5041
io	-11.5042
▁bronze	-11.5043
▁dubb	-11.5045
▁reef	-11.5051
▁blessing	-11.5052
▁booze	-11.5052
▁qatar	-11.5055
▁avoided	-11.5056
▁duo	-11.5056
▁peta	-11.5062
▁bath	-11.5063
▁decrease	-11.5068
▁hunters	-11.5068
▁competitors	-11.5069
▁movements	-11.5069
▁universities	-11.507
▁rail	-11.507
▁macron	-11.5072
▁assertion	-11.5074
▁maintenance	-11.5076
▁techniques	-11.5076
▁huntsman	-11.5079
▁creepy	-11.508
ge	-11.5084
▁gut	-11.5085
▁shorter	-11.5085
▁beca	-11.5086
▁heidi	-11.5086
sanctuary	-11.5093
rt	-11.5094
▁randy	-11.5095
▁troubles	-11.5098
▁exceptional	-11.5101
hat	-11.5103
▁hottest	-11.5116
▁halted	-11.5117
▁demonstration	-11.5122
▁spree	-11.5122
▁refuge	-11.5123
▁spacey	-11.5123
▁emotions	-11.5124
▁intellectual	-11.5126
▁ferry	-11.513
ugh	-11.5136
ho	-11.5141
formed	-11.5143
▁observation	-11.5145
▁73	-11.5146
▁smashed	-11.5151
▁fights	-11.5158
▁joan	-11.5159
▁mandatory	-11.5159
▁titanic	-11.5163
▁cal	-11.5165
lin	-11.5166
▁defender	-11.5171
▁genius	-11.5172
▁tumblr	-11.5177
▁examine	-11.518
mistakenly	-11.5181
▁neal	-11.5181
▁thail	-11.5185
▁lighter	-11.5187
▁challenger	-11.5188
▁ghost	-11.5189
▁grim	-11.519
▁registration	-11.5192
▁brake	-11.5192
pe	-11.5194
eating	-11.5197
▁antibiotics	-11.5203
▁queens	-11.5203
▁partisan	-11.5204
▁stark	-11.5204
▁hello	-11.5204
▁intentional	-11.5205
▁clooney	-11.5205
standing	-11.5209
▁billions	-11.521
▁77	-11.5215
▁00	-11.5217
▁marriages	-11.5223
▁clown	-11.5223
▁chen	-11.5226
▁crowds	-11.5228
▁weaken	-11.5231
▁poorly	-11.5232
▁mic	-11.5233
brand	-11.5234
▁1.6	-11.5238
shamed	-11.524
▁harvest	-11.524
▁respected	-11.5241
00012	-11.5247
▁schwarzenegger	-11.525
▁6,000	-11.525
▁electronics	-11.5254
▁placing	-11.5255
lo	-11.5257
▁trio	-11.526
▁36-	-11.5261
▁meghan	-11.5264
▁dignit	-11.5269
▁leon	-11.5273
▁contractor	-11.5274
▁regain	-11.5276
▁rant	-11.5278
▁distracted	-11.5282
▁74	-11.5288
christine	-11.529
▁stored	-11.5291
▁mild	-11.5293
▁smooth	-11.5293
▁intersection	-11.5296
▁yellowstone	-11.5296
▁convenience	-11.5297
▁khloe	-11.5298
▁landmark	-11.5299
▁franken	-11.5299
▁ownership	-11.53
▁catastrophic	-11.5302
que	-11.5304
▁studios	-11.5306
▁scar	-11.5307
▁archives	-11.5308
▁jill	-11.5316
▁marines	-11.5316
light	-11.5319
▁1986	-11.5322
ette	-11.5331
▁filter	-11.5336
▁wing	-11.5336
▁degeneres	-11.5341
▁whereabouts	-11.5341
▁altercation	-11.5342
▁monica	-11.5343
▁cornell	-11.5345
▁cognitive	-11.5348
▁3.5	-11.5349
▁curtis	-11.535
▁murderer	-11.5352
▁unrelated	-11.5356
▁ultra	-11.5357
dispatch	-11.5359
▁chemo	-11.5361
▁nominees	-11.537
▁1,200	-11.537
distributed	-11.537
▁bench	-11.5374
▁successor	-11.5375
▁overcome	-11.5377
▁cooperate	-11.538
▁dinosaurs	-11.538
▁slight	-11.5381
▁importan	-11.5382
▁eagles	-11.5387
▁legendary	-11.5389
▁rev	-11.5391
▁www	-11.5391
▁chart	-11.5392
ore	-11.5398
▁che	-11.5399
▁deported	-11.5401
▁heartbreaking	-11.5403
▁accountable	-11.5403
▁perception	-11.5403
▁memorabl	-11.5406
▁idol	-11.541
ups	-11.5418
▁drunken	-11.542
▁anytime	-11.5423
▁dj	-11.5424
▁protester	-11.5427
▁bonus	-11.5428
▁particle	-11.543
▁standoff	-11.5438
▁galaxy	-11.5439
▁metropoli	-11.5442
▁purchases	-11.5443
▁proposals	-11.5445
▁ashton	-11.545
▁drowning	-11.5452
▁presidents	-11.5453
▁matches	-11.5456
▁locker	-11.546
▁sec	-11.5462
▁filling	-11.5462
▁wales	-11.5465
▁mob	-11.5467
▁julia	-11.5467
▁earthquakes	-11.547
▁julie	-11.5472
▁judicial	-11.5473
▁hostages	-11.5474
▁tab	-11.5475
▁coral	-11.5476
▁nepal	-11.5478
▁toyota	-11.5478
▁thrones	-11.5481
▁filibuster	-11.5482
▁interact	-11.5482
▁ag	-11.5484
▁lennon	-11.5485
▁fiction	-11.5488
▁persons	-11.5488
▁pleading	-11.5489
▁haley	-11.5495
grade	-11.5496
▁sensor	-11.5497
▁tiffan	-11.5498
▁polar	-11.5499
▁spouse	-11.5502
▁differ	-11.5509
▁kirk	-11.551
▁closet	-11.551
half	-11.5518
▁connections	-11.5521
▁retreat	-11.5522
▁formation	-11.5523
▁lover	-11.5525
▁outdoor	-11.5525
▁petraeus	-11.5527
▁slip	-11.5527
▁ebay	-11.5528
▁listing	-11.5533
▁riders	-11.5533
▁pig	-11.5534
▁conscious	-11.5539
▁hockey	-11.5539
hop	-11.554
▁incumbent	-11.554
▁balls	-11.5544
▁barred	-11.5546
▁detainee	-11.5548
▁bp	-11.5548
▁fantastic	-11.555
▁silly	-11.5552
friendly	-11.5554
▁140	-11.5554
▁frog	-11.5558
▁flesh	-11.5559
▁outline	-11.556
▁stamp	-11.5563
breaking	-11.5564
▁purse	-11.5568
▁mocked	-11.5569
▁oxford	-11.5573
▁troubling	-11.5576
▁spectacular	-11.5578
▁lets	-11.5585
themed	-11.5587
ped	-11.5587
unham	-11.5588
▁explor	-11.5591
▁papa	-11.5594
▁baptist	-11.5601
▁executions	-11.5606
▁megan	-11.561
▁selfies	-11.562
▁counseling	-11.562
▁horn	-11.5622
▁150,000	-11.5622
▁salute	-11.5624
▁dam	-11.563
▁regrets	-11.563
tracked	-11.5632
▁slavery	-11.5633
filled	-11.5633
▁swirl	-11.5639
ou	-11.5649
▁experimental	-11.5649
▁bann	-11.565
authorized	-11.565
president	-11.5653
▁minors	-11.5656
▁sauce	-11.5658
▁leno	-11.5658
▁electrical	-11.5659
▁sic	-11.5659
worth	-11.5663
▁casualties	-11.5666
▁warc	-11.5672
▁brennan	-11.5672
▁divide	-11.5672
▁intact	-11.5677
▁stir	-11.568
▁doom	-11.5684
▁heights	-11.5684
▁trek	-11.5689
▁solutions	-11.5689
figured	-11.5691
was	-11.5692
▁ru	-11.5696
▁motivation	-11.5697
▁lakes	-11.5701
▁killers	-11.5704
▁im	-11.5705
ins	-11.5708
▁cult	-11.5709
▁hanks	-11.5712
▁levi	-11.5716
wanted	-11.5718
▁andrea	-11.5719
▁obligation	-11.572
▁latino	-11.572
▁hugh	-11.5721
▁valentine	-11.5721
▁filmmaker	-11.5723
▁doubts	-11.5725
▁inevitable	-11.5726
▁claire	-11.5729
▁wil	-11.573
▁grammy	-11.5731
▁easter	-11.5731
▁markle	-11.5733
▁butt	-11.5737
▁defined	-11.5738
▁trains	-11.5742
▁interfere	-11.5745
income	-11.5747
▁mock	-11.5747
girlfriend	-11.5749
▁abduct	-11.5754
▁evan	-11.5754
▁retaliation	-11.5762
▁puppy	-11.5762
▁penny	-11.5764
▁thief	-11.5768
▁natalie	-11.5768
▁identification	-11.5768
▁37-	-11.5772
▁publish	-11.5774
▁scope	-11.5778
▁shoe	-11.5778
▁sensation	-11.5784
▁onstage	-11.5795
▁texting	-11.5797
▁pension	-11.5805
▁guid	-11.5805
high	-11.5809
▁innocence	-11.5809
▁paddock	-11.5809
popeater	-11.5811
▁overhaul	-11.5812
hrew	-11.5812
▁declaration	-11.5813
▁admitting	-11.5815
▁radaronline	-11.5816
▁shotgun	-11.5817
▁dinosaur	-11.5817
▁beard	-11.5821
▁ellis	-11.5822
▁rivera	-11.5824
▁colors	-11.5825
nc	-11.5826
uring	-11.5826
▁attraction	-11.5826
▁islamist	-11.583
▁rod	-11.583
▁scans	-11.5842
▁backup	-11.5842
▁forgot	-11.5847
▁industries	-11.5857
▁riches	-11.5857
▁simultaneous	-11.5859
▁underage	-11.5859
▁emphasize	-11.5859
▁glacier	-11.5861
▁advances	-11.5865
work	-11.5865
▁defensive	-11.5866
▁vogue	-11.5866
▁splash	-11.587
▁jeans	-11.5876
documented	-11.588
▁pigs	-11.5896
▁eli	-11.5898
▁snakes	-11.5904
▁extradition	-11.5906
▁seals	-11.5907
▁snyder	-11.5908
▁verification	-11.5909
▁breakdown	-11.5909
▁belgian	-11.591
▁definitive	-11.591
▁guitar	-11.5912
▁alerts	-11.5913
▁obese	-11.5915
▁clashe	-11.5917
▁devoted	-11.5918
▁kilometer	-11.5923
▁neglect	-11.5925
▁intensive	-11.5925
burg	-11.5926
▁observers	-11.5937
▁ctv	-11.5939
▁revelations	-11.5941
ington	-11.5941
▁load	-11.5943
▁60-	-11.5944
▁eliminate	-11.5946
▁undermine	-11.5948
▁postal	-11.5951
▁tap	-11.5953
▁steenkamp	-11.5954
▁concession	-11.5954
▁concussion	-11.5956
▁bikini	-11.5956
▁sponsor	-11.5957
▁jenkins	-11.5957
▁abus	-11.5959
▁daddy	-11.596
▁ash	-11.5961
▁protocol	-11.5962
▁mohamed	-11.5962
▁samantha	-11.5964
▁chemistry	-11.5965
▁hogan	-11.5966
▁statute	-11.5968
▁instantly	-11.5969
▁sp	-11.597
▁suits	-11.5971
▁recreational	-11.5973
▁struggles	-11.5981
▁risky	-11.5985
▁median	-11.5991
▁pos	-11.5992
▁78	-11.5993
▁loyal	-11.5993
▁charter	-11.5997
▁karl	-11.5999
▁mit	-11.6002
▁graffiti	-11.6003
▁credibility	-11.6004
▁greet	-11.6004
▁biology	-11.6008
▁sierra	-11.6008
ba	-11.6008
▁lanza	-11.601
▁explosions	-11.6013
▁steady	-11.6015
▁forc	-11.6023
▁dude	-11.6025
▁shelves	-11.6026
li	-11.6028
▁noble	-11.603
▁fare	-11.6037
▁richards	-11.6038
▁buck	-11.6039
▁consecutive	-11.6043
▁pulse	-11.6047
▁ceasefire	-11.6052
▁von	-11.6052
▁rodman	-11.6055
▁demographic	-11.6057
▁comcast	-11.6057
▁dentist	-11.6057
▁odom	-11.6059
▁cartel	-11.6065
▁br	-11.6066
▁fastest	-11.6066
▁nathan	-11.6071
▁wrist	-11.6071
▁mil	-11.6073
▁verify	-11.6074
▁meyers	-11.6076
▁texted	-11.6077
▁newest	-11.6097
▁submarine	-11.6098
▁distinct	-11.61
arranged	-11.61
▁coup	-11.61
▁liquor	-11.6102
▁damascus	-11.6102
▁bezos	-11.6105
▁laughter	-11.6105
▁coffin	-11.6106
▁lining	-11.6108
▁dairy	-11.6113
▁scoop	-11.6113
▁perceived	-11.6117
▁shortage	-11.6118
▁stuffed	-11.6128
ines	-11.6131
▁poop	-11.6134
▁fred	-11.6136
▁educational	-11.6137
▁unarm	-11.6138
10	-11.6139
▁gotta	-11.6144
▁pediatric	-11.6149
versus	-11.6152
▁kaepernick	-11.6152
▁execs	-11.6154
ds	-11.6154
▁supermarket	-11.6154
controlled	-11.6156
▁helen	-11.6157
▁thai	-11.6159
ves	-11.6172
opted	-11.6172
▁instructor	-11.6172
▁nike	-11.6176
ant	-11.6179
▁michel	-11.6179
▁pal	-11.6182
▁supplement	-11.6186
▁contaminated	-11.6187
▁reforms	-11.6188
posing	-11.6189
▁chilling	-11.6192
▁appealing	-11.6193
▁akin	-11.6196
▁adapt	-11.62
▁earliest	-11.62
top	-11.6202
▁brotherhood	-11.6203
▁margaret	-11.6203
list	-11.6205
▁acceptance	-11.6207
▁76	-11.6211
▁vegan	-11.6211
fall	-11.6211
▁disturb	-11.6211
ot	-11.6213
▁laser	-11.6214
▁ingredient	-11.6216
▁precedent	-11.6217
▁glimpse	-11.6218
▁restrict	-11.6221
game	-11.6221
▁pbs	-11.6222
▁tick	-11.6222
range	-11.6225
▁passes	-11.6228
beat	-11.623
▁declin	-11.6231
▁supportive	-11.6235
set	-11.6249
▁soup	-11.6249
▁cillizza	-11.625
▁kills	-11.6257
ti	-11.6258
▁vary	-11.6259
▁skeleton	-11.6263
▁prisons	-11.6263
▁sanford	-11.6264
tech	-11.6264
▁affecting	-11.6266
▁khou	-11.6266
▁sophisticated	-11.6268
▁sufficient	-11.6269
▁koch	-11.627
only	-11.627
▁hollande	-11.6271
▁trending	-11.6272
▁arrives	-11.6273
▁reacted	-11.6275
▁luke	-11.6276
▁accomplished	-11.628
za	-11.6281
▁locate	-11.6282
▁sharon	-11.6282
▁sponsored	-11.6283
▁defect	-11.6284
▁jar	-11.6285
▁bare	-11.6287
kin	-11.6291
▁delays	-11.6291
▁carol	-11.6299
▁demonstrations	-11.6301
▁drops	-11.6303
▁mogul	-11.6303
▁pompeo	-11.6303
▁brick	-11.6304
▁dramatically	-11.6305
▁navigation	-11.6307
▁upgrade	-11.6308
▁snapchat	-11.631
▁gravity	-11.6315
▁responds	-11.6317
▁fleet	-11.6318
▁restraining	-11.6318
▁bury	-11.6319
▁mill	-11.632
▁justify	-11.6321
▁negotiating	-11.6326
tally	-11.6329
▁wo	-11.6331
▁rope	-11.6331
▁dea	-11.6331
mo	-11.6334
▁84	-11.6336
▁savage	-11.6341
▁heroes	-11.6346
▁precisely	-11.635
▁duterte	-11.6351
▁1981	-11.6351
▁reliabl	-11.6352
▁startup	-11.6352
▁aquarium	-11.6353
defense	-11.6353
▁shall	-11.6354
▁hatred	-11.6356
▁lovers	-11.6358
▁circles	-11.6363
▁measur	-11.6367
▁drag	-11.6369
▁fallout	-11.6369
▁acceptable	-11.637
▁porter	-11.6371
▁midst	-11.6372
▁cups	-11.6382
▁owe	-11.6386
▁plug	-11.6386
▁manufacturers	-11.6389
▁tattoos	-11.6393
▁breeding	-11.6393
▁mick	-11.6395
▁horizon	-11.6396
car	-11.6399
▁coke	-11.6401
▁priests	-11.6401
▁captivity	-11.6402
▁jupiter	-11.6403
▁unpaid	-11.6404
▁cheney	-11.6409
▁danny	-11.6409
▁attendants	-11.641
▁rolls	-11.6411
▁gwyneth	-11.6413
▁rnc	-11.6416
▁cab	-11.6418
▁roommate	-11.642
▁offend	-11.6426
ger	-11.6427
ps	-11.6428
aged	-11.6433
ties	-11.6435
▁vessels	-11.6438
▁scrambl	-11.6445
▁cows	-11.6446
▁81	-11.645
used	-11.645
▁prohibited	-11.6453
▁surgeries	-11.6453
▁malicious	-11.6453
▁scottish	-11.6454
llowing	-11.6455
▁federation	-11.6456
shaped	-11.6456
▁tina	-11.6458
▁thriller	-11.6479
▁shaken	-11.648
▁gabriel	-11.6481
uk	-11.6483
▁pan	-11.6484
▁hey	-11.6485
▁collective	-11.6495
▁bugs	-11.6497
▁guilt	-11.6498
▁dash	-11.6503
▁mediterranean	-11.6506
ailed	-11.6506
▁3.	-11.6507
▁beaches	-11.6511
ig	-11.6512
▁overwhelmed	-11.6512
▁drake	-11.6512
▁existed	-11.6513
▁slaughter	-11.6515
rque	-11.6515
▁refund	-11.6517
▁insert	-11.6517
▁investor	-11.6525
▁cracked	-11.6526
▁theme	-11.6526
▁panther	-11.6527
▁pursuit	-11.6529
▁potato	-11.6533
▁uploaded	-11.6542
▁climbers	-11.6543
▁rude	-11.6548
can	-11.6556
▁comb	-11.656
▁confine	-11.6562
▁fcc	-11.6564
▁twenty	-11.6566
memphis	-11.6566
▁compelling	-11.6569
▁graduation	-11.6569
control	-11.6571
▁kindness	-11.6573
▁lett	-11.6573
▁homeowner	-11.6573
▁7,000	-11.6574
▁scouts	-11.6576
▁determination	-11.6577
acre	-11.658
▁motorist	-11.6582
mm	-11.6584
▁mph	-11.6585
▁counted	-11.6585
gate	-11.6589
▁cole	-11.6592
▁gruesome	-11.6607
▁khashoggi	-11.6607
▁1982	-11.6607
▁charities	-11.6608
▁speculat	-11.6609
▁slaves	-11.6611
▁laboratory	-11.6612
▁difficulty	-11.6613
▁tenure	-11.6614
▁sampling	-11.6615
▁spirits	-11.6615
▁hostile	-11.6616
proof	-11.6619
▁crude	-11.662
ding	-11.6621
▁scor	-11.6624
▁manufacturer	-11.6628
▁8,000	-11.663
▁conn	-11.663
▁assaults	-11.663
▁descend	-11.6631
▁advertiser	-11.6631
▁pin	-11.6636
bo	-11.6638
▁worthy	-11.6642
▁proclaim	-11.6643
▁mutual	-11.6646
▁pound	-11.6648
▁reopen	-11.6649
▁conflicts	-11.6649
▁explorer	-11.665
▁ears	-11.6655
▁drilling	-11.6659
board	-11.6661
▁programm	-11.6661
▁legislator	-11.6663
▁champagne	-11.6664
▁bullock	-11.6664
▁crop	-11.6665
▁partial	-11.6666
▁membership	-11.6666
oli	-11.6668
▁cute	-11.6671
▁scam	-11.6671
▁arson	-11.6672
▁ko	-11.6677
▁fur	-11.6683
▁cattle	-11.6684
▁expose	-11.6687
▁charm	-11.6687
▁han	-11.6687
▁chill	-11.6689
▁switched	-11.6694
▁helm	-11.6696
▁practical	-11.6698
▁chip	-11.67
▁1985	-11.6701
▁ramp	-11.6711
▁bergdahl	-11.6711
▁manhunt	-11.6713
▁employ	-11.6713
▁160	-11.6715
▁vincent	-11.6716
▁rockets	-11.6718
▁unearthed	-11.6718
▁distraction	-11.6719
▁dies	-11.672
▁broadcaster	-11.6721
▁sha	-11.6725
▁socialist	-11.673
▁absent	-11.6734
▁seizure	-11.6734
▁retir	-11.6738
▁consciousness	-11.6739
▁deaf	-11.674
▁albert	-11.6743
▁illustrated	-11.6744
▁sprint	-11.6748
▁prompte	-11.675
▁doj	-11.6751
▁vault	-11.6751
▁mormon	-11.6753
▁directors	-11.6759
▁grad	-11.6759
▁alien	-11.676
▁ahmed	-11.6761
▁refusal	-11.6768
▁huffpost	-11.6769
pointing	-11.6772
owed	-11.6777
▁wives	-11.6777
▁wrongful	-11.6778
nicholas	-11.6783
▁freeway	-11.6785
▁artifacts	-11.679
▁insurer	-11.6792
▁singh	-11.6792
▁specify	-11.6793
▁newark	-11.6796
▁clearance	-11.6797
▁churches	-11.6799
▁johnston	-11.68
▁astronauts	-11.6802
▁illnesses	-11.6803
▁bryan	-11.6804
net	-11.6812
▁spare	-11.6813
▁sink	-11.6816
wick	-11.6817
▁rover	-11.6817
▁auschwitz	-11.6817
▁coleman	-11.682
▁dynamic	-11.682
▁battles	-11.6822
▁technologies	-11.6823
▁gathere	-11.6824
▁driveway	-11.6825
▁180	-11.6827
▁ridge	-11.6828
▁boulder	-11.6828
▁caring	-11.6831
ff	-11.6831
▁fargo	-11.6832
▁mining	-11.6832
▁helmet	-11.6835
▁comeback	-11.6838
▁packag	-11.6839
▁eddie	-11.6839
▁gentle	-11.6839
▁fancy	-11.6841
▁1976	-11.6845
▁bud	-11.6846
▁securities	-11.6849
sley	-11.6849
▁inch	-11.6851
▁palmer	-11.6852
▁fails	-11.6856
▁kit	-11.686
▁stein	-11.6861
▁spelling	-11.6861
▁humane	-11.6862
▁consist	-11.6863
▁contradict	-11.6864
▁efficient	-11.6866
▁imminent	-11.687
▁bailout	-11.687
▁assailant	-11.6871
▁kidnappe	-11.6871
▁altogether	-11.6874
▁unrest	-11.6877
bus	-11.6878
usat	-11.688
▁astronaut	-11.688
▁depressed	-11.6881
▁bombshell	-11.6881
▁900	-11.6884
▁irma	-11.6887
▁lin	-11.6887
▁disappointing	-11.6887
▁sochi	-11.6889
▁cheek	-11.6892
▁slim	-11.6895
▁rental	-11.6897
million	-11.6899
ide	-11.69
fully	-11.6901
▁shepherd	-11.6901
floor	-11.6902
▁enterprise	-11.6903
▁proves	-11.6906
▁webb	-11.6907
▁unusually	-11.691
▁injection	-11.691
▁stats	-11.6912
ue	-11.6913
▁operative	-11.6914
▁scatter	-11.6918
borne	-11.6918
▁86	-11.6919
▁lloyd	-11.6924
▁pork	-11.6926
▁hearings	-11.6927
▁ucla	-11.6929
▁unsafe	-11.6934
▁amusing	-11.6937
ons	-11.694
▁detection	-11.6941
▁handcuff	-11.6942
▁pratt	-11.6944
▁flipped	-11.6945
very	-11.6945
24	-11.6949
▁bunker	-11.6952
▁evacuate	-11.6954
▁honey	-11.6956
▁sooner	-11.6958
▁zip	-11.6959
▁fulfill	-11.6964
▁respondent	-11.6966
▁warrior	-11.6967
▁82	-11.6969
▁79	-11.6969
▁grandchildren	-11.697
▁lays	-11.6973
▁chile	-11.6974
▁negligen	-11.6975
▁excess	-11.6975
▁bowie	-11.6978
▁grimm	-11.6979
▁stump	-11.6979
▁offshore	-11.698
▁luther	-11.6981
▁dire	-11.6986
▁shallow	-11.6988
▁fin	-11.6988
▁shipment	-11.6989
frequency	-11.6991
▁lean	-11.6991
shire	-11.6993
▁dolphins	-11.6997
▁salmon	-11.6997
▁militia	-11.6997
▁chick	-11.6998
▁mat	-11.6999
ft	-11.7001
▁booth	-11.7004
▁extremist	-11.7005
▁batch	-11.7008
▁straw	-11.7008
▁cookie	-11.7011
▁addict	-11.7014
▁ailes	-11.7015
dy	-11.7015
▁mills	-11.7016
▁ransom	-11.7019
▁pri	-11.7021
residential	-11.7021
grader	-11.7026
▁rogue	-11.7027
▁controller	-11.703
▁cobain	-11.7033
▁contempt	-11.7037
▁palestinians	-11.7038
▁lips	-11.7041
▁wendy	-11.7042
▁bacon	-11.7045
▁sworn	-11.7045
▁contents	-11.7045
▁restored	-11.7047
▁kurt	-11.705
▁expense	-11.7056
▁joine	-11.7058
▁witch	-11.7059
▁tolerance	-11.7063
▁emotion	-11.7064
▁nigeria	-11.7065
▁110	-11.7066
su	-11.7072
▁newtown	-11.7079
▁tigers	-11.708
▁beau	-11.708
▁breakup	-11.708
▁marking	-11.7081
disclosed	-11.7082
▁examination	-11.7083
ms	-11.7084
▁census	-11.7087
▁birmingham	-11.7088
▁adequate	-11.7089
▁emoji	-11.709
▁salman	-11.7091
▁lego	-11.7092
ference	-11.7094
obsessed	-11.7095
alexis	-11.7095
▁cub	-11.7096
▁depth	-11.7102
▁hayes	-11.7102
ecame	-11.7105
▁41-	-11.7106
▁meaningful	-11.7107
▁preview	-11.7108
▁bryant	-11.711
▁har	-11.7114
▁voluntar	-11.7114
▁grip	-11.7122
einstein	-11.7123
-1	-11.7125
▁brawl	-11.7126
▁cough	-11.7129
▁fr	-11.713
▁discriminat	-11.7131
▁rebuild	-11.7138
▁fries	-11.714
▁1983	-11.7141
▁intriguing	-11.7143
▁assured	-11.7144
▁38-	-11.7144
▁suicidal	-11.7146
moving	-11.7146
▁catherine	-11.7147
▁prostitution	-11.7148
▁interactive	-11.7149
ammar	-11.715
▁respirator	-11.715
▁scientology	-11.7152
▁satisfied	-11.7153
▁proportion	-11.7153
▁passionate	-11.7153
rites	-11.7154
duncan	-11.7157
▁mario	-11.716
▁translate	-11.7164
▁bros	-11.7165
low	-11.7167
▁frat	-11.7183
▁communist	-11.7186
▁retiring	-11.7187
▁42-	-11.7188
▁lament	-11.719
▁pays	-11.7193
▁furniture	-11.7195
▁bash	-11.7196
▁welcom	-11.7197
▁chavez	-11.7197
▁archaeological	-11.7198
▁ya	-11.7199
▁applicant	-11.7204
▁trends	-11.7206
good	-11.721
▁christians	-11.7212
▁rupert	-11.7213
mann	-11.7216
▁protections	-11.7217
▁adele	-11.7218
▁indigen	-11.7219
fortunately	-11.7219
▁scrap	-11.722
▁46-	-11.7221
▁endured	-11.7223
▁granddaughter	-11.7224
gomer	-11.7228
▁dictator	-11.7228
▁mint	-11.723
les	-11.7236
ready	-11.7236
▁chains	-11.7239
▁walke	-11.7241
▁aspects	-11.7249
▁florence	-11.7253
▁cotton	-11.7253
▁vodka	-11.7254
▁forgive	-11.7254
▁premier	-11.7255
▁heartbroken	-11.7255
▁moderator	-11.7256
ure	-11.7257
▁spiritual	-11.7259
▁unbelievable	-11.726
▁vicious	-11.7262
▁antarctica	-11.7265
▁prevail	-11.7265
▁crimea	-11.7266
home	-11.7268
▁beatles	-11.7271
▁curve	-11.7275
▁trunk	-11.7276
▁celeb	-11.7277
defeated	-11.7278
unauthorized	-11.7279
▁statistics	-11.7282
▁operat	-11.7287
▁divert	-11.7287
runner	-11.7305
▁luggage	-11.7306
▁fivethirtyeight	-11.7307
▁blowing	-11.7311
▁endors	-11.7311
▁gibb	-11.7313
▁confusing	-11.7313
▁psychology	-11.7314
▁bulk	-11.7314
▁inherit	-11.7315
sville	-11.7315
▁si	-11.7316
▁regulation	-11.7316
▁1977	-11.7319
▁hopkins	-11.7319
▁shed	-11.7331
▁genital	-11.7336
▁planets	-11.7339
▁blessed	-11.7339
▁kent	-11.7341
▁relieved	-11.7344
▁snack	-11.7346
fer	-11.7348
▁correctly	-11.7357
▁teammates	-11.7361
▁airlift	-11.7363
▁administrators	-11.7367
▁demonstrat	-11.737
▁characteristic	-11.7373
▁nights	-11.7375
▁defamation	-11.738
▁runners	-11.7381
▁ethical	-11.7381
▁intelligent	-11.7388
▁jeopardy	-11.7389
▁cooperat	-11.7389
▁governors	-11.7394
▁harassed	-11.7396
▁haram	-11.7397
▁sinking	-11.7398
▁bearing	-11.74
pa	-11.7401
▁mourn	-11.7402
▁examin	-11.7409
chief	-11.7409
▁giants	-11.7411
▁outfit	-11.7412
▁shanghai	-11.7418
▁guzman	-11.7419
▁embarrassment	-11.7419
▁disability	-11.7419
▁collusion	-11.742
▁lockdown	-11.7421
▁cam	-11.7423
▁binge	-11.7423
▁blend	-11.7426
▁trophy	-11.7426
▁ipo	-11.7429
▁ethnic	-11.7432
▁inequality	-11.7432
▁mann	-11.7432
▁superstar	-11.7436
racked	-11.7436
▁foley	-11.7437
▁gown	-11.7438
▁insulting	-11.7439
▁der	-11.7442
▁wheelchair	-11.7445
gging	-11.7445
▁cantor	-11.745
▁saga	-11.7454
▁odor	-11.7456
▁severed	-11.7459
backed	-11.746
media	-11.746
▁intervene	-11.7464
▁reign	-11.7468
allows	-11.7469
▁diverse	-11.7469
▁pew	-11.7472
▁plaza	-11.7475
ement	-11.7475
▁significance	-11.7477
key	-11.7478
▁homosexuality	-11.7479
▁portman	-11.7481
▁sara	-11.7481
▁orientation	-11.7481
▁abduction	-11.7483
▁colo	-11.7484
▁clouds	-11.7484
▁imprisoned	-11.7485
▁lap	-11.7486
rose	-11.7487
▁visitor	-11.749
▁spacex	-11.749
▁errors	-11.7491
▁sword	-11.7493
▁schmidt	-11.7493
▁cart	-11.7495
▁erin	-11.7499
▁scroll	-11.7501
ick	-11.7503
▁bald	-11.7506
▁owen	-11.7507
▁chapel	-11.7508
chasing	-11.751
view	-11.751
▁sexuality	-11.751
▁tense	-11.7512
ster	-11.7512
door	-11.7515
▁occupation	-11.7515
▁climber	-11.753
▁landslide	-11.7532
▁fresno	-11.7533
▁delhi	-11.7534
▁entitle	-11.7535
▁muhammad	-11.7539
13	-11.7541
ppears	-11.7545
▁jen	-11.7546
▁ignor	-11.7546
▁observator	-11.7549
▁someday	-11.7551
▁felon	-11.7552
▁flak	-11.7553
pouring	-11.7554
▁4.	-11.7556
▁captive	-11.7561
▁url	-11.7563
▁missions	-11.7564
americans	-11.7567
▁extremists	-11.7569
▁relate	-11.757
▁intentions	-11.7573
▁economics	-11.7574
▁intake	-11.7575
▁ankle	-11.7577
▁chew	-11.7579
▁expired	-11.7583
▁tenn	-11.7585
▁mocking	-11.7585
▁thumb	-11.7587
▁hicks	-11.7587
▁kathleen	-11.7589
▁applause	-11.7589
▁balcony	-11.759
▁lieutenant	-11.7591
▁martha	-11.7591
▁1979	-11.7591
▁cocktail	-11.7593
▁activate	-11.7593
▁premise	-11.7593
▁seaworld	-11.7597
▁pleasant	-11.7597
▁1969	-11.7598
▁professionals	-11.7601
▁wolves	-11.7601
▁lauer	-11.7605
▁swat	-11.7607
▁designated	-11.7612
▁5.	-11.7612
rogers	-11.7614
▁yank	-11.7614
▁renown	-11.7614
▁bases	-11.7615
▁parachute	-11.7618
▁symbolic	-11.7619
▁destin	-11.762
war	-11.762
▁leather	-11.7621
▁canal	-11.7622
ium	-11.7623
▁audit	-11.7624
▁lovely	-11.7626
▁traces	-11.7626
▁denial	-11.7631
▁robots	-11.7634
▁assisted	-11.7638
▁350	-11.7638
▁tub	-11.7646
▁vigil	-11.7646
lying	-11.7646
▁phelps	-11.7646
▁somalia	-11.7647
▁minorities	-11.7647
▁1987	-11.7648
racing	-11.7652
▁enthusiastic	-11.7653
▁jfk	-11.7655
▁wireless	-11.7655
▁mama	-11.7658
▁slamm	-11.7663
▁blade	-11.7666
▁washing	-11.7669
ions	-11.767
▁healing	-11.7676
▁sudan	-11.7678
▁lanes	-11.7678
boyfriend	-11.7678
leslie	-11.7678
▁contender	-11.768
▁counselor	-11.7685
▁disgrace	-11.7686
▁roast	-11.7689
▁leban	-11.7693
▁freezing	-11.7693
▁instruct	-11.7696
▁prosecuted	-11.7697
▁subscribers	-11.77
▁speeds	-11.7704
▁liberals	-11.7705
▁aurora	-11.7707
▁influential	-11.7708
▁tucson	-11.7712
row	-11.7713
▁brink	-11.7713
▁rudy	-11.7714
▁accuser	-11.7717
▁shattered	-11.772
▁identifie	-11.7721
▁dissent	-11.7722
▁alarming	-11.7723
▁60,000	-11.7725
selling	-11.7728
▁itunes	-11.7728
▁accusation	-11.773
▁cardinal	-11.7731
▁crocodile	-11.7737
▁suggeste	-11.774
▁worsen	-11.7741
▁83	-11.7741
▁trusted	-11.775
gives	-11.775
▁criticize	-11.7752
▁origins	-11.7752
▁48-	-11.7757
▁intern	-11.7758
▁replica	-11.7761
eyed	-11.7761
▁ptsd	-11.7762
▁portugal	-11.7762
▁anonymity	-11.7762
▁disrespect	-11.7762
▁fertility	-11.7764
▁fle	-11.7765
▁heal	-11.7766
▁terribly	-11.7767
▁seinfeld	-11.7768
▁corrupt	-11.7769
▁eva	-11.7769
▁1978	-11.7769
▁hallway	-11.7771
▁upside	-11.7773
▁boots	-11.7774
▁rubber	-11.7774
▁mercy	-11.7775
▁soap	-11.7776
▁moss	-11.7776
▁bison	-11.7782
▁erect	-11.7784
▁mistaken	-11.7785
▁stemm	-11.7786
▁pc	-11.7788
▁pedestrians	-11.7789
▁thicke	-11.78
aid	-11.78
▁brexit	-11.78
▁mur	-11.7801
yer	-11.7802
▁victor	-11.7802
have	-11.7807
▁preferr	-11.7813
▁flower	-11.7814
▁spying	-11.7814
▁opera	-11.7816
▁haiti	-11.7817
▁predators	-11.782
▁bolster	-11.7821
▁ninth	-11.7822
▁bronx	-11.7823
▁deadspin	-11.7823
▁mugshot	-11.7823
▁quarantine	-11.7824
▁vandalism	-11.7827
▁denounc	-11.783
▁petty	-11.7831
▁channels	-11.7832
▁consensu	-11.7834
▁limitations	-11.7836
▁2007.	-11.7836
ack	-11.7837
▁plates	-11.7839
▁fu	-11.784
▁purported	-11.7845
▁lodge	-11.7845
▁atop	-11.7845
▁sculpture	-11.7845
▁preference	-11.7847
▁coca	-11.7848
▁nutrition	-11.7849
▁queensland	-11.785
▁confession	-11.785
wa	-11.7851
▁spur	-11.7855
▁oz	-11.7861
▁hoffman	-11.7861
▁detector	-11.7866
▁43-	-11.7869
▁conventional	-11.787
▁expos	-11.7871
▁zones	-11.7876
▁reader	-11.7877
▁inspire	-11.7879
▁expletive	-11.7879
▁speakers	-11.788
▁ni	-11.7881
▁fishermen	-11.7881
▁cho	-11.7881
▁wider	-11.7881
▁isaac	-11.7882
▁terrified	-11.7883
▁restroom	-11.7884
▁convincing	-11.7885
▁ought	-11.7886
▁gallup	-11.7886
▁1-	-11.7888
▁chips	-11.7889
▁artwork	-11.7889
ries	-11.789
▁aspect	-11.7891
▁aggression	-11.7892
▁pearl	-11.7895
▁deliberate	-11.7896
▁mag	-11.7898
▁12,000	-11.7898
▁buddy	-11.7901
▁walters	-11.7902
diane	-11.7903
▁bangladesh	-11.7905
review	-11.7905
▁disclosure	-11.7905
▁est	-11.7907
▁1.8	-11.7908
logged	-11.7911
▁incorrect	-11.7914
▁downplay	-11.7915
tyson	-11.7917
▁dining	-11.7918
▁unity	-11.7926
▁baton	-11.7929
speed	-11.7932
▁respectful	-11.7933
▁uproar	-11.7935
▁distant	-11.7938
▁hartford	-11.7939
▁kickstarter	-11.7939
▁acquitted	-11.7939
▁6.	-11.7942
▁slot	-11.7943
city	-11.7944
▁zhang	-11.7946
▁nielsen	-11.7949
▁sever	-11.795
▁heist	-11.7957
▁ousted	-11.7958
▁cu	-11.7959
▁introduc	-11.7963
▁turnout	-11.7966
▁floated	-11.7971
▁peru	-11.7971
▁consistently	-11.7971
▁fuck	-11.7975
▁arch	-11.7976
▁shawn	-11.798
▁boarding	-11.7987
wise	-11.7988
▁stash	-11.7991
▁assure	-11.7992
▁carnival	-11.7998
▁pesticide	-11.7998
▁broward	-11.8
ow	-11.8004
▁digs	-11.8004
▁danish	-11.8005
▁creators	-11.8005
▁princeton	-11.8005
▁cr	-11.8008
▁100-	-11.801
▁luis	-11.8015
▁camping	-11.8017
▁mistress	-11.8018
facebook	-11.8019
▁checkpoint	-11.802
▁booker	-11.8022
▁scandals	-11.8025
▁roam	-11.8029
▁mum	-11.803
▁judd	-11.8031
▁contribution	-11.8033
▁nest	-11.8033
▁iceberg	-11.8034
▁fetch	-11.8035
ered	-11.8037
praying	-11.8038
▁stray	-11.8045
▁gaffe	-11.8046
▁await	-11.8052
▁mal	-11.8055
▁montreal	-11.8058
▁timberlake	-11.806
▁provocative	-11.806
▁grieving	-11.8061
▁lend	-11.8061
▁duchess	-11.8062
▁happily	-11.8064
▁400,000	-11.8064
▁ambitious	-11.8066
▁chancellor	-11.8068
irresponsible	-11.807
bank	-11.8079
▁wildly	-11.8079
ranking	-11.808
▁titles	-11.8083
▁theatre	-11.8083
sisted	-11.8084
▁departments	-11.8084
▁wherever	-11.8085
ucci	-11.8089
▁accusers	-11.8094
▁7.	-11.8095
running	-11.8097
▁ruth	-11.8098
▁rowling	-11.81
▁lesser	-11.8101
▁quipp	-11.8102
▁tapes	-11.8109
part	-11.8109
▁philly	-11.8111
▁oak	-11.8113
▁determin	-11.8115
▁drift	-11.8116
▁jam	-11.8116
▁octopus	-11.8118
▁meltdown	-11.8119
▁harass	-11.812
▁contractors	-11.8121
▁staggering	-11.8123
▁bmw	-11.8127
▁ikea	-11.8127
▁megyn	-11.8128
▁legalize	-11.8128
▁absorb	-11.8129
▁wwii	-11.813
ola	-11.8131
▁devil	-11.8134
▁bulls	-11.8135
▁meme	-11.8136
▁batter	-11.8139
▁fre	-11.8141
▁micro	-11.8142
▁bites	-11.8142
▁spell	-11.8146
▁smartphones	-11.8147
▁lucki	-11.8148
▁tracy	-11.815
▁4.5	-11.8159
▁flies	-11.816
founded	-11.8161
▁wade	-11.8163
▁comet	-11.8164
▁salvador	-11.8168
minded	-11.8169
show	-11.8171
▁newton	-11.8175
▁compliment	-11.8178
▁abdullah	-11.8179
▁cockpit	-11.8181
▁sch	-11.8185
▁humble	-11.8187
▁civilization	-11.8187
▁shops	-11.8189
▁oath	-11.8199
▁inaccurate	-11.8201
▁hardest	-11.8204
▁belly	-11.8204
▁olive	-11.8208
smith	-11.8212
-15	-11.8213
▁finishe	-11.8217
▁unleash	-11.8217
▁python	-11.822
▁flake	-11.8222
▁chad	-11.8223
▁tension	-11.8225
▁belongings	-11.8227
ically	-11.8229
▁isolation	-11.8234
▁abdul	-11.8239
▁guantanamo	-11.824
▁unharmed	-11.824
▁sympathy	-11.8241
▁calf	-11.8241
▁lure	-11.8244
ridge	-11.8245
▁primaries	-11.8245
▁participation	-11.8246
▁sailors	-11.8248
▁relay	-11.8248
▁paralyzed	-11.8251
▁physics	-11.8253
▁disagreement	-11.8258
paid	-11.8261
▁accuracy	-11.8261
pack	-11.8262
▁gi	-11.8265
▁barr	-11.8268
▁advis	-11.8271
▁hubb	-11.8282
▁steer	-11.8288
▁toxicolog	-11.829
mer	-11.829
▁whip	-11.8298
▁catalog	-11.8298
▁toy	-11.8299
two	-11.8301
▁ordinance	-11.8301
▁veterinarian	-11.8302
▁gorilla	-11.8303
▁consumerist	-11.8304
▁blackberry	-11.8305
▁enforce	-11.8305
ight	-11.8308
po	-11.8311
▁vulnerabilit	-11.8313
▁wagner	-11.8314
▁cindy	-11.8315
▁mud	-11.8317
▁loyalty	-11.8318
▁apologies	-11.8318
▁ac	-11.8321
ough	-11.8322
▁usda	-11.8325
▁assignment	-11.8325
▁entertaining	-11.8325
▁scarlet	-11.8327
▁91	-11.8328
▁shelf	-11.833
▁knot	-11.8333
▁1.4	-11.8334
▁pedestrian	-11.8335
▁leo	-11.8337
▁backs	-11.8339
tability	-11.8344
▁loop	-11.8347
▁idiot	-11.8349
verly	-11.8357
▁sightings	-11.8358
ely	-11.8361
▁jeep	-11.8363
▁microphone	-11.8363
▁fiorina	-11.8365
▁quinn	-11.8365
▁greenhouse	-11.8368
▁figur	-11.8371
▁125	-11.8376
▁magazines	-11.8377
▁objection	-11.8378
▁bruises	-11.838
▁10.	-11.8381
▁reboot	-11.8381
▁88	-11.8381
master	-11.8385
organ	-11.8386
▁samuel	-11.8387
fire	-11.8391
▁compromised	-11.8392
▁breasts	-11.8393
▁baron	-11.8396
▁mandel	-11.8396
▁archiv	-11.8409
▁mona	-11.8423
▁clause	-11.8424
▁bon	-11.8426
▁solitary	-11.8427
▁spectrum	-11.8427
▁johansson	-11.8427
▁olberman	-11.8427
▁ingest	-11.8429
▁primari	-11.8431
▁watchdog	-11.8432
▁blasio	-11.8433
▁parody	-11.8436
ied	-11.8436
▁dolls	-11.8436
▁capsule	-11.844
abilities	-11.8441
lec	-11.8443
▁shakespeare	-11.8443
▁characterize	-11.8445
▁inadvertent	-11.845
▁parenting	-11.8461
▁parasite	-11.8461
▁drastic	-11.8461
▁deutsche	-11.8465
▁rapist	-11.8467
▁warmer	-11.8473
oc	-11.8475
▁vegetables	-11.8477
▁propose	-11.8479
▁swallow	-11.8479
▁lynn	-11.8481
▁limb	-11.8482
▁samaritan	-11.8487
▁specimen	-11.8488
▁identities	-11.8488
▁neo	-11.8491
▁lunar	-11.8492
▁delegation	-11.8493
▁breed	-11.8494
▁upward	-11.8495
freddie	-11.8497
▁sheep	-11.8498
▁reversed	-11.8499
▁faithful	-11.85
▁bourd	-11.85
▁lighting	-11.8501
profit	-11.8509
▁crater	-11.8512
▁colorful	-11.8512
▁kkk	-11.8512
affiliated	-11.8513
▁celebrat	-11.8513
▁gloves	-11.8514
yn	-11.8515
▁disagrees	-11.8517
▁nonsense	-11.8517
▁finale	-11.8518
ez	-11.8519
▁hotels	-11.852
ctively	-11.8522
▁robertson	-11.8531
▁uc	-11.8536
ounces	-11.8536
nhap	-11.8538
▁liu	-11.8544
▁plos	-11.8546
▁1.1	-11.8549
▁stereotype	-11.855
▁pee	-11.8551
▁fahrenheit	-11.8553
▁cancellation	-11.8553
▁reluctant	-11.8553
▁collaboration	-11.8553
▁cheerleader	-11.8554
▁nikki	-11.8554
▁equity	-11.8556
▁dynasty	-11.8557
▁tidal	-11.8561
▁marble	-11.8562
▁carney	-11.8562
▁burke	-11.8564
▁punching	-11.8567
▁authentic	-11.8568
▁fry	-11.857
▁spinal	-11.857
▁tent	-11.857
▁gonzalez	-11.8576
teresa	-11.8577
▁homophobi	-11.8578
▁grandparents	-11.8583
▁guinea	-11.8584
▁backers	-11.8586
▁salad	-11.8586
▁malaysian	-11.859
▁bur	-11.8591
▁bargain	-11.8591
appearing	-11.8591
art	-11.8594
cola	-11.8597
$	-11.8597
▁sin	-11.8598
▁swear	-11.8602
▁equipp	-11.8612
▁39-	-11.8614
▁streep	-11.8614
▁finland	-11.8615
workers	-11.8617
▁pumpkin	-11.8619
member	-11.8621
▁takeaway	-11.8623
▁medic	-11.8623
▁noaa	-11.8624
▁min	-11.8625
▁mercedes	-11.8626
▁lobbyist	-11.8626
▁inflation	-11.8627
▁wrestling	-11.8629
▁crush	-11.8629
▁vendor	-11.863
ged	-11.8632
▁combine	-11.8632
▁quips	-11.8633
▁char	-11.8635
▁ios	-11.8635
▁slur	-11.8639
▁seeds	-11.8639
▁rides	-11.8641
▁chickens	-11.8644
ga	-11.8644
▁plung	-11.8647
worker	-11.8648
▁surpass	-11.8649
"	-11.8653
▁dock	-11.8655
▁regulatory	-11.8656
ded	-11.8658
▁handcuffs	-11.8658
▁experiments	-11.8659
▁austria	-11.866
▁campaigning	-11.866
▁myth	-11.8663
▁sake	-11.8667
ira	-11.8667
▁myers	-11.8668
▁zimbabwe	-11.867
▁pockets	-11.8671
▁bits	-11.8674
▁disappear	-11.8675
▁panama	-11.8677
from	-11.8677
▁honolulu	-11.8677
▁calendar	-11.8677
▁threshold	-11.8678
▁accomplice	-11.8678
ten	-11.868
▁lowered	-11.868
▁fictional	-11.8682
▁pruitt	-11.8682
▁jacksonville	-11.8682
▁periods	-11.8682
about	-11.8683
▁sacred	-11.8684
▁plummet	-11.8686
▁polite	-11.8688
ranos	-11.869
▁seniors	-11.8691
▁bragg	-11.8691
▁spotify	-11.8692
▁mainland	-11.8694
▁gq	-11.8694
▁tales	-11.8694
▁tucker	-11.8698
▁abrams	-11.8699
laying	-11.8702
▁87	-11.8703
▁confesse	-11.8707
▁crashes	-11.871
lton	-11.871
▁pine	-11.8711
▁languages	-11.8713
op	-11.8717
▁tri	-11.8718
▁grill	-11.8719
▁grenade	-11.872
▁1972	-11.872
▁reel	-11.8724
▁carr	-11.8727
▁loses	-11.8728
dollar	-11.8728
section	-11.8731
powered	-11.8732
▁alike	-11.8737
▁90-	-11.8738
pilot	-11.8738
▁czech	-11.8741
▁imprisonment	-11.8742
▁distribute	-11.8745
▁uncommon	-11.8746
▁considerabl	-11.8749
▁restoration	-11.8749
▁horrifying	-11.8749
▁lands	-11.875
▁transparent	-11.8751
▁disturbance	-11.8751
▁feminist	-11.8752
▁expire	-11.8753
▁pirates	-11.8755
▁boarded	-11.8756
▁bicycle	-11.8757
case	-11.8761
▁nash	-11.8767
cted	-11.8769
▁traced	-11.877
▁calculated	-11.8776
▁wildfire	-11.8781
▁charitabl	-11.8782
▁alligator	-11.8783
▁shipwreck	-11.8783
▁urgent	-11.8784
▁freeman	-11.8784
▁conan	-11.8785
▁1.7	-11.8789
fashion	-11.8789
▁adrian	-11.8798
▁arpaio	-11.8806
▁possibilities	-11.8806
▁municipal	-11.8808
▁strauss	-11.8809
▁disguise	-11.881
▁woody	-11.881
▁physicist	-11.881
▁drives	-11.8811
▁libertarian	-11.8815
▁uprising	-11.8818
▁deposition	-11.8818
▁plight	-11.8819
▁hawk	-11.882
▁horrifi	-11.8822
play	-11.8828
language	-11.8828
▁clay	-11.8828
buque	-11.8829
▁tinder	-11.8832
▁altitude	-11.8832
▁entrepreneur	-11.8832
▁disciplinar	-11.8834
▁diary	-11.8838
▁postpone	-11.8839
▁crops	-11.8841
▁conceal	-11.8843
▁juror	-11.8846
▁indoor	-11.8846
▁rainbow	-11.8851
▁conclusions	-11.8852
▁keller	-11.8852
jenny	-11.8856
▁denounce	-11.8858
▁translation	-11.8859
▁antarctic	-11.8859
▁mouse	-11.8865
ise	-11.8866
▁amateur	-11.8869
▁graph	-11.8869
▁bribe	-11.8869
▁junk	-11.8871
▁hagel	-11.8872
▁labeouf	-11.8873
▁slowed	-11.8874
▁accountability	-11.8877
▁mateen	-11.8877
▁batman	-11.8881
▁avail	-11.8882
largest	-11.8884
▁cares	-11.8885
▁alternate	-11.8886
▁dealers	-11.8886
▁tribal	-11.8886
▁sadness	-11.8887
▁wax	-11.8888
▁underwood	-11.8888
course	-11.8889
opoulos	-11.8889
▁malik	-11.8889
▁bodyguard	-11.8891
fish	-11.8895
▁13.	-11.8906
▁sicken	-11.891
▁intruder	-11.8915
▁educate	-11.8915
warded	-11.8915
▁skies	-11.8917
▁processed	-11.8919
▁iphones	-11.892
apping	-11.8922
ana	-11.8925
▁patrons	-11.8925
▁burglar	-11.8925
▁mug	-11.8926
▁reed	-11.8927
▁linger	-11.8935
▁ecosystem	-11.8936
▁ostensibl	-11.8936
▁kimberly	-11.8937
▁discipline	-11.8938
▁faculty	-11.8938
▁transparency	-11.8939
▁aerial	-11.8939
▁yosemite	-11.8941
▁households	-11.8941
▁paparazzi	-11.8943
▁methane	-11.8944
▁parkland	-11.8944
▁bahamas	-11.8945
▁diaz	-11.8946
▁disrespectful	-11.8948
▁theoretical	-11.8949
▁weaver	-11.895
book	-11.8952
handed	-11.8953
sey	-11.8954
▁spiders	-11.8957
▁convert	-11.8959
▁clever	-11.8963
▁holt	-11.8966
▁dressing	-11.8968
▁windsor	-11.8969
▁scour	-11.897
▁issu	-11.8971
▁stall	-11.8971
▁wynn	-11.8974
▁outlook	-11.8974
olds	-11.8976
▁conscience	-11.898
▁oceans	-11.898
▁litter	-11.898
▁prop	-11.8981
▁voluntary	-11.8988
▁apprentice	-11.8994
▁migration	-11.8999
▁prep	-11.8999
▁flush	-11.9002
▁kabul	-11.9002
▁operational	-11.9004
▁bonds	-11.9005
▁hanged	-11.9005
▁immunity	-11.9006
▁volatil	-11.9006
▁curiosity	-11.9007
▁poisoned	-11.9008
▁49-	-11.9008
apped	-11.9008
▁clubs	-11.901
▁abraham	-11.901
▁gosling	-11.901
▁colony	-11.9012
▁halfway	-11.9012
▁installation	-11.9019
▁flier	-11.902
▁utility	-11.9024
▁neutral	-11.9026
▁relax	-11.9028
▁tide	-11.9031
▁conceive	-11.9031
▁deploy	-11.9032
▁baghdad	-11.9035
therapy	-11.9037
▁cl	-11.904
▁iq	-11.9041
whoever	-11.9041
▁nationalist	-11.9047
▁walt	-11.9047
▁condom	-11.9052
▁nassa	-11.9054
▁zombie	-11.9054
▁coaches	-11.9064
marcus	-11.9064
▁beta	-11.9068
▁cathedral	-11.9068
▁scathing	-11.9068
▁acquaintance	-11.9068
▁coincidence	-11.9069
▁remorse	-11.907
▁hathaway	-11.907
▁pneumonia	-11.9071
▁occurrence	-11.9071
ik	-11.9072
▁craigslist	-11.9073
▁safeguard	-11.9074
▁gambling	-11.9075
▁mirand	-11.9078
turned	-11.908
▁healthier	-11.9081
▁refuses	-11.9081
▁slice	-11.9083
▁holland	-11.9086
▁persuade	-11.9087
▁boxer	-11.9088
▁enhance	-11.909
▁breastfeeding	-11.9091
inspiring	-11.9091
▁1968	-11.9102
ricky	-11.9103
▁corpse	-11.9104
▁pie	-11.9104
▁reactor	-11.9106
▁steele	-11.9109
▁greene	-11.911
▁eyewitness	-11.9111
▁separatist	-11.9112
▁negligent	-11.9113
▁corrected	-11.9116
▁brock	-11.9118
▁subsidi	-11.9123
had	-11.9124
▁beaver	-11.9126
ended	-11.9126
▁albums	-11.9127
▁gilli	-11.9127
▁cooler	-11.9129
▁clan	-11.9132
▁1973	-11.9135
▁poet	-11.9136
ul	-11.9137
▁allergy	-11.9137
▁conclud	-11.9137
▁gorsuch	-11.9139
▁incredib	-11.914
▁biography	-11.9141
▁deepest	-11.9143
▁demise	-11.9143
channel	-11.9146
▁interestingly	-11.915
▁pub	-11.9152
▁tu	-11.9153
▁compile	-11.9158
▁legalization	-11.9162
▁waist	-11.9165
▁drum	-11.9167
▁wal	-11.9167
▁resource	-11.9167
▁fianc	-11.9171
▁boko	-11.9171
▁karz	-11.9171
▁showdown	-11.9172
▁historically	-11.918
▁seizures	-11.9182
▁lax	-11.9182
▁scholarship	-11.9184
▁monitored	-11.9188
▁buses	-11.9191
dom	-11.9191
▁reflection	-11.9192
just	-11.9192
▁embryos	-11.9192
▁fist	-11.9198
▁hurdle	-11.92
▁technician	-11.9202
▁radioactive	-11.9203
▁93	-11.9205
▁simpsons	-11.9205
▁problematic	-11.9207
▁cautious	-11.9208
▁solidarity	-11.9209
▁blair	-11.9209
▁distinction	-11.9211
▁naac	-11.9211
▁alice	-11.9213
▁villager	-11.9213
▁gill	-11.9214
▁hol	-11.9217
▁contestants	-11.9218
▁53-	-11.922
▁sachs	-11.922
▁possess	-11.9221
▁stab	-11.9221
▁molest	-11.9224
▁wraps	-11.9225
▁exemption	-11.9227
▁thumbs	-11.9232
has	-11.9234
▁railing	-11.9235
▁ensued	-11.9239
▁clinics	-11.9241
▁gr	-11.9242
▁taped	-11.9244
▁te	-11.9245
▁reopened	-11.9251
▁coordinat	-11.9252
▁statues	-11.9253
▁restricted	-11.9257
▁drinkers	-11.9261
▁oddly	-11.9261
▁hormone	-11.9261
▁musicians	-11.9267
▁tebow	-11.9269
▁carcass	-11.927
▁disregard	-11.927
▁contentious	-11.9271
▁barrett	-11.9274
▁bathtub	-11.9274
▁fisherman	-11.9275
▁labour	-11.9275
kowski	-11.9278
▁uncertain	-11.928
stream	-11.9287
sounding	-11.9288
▁instinct	-11.9291
▁carpenter	-11.9291
▁corey	-11.9292
▁matthews	-11.9293
▁cinema	-11.9294
▁questionable	-11.9297
▁surveys	-11.9298
▁robb	-11.93
▁mich	-11.9306
▁trainer	-11.9312
▁selena	-11.9312
▁holly	-11.9315
▁rabbit	-11.9331
northwestern	-11.9332
▁ab	-11.9335
▁streak	-11.9335
▁gala	-11.9335
ini	-11.9338
3,000	-11.9339
▁voicemail	-11.9343
sically	-11.9344
certified	-11.9349
▁motivate	-11.9349
▁convey	-11.935
▁disputes	-11.9353
▁probable	-11.9354
▁circus	-11.9357
▁tel	-11.9359
▁fifty	-11.9359
▁attribute	-11.9359
▁shootout	-11.936
▁operates	-11.9361
▁doe	-11.9362
▁lacking	-11.9364
▁achiev	-11.9365
▁55-	-11.9367
▁cheated	-11.9372
▁generat	-11.9376
meter	-11.9377
▁insensitive	-11.9378
▁smuggling	-11.9378
▁blank	-11.9379
▁tractor	-11.938
▁mature	-11.938
▁surrogate	-11.9386
11	-11.9386
saw	-11.939
ative	-11.9393
▁shareholders	-11.9393
bullied	-11.9394
▁ambush	-11.9399
▁meek	-11.94
▁cleaner	-11.9402
halftime	-11.9407
▁cement	-11.941
▁carrey	-11.941
▁woes	-11.9411
▁coyote	-11.9414
▁alley	-11.9417
▁frontrunner	-11.9417
▁mosquitoes	-11.9417
▁enroll	-11.9418
▁getaway	-11.9418
▁olivia	-11.9419
▁falcon	-11.9419
▁deserved	-11.9422
▁kin	-11.9422
maintained	-11.9422
▁tuition	-11.9425
con	-11.9431
erkel	-11.9438
▁enthusias	-11.9439
▁impair	-11.9441
meddling	-11.9441
kind	-11.9444
▁erase	-11.9445
▁acute	-11.9446
tified	-11.9446
▁sequence	-11.9447
▁choked	-11.9447
▁tolerate	-11.9447
▁lance	-11.9448
ounded	-11.945
▁fusion	-11.9453
▁rove	-11.9453
ari	-11.9457
▁laughs	-11.9458
▁swap	-11.9463
chased	-11.947
▁genre	-11.9472
atherine	-11.9473
▁24/7	-11.9475
▁obstacle	-11.9475
▁barcelona	-11.9475
▁arraign	-11.9476
▁fraudulent	-11.9477
▁uncertainty	-11.9478
▁honeymoon	-11.948
▁acquisition	-11.948
hit	-11.948
▁cyclist	-11.9482
▁exploration	-11.9482
▁winehouse	-11.9483
▁overtime	-11.9484
▁descent	-11.9484
▁rider	-11.9484
▁reince	-11.9485
▁gum	-11.9486
res	-11.9487
▁realistic	-11.9492
▁trespassing	-11.9495
▁mortal	-11.9498
▁92	-11.95
▁evolutionary	-11.9501
▁travers	-11.9502
▁bella	-11.9506
▁tommy	-11.9511
▁bosses	-11.9512
▁niece	-11.9512
▁wed	-11.9514
▁condo	-11.9516
▁bucks	-11.9517
acted	-11.9522
▁outer	-11.9523
▁dolphin	-11.9529
▁representation	-11.9533
▁mutation	-11.9534
▁nun	-11.9534
▁torn	-11.9536
airways	-11.9538
▁hedge	-11.9538
▁adolf	-11.9538
▁subtle	-11.9539
▁70,000	-11.9539
room	-11.954
darren	-11.9543
▁disappointment	-11.9545
▁awake	-11.9546
▁sitcom	-11.9547
▁mia	-11.9548
▁cecil	-11.9548
▁stairs	-11.9548
watch	-11.955
▁botched	-11.955
▁asthma	-11.9551
▁investigati	-11.9551
▁substances	-11.9551
▁arabic	-11.9551
▁lemon	-11.9552
risk	-11.9552
▁wis	-11.9552
▁synthetic	-11.9553
▁elect	-11.9554
▁constitute	-11.9556
▁payout	-11.9557
▁daca	-11.9557
stop	-11.9563
▁lonely	-11.9563
▁harmless	-11.9569
▁kidding	-11.957
▁bridges	-11.9573
▁contacts	-11.9579
▁fitting	-11.9579
▁grove	-11.9581
▁dems	-11.9584
lapped	-11.9585
▁liz	-11.9585
▁ci	-11.9585
▁dragon	-11.9587
▁yankees	-11.959
▁rosa	-11.959
lihood	-11.9595
▁70-	-11.9595
▁kn	-11.9595
drew	-11.9598
▁18.	-11.9599
▁obstruction	-11.96
▁grain	-11.96
▁sunset	-11.96
unemployed	-11.9605
▁pierre	-11.9609
▁frames	-11.9609
▁eliminated	-11.9611
▁costumes	-11.9614
▁lebron	-11.9614
▁schizophrenia	-11.9615
▁disabilities	-11.9615
lc	-11.9617
▁alexandria	-11.9619
▁nunes	-11.9621
▁motel	-11.9621
▁apprehended	-11.9622
20	-11.9624
▁fossils	-11.9625
▁lena	-11.9625
▁transmission	-11.9625
▁wfaa	-11.9626
depth	-11.9628
▁homosexual	-11.9628
nicolas	-11.9629
▁waitress	-11.9631
▁donat	-11.9634
▁wang	-11.9639
▁prosecute	-11.964
▁ham	-11.9647
▁devo	-11.9651
limited	-11.9651
▁cour	-11.9652
▁lowe	-11.9654
▁ritual	-11.9655
▁cancers	-11.9657
▁provider	-11.9659
50	-11.9663
▁triumph	-11.9666
▁sho	-11.9672
first	-11.9673
▁bend	-11.9675
▁miners	-11.9676
ved	-11.9677
▁bre	-11.9678
▁pals	-11.9678
▁decidedly	-11.9682
▁traits	-11.9684
▁hyper	-11.9687
▁fentanyl	-11.9689
▁airbnb	-11.9692
▁accompani	-11.9693
▁avery	-11.9693
▁genetically	-11.9694
▁emirates	-11.9695
▁spa	-11.9697
▁gag	-11.9698
▁congratulations	-11.9698
▁terrain	-11.9699
gged	-11.9703
▁owens	-11.9704
▁astonishing	-11.9705
▁relat	-11.9709
proving	-11.9712
rangers	-11.9718
mariah	-11.9721
sburg	-11.9727
▁peters	-11.973
▁parish	-11.9731
▁nails	-11.9734
ives	-11.9736
angelo	-11.9738
▁euros	-11.9738
vanessa	-11.9746
use	-11.9754
▁artistic	-11.9754
▁thigh	-11.9755
▁compassion	-11.9755
▁warmbier	-11.9756
▁impeachment	-11.9756
▁yelp	-11.9756
▁priorities	-11.9757
▁blockbuster	-11.9758
▁payroll	-11.9758
nate	-11.9758
▁suppress	-11.976
▁cholesterol	-11.9761
▁tactic	-11.9762
▁aluminum	-11.9763
▁automaker	-11.9763
▁nationally	-11.9765
▁negotiator	-11.9768
▁dixon	-11.9769
love	-11.9774
ging	-11.9775
▁shine	-11.9775
▁skinny	-11.9776
▁constituent	-11.9777
▁exclude	-11.9779
▁behavioral	-11.9779
▁communicat	-11.978
▁spawn	-11.978
▁alt	-11.9781
▁sincerely	-11.9782
ov	-11.9784
allest	-11.9785
▁unlock	-11.9788
▁torso	-11.9789
ld	-11.9789
▁citation	-11.979
▁shaw	-11.9791
▁converted	-11.9793
▁jade	-11.9793
▁translates	-11.9795
▁cleric	-11.98
▁pains	-11.9801
▁pledg	-11.9803
oh	-11.9807
▁traumati	-11.9809
▁squeeze	-11.9816
▁lobbying	-11.982
alia	-11.982
▁jungle	-11.9827
▁ky	-11.9829
▁melbourne	-11.983
▁credential	-11.983
▁elvis	-11.9834
▁feedback	-11.9834
▁gradually	-11.9834
▁senseless	-11.9834
▁nabb	-11.9836
▁wary	-11.9836
▁harmed	-11.9836
▁mechanical	-11.9837
▁sting	-11.9838
▁dioxide	-11.984
▁performe	-11.9841
▁seller	-11.9841
▁911.	-11.9841
▁lam	-11.9842
▁releases	-11.9843
▁shar	-11.985
▁94	-11.9854
▁98	-11.9855
▁wildfires	-11.9855
▁35,000	-11.9856
▁tulsa	-11.9857
▁imports	-11.9861
▁jazz	-11.9862
▁malfunction	-11.9863
▁wheat	-11.9866
▁graduat	-11.9869
▁gaming	-11.9872
▁mattis	-11.9873
trial	-11.9874
shannon	-11.9874
▁47-	-11.9877
▁44-	-11.9878
▁docs	-11.9879
▁mechanism	-11.9882
pinning	-11.9886
ker	-11.9886
▁brooke	-11.9889
▁curse	-11.9896
▁leopard	-11.9899
▁fathers	-11.99
▁worship	-11.99
▁stack	-11.99
▁offspring	-11.9901
▁allergies	-11.9901
leaning	-11.9902
▁worrying	-11.9902
▁kurdish	-11.9904
▁curator	-11.9905
▁copper	-11.9906
▁prolong	-11.9907
▁malley	-11.9908
▁miserable	-11.9908
▁births	-11.9912
▁motivat	-11.9914
▁regulate	-11.9915
edited	-11.9918
ev	-11.9919
▁hughe	-11.9924
▁sedan	-11.9925
▁modeling	-11.9928
ided	-11.9938
▁candid	-11.9939
▁ancestors	-11.9939
▁destructive	-11.9943
▁plow	-11.9949
▁aviv	-11.9951
▁listened	-11.9954
lan	-11.996
▁14.	-11.9962
gadget	-11.9966
▁squirrel	-11.9971
▁honda	-11.9972
▁empathy	-11.9972
▁traditionally	-11.9972
pac	-11.9973
▁manufacture	-11.9973
▁800,000	-11.9975
▁inaugural	-11.9976
▁contraception	-11.9977
▁albany	-11.9977
▁prostitutes	-11.9977
▁kylie	-11.9978
▁minaj	-11.9978
▁interrogation	-11.9979
▁powerball	-11.998
▁dishonest	-11.9981
▁occurr	-11.9982
▁exotic	-11.9982
mi	-11.9985
▁excavation	-11.9986
▁paycheck	-11.9987
▁shi	-11.9992
▁reiterate	-11.9993
▁sellers	-11.9994
▁barbie	-11.9998
▁colon	-11.9999
▁contributor	-11.9999
▁prie	-12.0002
▁align	-12.0003
▁barriers	-12.0006
sdom	-12.0006
▁loser	-12.0006
▁shrink	-12.0008
▁ye	-12.0012
▁raft	-12.0014
▁shifts	-12.0019
▁thread	-12.0024
▁networking	-12.0025
▁clarifie	-12.0028
▁contestant	-12.0029
crowley	-12.0029
▁exercis	-12.0031
▁swamp	-12.0035
▁prediction	-12.0039
▁surf	-12.0043
ramirez	-12.0044
▁geneva	-12.0047
▁external	-12.0048
▁roseanne	-12.0048
▁laundry	-12.0048
burn	-12.0049
▁sequester	-12.005
▁schwartz	-12.0052
▁snoop	-12.0055
▁permitt	-12.0056
▁bart	-12.0064
▁coordinate	-12.0069
▁hurts	-12.0069
▁alberta	-12.007
▁agreements	-12.0081
▁derail	-12.0082
▁murk	-12.0082
▁rode	-12.0082
▁crap	-12.0083
grams	-12.0085
ara	-12.0087
▁reache	-12.009
▁reinstate	-12.009
▁heck	-12.0091
service	-12.0093
▁tunnels	-12.0098
▁ti	-12.0098
▁brew	-12.0098
ying	-12.0099
▁homeowners	-12.01
2,000	-12.0104
fty	-12.0104
peacefully	-12.0105
lessness	-12.0105
win	-12.0109
▁midterm	-12.011
pic	-12.0115
▁beans	-12.0115
▁hansen	-12.0119
▁sausage	-12.012
▁seas	-12.0121
▁havana	-12.0121
▁wheels	-12.0122
▁spiegel	-12.0123
▁fruits	-12.0124
▁knees	-12.0128
▁96	-12.0131
▁judy	-12.0132
▁amtrak	-12.0135
▁sponsors	-12.0135
▁mattress	-12.0136
▁outpouring	-12.0136
cal	-12.0137
▁acquir	-12.0139
▁overweight	-12.014
▁setback	-12.0142
quality	-12.0148
▁atomic	-12.015
▁suite	-12.0151
▁dayton	-12.0154
▁ministers	-12.0155
▁hurl	-12.0156
done	-12.016
▁hawaiian	-12.0162
▁glori	-12.0163
▁outage	-12.0163
▁cleaned	-12.0165
▁sharply	-12.0165
▁alcoholic	-12.0165
▁rejection	-12.0169
▁parallel	-12.0172
▁lump	-12.0173
▁grants	-12.0175
▁ensur	-12.0176
▁8.	-12.0177
▁audition	-12.0177
▁eventual	-12.0179
police	-12.0186
▁kings	-12.0189
▁dicaprio	-12.0192
▁divisive	-12.0193
▁lou	-12.0194
▁empower	-12.0194
▁migrant	-12.0195
▁leaning	-12.0197
▁agricultural	-12.0198
▁parkinson	-12.0203
▁patel	-12.0203
▁informant	-12.0209
▁womb	-12.0209
▁potatoes	-12.0209
▁jin	-12.021
▁finalized	-12.0213
▁reconsider	-12.0214
▁renew	-12.0215
▁mentor	-12.0217
▁sewer	-12.0217
▁screens	-12.0218
▁viewer	-12.0225
▁smokers	-12.0227
▁14,000	-12.0231
▁vampire	-12.0234
▁tipped	-12.0235
▁dunn	-12.0235
▁tweak	-12.0236
▁frightening	-12.0237
▁hollow	-12.0244
▁blogs	-12.0245
▁revoke	-12.0247
▁specifi	-12.0251
▁organiz	-12.0252
▁gasoline	-12.0267
▁amsterdam	-12.0267
▁coulter	-12.0267
▁resemblance	-12.0268
▁raids	-12.0268
▁robberies	-12.0268
▁kunis	-12.0268
▁pivot	-12.0269
▁litigation	-12.0271
▁mccartney	-12.0272
▁intoxication	-12.0272
,000	-12.0274
▁accounting	-12.0274
▁dominated	-12.0275
▁suitcase	-12.0276
▁katrina	-12.0277
ving	-12.0279
▁enlist	-12.0279
▁tire	-12.0286
▁accent	-12.0288
▁viable	-12.0296
▁1975	-12.0299
setting	-12.03
any	-12.0301
gazette	-12.0305
▁skirt	-12.0307
child	-12.0307
▁performers	-12.0312
▁52-	-12.0314
▁usher	-12.0318
▁glee	-12.032
▁cries	-12.0322
season	-12.0324
ab	-12.0327
▁yacht	-12.033
ese	-12.033
ks	-12.0334
ino	-12.0335
▁spilled	-12.0336
▁cheering	-12.0336
die	-12.0337
get	-12.0338
▁melt	-12.0338
▁lily	-12.034
▁eugen	-12.0341
▁mosquito	-12.0343
▁fingerprints	-12.0344
▁glory	-12.0345
▁disneyland	-12.0347
▁solomon	-12.0351
▁bogus	-12.0351
▁earhart	-12.0354
▁shorts	-12.0358
▁merchandise	-12.0359
▁dwarf	-12.0361
▁spaces	-12.0362
ade	-12.0364
tainted	-12.0366
▁illustrate	-12.0368
▁screw	-12.0369
▁75,000	-12.0369
▁54-	-12.0371
▁surgical	-12.0372
▁reps	-12.0382
▁implant	-12.0386
▁airbus	-12.0386
▁actresses	-12.0387
▁flores	-12.0388
▁ver	-12.0389
▁dorm	-12.039
▁honesty	-12.0391
▁gardens	-12.0392
▁golfer	-12.0392
dade	-12.0393
raping	-12.0394
▁skipp	-12.0394
▁grilled	-12.0396
▁brenda	-12.0399
▁lineup	-12.0401
adly	-12.0401
▁mahmo	-12.0403
▁stripes	-12.0413
▁profession	-12.0414
▁ounce	-12.0415
▁chipotle	-12.0418
▁copenhagen	-12.0418
▁measles	-12.0418
▁midwest	-12.0421
▁louisville	-12.0422
▁jurisdiction	-12.0423
▁fragile	-12.0424
▁eastwood	-12.0426
▁decree	-12.0427
▁alpha	-12.0427
▁farook	-12.0429
▁kitten	-12.0429
▁comparable	-12.0429
ano	-12.043
▁battled	-12.0431
▁adverse	-12.0432
felt	-12.0438
▁vent	-12.0441
▁barron	-12.0442
▁ju	-12.0442
▁ups	-12.0444
cia	-12.045
▁pod	-12.0451
▁failures	-12.0451
▁hence	-12.0454
▁ivy	-12.0456
▁sunni	-12.0464
▁owed	-12.0464
▁admire	-12.0469
▁withdrawn	-12.047
▁exempt	-12.0471
▁1971	-12.0473
▁swipe	-12.0474
▁vets	-12.0476
aims	-12.0476
▁viruses	-12.0478
▁maid	-12.0488
▁revise	-12.0488
▁boulevard	-12.0494
▁andrews	-12.0495
▁nutrient	-12.0496
▁forbid	-12.0497
▁propublica	-12.0497
▁punk	-12.0497
▁archbishop	-12.0499
▁petersburg	-12.05
▁hammond	-12.05
going	-12.0502
▁chiefs	-12.0502
▁sophomore	-12.0504
gaining	-12.0508
semitic	-12.0508
▁continuous	-12.0508
▁deployment	-12.0509
these	-12.0509
▁tampering	-12.0513
▁midterms	-12.0513
▁finishing	-12.0513
▁occupie	-12.0514
▁runoff	-12.0514
▁uniforms	-12.0515
▁linkedin	-12.0517
▁thirty	-12.0518
▁devin	-12.0519
▁sto	-12.0521
▁terminated	-12.0521
▁willis	-12.0522
▁awaken	-12.0532
ipping	-12.0533
▁indonesian	-12.0539
▁poem	-12.0542
▁smear	-12.0543
▁satisfaction	-12.0545
▁medically	-12.0546
tta	-12.055
▁popp	-12.055
▁abuses	-12.0551
▁bland	-12.0552
nick	-12.0552
▁functional	-12.0552
looming	-12.0554
uted	-12.0556
▁masks	-12.0557
iled	-12.0559
▁johns	-12.056
▁daytime	-12.056
▁andy	-12.0561
▁exxon	-12.0571
▁munich	-12.0571
▁lexington	-12.0571
▁performer	-12.0571
▁endure	-12.0572
▁aol	-12.0574
▁marker	-12.0574
▁ailment	-12.0575
lain	-12.0575
▁literary	-12.0575
▁architect	-12.0575
▁flock	-12.0575
itz	-12.0576
▁sobriety	-12.0576
▁il	-12.0576
▁fend	-12.0579
▁fetal	-12.0579
▁umbrella	-12.058
lifting	-12.0581
▁swan	-12.0582
▁suck	-12.0582
▁usage	-12.0583
▁outspoken	-12.0583
box	-12.0584
▁enact	-12.0584
▁dragging	-12.0585
▁reset	-12.0586
▁annoying	-12.0587
▁chok	-12.0591
▁dip	-12.0591
mouth	-12.0592
fil	-12.0595
▁format	-12.0595
▁disruption	-12.0596
ntsb	-12.0596
▁substitute	-12.0596
▁89	-12.0597
▁taunt	-12.0599
▁harold	-12.0602
casting	-12.0602
17	-12.0602
▁tripp	-12.0605
mitted	-12.0608
▁faint	-12.0612
weight	-12.0613
mington	-12.0614
fner	-12.0615
▁1963	-12.0617
▁frighten	-12.0619
▁rhino	-12.062
ui	-12.0621
▁prevalen	-12.0622
▁beyonc	-12.0628
▁lil	-12.0631
▁sci	-12.0631
ilia	-12.0633
▁consequence	-12.0635
▁pharmaceutical	-12.0641
▁scanner	-12.0645
▁jpm	-12.0645
▁leah	-12.0647
▁laundering	-12.0647
▁waking	-12.0647
▁strains	-12.0648
▁revamp	-12.0648
▁meredith	-12.0648
rown	-12.0649
▁carroll	-12.0651
▁170	-12.0653
▁gratitude	-12.0653
▁backstage	-12.0654
▁patricia	-12.0655
▁shoulders	-12.0656
▁monetary	-12.0657
▁mack	-12.0658
▁bale	-12.0659
▁occupant	-12.066
▁rosie	-12.0663
▁interpretation	-12.0664
▁seize	-12.0668
▁predictions	-12.0669
▁chow	-12.0669
round	-12.0673
▁bal	-12.0676
▁fits	-12.0676
▁extinct	-12.0678
▁sickness	-12.068
▁frantic	-12.0681
▁reese	-12.0685
black	-12.0686
▁masters	-12.0689
▁les	-12.0693
yard	-12.0694
ealed	-12.0696
▁generic	-12.0696
▁slap	-12.07
▁thunder	-12.0703
▁melting	-12.0704
▁brewer	-12.0711
▁cannes	-12.0712
▁prone	-12.0713
vented	-12.0714
▁chalk	-12.0716
▁kicks	-12.0718
▁forcibl	-12.072
▁caps	-12.0723
▁skill	-12.0723
▁reservoir	-12.0727
▁atlas	-12.0727
▁whatsoever	-12.0727
▁echoe	-12.0728
▁airspace	-12.0728
▁spine	-12.0728
▁hydrogen	-12.0729
▁leukemia	-12.0729
▁ominous	-12.0729
▁1945	-12.073
▁volcanic	-12.0731
▁adorable	-12.0732
▁stonehenge	-12.0732
▁reproductive	-12.0733
breivik	-12.0734
▁smack	-12.0734
▁infectious	-12.0735
▁prostate	-12.0736
▁appropriately	-12.0736
▁installment	-12.0737
▁enduring	-12.0739
▁jetblue	-12.074
▁criteri	-12.074
▁gentleman	-12.0743
▁pirate	-12.075
hill	-12.0759
▁loot	-12.0762
took	-12.0763
▁inspectors	-12.0765
▁sincere	-12.0766
▁irony	-12.0766
iagara	-12.0768
misunderstanding	-12.077
▁topless	-12.0778
▁fiber	-12.0779
▁joaqu	-12.0785
▁woo	-12.0786
▁arrange	-12.0791
▁cod	-12.0791
▁therapist	-12.0792
▁till	-12.0793
▁coli	-12.0793
▁airstrike	-12.0795
▁void	-12.0797
▁sears	-12.0799
▁costly	-12.08
▁hindu	-12.08
▁civic	-12.0801
mart	-12.0802
▁nasdaq	-12.0805
▁mugabe	-12.0805
▁mccabe	-12.0805
▁relentless	-12.0806
▁charts	-12.0807
▁psychiatrist	-12.0809
▁poke	-12.081
▁disastrous	-12.0811
▁emphasis	-12.0811
▁georgetown	-12.0811
▁embedded	-12.0812
▁sol	-12.0813
▁appetite	-12.0813
▁beacon	-12.0813
▁injunction	-12.0813
▁dem	-12.0815
▁motors	-12.0816
▁gorgeous	-12.0817
▁hooked	-12.0818
▁delicious	-12.0818
▁stu	-12.0818
di	-12.0818
▁hussein	-12.0819
▁summon	-12.082
▁rouge	-12.0821
chi	-12.0821
▁bonuses	-12.0821
ventura	-12.0825
▁difficulties	-12.0826
▁beds	-12.0827
▁bitch	-12.0829
▁hub	-12.083
▁cooked	-12.0833
▁duration	-12.0835
▁kathy	-12.0838
▁thi	-12.0838
▁nestle	-12.0839
▁tenant	-12.0839
▁stun	-12.0842
▁texan	-12.0842
▁atmospher	-12.0844
▁ribs	-12.0844
▁reeves	-12.0846
▁swearing	-12.0847
▁11,000	-12.085
▁consensual	-12.0855
mont	-12.0861
▁donna	-12.0861
▁gangs	-12.0863
▁accomplish	-12.0866
▁corker	-12.0873
tter	-12.0873
away	-12.0876
▁distinctive	-12.0876
fox	-12.0877
▁97	-12.0877
girl	-12.0878
▁notify	-12.088
xml	-12.0881
▁sewage	-12.0885
▁reconciliation	-12.0885
▁banker	-12.0887
▁earnest	-12.0887
▁feces	-12.0887
▁mohammad	-12.0887
▁robust	-12.0887
▁spelled	-12.0888
▁televised	-12.0889
▁invent	-12.0891
▁hazard	-12.0894
▁comprise	-12.0894
▁booking	-12.0896
▁riverside	-12.0896
▁pla	-12.0896
ipped	-12.0897
▁elevated	-12.0901
▁cur	-12.0903
▁collaps	-12.0906
▁francois	-12.0906
▁manuel	-12.0906
va	-12.0913
▁bark	-12.0913
▁distr	-12.0914
▁kindle	-12.0922
▁maneuver	-12.0922
▁kay	-12.0935
▁dresses	-12.0937
▁distribut	-12.0945
▁unravel	-12.0946
▁12.	-12.0949
▁80-	-12.095
▁51-	-12.0952
▁115	-12.0959
▁mischief	-12.0965
greenwald	-12.0967
▁ecuador	-12.0967
▁swimmer	-12.0967
▁introduction	-12.0968
▁monologue	-12.097
▁hypothetical	-12.097
▁villain	-12.0974
▁liter	-12.0975
▁liar	-12.0977
▁handler	-12.0981
▁execute	-12.0983
▁henderson	-12.0983
▁duff	-12.0984
ounce	-12.0985
▁davidson	-12.0986
▁contemporar	-12.0987
▁promotional	-12.0987
▁sway	-12.0989
▁caucuses	-12.099
▁codes	-12.0992
▁condoms	-12.0994
▁asset	-12.0994
▁rocker	-12.0995
▁chimp	-12.0996
general	-12.0998
▁offset	-12.0998
▁panett	-12.1008
lago	-12.1009
▁licensing	-12.101
▁keen	-12.1012
▁au	-12.1015
anning	-12.1018
ball	-12.1018
▁strokes	-12.1022
▁practic	-12.1024
▁invasive	-12.1026
▁liberia	-12.1027
▁diets	-12.1028
▁albe	-12.1029
▁dove	-12.103
▁erratic	-12.103
▁scent	-12.1037
▁sniper	-12.1041
▁onion	-12.1042
▁hobby	-12.1043
▁frances	-12.1043
▁bangkok	-12.1045
▁infringement	-12.1046
▁abdomen	-12.1046
▁370	-12.1047
▁heroic	-12.1047
▁wsb	-12.1048
▁winston	-12.1049
▁twilight	-12.1053
ls	-12.1056
bar	-12.106
ky	-12.1062
spiring	-12.1063
kellyanne	-12.1065
shima	-12.1075
▁elle	-12.108
▁troy	-12.108
▁newman	-12.1082
chester	-12.1088
▁scholar	-12.1089
▁maher	-12.1091
▁carly	-12.1093
cooking	-12.1095
▁edg	-12.1098
▁cory	-12.1102
▁contra	-12.1102
russia	-12.1105
▁15.	-12.1105
▁crab	-12.1107
▁temper	-12.1114
▁betty	-12.1114
▁turtles	-12.1114
▁valeri	-12.1118
▁cereal	-12.112
▁dale	-12.1121
▁frontier	-12.1123
▁cardiovascular	-12.1127
▁magical	-12.1128
▁billionaires	-12.1129
▁emperor	-12.1129
▁malware	-12.1129
rie	-12.1129
▁omaha	-12.113
▁photographers	-12.113
▁unstable	-12.113
tality	-12.1131
▁quebec	-12.1132
▁fey	-12.1134
▁mayo	-12.1137
▁prospects	-12.1138
▁poker	-12.1139
▁shells	-12.114
▁embrac	-12.114
aol	-12.114
▁behave	-12.1141
▁distinguish	-12.1142
▁madrid	-12.1144
otic	-12.1145
▁portions	-12.1149
▁peanuts	-12.1152
▁nut	-12.1152
▁cared	-12.1153
▁eater	-12.1154
▁9,000	-12.1154
▁swarm	-12.1155
▁101	-12.1156
▁fury	-12.116
inspired	-12.1161
▁nigerian	-12.1161
▁slurs	-12.1162
▁allison	-12.1169
▁siri	-12.1173
calise	-12.1175
▁freezer	-12.1175
owitz	-12.1176
▁showcase	-12.1181
rights	-12.1181
▁filings	-12.1183
aking	-12.1184
▁gauge	-12.1188
▁racially	-12.1189
▁hugg	-12.1191
▁burr	-12.1191
▁nix	-12.1193
▁surreal	-12.1194
deleted	-12.1196
▁towel	-12.1202
▁wander	-12.1204
▁lang	-12.1204
▁sailor	-12.1205
▁mosul	-12.1209
▁sinkhole	-12.1209
▁exploited	-12.1209
▁thoughtful	-12.1209
▁venezuelan	-12.121
ong	-12.121
▁ncaa	-12.1211
▁envoy	-12.1211
▁catholics	-12.1211
▁railroad	-12.1211
▁gosselin	-12.1211
▁spiral	-12.1215
▁sunk	-12.1216
▁cooling	-12.1217
▁whistleblower	-12.122
▁terrific	-12.122
▁unsolved	-12.1222
▁prostitute	-12.1224
▁exhausted	-12.1234
▁sights	-12.124
ebbie	-12.1241
▁molly	-12.1243
▁invention	-12.1244
▁stag	-12.1247
▁exhibition	-12.1255
▁relaxed	-12.1256
▁80,000	-12.1256
press	-12.1257
voluntary	-12.1257
▁roadway	-12.1263
▁specialize	-12.1263
▁outfits	-12.1264
▁scaram	-12.1265
▁convict	-12.1266
▁ensu	-12.1266
▁dunkin	-12.1266
▁18,000	-12.1269
▁toxin	-12.1272
▁facilitate	-12.1279
mp	-12.1279
15	-12.1279
▁filmmakers	-12.1283
▁weiss	-12.1286
▁levin	-12.1286
▁congo	-12.1291
▁scholars	-12.1291
▁anxious	-12.1291
▁clapper	-12.1292
▁component	-12.1292
▁comics	-12.1293
▁illicit	-12.1294
▁weekday	-12.1294
▁maternity	-12.1295
▁ivory	-12.1298
▁touchdown	-12.1299
▁liability	-12.1302
▁62-	-12.1305
▁frustrating	-12.1309
▁daylight	-12.131
▁commuter	-12.131
▁remarkabl	-12.1312
▁hamm	-12.1312
▁badge	-12.1312
▁600,000	-12.1316
▁kaine	-12.1316
▁circulation	-12.1317
▁grid	-12.1318
▁magnetic	-12.1319
▁leaf	-12.1324
body	-12.1325
▁pois	-12.1325
▁discredit	-12.1332
▁spectators	-12.1335
▁lively	-12.134
▁careers	-12.1341
▁autonomous	-12.1342
▁slowing	-12.1343
▁axi	-12.1348
▁accurately	-12.1348
▁robber	-12.1351
▁taser	-12.1355
flight	-12.1356
band	-12.1359
▁losers	-12.136
▁statistical	-12.1363
▁acclaim	-12.1364
▁thre	-12.1367
▁jagger	-12.1374
▁havoc	-12.1375
▁dorsey	-12.1375
▁optimis	-12.1376
▁whiskey	-12.1376
▁appreciation	-12.1376
▁diarrhea	-12.1377
▁unload	-12.1378
▁plaque	-12.1378
▁rehabilitation	-12.1378
▁amaz	-12.1378
lived	-12.1379
▁silva	-12.1379
▁colonel	-12.1379
▁1967	-12.138
▁argent	-12.1381
▁collide	-12.1381
▁springfield	-12.1382
▁sail	-12.1383
▁medieval	-12.1386
▁obscure	-12.1386
▁guitarist	-12.1386
▁grasp	-12.1387
▁brittany	-12.1387
▁genocide	-12.1388
▁oswald	-12.139
▁secrecy	-12.1391
▁sniff	-12.1391
▁grades	-12.1392
▁diamonds	-12.1393
bee	-12.1393
▁ass	-12.1394
something	-12.1397
▁caveat	-12.14
entities	-12.1402
▁olsen	-12.1402
▁stiff	-12.1405
▁secondary	-12.1406
▁underscore	-12.1408
▁compensate	-12.1413
▁forests	-12.1414
▁escalated	-12.1418
▁inherent	-12.1419
▁quarters	-12.1419
▁chatter	-12.1421
▁rig	-12.1424
▁unpopular	-12.1428
▁solicit	-12.1429
▁tally	-12.1429
▁photography	-12.143
▁lecture	-12.143
▁fortunate	-12.1433
mar	-12.1437
ver	-12.1441
▁wrestler	-12.1442
▁kardashians	-12.1443
▁puppet	-12.1448
▁adventures	-12.1448
▁uphold	-12.1449
▁ariz	-12.145
▁stumble	-12.1455
▁raymon	-12.1457
▁pattinson	-12.1458
▁ideology	-12.1459
▁whistle	-12.146
▁rampant	-12.1462
▁paypal	-12.1462
▁stuart	-12.1462
▁serena	-12.1463
▁responsibilit	-12.1463
take	-12.1463
▁spokane	-12.1464
▁upstairs	-12.1466
▁measurement	-12.1466
▁bel	-12.1468
▁preston	-12.1468
▁draws	-12.1469
▁crunch	-12.147
▁insulted	-12.1473
▁paradise	-12.1473
▁elliott	-12.1475
▁boxing	-12.1479
▁17.	-12.148
▁persistent	-12.1481
▁pact	-12.1489
▁lens	-12.1489
▁jihadist	-12.1489
▁cope	-12.149
mcgowan	-12.149
using	-12.1491
chin	-12.1492
▁lame	-12.1494
ena	-12.1496
▁barber	-12.1499
generation	-12.1501
great	-12.1503
▁revolve	-12.1503
ends	-12.1503
hlberg	-12.1504
▁philosoph	-12.1504
▁amend	-12.1505
nted	-12.1508
▁ralph	-12.1508
▁lewd	-12.1509
▁joyce	-12.1509
▁milan	-12.1514
▁burgers	-12.1516
▁favors	-12.1517
▁imply	-12.1518
▁prob	-12.1518
▁dislike	-12.152
▁sherman	-12.152
▁outcomes	-12.1521
▁bas	-12.1522
▁calvin	-12.1523
▁aliens	-12.1525
pop	-12.1533
▁bernard	-12.1535
podesta	-12.1536
▁sailing	-12.1539
▁zach	-12.1539
▁implemented	-12.154
▁volkswagen	-12.1543
▁springsteen	-12.1543
▁fuku	-12.1546
▁pregnancies	-12.1546
▁antiquities	-12.1546
▁myanmar	-12.1549
▁macy	-12.1549
▁neutrality	-12.155
▁discard	-12.1551
▁foolish	-12.1552
▁norman	-12.1552
▁throne	-12.1556
▁concentrate	-12.1557
▁bernstein	-12.156
▁pillow	-12.1561
▁clearing	-12.1563
▁teddy	-12.1564
ors	-12.1566
▁ros	-12.1571
▁hateful	-12.1573
allergic	-12.1574
▁euthanize	-12.1575
▁partying	-12.1575
▁57-	-12.1581
▁bless	-12.1582
track	-12.1586
lost	-12.159
▁steering	-12.159
▁allah	-12.1591
▁arguabl	-12.1594
▁weddings	-12.1596
terim	-12.1597
▁inspect	-12.1599
▁deter	-12.1602
▁suicides	-12.1604
▁hop	-12.161
▁wield	-12.161
ility	-12.1613
▁overturn	-12.1616
▁bulge	-12.1617
▁capabilit	-12.1622
▁56-	-12.1623
duced	-12.1624
▁weakness	-12.1626
▁clint	-12.1626
▁advertise	-12.1627
▁ramsey	-12.1629
▁dehydration	-12.1629
▁stepfather	-12.1629
▁arsenal	-12.163
▁debat	-12.1631
▁playground	-12.1631
▁abbey	-12.1634
▁fischer	-12.1635
▁cooperati	-12.1635
ja	-12.1636
lace	-12.1637
▁2.2	-12.1638
▁blatant	-12.1641
▁liberti	-12.1642
wichita	-12.1645
▁inclusion	-12.1645
▁kenny	-12.1645
▁19.	-12.1646
▁grandma	-12.1646
▁sustainable	-12.1647
▁dull	-12.1648
▁shia	-12.1648
▁malia	-12.165
▁cloth	-12.165
▁pres	-12.1651
▁warfare	-12.1652
denise	-12.1653
imply	-12.1654
▁prototype	-12.1657
betsy	-12.1657
mon	-12.1658
▁commercials	-12.1658
▁mafia	-12.1661
▁yuan	-12.1662
aring	-12.1664
▁phony	-12.1665
maker	-12.1666
▁nap	-12.1672
▁austrian	-12.1674
ac	-12.1675
crowdfunding	-12.1676
▁inject	-12.1681
▁outdoors	-12.1681
▁pleas	-12.1683
▁shrine	-12.1686
▁gasp	-12.1693
▁klan	-12.1697
▁constructed	-12.17
▁messy	-12.1702
▁finances	-12.1703
ord	-12.1704
▁apartments	-12.1705
▁barn	-12.1707
gubernator	-12.1712
▁adaptation	-12.1713
▁xinhua	-12.1715
▁turmoil	-12.1715
▁ginsburg	-12.1715
▁outburst	-12.1716
▁peek	-12.1717
14	-12.1717
▁bipolar	-12.1718
▁duggar	-12.1718
▁dzhok	-12.1719
▁excite	-12.172
usa	-12.172
▁chess	-12.172
▁uranium	-12.1721
▁1940	-12.1721
▁wilderness	-12.1721
▁9.	-12.1723
▁derek	-12.1723
▁purchasing	-12.1725
▁caitlyn	-12.1726
▁interfer	-12.1729
▁groupon	-12.1731
▁reeva	-12.1731
▁jaz	-12.1732
▁piano	-12.1732
▁freely	-12.1732
▁jerk	-12.1733
▁nichols	-12.1734
▁oj	-12.1735
▁cassidy	-12.1735
slew	-12.174
mobile	-12.1741
▁incorrectly	-12.1741
▁favorable	-12.1741
▁evaluate	-12.1742
▁coincide	-12.1742
▁broker	-12.1742
▁swell	-12.1743
▁abnormal	-12.1744
ere	-12.1744
▁72-	-12.1747
▁hazardous	-12.1748
▁alps	-12.1749
▁disgusted	-12.1751
▁insurgents	-12.1754
▁distract	-12.1763
▁paso	-12.1764
▁norm	-12.1767
again	-12.1768
▁hampton	-12.1769
▁onboard	-12.1769
check	-12.1777
▁minus	-12.1777
▁chev	-12.1778
▁noises	-12.1779
▁basin	-12.1779
8,000	-12.1786
wire	-12.1788
▁tilt	-12.1789
big	-12.179
ber	-12.1793
▁prejudice	-12.1795
▁ahmad	-12.1797
▁blonde	-12.1798
▁fatigue	-12.18
▁floods	-12.18
cc	-12.1801
▁fingerprint	-12.1801
▁kazakhstan	-12.1802
▁bodily	-12.1802
▁jind	-12.1804
▁unpleasant	-12.1805
ex	-12.1806
▁dome	-12.1806
ran	-12.1806
▁1944	-12.1809
▁submerged	-12.181
▁refrain	-12.181
▁factories	-12.1811
▁constand	-12.1812
▁gabrielle	-12.1812
ire	-12.1814
▁zeta	-12.1818
▁pad	-12.1819
▁drugged	-12.182
▁accommodate	-12.1821
▁championships	-12.1822
▁somali	-12.1823
▁hut	-12.1825
▁neill	-12.1826
▁superman	-12.1827
▁morrison	-12.1828
▁balanced	-12.1829
▁flame	-12.183
▁wanna	-12.1833
▁narcotics	-12.1839
jo	-12.184
▁bidding	-12.184
▁shuttle	-12.1844
▁messaging	-12.1845
▁settings	-12.185
sotheby	-12.1854
ical	-12.1854
▁minimal	-12.1858
iming	-12.1858
▁evident	-12.1859
▁suri	-12.1861
▁ebert	-12.1861
▁dare	-12.1861
▁disasters	-12.1867
▁zachar	-12.1869
ruiz	-12.1869
▁perpetrators	-12.187
ite	-12.1871
▁shit	-12.1872
ix	-12.1873
▁imp	-12.1874
▁exceptions	-12.1875
▁brewing	-12.1876
▁kneel	-12.1877
▁jealous	-12.188
▁glitch	-12.1886
▁miscarriage	-12.1888
▁surfing	-12.1888
▁rourke	-12.1889
▁magistrate	-12.189
▁cummins	-12.189
▁enclosure	-12.189
kessler	-12.1892
▁malibu	-12.1892
▁landlord	-12.1893
▁salmonella	-12.1893
▁lewandowski	-12.1893
▁cyberattack	-12.1895
▁malcolm	-12.1895
▁pinpoint	-12.1895
▁kara	-12.1899
▁65-	-12.1901
▁tying	-12.1906
hey	-12.1907
agged	-12.1909
▁palestin	-12.1909
▁villa	-12.1913
▁chin	-12.1914
▁ortiz	-12.1915
eck	-12.1921
▁2.7	-12.1921
cut	-12.1922
▁gil	-12.1923
even	-12.1923
tall	-12.1926
▁rack	-12.1927
▁overhead	-12.193
strong	-12.193
▁watches	-12.1931
tion	-12.194
▁pipes	-12.1941
▁tuned	-12.1941
card	-12.1942
istic	-12.1942
▁litera	-12.1944
▁stakes	-12.1947
▁disappearing	-12.1948
▁digit	-12.1948
▁cancell	-12.1951
▁manipulate	-12.1955
▁discourage	-12.1955
dianne	-12.1956
▁sox	-12.1956
restrained	-12.1957
zy	-12.196
▁shutter	-12.1964
▁comparisons	-12.1966
▁tires	-12.1968
induc	-12.197
▁needle	-12.1972
▁hal	-12.1973
▁veterinar	-12.1978
▁dolezal	-12.1978
▁remedy	-12.198
▁defiant	-12.198
▁peggy	-12.1982
▁restraint	-12.1983
▁griffith	-12.1984
diving	-12.1984
nazi	-12.1984
▁bundy	-12.1986
▁pharmacy	-12.1987
▁blizzard	-12.1987
izing	-12.1989
▁appalling	-12.1989
▁fedex	-12.1991
wealth	-12.1991
▁cleanup	-12.1993
▁homework	-12.1996
▁batteri	-12.1997
▁plott	-12.1997
▁sync	-12.1999
▁750	-12.2
▁blasting	-12.2003
▁kristina	-12.2004
▁endless	-12.2005
loving	-12.2007
▁bands	-12.2007
hard	-12.201
▁practically	-12.2011
▁jun	-12.2012
▁commute	-12.2012
▁saints	-12.2012
▁ridicule	-12.2015
▁crane	-12.202
▁adolescent	-12.2023
▁snacks	-12.2023
▁observ	-12.2023
▁pol	-12.2025
▁hybrid	-12.2026
▁annie	-12.2026
▁bidder	-12.2028
rock	-12.203
▁camill	-12.2037
een	-12.2038
▁fringe	-12.2038
▁forbidd	-12.2039
▁massage	-12.204
▁zoe	-12.2041
▁tables	-12.2044
name	-12.2044
▁sens	-12.2045
▁harmon	-12.2045
your	-12.2045
▁randomly	-12.2047
ightened	-12.2048
▁kane	-12.2049
▁rash	-12.205
▁shipp	-12.205
ular	-12.205
▁emine	-12.205
▁dyke	-12.2051
type	-12.2052
dicated	-12.2052
▁campuses	-12.2053
▁flagged	-12.2053
▁motives	-12.206
▁bathrooms	-12.2063
▁harness	-12.2064
▁uchitel	-12.2067
▁baggage	-12.2067
▁marilyn	-12.2068
▁ultrasound	-12.2068
▁precinct	-12.2073
▁drummer	-12.2075
▁nanny	-12.2076
▁depot	-12.2076
▁supplier	-12.2077
▁pap	-12.2078
▁manchin	-12.2078
▁capability	-12.2079
▁duplicate	-12.208
paramount	-12.208
▁approaches	-12.208
▁ratio	-12.2082
▁wifi	-12.2084
reating	-12.2085
▁cardi	-12.2087
ova	-12.2088
▁hay	-12.209
earth	-12.209
▁blister	-12.2091
▁useless	-12.2096
▁ironic	-12.2097
▁mila	-12.21
▁icy	-12.21
▁unite	-12.2101
une	-12.2105
▁cracks	-12.2106
▁embark	-12.2108
▁downward	-12.2109
▁cheat	-12.211
nbc	-12.2112
▁lavish	-12.2113
▁elk	-12.2114
esque	-12.2116
say	-12.2125
▁fond	-12.2125
▁summar	-12.2126
faced	-12.2127
sesame	-12.2129
▁hospitalization	-12.2137
▁skeletons	-12.2138
▁whit	-12.214
▁correspond	-12.2141
▁logic	-12.2141
branson	-12.2143
km	-12.2145
▁feeds	-12.2146
▁marin	-12.2147
▁robotic	-12.2149
▁edible	-12.2153
▁mali	-12.2155
▁cafeteria	-12.2157
▁vienna	-12.2157
▁gays	-12.2158
▁swastika	-12.216
▁pluto	-12.2161
▁obsession	-12.2161
▁pippa	-12.2163
▁personalities	-12.2164
▁balloons	-12.2164
▁abbas	-12.2164
▁forgiveness	-12.2165
▁den	-12.2165
▁apparel	-12.2166
▁hangover	-12.2166
▁discretion	-12.2168
▁swimmers	-12.2168
owner	-12.217
▁backward	-12.2172
▁kinda	-12.2173
▁calculation	-12.2177
▁lucy	-12.2178
▁santia	-12.2179
▁daytona	-12.218
▁merger	-12.2181
▁preservation	-12.2181
▁designation	-12.2183
▁complaine	-12.2184
▁eleven	-12.2186
▁dreamed	-12.2186
ward	-12.2189
▁pinterest	-12.2191
dead	-12.2195
▁bully	-12.2204
▁mommy	-12.2204
▁bundle	-12.2206
▁stan	-12.2209
▁contenders	-12.2211
▁jab	-12.2212
▁labs	-12.2213
▁2.4	-12.2214
▁mascot	-12.2215
pp	-12.2215
▁fernand	-12.2216
kahn	-12.2217
▁strangle	-12.2217
▁lol	-12.2219
▁complet	-12.222
▁gator	-12.2221
▁primer	-12.2222
▁2.3	-12.2222
▁spat	-12.2229
▁hos	-12.2229
▁veil	-12.2235
chan	-12.2238
▁staple	-12.224
▁stumbl	-12.224
▁attribut	-12.2244
▁hurricanes	-12.2245
wollen	-12.2246
▁rubbl	-12.2246
▁slump	-12.2247
▁mechanics	-12.2247
▁kat	-12.2248
▁blasts	-12.2248
▁marion	-12.2248
▁dubious	-12.2248
▁appoint	-12.2249
▁suppliers	-12.2249
▁messed	-12.2249
▁berlusconi	-12.2251
▁wardrobe	-12.2251
▁patience	-12.2252
▁lochte	-12.2252
▁abedin	-12.2253
▁foil	-12.2253
▁syracuse	-12.2254
▁rebuke	-12.2256
▁untrue	-12.2256
▁mammoth	-12.2256
▁competitor	-12.2256
▁bored	-12.2256
▁ibm	-12.2257
▁toughest	-12.2258
▁buddhist	-12.226
▁happiest	-12.2261
▁bartender	-12.2261
▁captor	-12.2262
iding	-12.2263
▁wolff	-12.2263
▁limp	-12.2265
▁champ	-12.2266
▁headphones	-12.2266
wo	-12.2266
▁spoof	-12.2266
▁daycare	-12.2268
▁gdp	-12.2275
▁compli	-12.2276
ists	-12.2276
-3	-12.2277
today	-12.2279
lousy	-12.2281
▁wandering	-12.2282
▁defector	-12.2284
▁genome	-12.2285
▁lifeguard	-12.2285
▁rum	-12.2286
▁favorites	-12.2287
▁2.6	-12.2299
▁digest	-12.2302
▁uncover	-12.2304
youtube	-12.2307
▁faulty	-12.2308
▁thrill	-12.2309
▁roller	-12.2312
▁crow	-12.2315
vision	-12.232
▁indicator	-12.2323
alicia	-12.2324
▁initiatives	-12.2325
▁biblical	-12.2326
▁assign	-12.2326
▁reli	-12.2333
oxide	-12.2335
kensington	-12.2337
▁arrow	-12.2339
▁skripal	-12.234
▁knoxville	-12.2341
▁tidbit	-12.2342
▁travolta	-12.2343
▁doughnut	-12.2343
▁assumption	-12.2344
▁1930	-12.2345
▁kan	-12.2345
▁tracker	-12.2347
▁dre	-12.2349
▁spectacle	-12.2354
▁secur	-12.2354
▁mastermind	-12.2355
▁moose	-12.2357
▁awoke	-12.2359
▁limo	-12.2359
▁animation	-12.236
▁lombard	-12.2363
▁..........	-12.2365
▁elin	-12.2366
▁brent	-12.237
▁2000.	-12.2371
▁memorab	-12.2375
▁ark	-12.2376
forth	-12.2376
▁replie	-12.238
▁objective	-12.2386
▁unlocked	-12.2389
▁vick	-12.2393
▁porch	-12.2399
▁lac	-12.2402
▁render	-12.2405
▁5.5	-12.2406
layers	-12.2406
▁brook	-12.2408
▁61-	-12.2409
▁warden	-12.241
▁covert	-12.241
▁shrinking	-12.241
▁founding	-12.2415
▁payne	-12.2416
▁1964	-12.2417
▁avid	-12.2419
yers	-12.2423
▁automat	-12.2424
▁wet	-12.2429
gb	-12.2431
wear	-12.2432
▁hepatitis	-12.2433
▁skepticism	-12.2433
▁methamphetamine	-12.2433
▁mysteries	-12.2433
▁boil	-12.2433
▁railway	-12.2435
cent	-12.2436
▁structural	-12.2436
▁catastrophe	-12.2438
▁diver	-12.2438
▁cctv	-12.2439
▁bahrain	-12.244
▁marina	-12.244
▁commanders	-12.2443
▁dalton	-12.2444
music	-12.2444
itis	-12.2446
sentinel	-12.2447
▁lamb	-12.2449
▁norton	-12.2451
▁koran	-12.2451
▁witherspoon	-12.2452
▁hotline	-12.2452
▁lat	-12.2453
▁camel	-12.2454
▁injustice	-12.2459
▁recycl	-12.2461
▁gal	-12.2465
▁distort	-12.2465
▁chanel	-12.2466
through	-12.2469
▁donuts	-12.247
▁bil	-12.2472
▁emphasiz	-12.2473
mg	-12.2474
▁mlive	-12.2476
▁marital	-12.2477
▁jihad	-12.2477
▁heath	-12.248
▁kidnapper	-12.248
▁sensitivity	-12.2489
▁flare	-12.2491
▁emmys	-12.2492
▁issa	-12.2495
▁sur	-12.2495
gen	-12.2495
▁nu	-12.2498
▁morale	-12.2507
owing	-12.2507
▁fairy	-12.2507
▁biker	-12.251
▁collar	-12.2511
▁maj	-12.2511
▁reviewer	-12.2519
▁toilets	-12.2519
rage	-12.2523
1,000	-12.2524
▁comp	-12.2525
▁buckingham	-12.2526
▁discomfort	-12.2526
▁raleigh	-12.2526
▁behaviour	-12.2529
▁shelby	-12.2531
▁rochester	-12.2533
▁stallone	-12.2533
▁resembl	-12.2533
▁goat	-12.2533
▁amputated	-12.2533
▁undergone	-12.2534
▁skype	-12.2535
▁marketplace	-12.2535
dj	-12.2535
▁shaped	-12.2535
▁accommodation	-12.2536
available	-12.2536
▁fracking	-12.2539
▁casket	-12.2539
clad	-12.2539
▁confiscated	-12.254
▁immense	-12.254
▁opioids	-12.254
years	-12.2542
ming	-12.2542
▁lieu	-12.2543
power	-12.2544
▁triplets	-12.2546
▁shiite	-12.2548
▁provoke	-12.2549
logging	-12.2555
▁bishops	-12.2555
-47	-12.2555
cry	-12.2555
▁cove	-12.2557
dominant	-12.2559
telegram	-12.2559
▁1962	-12.256
▁ariel	-12.2561
▁tearful	-12.2563
why	-12.2565
growing	-12.2568
fly	-12.257
▁dominate	-12.2574
western	-12.2575
bi	-12.2576
▁overlook	-12.2583
▁charming	-12.2584
▁cardinals	-12.2586
▁vowe	-12.2587
▁beg	-12.2587
▁millionaire	-12.2591
▁nausea	-12.2592
▁outgoing	-12.2592
▁gunned	-12.2594
▁cv	-12.2596
▁bain	-12.2597
▁nutritional	-12.2602
▁sheer	-12.2602
shift	-12.2603
▁staring	-12.2607
▁kale	-12.2609
elli	-12.2612
erdog	-12.2618
▁osbourne	-12.262
▁mcdonnell	-12.262
▁sunglasses	-12.2621
▁1965	-12.2621
▁encourag	-12.2622
▁prospective	-12.2622
▁gymnastic	-12.2623
▁prophet	-12.2623
▁celebuzz	-12.2623
▁condemnation	-12.2625
possessing	-12.2625
goers	-12.2625
▁unheard	-12.2626
despicable	-12.2627
eastern	-12.2627
▁discoveries	-12.2628
▁authenticity	-12.2628
▁30.	-12.2628
▁schiff	-12.2629
▁amusement	-12.263
annoyed	-12.2631
▁feathers	-12.2632
▁whites	-12.2632
▁pinned	-12.2634
▁shameful	-12.2634
▁portrayal	-12.2634
▁teammate	-12.2636
▁convenient	-12.2636
▁patty	-12.2636
▁scooter	-12.2637
▁statewide	-12.2638
▁chrys	-12.2638
▁tatum	-12.2638
▁handsome	-12.2639
abc	-12.2641
▁invit	-12.2641
ates	-12.2643
▁fema	-12.2644
▁bent	-12.2646
bedroom	-12.2646
▁salem	-12.2647
▁deduction	-12.2648
complete	-12.2649
westminster	-12.2651
▁angels	-12.2651
▁shining	-12.2653
▁scoff	-12.2656
▁16,000	-12.2656
▁1,600	-12.2657
▁dual	-12.2661
▁alternatives	-12.2662
due	-12.2664
▁1,300	-12.2666
▁socks	-12.2668
herald	-12.2669
tha	-12.267
▁reptile	-12.2672
▁dowd	-12.2672
▁boing	-12.2673
▁rift	-12.2674
tumbled	-12.2677
▁flirt	-12.2679
▁navigate	-12.2681
▁diapers	-12.2683
▁vaccines	-12.2688
▁relation	-12.2692
▁bore	-12.2694
▁clad	-12.2695
▁takeoff	-12.2695
▁59-	-12.2697
▁neuron	-12.2697
▁toast	-12.2699
▁registr	-12.2701
market	-12.2705
▁450	-12.2711
realdonaldtrump	-12.2711
axelrod	-12.2711
sson	-12.2713
▁outsider	-12.2715
▁claudia	-12.2717
▁darrell	-12.2717
▁sunlight	-12.2718
elton	-12.2719
▁clarence	-12.2719
▁lightly	-12.2719
▁rafael	-12.2719
▁housekeeper	-12.2721
az	-12.2722
▁components	-12.2724
▁hemisphere	-12.2724
abortion	-12.2726
▁programme	-12.2728
▁inventory	-12.2728
▁trove	-12.2729
▁guam	-12.2731
▁emmanuel	-12.2732
▁24.	-12.2735
▁fairness	-12.2736
▁ferrell	-12.2738
▁strategi	-12.2738
▁kindergarten	-12.2739
▁athens	-12.2741
▁startling	-12.2743
▁foam	-12.2743
▁roth	-12.2743
▁brace	-12.2744
servers	-12.2744
lated	-12.2745
▁bottled	-12.2747
▁1974	-12.2747
▁delighted	-12.2751
▁fabric	-12.2753
▁smarter	-12.2756
▁diners	-12.2757
▁secretive	-12.2759
▁stephens	-12.2759
ture	-12.276
▁affection	-12.2761
etti	-12.2762
▁gmail	-12.2765
▁brit	-12.2766
▁termination	-12.2767
▁accomplishments	-12.2768
▁vine	-12.2775
▁thwart	-12.2777
▁celebrations	-12.278
▁hype	-12.2782
▁11.	-12.2786
taking	-12.2787
▁weed	-12.2789
maggie	-12.2794
▁pools	-12.2796
▁pollster	-12.2797
▁cache	-12.2798
fax	-12.2799
gina	-12.2802
▁damning	-12.2807
▁paraphern	-12.2812
▁rosenstein	-12.2812
▁deport	-12.2813
▁unesco	-12.2813
▁whisky	-12.2815
▁tanzania	-12.2815
▁lucrative	-12.2815
▁dedication	-12.2816
▁similarities	-12.2818
▁coordinator	-12.2819
▁groped	-12.2822
▁bounty	-12.2826
▁dependent	-12.2827
▁accessory	-12.2828
▁textbook	-12.283
▁fade	-12.2831
▁dhs	-12.2832
▁cooperative	-12.2832
▁rigged	-12.2835
▁organism	-12.2838
▁canceling	-12.284
▁vulgar	-12.284
▁denis	-12.2841
west	-12.2845
▁potent	-12.2846
▁strictly	-12.2849
▁transmitt	-12.285
▁120,000	-12.2851
▁tipping	-12.2853
▁realm	-12.2857
▁soared	-12.286
ko	-12.2862
▁colombian	-12.2864
stating	-12.2868
▁13,000	-12.2871
▁accelerate	-12.2871
▁airs	-12.2872
▁mushrooms	-12.2872
▁misuse	-12.2875
des	-12.2876
shed	-12.2876
lowing	-12.2876
▁polic	-12.2877
▁abolish	-12.288
ammy	-12.2881
▁tunisia	-12.2885
ars	-12.2885
▁jumps	-12.2886
▁reiterat	-12.2886
▁injections	-12.289
▁overly	-12.2891
▁kerr	-12.2893
▁bells	-12.2895
▁hijab	-12.2896
▁unofficial	-12.2897
▁roar	-12.2902
quentin	-12.2906
▁abstract	-12.2907
▁scarborough	-12.2909
▁remnant	-12.2909
▁stephan	-12.2909
▁biopic	-12.2909
colored	-12.2909
du	-12.291
▁onlooker	-12.2911
▁livestock	-12.2911
▁northeastern	-12.2912
▁poultry	-12.2912
▁dawson	-12.2912
▁tarantino	-12.2912
▁revival	-12.2914
▁gardner	-12.2914
ious	-12.2915
▁expectancy	-12.2916
commercial	-12.2916
▁logistics	-12.2917
▁chatt	-12.2918
▁input	-12.2918
▁kourtney	-12.2919
▁handles	-12.2919
eera	-12.2922
▁taping	-12.2924
▁2.8	-12.2925
▁chu	-12.2927
▁wheeler	-12.2929
▁antibiotic	-12.2929
▁primate	-12.2929
stars	-12.2929
▁za	-12.293
▁symbols	-12.2931
▁ignorant	-12.2932
▁clayto	-12.2934
▁vinci	-12.2934
storm	-12.2943
▁sour	-12.2947
▁chang	-12.295
▁finalist	-12.2954
▁beam	-12.2954
▁foreigner	-12.2955
▁rogen	-12.2956
▁chester	-12.2957
▁greeting	-12.2958
▁disbelie	-12.296
▁scenarios	-12.2963
▁3,500	-12.2964
▁upload	-12.2973
released	-12.2974
▁workshop	-12.2976
▁folk	-12.2977
statesman	-12.2977
▁remotely	-12.2982
▁stamps	-12.2983
continental	-12.2983
paul	-12.2984
uro	-12.2985
▁kristin	-12.2987
crime	-12.299
▁entertainer	-12.2994
▁blacks	-12.2996
stock	-12.2996
▁ars	-12.3
▁visas	-12.3002
▁rhythm	-12.3007
▁grammys	-12.3007
▁bracelet	-12.3007
▁unwilling	-12.3008
▁slideshow	-12.3008
▁calgary	-12.3008
▁mumbai	-12.301
▁dossier	-12.301
▁hawkins	-12.3011
▁caretaker	-12.3014
▁cherry	-12.3016
▁slower	-12.3016
▁kraft	-12.3016
▁malala	-12.3017
ea	-12.3018
▁mlb	-12.3019
▁liberation	-12.302
▁yearbook	-12.3023
nard	-12.3025
▁patton	-12.3025
▁steak	-12.3026
▁fatality	-12.3027
rlington	-12.3031
▁sunny	-12.3031
▁bats	-12.3032
▁ruins	-12.3032
working	-12.3033
▁productive	-12.3034
▁soros	-12.3034
▁inflict	-12.3037
▁1,100	-12.3039
rounded	-12.3042
iland	-12.3042
▁pai	-12.3042
agging	-12.3044
▁colored	-12.3046
▁testifying	-12.3048
▁barring	-12.3048
▁stella	-12.305
▁entitl	-12.3055
▁detain	-12.3055
▁coaster	-12.3055
▁directive	-12.3058
▁siberia	-12.3061
▁basket	-12.3062
▁marching	-12.3063
▁sal	-12.3065
▁mara	-12.3066
▁seasonal	-12.3066
▁pedro	-12.3068
who	-12.307
▁enabl	-12.3072
owes	-12.3072
▁decay	-12.3076
▁darker	-12.3082
automatic	-12.3085
aya	-12.3086
▁sighting	-12.3087
hearted	-12.3087
rner	-12.309
▁alum	-12.309
sch	-12.3091
deep	-12.3094
▁vacan	-12.3095
6,000	-12.3097
▁liam	-12.3098
▁hover	-12.31
▁boyle	-12.3101
▁patents	-12.3103
▁tackl	-12.3104
▁referee	-12.3104
▁mines	-12.3104
▁tragedies	-12.3106
▁corridor	-12.3106
▁unequivocal	-12.3106
▁nuns	-12.3106
▁podium	-12.3106
▁supervision	-12.3107
▁heating	-12.3108
▁fluke	-12.3108
▁kcna	-12.3109
▁earl	-12.3109
▁concord	-12.3109
▁naples	-12.3109
▁hygien	-12.311
▁quantity	-12.3111
▁revere	-12.3112
▁16.	-12.3113
▁baffled	-12.3113
▁motherboard	-12.3113
▁alexandra	-12.3114
▁seahawks	-12.3115
▁er	-12.3115
▁humphries	-12.3116
▁forehead	-12.3117
▁vacuum	-12.3119
▁eatery	-12.3119
▁gogh	-12.3119
▁cheape	-12.312
ealthy	-12.312
▁adjacen	-12.3122
▁hoodie	-12.3122
▁evangelical	-12.3122
yo	-12.3123
▁bracket	-12.3124
▁pontif	-12.3125
▁fixing	-12.3125
▁pens	-12.3126
▁64-	-12.3127
▁neat	-12.3129
▁educator	-12.3131
▁plac	-12.3133
▁prescribe	-12.3133
▁eliminat	-12.3133
▁prosper	-12.3133
▁pencil	-12.3137
▁sodium	-12.314
▁inclusive	-12.314
▁advocat	-12.314
russian	-12.3144
▁betray	-12.3144
▁flatter	-12.3146
▁vertical	-12.3149
savannah	-12.315
▁thor	-12.315
▁controll	-12.315
▁devastati	-12.3154
▁judg	-12.3155
▁contaminati	-12.3156
according	-12.3163
▁phillip	-12.3166
▁ambitions	-12.3166
▁haters	-12.3168
▁sheikh	-12.3169
▁cb	-12.3171
▁recreation	-12.3174
▁kits	-12.3178
▁colonial	-12.3178
▁je	-12.3182
▁intervened	-12.3183
death	-12.3184
ejected	-12.3185
rick	-12.3188
▁wsj	-12.3189
saving	-12.319
▁voyage	-12.3195
▁intensity	-12.3196
▁dried	-12.3197
union	-12.3199
▁crushing	-12.32
▁counterfeit	-12.32
▁implants	-12.3203
▁specifica	-12.3204
▁hospice	-12.3206
▁hypothermi	-12.3206
▁lookout	-12.3206
▁farewell	-12.3206
▁ivf	-12.3207
▁pussy	-12.3207
▁sweater	-12.3207
▁caravan	-12.3208
▁piers	-12.3208
▁heartbeat	-12.3209
▁brisbane	-12.3209
panicked	-12.3209
▁lease	-12.321
sworth	-12.3212
▁rehearsal	-12.3212
▁nudity	-12.3212
▁compton	-12.3212
▁appall	-12.3213
pamela	-12.3215
▁expell	-12.3216
▁indecent	-12.3217
▁renovation	-12.3217
▁75-	-12.3218
▁cosmetic	-12.3219
▁traveler	-12.3219
▁rutgers	-12.3219
▁175	-12.322
▁messenger	-12.322
▁equifax	-12.3222
▁randall	-12.3223
▁schneider	-12.3224
▁vein	-12.3225
quarter	-12.3225
▁sergey	-12.3226
ents	-12.3227
▁descendants	-12.3227
▁dion	-12.3232
because	-12.3234
pplies	-12.3236
▁censorship	-12.3236
▁sinai	-12.3239
▁nickel	-12.324
▁lori	-12.3242
ze	-12.3243
etz	-12.3243
▁ladder	-12.3243
▁halls	-12.325
▁jama	-12.325
▁systematic	-12.3255
▁coward	-12.3259
▁intimidati	-12.326
▁af	-12.3263
▁unfit	-12.3263
▁swam	-12.3268
lane	-12.3271
▁warship	-12.3272
▁21.	-12.3279
▁counterterroris	-12.328
▁slope	-12.3283
▁pale	-12.3288
tended	-12.329
▁horns	-12.3292
▁ledger	-12.3296
▁bulletin	-12.3299
▁placenta	-12.3301
▁uh	-12.3303
▁bushes	-12.3305
▁pfizer	-12.3307
▁lavrov	-12.3307
▁entourage	-12.3307
▁contraceptive	-12.3307
▁landfill	-12.3307
▁maddow	-12.3308
▁dublin	-12.3308
▁tanker	-12.3308
▁socially	-12.3308
▁housewives	-12.3308
▁puppies	-12.331
▁inflammation	-12.331
▁paterno	-12.331
▁beneficial	-12.3311
▁provocation	-12.3311
▁wasserman	-12.3311
▁inventor	-12.3312
▁egregious	-12.3313
▁salvage	-12.3314
▁chp	-12.3314
9,000	-12.3315
▁intestine	-12.3315
▁entirety	-12.3317
arrow	-12.3317
▁rains	-12.3319
▁105	-12.3324
produc	-12.3326
▁prohibition	-12.3328
▁espionage	-12.333
santo	-12.3334
▁ally	-12.3337
▁6.5	-12.3337
▁lawful	-12.3339
▁donkey	-12.3339
▁pony	-12.3339
▁reclaim	-12.3339
▁profitable	-12.334
▁gerald	-12.3341
▁1,800	-12.3342
▁independently	-12.3346
▁finn	-12.3347
▁amused	-12.3348
bul	-12.335
▁downgrade	-12.335
▁trent	-12.3351
jonah	-12.3354
▁outlin	-12.3358
▁goop	-12.3361
▁takeover	-12.3365
'	-12.3366
▁juli	-12.3367
▁needless	-12.3368
▁restart	-12.3371
ings	-12.3372
▁thermal	-12.3373
▁embryo	-12.3375
▁duran	-12.3375
ile	-12.3377
▁58-	-12.3379
▁memes	-12.338
▁gar	-12.3384
bby	-12.3386
▁sped	-12.3387
▁lurk	-12.3389
▁marsh	-12.339
▁minn	-12.3392
▁ala	-12.3392
▁extradite	-12.3393
▁shores	-12.3394
suicide	-12.3396
▁technological	-12.3396
here	-12.34
▁diminish	-12.34
operation	-12.3403
▁congratulate	-12.3406
▁gallagher	-12.3409
▁reunite	-12.3409
▁windshield	-12.3411
▁painter	-12.3411
▁villages	-12.3411
▁revolutionar	-12.3412
▁stitches	-12.3412
▁cambodia	-12.3412
▁lieberman	-12.3412
▁grievance	-12.3412
▁gospel	-12.3413
▁spitzer	-12.3413
▁nguyen	-12.3415
▁imagination	-12.3415
▁tamerlan	-12.3416
▁curtain	-12.3416
▁bunny	-12.3416
▁garland	-12.3419
▁recorder	-12.3419
▁strapped	-12.3421
fo	-12.3423
▁kidman	-12.3425
▁diesel	-12.3425
▁norris	-12.3427
▁adjustment	-12.3428
▁domino	-12.3428
tammy	-12.3429
▁andreas	-12.343
▁daring	-12.3432
▁levy	-12.3435
▁beforehand	-12.3436
▁compell	-12.3439
▁fraction	-12.344
▁boris	-12.3442
▁nets	-12.3443
▁weaker	-12.3446
▁conspir	-12.3447
▁pricing	-12.3449
▁robbers	-12.345
▁neanderthals	-12.3453
▁saleh	-12.346
▁roose	-12.346
engine	-12.3461
apollo	-12.3461
▁recycled	-12.3463
▁sidelines	-12.3467
▁rowe	-12.347
▁evaluated	-12.3471
▁persona	-12.3479
▁displace	-12.348
wall	-12.3482
▁attach	-12.3485
ports	-12.3488
▁rubin	-12.3491
▁condemning	-12.3493
▁7.5	-12.3494
▁sexting	-12.3498
▁teller	-12.35
▁bleak	-12.3501
▁console	-12.3502
▁thrive	-12.3508
▁darling	-12.3511
▁ktrk	-12.3511
▁av	-12.3511
▁discrepanc	-12.3512
▁longevity	-12.3512
▁diplomacy	-12.3512
▁pulitzer	-12.3512
▁woodward	-12.3513
etting	-12.3513
▁cheryl	-12.3513
▁affiliation	-12.3514
▁meds	-12.3514
▁proposition	-12.3514
▁barnett	-12.3515
▁spous	-12.3515
▁kelsey	-12.3515
▁flavors	-12.3518
▁missionary	-12.3519
▁creativity	-12.3519
▁dominican	-12.352
▁garrett	-12.3521
▁zinke	-12.3522
thru	-12.3522
▁revis	-12.3522
▁congresswoman	-12.3522
▁adweek	-12.3524
▁tragically	-12.3525
▁bono	-12.3525
▁2002.	-12.3527
ence	-12.3527
bruno	-12.3531
▁watchers	-12.3532
▁bleacher	-12.3533
▁incentive	-12.3536
ebus	-12.3538
▁metric	-12.3539
▁wu	-12.3543
30	-12.3544
eye	-12.3545
▁gamble	-12.3552
▁burton	-12.3553
ating	-12.3553
rod	-12.3554
▁alaskan	-12.3555
▁subscriber	-12.3555
addam	-12.3558
▁dina	-12.3559
▁jamal	-12.3565
▁barbecue	-12.3566
▁mineral	-12.3566
▁strangl	-12.3573
▁hikes	-12.3574
▁alphabet	-12.3575
overboard	-12.3577
▁monarch	-12.3578
▁cue	-12.3578
▁nai	-12.358
rely	-12.3584
enko	-12.3585
▁nook	-12.3585
▁delicate	-12.3594
▁exceeding	-12.3595
▁organize	-12.3596
ology	-12.3597
▁shortages	-12.3599
▁steadi	-12.36
▁cruiser	-12.3603
▁finest	-12.3605
▁unintentional	-12.3605
▁engulf	-12.3616
▁cosmopolitan	-12.3616
▁rosenberg	-12.3617
▁arraignment	-12.3617
▁swath	-12.3618
▁bobbi	-12.3619
▁archaeology	-12.362
▁nuptials	-12.3622
▁fog	-12.3622
▁fifa	-12.3622
▁kitty	-12.3622
▁bobbitt	-12.3623
▁kirby	-12.3623
▁wolfe	-12.3623
▁glance	-12.3623
▁conquer	-12.3624
▁disposal	-12.3625
▁buttocks	-12.3626
▁mcgraw	-12.3626
▁beers	-12.3627
▁67-	-12.3629
▁ticked	-12.3632
▁counterpart	-12.3632
site	-12.3637
aw	-12.3637
▁wig	-12.3637
▁reservation	-12.3639
▁lilo	-12.3639
▁autopilot	-12.3641
▁fridge	-12.3643
▁presid	-12.3649
25	-12.3649
▁qu	-12.365
▁meg	-12.3651
▁colts	-12.3652
▁molecule	-12.3652
▁pillar	-12.3653
shifting	-12.3655
▁punches	-12.3656
▁acosta	-12.3657
▁kiro	-12.3659
▁offline	-12.366
▁cor	-12.366
code	-12.3661
▁connell	-12.3661
five	-12.3661
▁relie	-12.3661
▁lowering	-12.3661
▁farming	-12.3662
▁indefinitely	-12.3665
▁tribes	-12.3666
▁decency	-12.3669
▁dent	-12.3671
fetch	-12.3672
horn	-12.3675
▁jarr	-12.3678
jected	-12.3692
▁3.6	-12.3694
▁pablo	-12.3698
▁barrage	-12.3698
▁downside	-12.3703
▁und	-12.3704
▁remake	-12.3705
ale	-12.3705
▁processor	-12.3706
▁blitz	-12.3706
▁fuss	-12.371
▁staples	-12.371
▁inconsistent	-12.3711
▁collid	-12.3715
▁nafta	-12.3721
▁sunshine	-12.3721
▁lauderdale	-12.3721
▁generosity	-12.3721
▁razor	-12.3722
▁doping	-12.3723
▁tow	-12.3724
brook	-12.3724
▁testosterone	-12.3725
own	-12.3725
▁cavalier	-12.3725
▁blurred	-12.3726
▁rescind	-12.3731
-2	-12.3731
▁selfish	-12.3732
▁seismic	-12.3732
stitution	-12.3734
▁chorus	-12.3736
▁turtle	-12.3737
▁microwave	-12.3737
▁guru	-12.3739
oria	-12.3742
▁ferrari	-12.3744
▁shepard	-12.3745
▁expir	-12.3748
steps	-12.3751
▁snatch	-12.3751
core	-12.3752
▁armored	-12.3754
▁banana	-12.3754
▁bauer	-12.3757
gs	-12.3767
▁ledge	-12.3769
▁moran	-12.3771
▁fuller	-12.3771
▁strait	-12.3771
▁diploma	-12.3772
▁grassle	-12.3772
▁pl	-12.3774
▁depths	-12.3774
lon	-12.3777
▁poaching	-12.3779
▁crust	-12.378
▁revisit	-12.3783
▁lumber	-12.3785
▁defects	-12.3786
▁workout	-12.3789
▁genetics	-12.3793
▁erik	-12.3794
▁penguins	-12.3794
jesus	-12.3794
▁uganda	-12.3796
nton	-12.3797
▁skit	-12.38
reported	-12.3801
east	-12.3804
▁shove	-12.3806
front	-12.3808
▁debts	-12.3809
▁ego	-12.3813
▁bla	-12.3818
▁minerals	-12.3818
▁thr	-12.3821
▁accelerat	-12.3823
▁bc	-12.3824
▁vu	-12.3824
▁miguel	-12.3827
▁dictionary	-12.3828
▁prestigious	-12.3828
▁huffpo	-12.3829
▁encryption	-12.3829
see	-12.3829
▁arsenic	-12.3832
▁slogans	-12.3834
▁hungary	-12.3836
▁toledo	-12.3836
▁silk	-12.3839
▁akron	-12.3839
▁jogger	-12.3839
▁pokemon	-12.384
▁rossi	-12.384
▁reasonably	-12.384
▁heinous	-12.3841
▁satirical	-12.3841
▁scaled	-12.3843
[...]
