<unk>	0
<s>	0
</s>	0
story_separator_special_tag	0
▁the	-3.08678
▁,	-3.12503
▁.	-3.44582
▁"	-3.79905
▁a	-3.83734
▁to	-3.89976
▁and	-4.08183
▁of	-4.10854
▁	-4.11961
▁in	-4.19645
▁'	-4.2675
s	-4.49789
▁s	-4.56456
▁that	-4.67401
-	-4.92728
▁for	-4.96436
▁on	-5.00772
▁was	-5.02186
▁it	-5.05063
▁is	-5.06496
▁he	-5.13616
ed	-5.19864
ing	-5.23438
▁with	-5.28119
.	-5.3909
▁at	-5.47518
▁as	-5.49632
▁his	-5.51429
▁be	-5.55473
▁but	-5.67468
▁from	-5.68344
▁t	-5.69617
▁an	-5.6977
▁:	-5.70249
▁has	-5.72396
▁have	-5.73228
▁reports	-5.74247
▁her	-5.75463
▁i	-5.78434
▁said	-5.8095
▁are	-5.81117
▁by	-5.81219
▁she	-5.81857
d	-5.83793
▁not	-5.86405
▁this	-5.87707
▁who	-5.87804
—	-5.88333
▁they	-5.93032
▁’	-5.94918
▁says	-5.95016
▁-	-5.98652
▁)	-6.09441
(	-6.09793
▁one	-6.10825
▁been	-6.14485
▁had	-6.15608
▁will	-6.15987
▁were	-6.17096
▁after	-6.17246
▁you	-6.20293
▁about	-6.22357
▁more	-6.24496
▁we	-6.24573
▁new	-6.24741
▁or	-6.3071
▁out	-6.30985
ly	-6.32921
▁their	-6.33249
▁up	-6.3526
▁when	-6.37371
▁which	-6.38851
▁“	-6.45695
▁people	-6.47204
▁”	-6.48512
▁all	-6.56259
▁what	-6.5765
▁police	-6.60631
▁also	-6.63252
▁no	-6.63519
▁can	-6.64328
▁there	-6.6447
▁would	-6.65898
▁two	-6.6804
▁so	-6.69782
▁just	-6.71004
▁if	-6.72707
▁$	-6.72747
▁than	-6.736
▁him	-6.73871
▁say	-6.7488
y	-6.75317
▁news	-6.75712
▁us	-6.7799
▁its	-6.79009
▁some	-6.79577
▁time	-6.79819
▁other	-6.82484
▁trump	-6.83838
▁last	-6.85229
▁over	-6.85527
▁now	-6.86175
▁like	-6.88169
▁into	-6.8871
▁first	-6.88876
year	-6.91157
▁times	-6.92221
old	-6.94307
▁years	-6.96199
▁could	-6.96445
▁?	-7.01385
▁re	-7.02529
▁per	-7.02562
e	-7.0261
▁while	-7.02645
▁them	-7.04722
▁tells	-7.06478
▁found	-7.06735
▁president	-7.08732
▁notes	-7.09416
▁may	-7.11298
▁told	-7.11749
▁year	-7.12422
▁do	-7.12614
▁because	-7.13494
▁post	-7.13624
▁;	-7.13656
▁get	-7.1497
▁before	-7.15388
▁york	-7.16081
▁only	-7.16122
▁my	-7.16527
▁man	-7.18087
▁state	-7.18118
▁according	-7.19137
▁being	-7.20945
▁our	-7.25191
▁ap	-7.25197
▁today	-7.26293
▁back	-7.26896
▁how	-7.28008
▁your	-7.28415
▁...	-7.28794
▁%	-7.29684
▁off	-7.31513
▁even	-7.32848
▁made	-7.33803
▁family	-7.3476
▁where	-7.34867
▁most	-7.35857
a	-7.36463
▁show	-7.36709
▁down	-7.3758
▁day	-7.39582
▁three	-7.40881
▁home	-7.41127
▁during	-7.41523
▁those	-7.41887
n	-7.42484
▁still	-7.42553
▁don	-7.42605
▁house	-7.43193
▁another	-7.43593
▁any	-7.44362
▁million	-7.44987
▁did	-7.48009
▁way	-7.48309
▁make	-7.48659
▁then	-7.49074
▁since	-7.50646
▁week	-7.50953
▁me	-7.51181
▁see	-7.5226
▁world	-7.52612
t	-7.52708
▁going	-7.5309
▁around	-7.53383
▁including	-7.54369
▁though	-7.56655
▁!	-7.56827
▁m	-7.57051
▁didn	-7.58003
▁woman	-7.58137
▁very	-7.58404
▁well	-7.59144
▁here	-7.59394
▁got	-7.60684
▁called	-7.60789
▁know	-7.61219
▁night	-7.62783
▁many	-7.63047
▁city	-7.6336
▁much	-7.63378
▁take	-7.63453
▁life	-7.63672
▁against	-7.64826
▁video	-7.64908
▁obama	-7.65349
▁washington	-7.65368
▁death	-7.68169
▁go	-7.68865
▁think	-7.69542
▁these	-7.69892
▁case	-7.70256
▁company	-7.70628
▁part	-7.71025
▁write	-7.71496
▁women	-7.71627
es	-7.72036
▁court	-7.72308
▁long	-7.72325
▁white	-7.73841
▁should	-7.74284
▁own	-7.7642
▁good	-7.76677
▁through	-7.7698
▁want	-7.77143
▁cnn	-7.77271
▁come	-7.791
▁under	-7.79624
▁ve	-7.80055
▁such	-7.80794
▁report	-7.81062
▁school	-7.811
i	-7.81301
▁officials	-7.81518
▁statement	-7.81712
▁former	-7.81823
▁both	-7.82212
▁never	-7.83164
▁country	-7.83239
▁right	-7.8324
▁help	-7.83726
▁between	-7.83906
▁work	-7.84882
▁national	-7.86221
▁monday	-7.87613
▁d	-7.87801
▁later	-7.87872
▁took	-7.88083
▁used	-7.88143
▁next	-7.8859
▁days	-7.88757
▁place	-7.8885
▁government	-7.895
▁least	-7.89828
▁public	-7.90827
▁saying	-7.91279
▁car	-7.921
▁children	-7.92153
▁high	-7.9261
▁believe	-7.92878
▁10	-7.92937
▁four	-7.93021
▁tuesday	-7.933
o	-7.9338
▁died	-7.93469
▁left	-7.93951
▁killed	-7.94131
▁went	-7.9418
▁group	-7.94228
▁story	-7.94644
▁month	-7.94902
▁same	-7.95702
▁study	-7.96865
▁put	-7.97106
▁w	-7.97263
▁facebook	-7.9744
▁friday	-7.97881
▁american	-7.98149
▁might	-8.00614
▁big	-8.01205
/	-8.01293
▁mean	-8.0162
▁media	-8.0169
▁too	-8.02276
▁press	-8.02764
m	-8.03177
▁use	-8.03213
on	-8.04136
▁came	-8.04272
▁wednesday	-8.04532
▁office	-8.05274
▁law	-8.05486
▁away	-8.05588
▁every	-8.0601
▁taken	-8.0611
▁north	-8.06258
▁clear	-8.06367
▁campaign	-8.06444
▁why	-8.06461
▁department	-8.06563
▁few	-8.06606
▁authorities	-8.0737
▁thursday	-8.07615
▁daily	-8.08
▁doesn	-8.08185
▁county	-8.08276
▁support	-8.08452
▁really	-8.08742
er	-8.09083
▁sunday	-8.09183
▁mother	-8.09362
▁five	-8.09646
▁men	-8.09648
▁star	-8.09768
▁hospital	-8.10679
▁health	-8.11498
▁set	-8.11665
▁something	-8.12
▁twitter	-8.12013
com	-8.12159
▁un	-8.12299
▁won	-8.12549
▁asked	-8.13277
▁morning	-8.13846
▁reported	-8.13851
▁end	-8.14495
▁team	-8.14744
▁journal	-8.14806
▁things	-8.14938
▁bbc	-8.16117
▁yesterday	-8.16292
▁little	-8.1661
▁until	-8.17669
▁far	-8.18094
▁already	-8.1824
▁hit	-8.1834
▁name	-8.18394
▁months	-8.18465
▁released	-8.19403
▁best	-8.19474
▁call	-8.19614
▁street	-8.19782
▁photo	-8.20103
▁security	-8.20192
▁person	-8.20243
▁among	-8.20297
▁water	-8.2046
▁shot	-8.20825
the	-8.20905
▁ll	-8.21053
▁official	-8.21375
▁states	-8.21389
▁child	-8.215
▁head	-8.21546
▁full	-8.2168
▁second	-8.21762
▁find	-8.21952
▁live	-8.22018
▁1	-8.22167
▁seen	-8.22481
▁university	-8.22629
▁local	-8.22788
▁earlier	-8.22956
▁likely	-8.23069
▁researchers	-8.23335
▁need	-8.23446
▁ago	-8.23494
▁money	-8.23769
▁nbc	-8.24001
▁son	-8.24271
▁hours	-8.24368
▁tell	-8.24462
▁trying	-8.24463
▁look	-8.24585
▁body	-8.24794
▁south	-8.2521
▁al	-8.25299
▁20	-8.26104
▁near	-8.26255
without	-8.2628
▁however	-8.26461
▁six	-8.26769
▁dead	-8.27076
▁30	-8.27263
▁arrested	-8.27278
▁read	-8.27731
▁calls	-8.27938
▁clinton	-8.27976
▁information	-8.28401
▁actually	-8.28492
in	-8.28702
▁isn	-8.28836
▁black	-8.28974
▁wall	-8.28975
▁reuters	-8.28986
▁again	-8.2899
▁making	-8.29526
▁father	-8.2954
▁wife	-8.29641
▁fire	-8.29799
▁john	-8.29898
▁himself	-8.30248
▁ever	-8.30563
▁wasn	-8.30587
▁top	-8.30735
▁point	-8.30794
▁party	-8.30796
▁guardian	-8.31021
▁known	-8.31036
▁getting	-8.31134
▁apparently	-8.31203
r	-8.31547
▁saturday	-8.31838
▁lot	-8.31891
▁bill	-8.32016
▁give	-8.33003
▁number	-8.33095
▁los	-8.33614
▁early	-8.33788
▁along	-8.34828
▁service	-8.35496
▁wrote	-8.35543
▁investigation	-8.35618
▁started	-8.35655
▁area	-8.35887
▁click	-8.35933
▁start	-8.35942
▁members	-8.36069
▁yet	-8.36127
▁love	-8.36153
▁each	-8.3623
▁once	-8.36384
▁attack	-8.36426
▁move	-8.36685
▁deal	-8.36762
▁great	-8.36777
▁daughter	-8.37224
▁less	-8.37289
▁angeles	-8.37348
▁several	-8.37707
▁charges	-8.37896
▁federal	-8.38398
▁having	-8.38716
while	-8.38783
▁using	-8.38824
▁thing	-8.38829
▁face	-8.38975
th	-8.39087
▁fox	-8.39339
an	-8.39412
▁u	-8.39485
▁does	-8.39638
▁data	-8.39678
▁couple	-8.39678
▁thought	-8.40125
▁page	-8.40791
▁air	-8.41648
▁america	-8.41653
▁girl	-8.42083
▁2	-8.42096
▁keep	-8.42138
▁taking	-8.42444
▁others	-8.42523
▁able	-8.42806
▁history	-8.42865
▁added	-8.42871
▁young	-8.43159
▁better	-8.43381
▁incident	-8.44119
▁attorney	-8.44755
▁rep	-8.44987
▁business	-8.4501
▁behind	-8.4513
▁appear	-8.45338
▁list	-8.45551
▁social	-8.46226
▁chief	-8.46364
▁change	-8.46464
▁co	-8.46927
▁site	-8.47094
▁location	-8.47145
▁officer	-8.47585
▁release	-8.47836
▁shooting	-8.48447
▁fact	-8.48506
▁military	-8.48514
▁baby	-8.48676
▁judge	-8.49049
▁republican	-8.49287
▁run	-8.4949
▁enough	-8.49667
▁parents	-8.49751
▁tweet	-8.4988
▁doing	-8.49881
▁adds	-8.49978
▁california	-8.5001
▁internet	-8.50538
▁officers	-8.50638
▁suspect	-8.50839
▁interview	-8.50881
▁real	-8.50949
▁boy	-8.51394
▁medical	-8.51577
▁web	-8.51798
▁expected	-8.52338
▁kind	-8.52784
▁lost	-8.52784
▁charged	-8.52888
▁working	-8.53036
▁friends	-8.53327
▁general	-8.53456
▁someone	-8.5352
▁looking	-8.53575
▁--	-8.53609
▁p	-8.53639
▁war	-8.53876
▁recently	-8.5393
▁via	-8.54056
▁decision	-8.54126
▁gun	-8.54213
▁kids	-8.54396
▁past	-8.54411
▁abc	-8.5442
▁center	-8.54434
▁given	-8.54636
▁let	-8.54697
▁online	-8.54994
▁recent	-8.55404
▁pay	-8.55551
▁close	-8.55649
▁announced	-8.55839
▁hard	-8.55984
▁nearly	-8.56147
▁shows	-8.56241
▁instead	-8.56475
▁always	-8.56615
▁politico	-8.57229
▁saw	-8.57254
▁happened	-8.57758
▁outside	-8.57894
▁weeks	-8.58092
hether	-8.58264
▁care	-8.58419
▁bad	-8.58455
▁free	-8.58833
▁stop	-8.58894
▁late	-8.58969
▁5	-8.58979
▁san	-8.59075
▁political	-8.59182
▁inside	-8.59227
▁posted	-8.59431
▁plan	-8.59448
▁order	-8.59499
▁film	-8.59543
▁15	-8.59926
▁tweeted	-8.59986
▁human	-8.60433
▁prison	-8.60585
▁age	-8.60812
▁archive	-8.61073
▁sure	-8.61375
▁source	-8.61632
▁food	-8.61654
▁possible	-8.62008
▁romney	-8.6226
▁system	-8.62411
▁job	-8.62635
▁sex	-8.6285
▁reportedly	-8.63292
▁tried	-8.63356
▁wanted	-8.63448
▁photos	-8.63501
▁director	-8.63622
▁sent	-8.63934
▁husband	-8.64086
▁become	-8.64133
▁florida	-8.64148
▁evidence	-8.64268
▁usa	-8.64455
▁game	-8.64885
▁students	-8.65131
▁murder	-8.65337
▁link	-8.65379
▁phone	-8.65474
▁friend	-8.65494
▁open	-8.65554
▁3	-8.65995
▁donald	-8.66093
▁different	-8.66102
▁together	-8.66148
▁following	-8.66339
▁third	-8.66454
▁calling	-8.66467
▁whose	-8.66701
▁pages	-8.67124
▁issue	-8.67328
▁small	-8.6735
▁sources	-8.67607
▁f	-8.67781
▁park	-8.67882
▁soon	-8.68474
▁line	-8.68513
man	-8.68722
▁include	-8.68758
▁drug	-8.68853
▁senate	-8.69372
▁held	-8.69708
▁b	-8.69817
▁o	-8.69848
▁search	-8.69963
▁across	-8.702
▁gave	-8.70312
▁heart	-8.70351
▁china	-8.70393
▁almost	-8.70476
▁lead	-8.70487
▁began	-8.70562
▁united	-8.70667
▁turned	-8.7068
▁done	-8.70895
▁original	-8.71103
▁accused	-8.71445
▁west	-8.71463
▁involved	-8.71732
▁half	-8.71766
ally	-8.71957
al	-8.72002
▁vote	-8.72092
▁minutes	-8.72111
▁12	-8.72141
▁miles	-8.72297
▁cbs	-8.72353
▁allow	-8.72581
▁claims	-8.72627
▁movie	-8.7296
▁billion	-8.73037
▁legal	-8.731
▁texas	-8.73229
▁plans	-8.73259
▁anything	-8.73695
▁probably	-8.73781
▁am	-8.73814
▁rights	-8.74114
▁bring	-8.74169
▁major	-8.74256
▁large	-8.74689
▁100	-8.74969
▁spokesman	-8.74989
▁often	-8.75016
▁11	-8.75267
▁side	-8.75931
▁act	-8.75982
▁details	-8.76113
▁c	-8.76167
ers	-8.76295
▁mr	-8.76304
▁old	-8.76491
▁russia	-8.76988
▁international	-8.77007
▁sexual	-8.77026
▁election	-8.77077
▁must	-8.77109
▁heard	-8.77148
allegedly	-8.77293
▁problem	-8.77449
▁record	-8.77686
▁nothing	-8.77744
to	-8.77881
▁50	-8.78224
▁received	-8.78318
▁march	-8.78496
▁michael	-8.78827
▁seem	-8.78839
▁4	-8.79022
▁image	-8.7914
▁explains	-8.79181
▁result	-8.79256
▁scene	-8.79378
▁assault	-8.79585
▁email	-8.79707
▁flight	-8.79858
▁latest	-8.80006
▁hand	-8.80118
▁tv	-8.80221
▁russian	-8.80495
it	-8.81037
▁control	-8.81066
▁due	-8.81207
▁front	-8.81423
▁stay	-8.81482
▁idea	-8.81488
amp	-8.81561
▁similar	-8.817
▁coming	-8.81777
▁letter	-8.81799
▁leave	-8.81832
▁research	-8.81903
▁play	-8.82078
▁feel	-8.82178
▁paul	-8.82473
▁2016	-8.82477
▁room	-8.8275
;	-8.82898
▁wants	-8.82943
▁everyone	-8.83019
▁victims	-8.83052
▁korea	-8.83464
▁watch	-8.83583
▁david	-8.83939
▁plane	-8.84092
▁anyone	-8.84138
▁raise	-8.84357
▁cause	-8.84627
▁lawyer	-8.84756
▁sign	-8.84825
▁la	-8.84916
▁adding	-8.84947
c	-8.85292
▁missing	-8.85441
▁claim	-8.85573
▁website	-8.85659
▁filed	-8.85923
▁sheriff	-8.86307
▁comment	-8.86512
▁feet	-8.86897
▁book	-8.86919
▁focus	-8.87228
▁points	-8.87313
▁meeting	-8.87378
▁scientists	-8.87697
▁remains	-8.87699
▁gop	-8.87705
▁power	-8.87743
▁science	-8.88182
▁administration	-8.88518
▁leader	-8.88535
▁decided	-8.88606
▁jail	-8.88695
▁certain	-8.89024
▁agency	-8.89258
▁personal	-8.89304
▁hope	-8.89446
▁americans	-8.89599
time	-8.89845
▁comments	-8.89883
▁board	-8.9014
▁words	-8.90171
▁despite	-8.9019
▁kim	-8.9021
▁april	-8.90356
▁republicans	-8.90628
▁single	-8.9066
▁process	-8.90668
▁course	-8.90702
▁makes	-8.90741
▁risk	-8.90779
▁future	-8.91028
▁suggest	-8.91053
▁force	-8.91124
▁question	-8.91197
▁justice	-8.91329
▁fbi	-8.91348
▁community	-8.9135
▁de	-8.91509
▁june	-8.9164
▁event	-8.91648
▁confirmed	-8.91654
▁running	-8.91728
▁within	-8.91836
▁seems	-8.92039
▁appeared	-8.92047
▁student	-8.92088
▁account	-8.92187
▁weekend	-8.92328
▁response	-8.92399
▁6	-8.92405
▁mark	-8.92567
▁led	-8.92682
▁seven	-8.93225
▁july	-8.93237
▁cancer	-8.93426
▁currently	-8.93684
▁broken	-8.93732
▁special	-8.93904
▁pretty	-8.93924
▁message	-8.94051
▁policy	-8.94141
▁district	-8.94319
▁mom	-8.94325
▁victim	-8.94463
▁lives	-8.945
▁apple	-8.94602
▁host	-8.94649
▁driver	-8.94651
▁talk	-8.94771
▁fight	-8.94957
▁dog	-8.95207
ies	-8.95263
▁continue	-8.95356
▁chicago	-8.95407
▁wrong	-8.95572
▁based	-8.95575
▁published	-8.95894
▁2014	-8.95997
▁matter	-8.96028
us	-8.96033
▁eight	-8.96188
▁tax	-8.96449
▁james	-8.96463
▁staff	-8.96557
▁town	-8.96592
▁7	-8.96889
▁2012	-8.96984
▁further	-8.97012
▁safety	-8.97097
▁lawsuit	-8.97124
▁anti	-8.97439
▁18	-8.97453
▁whole	-8.97586
▁try	-8.97919
▁piece	-8.98108
▁role	-8.98184
▁review	-8.98221
▁station	-8.98242
▁program	-8.98327
▁alleged	-8.98496
▁speech	-8.98692
▁previously	-8.98731
▁blood	-8.98731
▁building	-8.98774
▁member	-8.98899
▁2015	-8.99004
▁discovered	-8.99104
▁hill	-8.99275
▁cases	-8.99288
▁race	-8.99388
▁bit	-8.99523
▁win	-8.99548
▁reason	-8.99599
▁important	-8.99683
▁8	-8.99989
▁killing	-9.00458
and	-9.00475
▁series	-9.00539
▁google	-9.00741
▁arrest	-9.00795
▁music	-9.00924
▁return	-9.00927
▁investigators	-9.00942
▁issues	-9.01032
▁workers	-9.01206
▁caused	-9.01279
▁ended	-9.01387
▁crime	-9.01455
am	-9.01502
▁brown	-9.01613
▁nation	-9.01633
▁longer	-9.0164
▁40	-9.01854
▁action	-9.01987
▁everything	-9.02048
▁attempt	-9.02207
▁injured	-9.02246
▁minister	-9.02259
▁defense	-9.02506
▁church	-9.02757
▁happy	-9.029
▁female	-9.02945
▁private	-9.02974
▁contact	-9.03021
▁presidential	-9.03095
▁serious	-9.03146
▁debate	-9.03176
▁identified	-9.03252
▁trial	-9.03432
▁either	-9.03569
▁walk	-9.03768
▁test	-9.03784
▁cut	-9.03963
▁spent	-9.03979
▁democrats	-9.04021
▁living	-9.04085
▁british	-9.04186
▁situation	-9.043
came	-9.04313
▁college	-9.04334
▁turn	-9.0435
h	-9.0454
▁25	-9.04659
▁condition	-9.04733
▁brought	-9.04968
▁available	-9.05087
▁light	-9.05113
▁looks	-9.05121
▁final	-9.05123
▁committee	-9.05165
▁marriage	-9.05259
▁word	-9.05397
▁brother	-9.05458
▁tmz	-9.05542
▁low	-9.05614
▁short	-9.0565
▁store	-9.05713
▁worked	-9.05739
▁current	-9.05964
▁red	-9.06103
▁vehicle	-9.06128
▁toward	-9.06373
▁effort	-9.06404
▁described	-9.06545
▁democratic	-9.06663
▁space	-9.06762
▁met	-9.06791
▁aren	-9.06803
▁couldn	-9.06853
▁fired	-9.07278
▁brain	-9.07327
▁version	-9.07647
▁foreign	-9.07685
▁finally	-9.07731
▁created	-9.08084
we	-9.08163
▁9	-9.08416
▁criminal	-9.0844
▁immediately	-9.08453
▁gone	-9.08649
▁crash	-9.08938
▁ground	-9.09084
▁crawls	-9.09253
▁violence	-9.09366
▁13	-9.09503
▁hollywood	-9.09538
▁describe	-9.09612
▁knew	-9.10157
▁note	-9.10234
▁attention	-9.10369
▁fans	-9.10837
▁means	-9.11004
▁cost	-9.11254
▁hearing	-9.11274
▁wouldn	-9.11364
▁injuries	-9.11549
▁check	-9.11612
▁biggest	-9.11628
▁2013	-9.11741
▁14	-9.1192
▁named	-9.12078
▁amount	-9.12203
▁network	-9.12208
▁increase	-9.12225
▁attacks	-9.12669
▁guy	-9.1277
▁employees	-9.12774
▁safe	-9.12811
▁hands	-9.12926
▁island	-9.12978
associated	-9.13094
▁relationship	-9.13453
▁animal	-9.13622
▁arrived	-9.13642
▁related	-9.13669
▁doctors	-9.13805
▁worth	-9.14032
▁period	-9.14065
▁r	-9.14109
▁congress	-9.1458
▁paid	-9.14665
▁gay	-9.14789
en	-9.1481
▁thousands	-9.15176
▁secretary	-9.15192
▁road	-9.15247
l	-9.15272
▁birth	-9.15281
▁non	-9.15318
rather	-9.15418
▁fell	-9.15448
▁visit	-9.15472
▁ask	-9.15546
▁rest	-9.15762
▁h	-9.16285
▁tweets	-9.16466
▁changed	-9.16504
▁carry	-9.16556
▁king	-9.16584
▁land	-9.16642
▁project	-9.16969
▁disease	-9.16977
▁chance	-9.17232
▁images	-9.1736
▁ex	-9.17377
▁quickly	-9.1738
▁access	-9.1741
he	-9.17562
▁reporter	-9.17651
▁users	-9.17665
▁revealed	-9.17715
▁emergency	-9.17797
▁countries	-9.17978
▁married	-9.18071
▁hillary	-9.18114
▁driving	-9.18141
▁16	-9.18359
▁sun	-9.18567
▁price	-9.18646
▁candidate	-9.18804
re	-9.18946
▁bank	-9.18973
▁17	-9.19011
▁reference	-9.19178
▁born	-9.19454
▁allowed	-9.19467
▁middle	-9.19589
▁sea	-9.19638
▁pulled	-9.197
▁organization	-9.19713
▁share	-9.19762
▁leaving	-9.1987
▁border	-9.20016
▁st	-9.20029
▁companies	-9.20128
▁issued	-9.2014
▁helped	-9.20192
▁request	-9.2021
▁hopes	-9.20322
▁season	-9.20338
▁forward	-9.20365
▁popular	-9.20426
up	-9.20528
▁airport	-9.20557
▁talking	-9.20597
▁ceo	-9.20657
▁else	-9.20674
▁moment	-9.20705
▁girls	-9.20922
▁total	-9.20953
▁strong	-9.2103
▁telling	-9.21079
▁london	-9.21202
▁actor	-9.21325
▁jobs	-9.21564
▁paper	-9.21629
▁experts	-9.21685
▁results	-9.217
▁exactly	-9.21989
ity	-9.22139
▁kill	-9.22332
▁conference	-9.22415
▁remain	-9.22416
▁dozen	-9.2255
▁e	-9.22684
://	-9.22709
▁market	-9.22746
▁suffer	-9.22808
▁hold	-9.229
▁fall	-9.22915
▁follow	-9.23163
▁picture	-9.23184
▁mayor	-9.2319
▁true	-9.23207
▁hasn	-9.23327
▁multiple	-9.23444
▁experience	-9.23776
kept	-9.23908
▁residents	-9.23944
▁owner	-9.23984
simply	-9.24141
▁included	-9.24293
▁expect	-9.24429
▁treatment	-9.24565
▁questions	-9.24647
▁maybe	-9.24702
▁syria	-9.24877
▁especially	-9.24975
▁figure	-9.25081
▁perhaps	-9.2517
▁beach	-9.25291
▁add	-9.25318
▁george	-9.25333
▁giving	-9.25423
pm	-9.25543
able	-9.25638
▁problems	-9.25848
▁join	-9.25939
▁happen	-9.25949
▁gas	-9.2596
▁union	-9.26041
▁goes	-9.26053
▁herself	-9.26111
▁french	-9.26164
▁accident	-9.26263
▁written	-9.26282
▁broke	-9.26294
though	-9.26347
▁send	-9.2638
▁needed	-9.26431
▁meet	-9.26471
▁drugs	-9.26633
▁ban	-9.26674
day	-9.26739
▁secret	-9.26868
▁prosecutors	-9.26941
▁nuclear	-9.26999
▁returned	-9.27072
▁protect	-9.27115
▁view	-9.27122
▁crew	-9.27158
▁sister	-9.27189
▁stand	-9.27265
▁claimed	-9.27266
▁2011	-9.27379
▁chris	-9.27396
▁cover	-9.2747
▁level	-9.27471
▁caught	-9.27475
▁coast	-9.27521
is	-9.276
▁groups	-9.27605
▁financial	-9.2761
▁ryan	-9.27667
▁wide	-9.27975
▁potential	-9.28093
▁failed	-9.28124
▁themselves	-9.28143
▁felt	-9.28154
▁storm	-9.28203
▁bush	-9.28234
▁january	-9.28265
▁leaders	-9.28436
▁fair	-9.28528
▁break	-9.28607
▁itself	-9.28756
▁teen	-9.28875
▁hotel	-9.2903
▁thinks	-9.29042
▁extreme	-9.29275
▁thanks	-9.29492
▁24	-9.29506
▁allegations	-9.29553
quite	-9.29561
▁huge	-9.296
▁file	-9.29602
▁rock	-9.2991
▁telegraph	-9.29971
▁self	-9.29975
▁offered	-9.30031
▁families	-9.30114
▁date	-9.30165
▁average	-9.3018
▁door	-9.30423
▁boston	-9.30452
▁mexico	-9.30544
▁planned	-9.30683
▁ran	-9.30772
▁executive	-9.30785
▁charge	-9.30877
▁abuse	-9.30905
▁sen	-9.30932
▁previous	-9.30966
▁asking	-9.31091
▁goal	-9.3126
▁guilty	-9.31338
▁travel	-9.3135
▁avoid	-9.31383
▁needs	-9.31401
▁services	-9.31533
▁documents	-9.31557
▁takes	-9.31729
ness	-9.31779
▁buy	-9.31867
▁entire	-9.3188
▁passed	-9.31952
▁critics	-9.32109
▁leading	-9.32261
▁customers	-9.32335
▁specific	-9.32349
▁rate	-9.32396
▁suicide	-9.32592
▁wedding	-9.32665
▁male	-9.3269
▁looked	-9.32812
▁sites	-9.32885
▁continued	-9.32919
▁21	-9.32983
▁eventually	-9.33106
▁suit	-9.33376
▁played	-9.33471
▁fear	-9.33487
▁november	-9.33533
▁september	-9.33584
▁learn	-9.3385
▁forced	-9.3393
▁higher	-9.34102
▁hot	-9.34214
▁earth	-9.34216
▁records	-9.3437
▁trip	-9.34619
▁nine	-9.34659
▁followed	-9.34968
▁below	-9.35019
▁address	-9.35178
▁ahead	-9.35187
▁prime	-9.35254
▁east	-9.35278
▁doctor	-9.35578
▁removed	-9.35578
▁hundreds	-9.35705
▁scott	-9.358
▁step	-9.35801
▁blame	-9.35828
▁moved	-9.35835
▁enforcement	-9.35877
▁fine	-9.36042
▁custody	-9.3627
▁robert	-9.36375
▁percent	-9.36489
▁iran	-9.365
▁reach	-9.36593
▁complete	-9.36797
▁singer	-9.36832
▁damage	-9.36834
p	-9.3696
▁magazine	-9.36984
▁offer	-9.37134
▁afternoon	-9.3714
▁animals	-9.37331
▁decades	-9.37348
▁please	-9.37351
▁common	-9.37368
▁responded	-9.37389
▁60	-9.3747
▁independent	-9.3755
▁spoke	-9.37561
▁behavior	-9.37644
▁alone	-9.37856
▁form	-9.37983
▁example	-9.38169
▁sanders	-9.3822
▁carolina	-9.38255
▁regard	-9.38333
▁stage	-9.38343
▁jones	-9.38402
▁provide	-9.38452
▁intelligence	-9.38542
▁summer	-9.38607
▁collection	-9.3877
▁weapons	-9.38773
▁joe	-9.3888
▁alcohol	-9.39088
▁wearing	-9.39158
▁yes	-9.39217
▁k	-9.39271
▁understand	-9.39311
▁numbers	-9.39353
▁opened	-9.39397
▁19	-9.39528
▁key	-9.39559
▁contain	-9.39909
▁johnson	-9.3994
k	-9.40147
▁expert	-9.40397
▁newspaper	-9.40422
▁williams	-9.40518
▁suggests	-9.40526
▁dad	-9.4055
▁conservative	-9.40553
▁2010	-9.40631
▁stone	-9.4073
▁central	-9.4074
▁amazon	-9.40751
▁smith	-9.41016
▁restaurant	-9.41268
▁stopped	-9.41305
▁francisco	-9.41324
▁considered	-9.41397
▁governor	-9.4154
▁pair	-9.41644
▁august	-9.41645
st	-9.41646
less	-9.41757
▁green	-9.42054
▁god	-9.42061
▁manager	-9.42125
▁investigating	-9.42145
▁reporters	-9.4223
▁stories	-9.42259
▁thank	-9.42311
▁crawl	-9.42314
▁supreme	-9.42371
▁2017	-9.42591
▁hour	-9.42745
▁spotted	-9.42746
▁mass	-9.42832
▁article	-9.43013
▁separate	-9.43199
▁global	-9.43312
▁bloomberg	-9.43449
▁showing	-9.43457
▁playing	-9.43544
▁seat	-9.43554
▁song	-9.43922
▁n	-9.43972
▁rare	-9.43996
▁sold	-9.44062
as	-9.44068
▁agreed	-9.44085
▁author	-9.44463
▁dangerous	-9.44472
▁prevent	-9.44518
▁npr	-9.44543
ther	-9.44556
▁explain	-9.44565
▁hear	-9.44617
▁insider	-9.44668
▁industry	-9.44681
▁dr	-9.44699
▁apartment	-9.44704
▁eye	-9.44789
▁target	-9.44796
▁cruz	-9.44803
▁korean	-9.44867
▁ice	-9.4488
▁guard	-9.44977
▁france	-9.45074
▁speaking	-9.45188
▁december	-9.45389
▁ordered	-9.45478
▁worst	-9.45489
▁mind	-9.45528
▁difficult	-9.45545
▁drive	-9.45613
▁sense	-9.45616
▁die	-9.45618
▁voters	-9.45749
▁nearby	-9.45874
▁holding	-9.45973
▁sales	-9.46001
▁uk	-9.46142
▁chinese	-9.46149
▁writing	-9.46177
▁save	-9.46252
▁sound	-9.46449
▁jersey	-9.46453
ting	-9.46513
▁witness	-9.46675
▁fast	-9.46714
▁whom	-9.46719
▁civil	-9.46777
▁radio	-9.46874
▁hurt	-9.46885
▁machine	-9.47089
▁sentence	-9.47189
▁create	-9.47443
▁shared	-9.47468
▁researcher	-9.476
▁israel	-9.47604
▁mike	-9.47839
▁forces	-9.47873
▁property	-9.47933
▁remember	-9.48099
▁passengers	-9.48182
▁blog	-9.48216
▁design	-9.48299
▁super	-9.48312
▁actress	-9.48365
▁lake	-9.48471
ic	-9.48482
▁g	-9.48552
▁answer	-9.48576
▁class	-9.48646
▁october	-9.48647
▁learned	-9.48669
▁block	-9.48674
▁whe	-9.48722
▁region	-9.48876
▁dropped	-9.49001
▁rescue	-9.49109
▁canada	-9.49148
▁above	-9.49302
▁deaths	-9.49349
▁intended	-9.49531
▁army	-9.49535
▁appeal	-9.49577
▁links	-9.49774
▁ready	-9.49841
▁gold	-9.49917
comes	-9.49959
▁oil	-9.50024
▁loss	-9.5004
▁gets	-9.50047
▁warning	-9.50413
or	-9.50414
▁rape	-9.50446
▁illegal	-9.5059
out	-9.5078
▁l	-9.50799
▁threat	-9.50821
▁throw	-9.50898
▁senior	-9.50903
▁voice	-9.50943
▁ruling	-9.51026
▁mail	-9.51044
▁model	-9.51067
▁virginia	-9.51171
▁admitted	-9.51171
▁tribune	-9.51195
▁train	-9.51351
▁marijuana	-9.51517
▁begin	-9.5162
▁prince	-9.51667
▁cops	-9.51729
▁22	-9.51913
▁ship	-9.51928
▁fellow	-9.51992
▁ohio	-9.52007
▁isis	-9.5211
▁products	-9.52122
▁lower	-9.52272
▁putin	-9.52316
▁jackson	-9.52432
▁martin	-9.52455
▁australia	-9.5246
▁interest	-9.52488
▁continues	-9.52582
▁crowd	-9.52658
▁firm	-9.53261
▁unclear	-9.53395
▁honor	-9.53521
▁museum	-9.53594
▁kelly	-9.53652
▁surprise	-9.53754
▁bodies	-9.53792
▁ultimate	-9.53874
▁works	-9.53935
▁pregnant	-9.53999
▁convicted	-9.54041
▁names	-9.54209
▁traffic	-9.54232
▁evening	-9.54293
▁perform	-9.54413
▁occurred	-9.54418
▁escape	-9.54483
f	-9.54555
▁career	-9.54632
▁impact	-9.54841
▁rules	-9.54847
▁haven	-9.54888
▁field	-9.54917
▁analyst	-9.5494
ted	-9.54998
▁patients	-9.55139
foot	-9.55195
▁track	-9.55319
▁otherwise	-9.55398
▁moving	-9.55589
▁paris	-9.5561
▁cash	-9.55613
▁choice	-9.55685
at	-9.55725
▁size	-9.55846
▁events	-9.55854
▁instagram	-9.55862
est	-9.55951
▁pre	-9.55967
▁employee	-9.55983
▁performance	-9.55996
▁initially	-9.56116
▁japan	-9.56271
▁areas	-9.56302
▁position	-9.564
▁consider	-9.56442
▁houston	-9.5646
▁upon	-9.56613
appears	-9.56628
▁http	-9.56777
▁fake	-9.56805
▁fighting	-9.56896
▁apologize	-9.5692
▁complain	-9.56983
▁palin	-9.57009
▁bar	-9.57049
▁faces	-9.57284
▁spokesperson	-9.57289
▁pilot	-9.57309
▁seeking	-9.57467
▁lack	-9.57678
▁credit	-9.57713
▁spot	-9.57799
▁supporters	-9.57841
▁population	-9.57884
▁option	-9.58022
▁professor	-9.58063
▁hair	-9.58151
▁surgery	-9.58159
▁lived	-9.5816
▁main	-9.58166
▁23	-9.58309
▁effect	-9.58324
▁present	-9.58385
▁protesters	-9.58407
▁famous	-9.58415
ce	-9.58718
▁scheduled	-9.58722
▁council	-9.5879
▁weather	-9.58824
▁club	-9.58852
▁parts	-9.58892
▁signed	-9.59013
▁speak	-9.5914
▁closed	-9.5914
▁indeed	-9.5932
▁launch	-9.59378
▁boys	-9.59379
▁february	-9.59462
▁christmas	-9.59606
▁trouble	-9.59734
▁gov	-9.59886
▁technology	-9.59988
▁reporting	-9.60108
▁pain	-9.60415
▁southern	-9.60423
▁sometimes	-9.6051
▁base	-9.6056
▁camp	-9.6059
▁efforts	-9.60617
▁pro	-9.60802
▁believes	-9.60854
▁fix	-9.61097
▁items	-9.61202
▁energy	-9.61228
▁treated	-9.61353
▁youtube	-9.61392
▁deputy	-9.61437
▁bus	-9.61639
▁plus	-9.61676
▁sports	-9.61701
▁capital	-9.61713
▁2018	-9.61743
▁sell	-9.61757
▁refused	-9.61761
▁terms	-9.61792
▁floor	-9.61953
▁camera	-9.61965
▁economic	-9.61973
▁rough	-9.61979
▁largest	-9.61982
▁pressure	-9.62041
▁spread	-9.62086
▁truck	-9.62152
▁cars	-9.62238
▁pass	-9.62255
▁reality	-9.62444
ment	-9.62533
▁lee	-9.62543
▁tour	-9.62544
▁band	-9.62792
▁2009	-9.63042
▁worse	-9.63083
▁puts	-9.63108
▁protest	-9.63176
▁coverage	-9.63246
▁blue	-9.63331
▁spending	-9.63367
▁poll	-9.63417
▁denied	-9.63524
▁deep	-9.63568
▁finds	-9.63701
▁served	-9.63771
▁trade	-9.63956
▁completely	-9.6397
▁2008	-9.63975
▁dogs	-9.63994
▁exchange	-9.64019
▁conversation	-9.64023
▁possibly	-9.64058
▁nature	-9.64077
▁joke	-9.64277
▁meaning	-9.64352
▁neighbor	-9.64572
▁survey	-9.64603
reached	-9.64722
▁fun	-9.64755
▁changes	-9.64846
▁struck	-9.64849
▁stars	-9.64926
▁positive	-9.65027
▁jan	-9.65051
▁primary	-9.65108
ry	-9.65122
▁poor	-9.65196
▁app	-9.65217
▁weren	-9.65525
▁miami	-9.65662
▁brand	-9.65703
▁enjoy	-9.65923
▁beyond	-9.66011
▁miss	-9.66033
▁millions	-9.66174
▁th	-9.66225
▁herald	-9.66321
▁linked	-9.6644
▁steve	-9.66463
▁laws	-9.66496
▁signs	-9.66616
son	-9.66681
▁river	-9.66731
▁ma	-9.66782
▁conduct	-9.66918
▁subject	-9.66928
▁tonight	-9.66978
▁dark	-9.66991
▁appearance	-9.66996
▁term	-9.67017
▁fish	-9.67027
▁significant	-9.6703
▁pick	-9.67034
▁dna	-9.67082
▁audience	-9.67229
▁games	-9.67231
▁syrian	-9.67298
▁society	-9.67429
▁match	-9.67449
▁determined	-9.67457
▁receive	-9.67548
▁provided	-9.67565
▁hate	-9.67617
▁boat	-9.67622
▁lady	-9.67666
▁pictures	-9.67669
▁wake	-9.67684
▁absolute	-9.67725
of	-9.67865
▁bay	-9.68112
▁grand	-9.68124
▁27	-9.68133
▁j	-9.68162
based	-9.68223
▁chronicle	-9.68391
▁responsible	-9.68418
▁lawyers	-9.68589
▁fatal	-9.68649
▁cold	-9.68702
▁stock	-9.68805
▁false	-9.68812
▁battle	-9.68832
▁van	-9.68881
▁referr	-9.68899
▁talks	-9.68972
▁artist	-9.69019
▁launched	-9.69038
▁discovery	-9.69064
▁journalist	-9.69127
▁growing	-9.69285
▁conditions	-9.69308
▁climate	-9.69437
▁character	-9.69459
▁quotes	-9.6947
▁globe	-9.69492
▁serve	-9.6951
▁huffington	-9.69551
▁art	-9.69572
▁award	-9.69658
▁turns	-9.69728
▁seeing	-9.69788
▁peace	-9.69799
▁spend	-9.69815
▁200	-9.69878
▁afp	-9.69915
▁28	-9.6992
▁sleep	-9.70178
▁respect	-9.70271
▁26	-9.70273
▁cast	-9.70517
▁eyes	-9.70628
▁alive	-9.70673
▁particular	-9.7071
▁mitt	-9.70768
▁passenger	-9.708
▁divorce	-9.70836
▁iraq	-9.70879
▁finding	-9.70936
▁refer	-9.70992
▁rose	-9.71065
▁treat	-9.71163
▁majority	-9.71227
▁require	-9.71231
▁arizona	-9.71427
▁levels	-9.71436
▁reaction	-9.71503
▁german	-9.71516
▁training	-9.71552
▁highest	-9.71552
▁putting	-9.71688
▁humans	-9.71715
▁contract	-9.71722
▁announcement	-9.71742
▁actions	-9.71825
▁spokeswom	-9.71834
▁onto	-9.7187
▁supposed	-9.71943
▁massive	-9.71945
▁eat	-9.72185
▁offering	-9.7223
▁box	-9.72301
▁none	-9.72311
▁partner	-9.72426
▁70	-9.72472
▁addition	-9.72622
particularly	-9.7263
▁discuss	-9.72729
▁videos	-9.72965
▁association	-9.73039
▁warned	-9.7306
▁ocean	-9.73067
▁weight	-9.73133
▁species	-9.73386
▁tough	-9.73406
▁decade	-9.73408
▁built	-9.73464
▁rise	-9.73583
▁tests	-9.73656
▁players	-9.73728
▁device	-9.73732
▁drinking	-9.73784
▁european	-9.73819
▁candidates	-9.73877
▁mission	-9.73905
▁90	-9.73996
▁perry	-9.74016
▁limit	-9.74046
▁sarah	-9.74109
▁bought	-9.74191
▁germany	-9.74203
▁meant	-9.74261
▁troops	-9.74266
▁concerns	-9.74416
▁hall	-9.74499
▁product	-9.74616
▁alert	-9.7465
▁explained	-9.74657
x	-9.74731
▁twice	-9.74759
▁ad	-9.74899
▁successful	-9.74932
▁older	-9.74953
▁keeping	-9.74957
▁planning	-9.74966
▁development	-9.75008
▁television	-9.75009
▁education	-9.75065
▁teacher	-9.75071
▁ok	-9.75125
▁publicly	-9.75249
▁29	-9.75266
▁walking	-9.7544
▁45	-9.75505
▁immigration	-9.75516
▁drop	-9.75558
▁europe	-9.75641
▁complaint	-9.75662
▁sorry	-9.75698
▁waiting	-9.75698
▁sentenced	-9.75879
▁mid	-9.76042
▁thinking	-9.76056
▁sort	-9.76114
▁india	-9.76129
▁shut	-9.762
▁politics	-9.76201
▁display	-9.76208
▁economy	-9.76238
▁christian	-9.7626
▁critical	-9.76308
▁detail	-9.76347
▁natural	-9.76359
g	-9.76485
▁easy	-9.76625
▁picked	-9.76644
▁suspects	-9.76698
▁stuff	-9.76779
▁content	-9.76804
▁thomas	-9.7681
▁ruled	-9.76933
▁debt	-9.77176
side	-9.77224
▁drink	-9.77308
▁footage	-9.77403
▁bear	-9.77497
▁moore	-9.77589
▁unusual	-9.77657
▁agree	-9.7767
▁seriously	-9.77756
▁mostly	-9.77781
▁reveal	-9.77787
▁tomorrow	-9.77903
▁sitting	-9.77973
▁mental	-9.77983
not	-9.78026
▁richard	-9.78056
▁push	-9.78083
▁produce	-9.78139
▁physical	-9.78232
▁challenge	-9.78295
▁confirm	-9.78298
▁healthy	-9.78387
▁agent	-9.78444
▁range	-9.785
▁surveillance	-9.78528
▁african	-9.78552
▁predict	-9.78588
▁register	-9.78618
▁knows	-9.7864
▁manage	-9.78682
▁stores	-9.78764
▁flow	-9.7894
▁concerned	-9.78977
▁breaking	-9.78984
▁attempted	-9.79088
▁canadian	-9.79105
▁witnesses	-9.79186
▁eating	-9.79203
▁movement	-9.79247
▁cities	-9.79265
▁realize	-9.7928
month	-9.79294
▁northern	-9.79307
▁heavy	-9.79408
▁measure	-9.79496
▁nor	-9.79503
▁tom	-9.79523
▁girlfriend	-9.79557
▁dc	-9.79807
▁foundation	-9.79834
▁35	-9.79924
▁michigan	-9.80195
▁annual	-9.80238
▁victory	-9.80276
▁pounds	-9.80375
▁determine	-9.80443
▁license	-9.80447
▁senator	-9.80449
▁unit	-9.80464
▁ways	-9.80498
▁accounts	-9.80508
▁fan	-9.80551
long	-9.80576
▁bomb	-9.80618
▁argument	-9.80653
▁1,000	-9.80829
▁amid	-9.80858
▁reads	-9.80957
▁declared	-9.81087
▁fac	-9.81093
▁various	-9.81147
▁feeling	-9.81151
▁basic	-9.81231
▁80	-9.81241
▁monitor	-9.81333
▁cell	-9.81341
▁watching	-9.81494
▁replace	-9.81579
▁budget	-9.81626
▁chain	-9.81635
w	-9.81685
▁beginning	-9.8172
▁text	-9.81773
▁vice	-9.82007
▁snow	-9.82103
▁lose	-9.82179
▁standing	-9.82197
▁britain	-9.82205
▁facility	-9.82293
▁offers	-9.82297
▁type	-9.82297
ve	-9.82299
▁opening	-9.82304
▁fashion	-9.82343
▁reasons	-9.82502
▁severe	-9.82504
▁square	-9.82532
▁peter	-9.82666
▁effective	-9.82678
▁pennsylvania	-9.82874
▁identify	-9.82917
▁football	-9.82959
▁commission	-9.83076
▁domain	-9.83093
▁winning	-9.83096
ation	-9.83104
▁production	-9.8311
▁royal	-9.83208
▁operation	-9.83252
▁jury	-9.83299
▁scandal	-9.83321
▁philadelphia	-9.83378
▁loved	-9.83388
ner	-9.83483
▁additional	-9.83504
▁wait	-9.83511
▁sale	-9.83564
▁democrat	-9.836
▁normal	-9.8362
▁gingrich	-9.83657
▁agreement	-9.83687
▁insist	-9.83694
▁ones	-9.83728
▁reading	-9.83817
▁affected	-9.84021
▁computer	-9.84021
▁concern	-9.84064
▁moon	-9.84149
▁500	-9.84195
▁skin	-9.84226
▁celebrity	-9.84248
▁dec	-9.84276
▁attacked	-9.84301
▁argue	-9.84426
▁colorado	-9.84462
▁afghanistan	-9.84479
▁protection	-9.84542
▁pope	-9.84546
▁mountain	-9.84656
▁authors	-9.84689
▁zoo	-9.84694
▁sept	-9.84698
▁armed	-9.84926
▁modern	-9.85135
▁ha	-9.85319
▁atlantic	-9.85325
▁sudden	-9.85347
▁demand	-9.85392
▁bag	-9.85405
▁costs	-9.85502
▁william	-9.85515
▁helping	-9.85698
▁schools	-9.85797
▁involve	-9.85833
▁911	-9.85916
▁lawmakers	-9.85962
▁justin	-9.85965
▁caption	-9.8599
▁increasing	-9.8605
?	-9.86142
▁saudi	-9.86185
▁detroit	-9.86248
by	-9.86262
▁shoot	-9.86269
▁considering	-9.86293
▁homes	-9.86311
▁mccain	-9.86348
▁coffee	-9.86357
▁player	-9.86417
me	-9.86505
▁success	-9.8654
▁somebody	-9.86553
ley	-9.86557
▁individual	-9.86627
▁title	-9.86631
▁tree	-9.86673
▁happens	-9.86947
▁emails	-9.86985
▁guns	-9.87011
▁simple	-9.87027
▁features	-9.87109
▁prize	-9.87138
▁count	-9.8714
▁privacy	-9.87153
▁wild	-9.87157
▁century	-9.87166
▁pull	-9.87192
▁fourth	-9.872
▁broad	-9.87281
▁giant	-9.87302
▁crisis	-9.87303
▁split	-9.87321
▁bond	-9.87392
▁findings	-9.87409
▁protests	-9.87631
▁nfl	-9.87663
▁bridge	-9.87694
▁rick	-9.87759
▁africa	-9.87816
▁insurance	-9.87827
▁required	-9.87832
▁beautiful	-9.8791
▁extra	-9.87945
be	-9.8797
▁plant	-9.88009
▁nov	-9.88075
▁weekly	-9.88078
▁mention	-9.88173
▁hoping	-9.88211
▁taylor	-9.88212
▁emotional	-9.88219
▁rule	-9.88269
ton	-9.8845
▁oct	-9.88455
▁lines	-9.8847
▁beat	-9.88548
▁argu	-9.88561
▁stolen	-9.88655
▁pop	-9.8878
▁sounds	-9.88799
▁planet	-9.88862
▁shortly	-9.88882
▁domestic	-9.88991
▁weapon	-9.89174
▁australian	-9.89252
▁controversial	-9.89288
▁connection	-9.89306
▁mcdonald	-9.89336
▁rally	-9.89386
▁deliver	-9.89393
▁chair	-9.89411
▁messages	-9.89445
▁worried	-9.8955
▁anthony	-9.89602
▁approach	-9.89614
▁adviser	-9.89678
▁cat	-9.89714
▁accept	-9.89874
▁nasa	-9.89896
▁violent	-9.89973
ey	-9.90053
▁declined	-9.90135
▁amazing	-9.90189
▁opportunity	-9.9019
▁ability	-9.90388
▁adult	-9.90453
ll	-9.90458
▁defend	-9.90624
▁collect	-9.90663
▁initial	-9.90671
▁becoming	-9.90819
▁caus	-9.90979
▁rolling	-9.90989
▁truth	-9.91031
▁usually	-9.91239
▁investigate	-9.91334
▁build	-9.91403
▁iphone	-9.91452
▁threatened	-9.9147
2	-9.91537
▁crimes	-9.91549
tv	-9.91576
▁crazy	-9.91583
ng	-9.91633
▁birthday	-9.91736
▁headlines	-9.91748
▁prior	-9.91785
▁jr	-9.91805
▁eric	-9.91838
▁finish	-9.91885
rs	-9.91896
▁freedom	-9.91954
▁profile	-9.91968
▁injury	-9.92036
▁dating	-9.92048
▁anonymous	-9.92064
▁language	-9.9207
▁remove	-9.92079
▁winner	-9.92107
▁complex	-9.92122
▁western	-9.92196
▁acting	-9.92237
▁ride	-9.92264
▁danger	-9.92272
▁delivered	-9.92295
▁selling	-9.92383
▁client	-9.92397
▁throughout	-9.92472
▁neighborhood	-9.92515
▁opposition	-9.9261
▁younger	-9.9269
▁user	-9.92715
▁chemical	-9.92772
▁georgia	-9.92808
▁aware	-9.92973
▁favorite	-9.92977
▁agents	-9.93019
▁highway	-9.93053
▁copyright	-9.93069
▁sad	-9.93109
▁code	-9.9316
▁highly	-9.93384
▁institute	-9.9341
▁powerful	-9.93446
▁remarks	-9.93653
▁seek	-9.93729
▁fund	-9.93748
▁nice	-9.94024
▁everybody	-9.94075
▁religious	-9.94327
▁plead	-9.94421
▁wish	-9.9447
▁material	-9.94472
▁worker	-9.94496
le	-9.94535
▁votes	-9.94543
▁muslim	-9.94716
▁citizens	-9.94785
▁suspended	-9.94827
▁mo	-9.94831
▁practice	-9.94966
▁episode	-9.94999
▁criticism	-9.95107
▁cross	-9.95243
▁bieber	-9.95319
▁attend	-9.95368
▁petition	-9.95508
u	-9.95541
▁dress	-9.95567
▁channel	-9.95606
▁dallas	-9.95607
▁harry	-9.95621
▁serving	-9.95667
hour	-9.95787
▁suffering	-9.95825
▁entertainment	-9.95886
▁double	-9.95916
▁iowa	-9.95932
▁captured	-9.95944
▁ring	-9.9615
▁andrew	-9.96184
▁label	-9.96184
▁survived	-9.96187
▁seattle	-9.96223
▁perfect	-9.96225
related	-9.96242
▁christie	-9.96276
▁31	-9.96326
▁strike	-9.9639
▁round	-9.96466
▁concert	-9.96499
▁jeff	-9.9657
▁feature	-9.96623
▁boyfriend	-9.96633
▁jay	-9.9669
▁navy	-9.96824
▁flying	-9.96868
▁chairman	-9.9697
▁shouldn	-9.971
▁ticket	-9.97128
estimated	-9.97229
▁disorder	-9.97284
▁possibility	-9.97288
▁inter	-9.97408
▁arms	-9.97421
▁theory	-9.97434
▁enter	-9.97462
▁rates	-9.97465
▁studies	-9.97484
b	-9.97499
▁variety	-9.97588
like	-9.97602
▁welcome	-9.97606
▁dollars	-9.97614
▁culture	-9.97665
▁angry	-9.97682
▁directly	-9.97748
▁auction	-9.97762
gotten	-9.978
▁growth	-9.97859
▁views	-9.98022
▁proud	-9.98024
▁vegas	-9.98027
▁straight	-9.98036
▁1996	-9.98048
▁fully	-9.98064
▁respond	-9.9813
▁drove	-9.98147
▁card	-9.98169
▁stephen	-9.98211
▁express	-9.98327
▁compare	-9.98369
▁hurricane	-9.98486
▁window	-9.98527
off	-9.98544
▁alaska	-9.98565
▁indicate	-9.98589
▁activity	-9.98617
▁adults	-9.9862
▁wear	-9.98624
▁chose	-9.98662
▁arm	-9.98793
▁native	-9.98846
▁active	-9.98874
▁bigger	-9.98931
▁recorded	-9.99086
▁viral	-9.99132
▁kardashian	-9.99133
▁airlines	-9.99235
▁paying	-9.99239
▁soldiers	-9.99254
▁10,000	-9.99287
▁banned	-9.99305
▁el	-9.99342
▁album	-9.99349
▁holiday	-9.99465
▁ben	-9.99538
▁negative	-9.9957
▁2006	-9.9966
▁patient	-9.99698
▁barack	-9.99708
▁decide	-9.99779
▁beast	-9.99865
▁resident	-9.99977
▁jim	-10.0002
▁standard	-10.0005
▁parent	-10.0006
▁plenty	-10.0009
▁atlanta	-10.0012
▁direct	-10.0015
▁aircraft	-10.0017
▁village	-10.0017
▁route	-10.002
▁babies	-10.0023
carried	-10.0024
▁controversy	-10.003
▁actual	-10.0031
▁threats	-10.0037
promised	-10.0054
▁sky	-10.0067
▁shown	-10.0068
ending	-10.0078
▁league	-10.0083
▁smoke	-10.0084
▁winter	-10.0086
▁mistake	-10.0092
▁miller	-10.0117
▁nations	-10.012
▁touch	-10.012
▁tech	-10.0122
▁activist	-10.0134
▁labor	-10.0148
▁jon	-10.0153
▁tea	-10.0155
▁swift	-10.0156
▁screen	-10.0161
▁vehicles	-10.0168
▁grow	-10.0173
▁neither	-10.0173
▁leg	-10.0175
▁favor	-10.0187
▁testing	-10.0189
▁awards	-10.0193
▁covered	-10.0195
▁editor	-10.0202
▁francis	-10.0203
▁companion	-10.0205
▁sick	-10.0205
▁prosecutor	-10.0211
▁unable	-10.0223
▁preserved	-10.0224
▁firefighter	-10.0225
▁funeral	-10.0229
▁ceremony	-10.0229
men	-10.0254
▁whatever	-10.0257
▁founder	-10.0259
▁status	-10.0278
▁minor	-10.0283
▁bottom	-10.0287
▁apparent	-10.0287
back	-10.0288
▁books	-10.029
▁slate	-10.0303
▁value	-10.031
▁quote	-10.0312
▁speed	-10.0318
▁necessary	-10.032
▁highlights	-10.0328
▁england	-10.0343
1	-10.0354
▁writer	-10.0356
age	-10.0359
▁estate	-10.0364
this	-10.0368
▁plastic	-10.0371
z	-10.0372
▁shift	-10.0378
co	-10.0388
▁comedy	-10.0395
▁ministry	-10.0402
▁bid	-10.0411
▁utah	-10.0412
▁oh	-10.0425
▁influence	-10.0434
▁path	-10.0434
▁aug	-10.045
▁shares	-10.0456
▁coach	-10.0465
▁guess	-10.0467
▁flag	-10.047
▁larger	-10.0472
▁counts	-10.0475
▁narrow	-10.0477
▁cuts	-10.0483
▁kid	-10.0486
▁upset	-10.0488
management	-10.0495
▁willing	-10.0503
entered	-10.0504
▁las	-10.0505
▁failure	-10.052
▁delete	-10.0521
▁feb	-10.0526
▁owners	-10.0526
▁saved	-10.0528
▁joint	-10.0529
▁cohen	-10.0548
▁2007	-10.0563
▁silver	-10.0568
▁pregnancy	-10.0568
▁warrant	-10.057
▁foot	-10.0583
▁wonder	-10.0592
▁voted	-10.0598
▁spring	-10.0626
▁fat	-10.0628
▁kate	-10.0634
▁panel	-10.0642
▁rid	-10.0653
▁warn	-10.0659
▁wildlife	-10.0661
▁boost	-10.0664
▁trigger	-10.0668
▁deputi	-10.067
degree	-10.0673
▁obtained	-10.0674
term	-10.0677
▁runs	-10.0679
▁update	-10.0688
▁surprised	-10.0703
▁ill	-10.0705
▁involv	-10.0717
▁dinner	-10.0727
▁taxes	-10.0733
▁analysis	-10.0735
▁kansas	-10.0739
▁located	-10.074
▁buried	-10.0765
party	-10.0786
▁definitely	-10.0791
▁prove	-10.0818
▁feels	-10.0821
▁losing	-10.0825
▁wood	-10.0835
▁mouth	-10.0842
▁radar	-10.0852
▁guys	-10.0856
▁islamic	-10.0858
▁potentially	-10.0859
▁identity	-10.0861
▁interesting	-10.0877
▁closer	-10.088
▁representative	-10.0883
▁bail	-10.0884
▁rich	-10.089
▁policies	-10.0893
▁elizabeth	-10.0896
▁quick	-10.0905
▁valley	-10.0908
▁happening	-10.0908
▁cook	-10.0914
▁parking	-10.0914
▁places	-10.0918
▁signal	-10.092
▁turkey	-10.0928
▁digital	-10.093
▁effects	-10.0934
▁clean	-10.0935
▁academy	-10.0937
▁conclude	-10.0942
▁eastern	-10.0944
▁imagine	-10.0944
▁bowl	-10.0948
▁militant	-10.0949
▁israeli	-10.0949
▁fuel	-10.0966
▁cool	-10.0978
▁benefits	-10.0978
▁woods	-10.0981
▁recognize	-10.0983
▁deeply	-10.0983
▁responsibility	-10.0984
▁tragedy	-10.0991
▁jennifer	-10.0992
▁reform	-10.0993
▁apology	-10.0998
▁killer	-10.1007
▁moments	-10.1011
▁prices	-10.1011
▁thus	-10.1013
▁brian	-10.1019
▁trust	-10.102
▁talked	-10.102
▁trail	-10.1025
▁tim	-10.1025
▁fed	-10.1026
▁tied	-10.1031
▁maintain	-10.1037
ion	-10.1042
▁terrorist	-10.1044
▁unknown	-10.1051
▁stuck	-10.1052
▁queen	-10.1054
▁denver	-10.1057
▁quit	-10.1068
▁cruise	-10.1089
▁aid	-10.109
▁massachusetts	-10.1101
▁davis	-10.1103
▁applications	-10.1107
▁racist	-10.1111
▁sexually	-10.1117
▁crashed	-10.1126
▁myself	-10.1133
▁ancient	-10.1134
▁convention	-10.1136
▁100,000	-10.1144
▁elsewhere	-10.1149
▁seconds	-10.1153
▁yahoo	-10.1159
▁devices	-10.1163
▁neighbors	-10.1163
▁harris	-10.1165
citing	-10.1165
▁frequently	-10.1165
▁encounter	-10.1166
▁bin	-10.1168
raising	-10.1168
▁watched	-10.1168
▁teens	-10.1175
▁shooter	-10.1177
▁fresh	-10.1189
▁authority	-10.119
▁glass	-10.119
▁300	-10.1192
red	-10.1201
▁surface	-10.1209
▁searching	-10.1219
▁celebrate	-10.1226
▁instance	-10.1228
▁shark	-10.123
▁disney	-10.1233
▁task	-10.124
▁beer	-10.1254
▁tiger	-10.1264
▁patrol	-10.1266
▁airline	-10.1266
▁boehner	-10.1266
▁pic	-10.1269
▁ensure	-10.1273
▁regular	-10.1279
▁matt	-10.1283
▁possession	-10.129
▁buzzfeed	-10.1291
▁milk	-10.1291
▁english	-10.1293
▁represent	-10.1296
▁gender	-10.1296
▁10-	-10.1297
ar	-10.131
▁rumors	-10.1317
▁le	-10.132
▁jump	-10.1321
▁da	-10.1331
▁felony	-10.1334
▁oppose	-10.1338
▁funny	-10.1365
▁sit	-10.1368
typically	-10.137
▁viewers	-10.137
▁customer	-10.1371
▁louis	-10.1372
▁neck	-10.1376
▁nobody	-10.138
▁emerged	-10.1383
▁falling	-10.1384
▁meat	-10.1385
▁debut	-10.1386
▁zero	-10.1387
▁mashable	-10.1388
▁catch	-10.1389
▁mystery	-10.139
▁remained	-10.1395
▁parties	-10.1397
▁campus	-10.1402
▁drunk	-10.1404
▁conflict	-10.1413
▁santa	-10.1418
▁expand	-10.1426
▁broadcast	-10.143
▁section	-10.1432
▁operations	-10.1433
▁abortion	-10.144
▁walker	-10.1443
▁mary	-10.1451
▁movies	-10.1452
▁doubt	-10.1457
▁notice	-10.1457
ous	-10.1464
▁2005	-10.1472
▁theft	-10.1476
▁drivers	-10.1491
▁cosby	-10.1492
▁stewart	-10.1493
▁mobile	-10.1501
▁exit	-10.1508
▁advice	-10.1516
▁exercise	-10.1516
▁wind	-10.1525
▁dream	-10.1526
▁receiving	-10.1528
▁charles	-10.1533
▁charlie	-10.1533
▁inches	-10.1534
▁settlement	-10.1538
▁nominee	-10.1543
▁encourage	-10.1546
▁congressional	-10.1549
▁obamacare	-10.1554
▁approved	-10.1559
▁japanese	-10.1577
▁consumers	-10.1578
ary	-10.1581
▁sees	-10.1589
▁ads	-10.159
▁mexican	-10.1596
▁ongoing	-10.1601
▁pa	-10.1605
led	-10.161
▁wilson	-10.1611
▁individuals	-10.1622
▁length	-10.1625
▁background	-10.1626
▁pushed	-10.1627
▁column	-10.1638
▁indian	-10.1655
▁acknowledge	-10.1663
▁ball	-10.1669
▁shots	-10.167
▁progress	-10.1674
org	-10.1681
▁environment	-10.1683
▁pot	-10.1704
▁heat	-10.1704
▁legislation	-10.171
▁noticed	-10.1712
twitter	-10.1713
▁deadly	-10.1714
▁turning	-10.1718
▁recording	-10.1727
▁overall	-10.1732
▁allen	-10.1734
v	-10.1743
ever	-10.175
▁voting	-10.1768
▁moscow	-10.1768
▁tower	-10.1772
▁interested	-10.1775
▁affect	-10.1778
▁sides	-10.1782
▁familiar	-10.1787
▁presence	-10.1792
▁strange	-10.18
▁nomination	-10.18
▁funds	-10.1801
▁obviously	-10.1801
▁truly	-10.1802
▁donating	-10.1806
▁commercial	-10.181
▁michelle	-10.1811
▁pointed	-10.1817
▁alabama	-10.1817
▁scientific	-10.1841
▁aggressive	-10.1847
▁continu	-10.1848
▁gift	-10.1854
▁compar	-10.1856
▁scientist	-10.1856
▁environmental	-10.1871
▁amendment	-10.1876
▁brothers	-10.188
▁ages	-10.1897
▁direction	-10.1898
▁fled	-10.1906
▁mount	-10.1907
▁jack	-10.1909
▁visited	-10.1911
▁cia	-10.1913
▁terrible	-10.1914
▁limited	-10.1934
▁mueller	-10.1935
▁summit	-10.1935
▁choose	-10.1941
▁italy	-10.1942
▁wine	-10.1954
▁v	-10.1956
▁sought	-10.1964
▁diego	-10.1971
▁comey	-10.1974
▁outlet	-10.1988
▁fraud	-10.1993
▁kennedy	-10.2009
minute	-10.202
▁diet	-10.2023
▁pool	-10.2024
▁brief	-10.2025
▁oregon	-10.2032
▁smart	-10.2034
▁clip	-10.2037
▁greater	-10.2037
one	-10.2041
then	-10.2049
ie	-10.2061
▁statements	-10.2062
▁difference	-10.2063
▁uber	-10.2074
▁proposal	-10.2076
▁graham	-10.208
▁jordan	-10.2093
▁praise	-10.2099
▁citizen	-10.2101
▁memorial	-10.2102
▁oklahoma	-10.2103
▁ambassador	-10.2105
▁recall	-10.211
ne	-10.211
▁gang	-10.2111
▁hunt	-10.2114
▁proposed	-10.2125
▁roof	-10.2129
▁anywhere	-10.213
jumped	-10.2136
▁firing	-10.2138
▁32	-10.2138
▁steps	-10.2142
▁counter	-10.2143
▁professional	-10.2143
▁adam	-10.2149
▁table	-10.2155
▁entirely	-10.217
▁walmart	-10.2182
▁marine	-10.2182
▁collapse	-10.2186
▁polls	-10.2192
▁cooper	-10.2202
▁bed	-10.2204
▁exclusive	-10.2205
▁document	-10.2206
▁rubio	-10.2215
▁bob	-10.2241
▁bathroom	-10.2242
▁memo	-10.2246
▁shock	-10.2255
▁assistant	-10.2257
▁quarter	-10.2258
her	-10.226
▁smoking	-10.2267
▁suffere	-10.2268
▁rounds	-10.2273
▁festival	-10.2275
▁espn	-10.2276
▁harassment	-10.2281
▁jong	-10.2281
▁speaker	-10.2282
▁egypt	-10.2288
▁pakistan	-10.2304
▁smaller	-10.231
▁expressed	-10.2321
▁resources	-10.233
▁measures	-10.234
▁nurse	-10.2343
▁gain	-10.2345
▁affair	-10.2346
▁tested	-10.2351
▁tip	-10.236
▁charity	-10.2361
▁apart	-10.2363
▁pack	-10.2367
▁yourself	-10.2367
▁income	-10.2373
▁carter	-10.2375
▁shocked	-10.2381
▁unlikely	-10.2384
▁catholic	-10.2386
▁struggle	-10.2389
▁20-	-10.2397
▁anniversary	-10.2401
▁developed	-10.2404
▁repeatedly	-10.2405
sharing	-10.2406
▁color	-10.2415
▁hawaii	-10.2416
▁biden	-10.2421
ia	-10.2421
▁daughters	-10.2421
▁disappeared	-10.243
▁destroyed	-10.2444
▁helicopter	-10.2447
▁recovered	-10.2447
▁sanctions	-10.2457
4	-10.2458
▁funding	-10.2465
▁reflect	-10.247
▁sued	-10.2473
▁golden	-10.2501
▁figures	-10.251
▁gawker	-10.2511
▁cdc	-10.2514
▁benefit	-10.2534
▁frank	-10.2535
▁tennessee	-10.2539
▁feed	-10.2553
▁streets	-10.2558
▁faced	-10.2559
▁leadership	-10.2563
▁taste	-10.2569
no	-10.257
▁agencies	-10.2575
▁posting	-10.2584
officially	-10.2589
how	-10.259
▁virus	-10.2597
▁engaged	-10.2604
▁jet	-10.2606
▁404	-10.262
▁illness	-10.263
▁manhattan	-10.2638
▁precise	-10.2639
▁lohan	-10.2643
▁kanye	-10.2648
▁anybody	-10.2655
▁suing	-10.2659
▁minnesota	-10.2662
▁score	-10.2665
▁strategy	-10.2665
▁veteran	-10.2667
▁letters	-10.2668
▁producer	-10.267
▁relatives	-10.2672
▁equipment	-10.2677
▁italian	-10.268
▁wounded	-10.2681
▁oscar	-10.2686
unless	-10.2689
▁survive	-10.2692
▁disaster	-10.2708
▁wisconsin	-10.2709
▁rejected	-10.271
▁latter	-10.2711
you	-10.2712
▁missile	-10.2716
▁ford	-10.272
▁cable	-10.2732
▁rain	-10.2732
▁33	-10.2733
▁drew	-10.2735
▁filing	-10.2737
▁fly	-10.2738
▁netflix	-10.2741
▁ukraine	-10.2744
▁reduce	-10.2746
▁kevin	-10.2751
▁pacific	-10.276
▁terror	-10.2766
▁participant	-10.2772
▁pushing	-10.2778
7	-10.2783
▁unique	-10.2794
▁sessions	-10.2801
▁except	-10.2802
▁deadline	-10.281
▁factor	-10.2817
▁businesses	-10.2825
▁dance	-10.2826
cited	-10.2826
▁santorum	-10.2832
era	-10.2834
▁spanish	-10.2834
▁indiana	-10.2844
▁uses	-10.2845
▁systems	-10.2854
▁advertisement	-10.2858
▁promise	-10.2862
▁alexa	-10.2868
▁causes	-10.2878
▁widely	-10.2889
▁bars	-10.2893
▁colleagues	-10.2896
▁cameras	-10.2898
▁republic	-10.2899
▁prompt	-10.2914
▁stands	-10.2916
▁recovery	-10.2919
▁dan	-10.2919
▁metal	-10.2922
▁couples	-10.2922
▁stress	-10.293
▁gray	-10.2934
▁18-	-10.2943
▁harm	-10.2956
▁visitors	-10.2959
▁platform	-10.2968
▁rais	-10.2975
▁embargo	-10.2976
▁fifth	-10.2977
▁believ	-10.2979
ville	-10.2981
▁setting	-10.2986
▁essentially	-10.2996
▁violat	-10.3001
▁medicine	-10.3008
▁msnbc	-10.3014
▁excited	-10.3015
▁competition	-10.3025
▁aide	-10.3025
▁visiting	-10.3034
▁ties	-10.3037
▁lying	-10.304
▁approval	-10.3041
▁baltimore	-10.3046
▁calif	-10.3047
▁locked	-10.3049
▁threatening	-10.3052
ism	-10.3054
▁inspired	-10.3055
ized	-10.3057
if	-10.3064
▁criticized	-10.307
▁newly	-10.3076
▁jimmy	-10.308
all	-10.3082
▁rush	-10.3087
▁engineer	-10.3087
▁tiny	-10.3091
called	-10.3097
▁2004	-10.3099
▁handle	-10.3108
▁mad	-10.3117
▁handed	-10.3118
▁sweet	-10.3119
▁fame	-10.312
▁oldest	-10.3122
▁sean	-10.3133
ty	-10.3135
▁missed	-10.3136
▁x	-10.3138
▁blow	-10.314
▁legs	-10.3146
▁zuckerberg	-10.3149
▁deserve	-10.3155
▁headline	-10.3158
▁ron	-10.3169
▁filled	-10.3189
▁fortune	-10.3192
▁symptoms	-10.3197
▁retire	-10.3198
▁complaints	-10.3199
▁donate	-10.3201
▁fla	-10.3202
▁chicken	-10.3202
▁hampshire	-10.3204
▁accusations	-10.3212
▁dealing	-10.3218
▁pizza	-10.322
▁regime	-10.3226
▁opinion	-10.324
▁literally	-10.3249
▁gunman	-10.3253
▁banks	-10.3281
▁bills	-10.3282
▁featured	-10.3293
▁ca	-10.3294
▁tape	-10.3298
▁toronto	-10.3301
▁promote	-10.3302
▁buying	-10.3306
▁lindsay	-10.3307
▁internal	-10.3312
▁gather	-10.3313
▁construction	-10.3319
▁style	-10.3319
▁slow	-10.3321
j	-10.333
▁grew	-10.3334
▁warren	-10.3334
▁hole	-10.334
▁memory	-10.3342
▁vacation	-10.3345
te	-10.3356
▁elections	-10.3356
▁joseph	-10.3359
▁ba	-10.3365
land	-10.3366
▁discussion	-10.3366
▁36	-10.3367
▁cleveland	-10.337
▁cells	-10.3382
▁belong	-10.3391
star	-10.3394
▁testimony	-10.3395
american	-10.3397
▁falls	-10.3401
▁orlando	-10.3403
▁elected	-10.3419
▁jewish	-10.342
▁diagnosed	-10.3423
▁pentagon	-10.3437
▁weigh	-10.345
▁listen	-10.3457
▁traveling	-10.3459
▁quality	-10.3459
▁weird	-10.3462
▁worldwide	-10.3466
▁dispute	-10.3476
▁accuse	-10.3477
▁tragic	-10.3479
▁easily	-10.3482
▁guests	-10.3491
▁weinstein	-10.3496
▁ending	-10.3497
▁contest	-10.3501
▁detained	-10.3501
▁rebels	-10.3504
▁12-	-10.3515
▁shopping	-10.3521
▁oppos	-10.3525
▁canceled	-10.3525
▁impossible	-10.3527
▁profit	-10.3528
▁worry	-10.3535
▁introduced	-10.3535
▁topic	-10.3537
▁tend	-10.3543
▁changing	-10.3543
▁manag	-10.3552
▁penalty	-10.3553
▁degrees	-10.3555
▁bottle	-10.3556
▁odd	-10.3556
▁forbes	-10.3557
▁consumer	-10.3557
▁incidents	-10.3562
▁morgan	-10.3572
▁lucky	-10.3583
▁daniel	-10.3589
▁cnbc	-10.3592
▁bones	-10.3592
▁cards	-10.3593
▁salt	-10.3606
▁15-	-10.3607
▁knowledge	-10.3615
▁illinois	-10.362
▁plot	-10.3626
▁infant	-10.3629
▁probe	-10.363
▁flights	-10.363
▁targeted	-10.3632
▁clothes	-10.3636
▁blast	-10.3638
▁cop	-10.3638
▁rifle	-10.3647
▁relations	-10.3649
▁raid	-10.3652
▁expensive	-10.3655
▁mall	-10.3666
▁kicked	-10.3667
▁30-	-10.3669
▁cup	-10.3679
▁bullet	-10.3679
▁capture	-10.3683
sex	-10.37
▁resort	-10.3702
▁embassy	-10.3719
▁roll	-10.3722
▁waters	-10.3737
▁thoughts	-10.3739
▁films	-10.3748
▁wave	-10.3761
▁mess	-10.3762
▁climb	-10.3762
▁traditional	-10.3763
▁journey	-10.3769
▁vladimir	-10.3775
▁missouri	-10.3782
▁offensive	-10.3783
▁plea	-10.3783
▁3-	-10.3785
um	-10.3785
▁alex	-10.3789
▁liberal	-10.3794
▁hell	-10.3796
▁relatively	-10.38
▁starbucks	-10.3813
▁allege	-10.3816
▁hired	-10.3817
▁mix	-10.3821
stood	-10.3821
▁communications	-10.3829
▁austin	-10.3829
▁passing	-10.3831
▁rank	-10.384
▁drama	-10.385
▁jason	-10.3854
▁amy	-10.3856
▁inmates	-10.388
cbc	-10.3898
▁buildings	-10.3903
▁olympic	-10.3905
▁bell	-10.3911
▁fit	-10.3913
▁inappropriate	-10.3914
▁forest	-10.3915
▁ii	-10.392
▁nazi	-10.3926
▁returning	-10.3927
▁homicide	-10.3936
▁tweeting	-10.3937
▁heads	-10.3942
she	-10.3944
free	-10.3945
▁rising	-10.3948
includes	-10.3953
▁stick	-10.3961
▁depression	-10.3964
▁archaeologist	-10.3965
▁microsoft	-10.3995
▁150	-10.3999
▁rapper	-10.4
▁spain	-10.4004
▁historic	-10.4012
▁urged	-10.4013
▁anyway	-10.4016
▁kick	-10.4016
▁di	-10.4016
▁experienced	-10.402
▁homeless	-10.402
▁gofundme	-10.4026
▁shop	-10.4033
▁creat	-10.4034
▁mcconnell	-10.4037
▁standards	-10.404
▁damages	-10.404
▁37	-10.4044
▁copy	-10.4052
▁tesla	-10.4054
urls	-10.4056
▁rob	-10.4057
▁purpose	-10.4062
▁parliament	-10.4065
▁rating	-10.4066
▁immediate	-10.4069
▁conspiracy	-10.407
▁robbery	-10.4071
▁advance	-10.4072
▁suv	-10.4075
▁struggling	-10.4076
▁zone	-10.4076
▁farm	-10.408
▁bacteria	-10.4089
▁17-	-10.4095
▁celebrities	-10.4097
▁reveals	-10.4102
▁slightly	-10.4104
▁partners	-10.411
▁function	-10.4111
▁vatican	-10.4112
▁anderson	-10.4114
▁edge	-10.4114
▁tickets	-10.4115
▁captain	-10.4116
▁switch	-10.413
▁failing	-10.4136
▁destroy	-10.4147
▁foods	-10.4151
▁occur	-10.4154
▁port	-10.4154
▁landing	-10.4165
▁2,000	-10.4172
▁guest	-10.4174
▁capitol	-10.4186
▁shelter	-10.4187
▁informed	-10.4188
▁musk	-10.4189
▁comedian	-10.4193
▁revenue	-10.42
▁maryland	-10.4206
▁behalf	-10.4229
▁terrorism	-10.4234
▁files	-10.4241
▁committ	-10.4242
▁knife	-10.425
▁greatest	-10.4252
▁supply	-10.4255
▁software	-10.426
▁conducted	-10.4261
▁outrage	-10.4277
▁surrounding	-10.4279
▁orange	-10.4282
la	-10.4282
▁exposed	-10.4295
▁supporting	-10.4301
▁accidentally	-10.4304
▁5,000	-10.431
▁leak	-10.4319
▁battery	-10.4323
▁immigrants	-10.4325
▁faith	-10.4327
▁sample	-10.4328
▁warm	-10.4331
▁cellphone	-10.4336
▁sam	-10.4341
▁improve	-10.4341
▁songs	-10.4348
▁anger	-10.4367
▁programs	-10.4367
▁harvard	-10.4368
▁crack	-10.4376
▁48	-10.4383
▁gallery	-10.4384
ee	-10.439
▁proof	-10.4398
for	-10.4399
▁34	-10.44
▁38	-10.4401
▁wreck	-10.4405
▁trees	-10.4413
▁matters	-10.4418
▁addressed	-10.442
▁roger	-10.4422
pending	-10.4423
▁twin	-10.4423
▁75	-10.4424
▁samples	-10.4438
▁suspicion	-10.4443
www	-10.4444
▁christopher	-10.4444
hitting	-10.4455
▁bird	-10.4455
▁minute	-10.446
▁investment	-10.4461
mile	-10.4466
▁options	-10.4469
▁fda	-10.4469
▁closing	-10.4469
▁surprising	-10.4469
▁lots	-10.4471
▁suspicious	-10.4476
▁wa	-10.4481
go	-10.4485
▁chest	-10.4486
▁afterward	-10.4486
▁factors	-10.4487
▁bizarre	-10.4493
▁command	-10.4493
▁sentinel	-10.4494
▁earthquake	-10.4496
▁lab	-10.4501
▁stunt	-10.4501
▁murdered	-10.4501
▁smell	-10.4514
▁prepared	-10.4515
▁execution	-10.4516
▁wound	-10.4519
▁veterans	-10.4519
▁chase	-10.452
▁followers	-10.4521
▁pyongyang	-10.4523
▁provid	-10.4523
▁taliban	-10.4524
ory	-10.4525
right	-10.4533
▁shore	-10.4536
▁drawing	-10.4536
▁wire	-10.4542
▁windows	-10.4552
▁documentary	-10.4554
▁anymore	-10.4559
▁activities	-10.4565
▁16-	-10.4578
▁2001	-10.4579
▁teeth	-10.4582
5	-10.4587
▁locations	-10.4595
▁sheen	-10.4603
▁produc	-10.4605
▁stepped	-10.4607
▁appropriate	-10.4622
they	-10.4628
▁ballot	-10.4641
▁unveil	-10.4645
▁learning	-10.4645
▁marks	-10.4653
▁con	-10.4655
▁zimmerman	-10.4661
▁connected	-10.4666
▁reviews	-10.4669
▁accepted	-10.4679
▁distance	-10.4682
▁44	-10.4689
▁develop	-10.4697
▁row	-10.47
▁loud	-10.4704
qaeda	-10.4706
▁easier	-10.4723
▁hackers	-10.4728
▁rival	-10.4729
▁holds	-10.4732
▁autopsy	-10.4738
▁shirt	-10.4739
▁punishment	-10.474
▁package	-10.4742
▁colbert	-10.4747
▁transition	-10.4747
▁posts	-10.4748
▁howard	-10.4751
▁apply	-10.4752
▁laden	-10.4753
▁kentucky	-10.4753
▁estimates	-10.4757
▁procedure	-10.476
▁senators	-10.4767
▁error	-10.4771
▁temperatures	-10.4772
▁hitler	-10.4772
▁rent	-10.4779
▁engine	-10.4786
▁cousin	-10.4786
▁describ	-10.4789
▁bureau	-10.4794
▁explanation	-10.4808
▁investors	-10.4813
▁recount	-10.4814
▁dismissed	-10.4816
▁earned	-10.4817
▁https	-10.4819
▁bernie	-10.4824
124;	-10.4827
▁trapped	-10.4836
▁circumstances	-10.4842
▁breast	-10.4843
▁quiet	-10.4849
▁gunshot	-10.4854
▁characters	-10.4855
▁interviews	-10.4855
▁lesson	-10.4856
▁winds	-10.4858
▁solar	-10.4861
neath	-10.4862
▁leaves	-10.4863
▁transportation	-10.4865
▁legally	-10.4867
▁phones	-10.488
▁wealth	-10.4881
▁talent	-10.4883
▁directed	-10.4886
▁iranian	-10.4887
▁violate	-10.4892
▁midnight	-10.49
▁knowing	-10.4901
▁1980	-10.4912
▁stupid	-10.4918
▁42	-10.4919
life	-10.4921
▁twins	-10.4922
▁carson	-10.4945
▁arrests	-10.4947
▁satellite	-10.4947
▁schumer	-10.4949
▁olympics	-10.495
law	-10.4952
▁staying	-10.4953
▁secure	-10.4954
▁probation	-10.4956
▁replied	-10.4966
▁crying	-10.4967
▁decline	-10.4967
▁steven	-10.4977
▁assistance	-10.4979
▁harvey	-10.498
▁400	-10.498
▁naked	-10.498
▁likes	-10.4986
▁brutal	-10.5001
▁committe	-10.5002
▁fill	-10.5002
▁contribute	-10.501
▁personnel	-10.501
▁gizmodo	-10.5011
▁permission	-10.5011
▁drone	-10.5017
▁dying	-10.5018
▁provides	-10.5018
king	-10.5019
▁lane	-10.5023
▁holmes	-10.5029
▁approached	-10.5032
▁snowden	-10.5032
▁youth	-10.5033
▁nsa	-10.5036
▁unlike	-10.5039
▁routine	-10.504
▁kidnapping	-10.5042
▁rescued	-10.5043
▁ends	-10.5057
▁permit	-10.5065
▁object	-10.507
▁usual	-10.5075
▁pronounced	-10.5079
▁brad	-10.5084
▁teachers	-10.5086
▁49	-10.5088
▁mile	-10.5089
▁correction	-10.5092
way	-10.5094
▁pet	-10.5099
mph	-10.5107
▁bright	-10.5108
▁expecting	-10.5113
▁hiv	-10.5114
▁shocking	-10.5115
ch	-10.512
▁maine	-10.512
▁reid	-10.5132
▁eu	-10.5135
▁empty	-10.5136
▁solution	-10.5151
▁mc	-10.5157
▁innocent	-10.5158
▁cocaine	-10.5159
▁advantage	-10.5161
▁grant	-10.5161
▁dump	-10.5167
rushed	-10.5169
▁papers	-10.517
▁louisiana	-10.5173
▁bombing	-10.5176
▁unfortunately	-10.5179
▁homeland	-10.5186
▁afghan	-10.5189
▁stomach	-10.519
▁mars	-10.5192
▁wi	-10.5195
▁hidden	-10.5195
▁sa	-10.5202
▁arabia	-10.5209
so	-10.521
▁discussed	-10.5216
well	-10.5218
▁answers	-10.5226
▁trooper	-10.5226
▁coroner	-10.5226
▁remote	-10.5227
ring	-10.5228
▁golf	-10.523
▁remaining	-10.5232
▁pledge	-10.5233
▁19-	-10.5235
news	-10.5237
▁infection	-10.5239
▁hero	-10.5239
▁shout	-10.5251
▁soldier	-10.5253
▁14-	-10.5261
profile	-10.5261
▁damaged	-10.5269
▁remind	-10.5273
▁vision	-10.5276
▁studio	-10.528
▁numero	-10.5284
▁sleeping	-10.5284
▁wh	-10.5284
▁teenager	-10.5291
▁2003	-10.5299
▁chuck	-10.53
▁matthew	-10.5304
▁5-	-10.5307
▁mentioned	-10.5318
▁beijing	-10.5325
▁fault	-10.5326
▁bears	-10.5329
▁orders	-10.533
▁asia	-10.5343
▁announce	-10.5346
▁clothing	-10.5347
▁map	-10.5351
▁racial	-10.5354
▁questioned	-10.5367
▁confront	-10.5376
▁tribute	-10.5377
▁fence	-10.5379
▁palm	-10.538
▁constant	-10.5383
9	-10.5385
▁checked	-10.5386
▁jesus	-10.5388
▁violation	-10.5388
▁connecticut	-10.539
▁typical	-10.539
▁teams	-10.539
▁delivery	-10.5393
▁toll	-10.5395
▁porn	-10.5397
▁spirit	-10.5401
▁net	-10.5404
▁attempts	-10.5405
▁maximum	-10.5406
▁disturbing	-10.5408
▁grabb	-10.5413
▁nose	-10.5416
▁granted	-10.5427
▁55	-10.5428
▁accusing	-10.5433
▁explosion	-10.5437
▁gaga	-10.5438
▁restaurants	-10.5443
▁survivors	-10.5444
▁prominent	-10.5444
▁spoken	-10.5447
▁print	-10.5449
▁inc	-10.5455
▁tourists	-10.5457
▁featur	-10.5461
▁mississippi	-10.5466
▁facts	-10.5468
▁birds	-10.5469
▁leads	-10.5473
▁flash	-10.5474
▁busy	-10.5474
▁subsequent	-10.5476
▁markets	-10.5484
ts	-10.5485
▁generation	-10.5485
3	-10.5491
▁fears	-10.5494
▁affairs	-10.5496
▁2-	-10.5503
▁donations	-10.5509
▁kerry	-10.5511
▁pattern	-10.5513
▁duty	-10.5528
▁waste	-10.5532
▁custom	-10.5538
▁decisions	-10.5542
coming	-10.5548
▁theater	-10.555
▁incredible	-10.5555
▁fallen	-10.5556
▁hanging	-10.5565
▁speculation	-10.5569
down	-10.557
▁stable	-10.5577
▁lie	-10.5582
▁mar	-10.5586
▁marketing	-10.5586
▁marry	-10.5587
▁substance	-10.5594
▁trash	-10.5595
▁conviction	-10.5599
▁responding	-10.5601
▁consequences	-10.5615
▁correct	-10.5615
▁calm	-10.5618
▁developing	-10.5625
▁sandy	-10.5626
▁wars	-10.5628
▁24-	-10.5633
operating	-10.5636
▁painting	-10.5636
▁tips	-10.5637
▁follows	-10.5638
▁completed	-10.5638
▁library	-10.5652
▁uncovered	-10.5653
▁stole	-10.5653
there	-10.5655
▁confirms	-10.5657
▁seized	-10.5658
▁values	-10.5663
▁trailer	-10.5678
▁housing	-10.5681
▁trend	-10.5681
▁brooklyn	-10.5683
▁purchase	-10.569
▁pence	-10.5699
▁39	-10.57
▁seal	-10.5701
▁alexander	-10.5703
▁41	-10.5713
▁engagement	-10.5721
▁alarm	-10.573
▁combat	-10.5732
▁unnamed	-10.5736
▁photograph	-10.5739
▁shape	-10.574
▁bags	-10.5745
▁classic	-10.5745
▁phrase	-10.575
▁baseball	-10.5753
▁reactions	-10.5757
▁afraid	-10.5758
▁reward	-10.5759
▁hunting	-10.5762
▁boast	-10.5771
▁formal	-10.5773
▁collins	-10.5774
▁closely	-10.5776
▁blogger	-10.5778
▁apologiz	-10.5784
el	-10.5786
▁plants	-10.5789
▁associate	-10.5797
▁burned	-10.5802
▁deem	-10.5802
▁salon	-10.5803
▁13-	-10.5804
▁hook	-10.5807
▁classified	-10.5807
▁religion	-10.5808
▁ratings	-10.5818
▁drinks	-10.5829
▁bo	-10.5831
▁observe	-10.5836
▁heading	-10.5836
▁territory	-10.5838
▁advocate	-10.5838
▁nevada	-10.5839
▁breach	-10.584
▁developments	-10.5848
▁regional	-10.5849
▁/	-10.585
▁disappearance	-10.5855
▁li	-10.5857
▁residence	-10.5858
▁politicians	-10.586
▁lion	-10.5861
▁tampa	-10.5867
▁screaming	-10.587
▁upper	-10.5871
▁invited	-10.5875
▁abandoned	-10.5877
▁sat	-10.5877
▁beauty	-10.5878
▁moves	-10.588
▁somewhere	-10.5881
▁pray	-10.5882
os	-10.5884
▁aboard	-10.5887
▁strongly	-10.5892
▁equal	-10.5904
▁stream	-10.5912
▁jokes	-10.5915
▁photographer	-10.5916
▁statue	-10.5924
▁somewhat	-10.5926
▁palace	-10.5927
▁medal	-10.5932
▁boss	-10.5939
▁minimum	-10.5945
bound	-10.5948
▁motive	-10.5948
▁ebola	-10.595
▁mine	-10.5952
▁updated	-10.5953
slammed	-10.5955
▁grandmother	-10.5957
▁discover	-10.5962
▁columbia	-10.5967
▁advertising	-10.5969
▁seats	-10.597
totally	-10.597
▁ambulance	-10.598
ay	-10.5986
▁commander	-10.5988
▁rumor	-10.5994
▁retailer	-10.5997
▁sons	-10.5997
▁misconduct	-10.5999
▁rehab	-10.6001
▁confident	-10.6001
▁roberts	-10.6006
▁ideas	-10.6014
▁brazil	-10.6016
▁degree	-10.6017
▁unexpected	-10.6019
ad	-10.602
▁random	-10.6031
▁en	-10.6033
▁presidency	-10.6038
▁livescience	-10.604
▁47	-10.6044
sa	-10.6055
▁province	-10.6057
▁admits	-10.6058
▁grave	-10.6058
▁rice	-10.606
▁proceed	-10.6063
▁verge	-10.6072
▁plays	-10.6076
▁anthem	-10.6076
▁conservatives	-10.6076
▁bunch	-10.6079
▁nancy	-10.6083
▁resolution	-10.6084
▁mirror	-10.609
▁pink	-10.609
▁editorial	-10.609
▁jane	-10.6097
gun	-10.6098
▁testifie	-10.61
▁43	-10.6111
▁1990	-10.612
▁laid	-10.6121
▁sh	-10.6122
▁50,000	-10.6122
▁embed	-10.6122
▁cliff	-10.6123
▁beating	-10.6126
▁stadium	-10.6127
▁pulling	-10.6132
▁constitution	-10.6136
▁depend	-10.6152
▁intense	-10.6153
▁libya	-10.6156
gonna	-10.6158
▁category	-10.6161
▁stabbed	-10.6162
▁exist	-10.6168
▁exact	-10.6172
▁entering	-10.6172
▁desperate	-10.6175
▁protected	-10.6178
▁jose	-10.6181
▁luck	-10.6184
▁entry	-10.6187
▁announc	-10.6195
▁sweden	-10.6199
▁understanding	-10.6204
▁avenue	-10.6207
▁horse	-10.6211
▁leaked	-10.6233
▁simpson	-10.6244
▁permanent	-10.6244
▁desire	-10.6255
▁denies	-10.6256
▁couch	-10.6257
▁virtual	-10.626
▁exposure	-10.6263
▁2014.	-10.6266
▁estimate	-10.6286
▁offender	-10.6288
▁purchased	-10.6291
▁hiding	-10.6293
▁4-	-10.6294
▁hoped	-10.6297
▁novel	-10.6298
▁guards	-10.6298
▁22-	-10.6301
▁lewis	-10.6305
▁ms	-10.632
gt	-10.6324
▁sugar	-10.6324
▁pm	-10.6326
▁resignation	-10.633
▁weiner	-10.6331
▁---	-10.6334
▁breathing	-10.6343
▁cats	-10.6346
▁9/11	-10.6348
▁hi	-10.635
▁prisoners	-10.6358
▁heavily	-10.6362
▁delay	-10.6367
▁dry	-10.6367
▁cain	-10.6371
▁surround	-10.6373
▁overnight	-10.6374
▁tunnel	-10.6386
▁65	-10.6389
▁va	-10.639
▁starts	-10.639
▁contribut	-10.6396
▁burning	-10.6402
▁outbreak	-10.6408
▁models	-10.6408
ive	-10.641
▁repeal	-10.641
▁hide	-10.6411
▁experiment	-10.6414
▁unemployment	-10.6418
▁gulf	-10.6419
▁peak	-10.642
au	-10.6423
▁draw	-10.6423
▁ridiculous	-10.6424
▁sustain	-10.6431
▁burger	-10.644
▁vow	-10.6442
▁cheap	-10.6449
▁grab	-10.6453
point	-10.6456
▁islands	-10.6466
▁eggs	-10.6468
but	-10.647
▁seemingly	-10.6477
▁planes	-10.6478
▁conclusion	-10.6479
▁waves	-10.6484
▁fees	-10.6486
▁2000	-10.6491
▁6-	-10.6492
▁soccer	-10.6494
▁hunter	-10.6497
▁penn	-10.6498
▁forever	-10.6499
▁gap	-10.6506
▁requests	-10.6507
▁terrorists	-10.6514
▁detective	-10.6517
▁arab	-10.6523
volving	-10.6525
▁shootings	-10.6532
▁centers	-10.6538
▁tourist	-10.6541
▁sue	-10.6545
▁stretch	-10.6561
▁cheese	-10.6564
▁undergo	-10.6567
▁clinic	-10.6569
▁temporar	-10.6574
▁backed	-10.6575
▁tony	-10.6585
▁delegate	-10.6589
▁gates	-10.659
▁genetic	-10.659
▁grace	-10.6593
▁nato	-10.6594
nd	-10.6595
field	-10.6597
▁negotiations	-10.6601
ny	-10.6601
▁commissioner	-10.6611
▁cutting	-10.6618
▁motion	-10.6621
▁examiner	-10.6625
▁afford	-10.6632
aught	-10.6635
▁gross	-10.6636
election	-10.6639
▁actors	-10.6642
▁quartz	-10.6644
▁intend	-10.6656
▁refugees	-10.6656
6	-10.6665
▁jerry	-10.6667
▁relief	-10.667
▁rocks	-10.6673
▁flat	-10.6673
▁reputation	-10.6677
▁bone	-10.6677
▁musical	-10.6679
▁strength	-10.6679
ns	-10.6681
▁discrimination	-10.6693
▁muslims	-10.6703
▁float	-10.6717
▁defeat	-10.672
▁forget	-10.6722
▁wonderful	-10.6726
▁buyer	-10.6727
▁gear	-10.6737
▁patrick	-10.6739
▁7-	-10.6749
na	-10.6753
▁debris	-10.676
▁approximate	-10.6764
▁scale	-10.6767
▁paint	-10.6769
owned	-10.6772
▁tears	-10.6772
wood	-10.6775
▁communities	-10.6779
▁notification	-10.678
▁filming	-10.6792
▁trading	-10.6798
▁prepar	-10.6802
▁southwest	-10.6804
▁finger	-10.6807
▁transport	-10.681
▁fought	-10.6815
▁basis	-10.6818
▁relative	-10.6819
▁thompson	-10.6821
▁21-	-10.6822
▁medication	-10.6825
▁organizer	-10.6828
▁po	-10.6835
style	-10.6838
born	-10.6845
▁bannon	-10.6845
▁25-	-10.6845
▁whale	-10.6847
▁types	-10.6848
▁zealand	-10.6851
▁mor	-10.6853
▁master	-10.6855
▁susan	-10.6856
▁egyptian	-10.6859
loved	-10.6862
larry	-10.6867
▁hills	-10.6874
▁arkansas	-10.6879
▁lies	-10.688
▁compound	-10.6885
▁cit	-10.6887
▁premiere	-10.6887
▁agrees	-10.6895
▁swedish	-10.6898
▁confirmation	-10.6899
▁sharp	-10.6901
▁resigned	-10.6903
▁geographic	-10.6908
▁beck	-10.6909
▁repair	-10.6909
▁josh	-10.691
▁audio	-10.6919
▁folks	-10.692
▁carbon	-10.6929
▁dancing	-10.6937
▁20,000	-10.6938
ily	-10.6938
▁oprah	-10.6943
town	-10.6944
▁division	-10.6948
▁stealing	-10.6954
▁deals	-10.6954
▁parole	-10.6955
landed	-10.6956
▁handgun	-10.6957
▁1970	-10.6957
▁headquarter	-10.6965
▁lights	-10.6979
crawl	-10.698
▁doors	-10.6983
▁2015.	-10.6983
▁counsel	-10.6986
▁alternative	-10.6988
▁pitt	-10.6996
▁lopez	-10.6996
▁helps	-10.7009
▁canno	-10.7013
▁performing	-10.7018
▁bedroom	-10.702
▁info	-10.7034
▁verdict	-10.7036
▁thanksgiving	-10.7037
▁civilians	-10.7038
▁garner	-10.7044
ance	-10.7054
▁coalition	-10.7056
▁jonathan	-10.7057
▁46	-10.706
▁reserve	-10.706
▁rap	-10.7062
▁shoes	-10.7064
▁unidentified	-10.7068
▁2016.	-10.707
page	-10.7075
▁lawrence	-10.7076
▁wikileaks	-10.7078
▁wolf	-10.7082
▁henry	-10.7083
ta	-10.7097
▁cite	-10.7097
▁seed	-10.7098
▁electric	-10.7098
▁se	-10.7102
▁teenage	-10.7112
▁surfaced	-10.7114
▁badly	-10.7116
▁getty	-10.7118
▁joy	-10.7119
ling	-10.7128
jessica	-10.713
▁minority	-10.7135
▁portland	-10.7137
▁interviewed	-10.7137
▁crown	-10.7138
▁everywhere	-10.7139
▁covering	-10.714
▁recommend	-10.7143
▁keeps	-10.7149
▁pitch	-10.7153
▁session	-10.7154
▁adopted	-10.7158
▁dropping	-10.7159
▁heroin	-10.716
attended	-10.7162
▁convinced	-10.7163
▁condemn	-10.7163
▁sport	-10.7164
that	-10.7179
▁subjects	-10.7183
▁reduced	-10.7185
▁winners	-10.719
▁illegally	-10.7197
▁murders	-10.7217
▁cultural	-10.722
▁cuba	-10.7222
do	-10.7222
▁solid	-10.7226
▁twist	-10.7229
▁unprecedented	-10.7238
▁athletes	-10.7238
updated	-10.724
▁shutdown	-10.7242
dressed	-10.7245
▁prayers	-10.7246
▁nick	-10.7246
▁earning	-10.7256
▁lay	-10.7257
▁graduate	-10.7262
▁kitchen	-10.7262
▁cap	-10.7268
▁carrier	-10.7275
spread	-10.7281
ated	-10.7284
▁tool	-10.7288
urging	-10.7294
▁deleted	-10.7295
▁billboard	-10.7296
▁mysterious	-10.7298
▁marked	-10.7304
▁8-	-10.7307
▁quake	-10.7308
▁questioning	-10.7309
▁gate	-10.731
handling	-10.7313
▁kiss	-10.7321
▁fo	-10.7322
▁commit	-10.7328
▁ho	-10.733
▁q	-10.7332
▁extended	-10.7334
▁horrible	-10.734
▁allies	-10.7341
▁chocolate	-10.7342
▁disappointed	-10.7346
▁grateful	-10.7347
▁2002	-10.7353
▁gained	-10.7353
▁marathon	-10.7355
▁speaks	-10.7356
▁addiction	-10.7358
▁retirement	-10.7361
▁demanding	-10.7367
▁pe	-10.7373
ra	-10.7376
▁dakota	-10.7377
▁basketball	-10.7378
▁guide	-10.7384
known	-10.7386
author	-10.7387
▁networks	-10.739
▁focuse	-10.7398
▁appreciate	-10.7403
▁nobel	-10.7404
▁lincoln	-10.7413
▁saving	-10.7415
▁element	-10.7424
▁elderly	-10.7428
line	-10.7433
▁harder	-10.7441
▁nude	-10.7444
▁devastating	-10.7445
▁scream	-10.7451
▁strikes	-10.7452
▁subdomain	-10.746
▁interior	-10.7464
▁payment	-10.7468
▁replacement	-10.7471
▁extend	-10.7472
8	-10.7475
▁2012.	-10.7476
▁massacre	-10.7477
▁tale	-10.748
▁mitch	-10.7482
▁cyber	-10.7486
▁murphy	-10.7487
▁meetings	-10.749
▁resign	-10.749
▁blam	-10.749
▁fort	-10.7496
▁cloud	-10.7496
▁lisa	-10.7497
▁skull	-10.7505
▁tracks	-10.7511
▁torture	-10.7514
▁vast	-10.7514
▁desert	-10.7515
▁websites	-10.7518
▁defended	-10.7518
▁mixed	-10.7522
▁misdemeanor	-10.7523
▁yo	-10.7528
▁assessment	-10.7528
▁chances	-10.753
▁trauma	-10.7534
▁meal	-10.7535
▁corporate	-10.7552
▁diplomat	-10.7553
▁kimmel	-10.7557
▁schedule	-10.7563
pistorius	-10.7569
▁grown	-10.7569
▁percentage	-10.7573
▁edward	-10.758
▁pen	-10.7586
▁scared	-10.7586
▁mediaite	-10.7593
▁beef	-10.7597
▁katie	-10.7597
▁payments	-10.7597
▁corner	-10.7599
▁sisters	-10.7606
▁nationwide	-10.7607
▁era	-10.7614
▁returns	-10.762
my	-10.7627
▁lists	-10.7632
▁maria	-10.7632
▁frozen	-10.7637
▁ray	-10.764
▁tank	-10.7643
▁interests	-10.7643
▁fate	-10.7648
▁sole	-10.7648
▁ferguson	-10.765
▁baldwin	-10.7651
▁risks	-10.7653
▁sibling	-10.7656
▁branch	-10.7657
times	-10.7658
▁wright	-10.7658
▁rachel	-10.7664
▁participate	-10.7668
▁gary	-10.7669
▁pittsburgh	-10.7671
▁spray	-10.7672
▁dates	-10.7673
▁upcom	-10.7673
▁hong	-10.7677
▁3,000	-10.7681
▁fruit	-10.7687
▁challenges	-10.769
▁staffers	-10.769
▁loose	-10.7691
▁readers	-10.7692
▁lo	-10.7692
▁subway	-10.7695
▁weak	-10.7696
▁bull	-10.7697
necessarily	-10.7698
▁indication	-10.7702
made	-10.7705
▁detectives	-10.7707
▁portion	-10.7714
▁bachmann	-10.7714
id	-10.7716
pound	-10.7721
▁studied	-10.7723
▁tens	-10.7726
▁wired	-10.7727
▁spy	-10.7727
▁temperature	-10.7733
▁briefly	-10.7734
▁dramatic	-10.7735
▁bruce	-10.7737
▁diamond	-10.7738
▁foster	-10.774
▁rocket	-10.7742
▁obvious	-10.7747
▁volunteer	-10.7754
▁auto	-10.7755
▁advocates	-10.7755
▁51	-10.7756
▁recover	-10.7757
▁pr	-10.7757
▁swimming	-10.7758
▁draft	-10.7759
▁blocked	-10.7761
▁parker	-10.7773
▁ranking	-10.7779
▁vp	-10.7779
▁regret	-10.7784
▁iron	-10.7785
▁clock	-10.7788
▁cave	-10.7794
▁infected	-10.7798
▁raw	-10.78
▁jolie	-10.7801
▁anchor	-10.7804
▁manning	-10.7806
▁inmate	-10.7813
▁donors	-10.7814
▁clark	-10.7817
headed	-10.7823
▁striking	-10.7823
inch	-10.7826
▁silence	-10.7829
▁investigat	-10.7841
▁vanity	-10.7845
▁arrival	-10.7848
▁marco	-10.7852
▁resist	-10.7853
sky	-10.7855
ial	-10.7859
▁manner	-10.787
▁scenes	-10.7872
▁nypd	-10.788
▁mccarthy	-10.7886
▁hospitals	-10.7887
▁courtesy	-10.7891
▁sight	-10.7893
▁phoenix	-10.7893
▁structure	-10.7911
▁castro	-10.7913
▁complicated	-10.7919
▁glad	-10.7925
▁jews	-10.7926
▁cameron	-10.7934
▁beyonce	-10.7938
▁suggestion	-10.7939
▁prescription	-10.7939
▁tired	-10.7942
▁celebrating	-10.7946
run	-10.7953
▁ki	-10.7963
▁transplant	-10.7963
founder	-10.7964
▁chamber	-10.7964
▁53	-10.7964
▁kong	-10.7965
▁wheel	-10.7965
ler	-10.7967
▁rang	-10.7967
▁cha	-10.7968
▁reagan	-10.7973
▁kavanaugh	-10.7976
ities	-10.798
▁touched	-10.7984
▁weighed	-10.7987
▁ross	-10.7989
▁prefer	-10.7989
▁ten	-10.799
▁volunteers	-10.7996
▁edit	-10.8006
▁bump	-10.8013
▁y	-10.8015
▁principal	-10.8016
▁princess	-10.8017
▁targets	-10.802
▁robin	-10.802
▁horrific	-10.8025
▁sand	-10.8027
▁download	-10.8029
▁balance	-10.8034
▁context	-10.8038
▁ireland	-10.8038
ard	-10.8042
▁checks	-10.8043
▁consent	-10.8046
▁judges	-10.8051
▁wounds	-10.8057
▁stern	-10.8061
▁billionaire	-10.8061
▁bound	-10.8062
▁adams	-10.8068
se	-10.8069
▁dispatch	-10.8076
▁mere	-10.8076
▁lift	-10.8077
▁syndrome	-10.808
▁extensive	-10.8081
▁departure	-10.8082
▁keith	-10.8083
▁max	-10.8084
▁differences	-10.8088
▁enable	-10.8093
▁knocked	-10.8106
ether	-10.8106
▁whales	-10.8108
▁joining	-10.8108
▁lifetime	-10.8112
▁incredibl	-10.8115
▁23-	-10.8117
▁strip	-10.8118
rd	-10.812
▁creative	-10.812
▁tall	-10.8124
▁prosecution	-10.813
▁fishing	-10.8149
▁depict	-10.8153
▁stronger	-10.8153
▁barbar	-10.8155
▁11-	-10.8157
▁operator	-10.8158
▁proper	-10.816
▁pants	-10.8162
activists	-10.8165
▁requirement	-10.8167
ier	-10.817
▁indicat	-10.817
▁evil	-10.8171
▁toddler	-10.8172
▁irish	-10.8174
▁toilet	-10.8174
wing	-10.8175
▁burns	-10.818
▁legend	-10.8181
▁hernandez	-10.8185
▁tradition	-10.8188
▁honest	-10.819
▁nelson	-10.8193
downtown	-10.8212
▁detention	-10.8214
▁connect	-10.8215
▁victoria	-10.8217
dedicated	-10.8218
▁overdose	-10.8221
▁plain	-10.8221
▁judgment	-10.8222
▁parks	-10.8222
puerto	-10.8228
▁highlight	-10.8236
▁sydney	-10.8238
▁scheme	-10.8243
▁wins	-10.8245
▁proved	-10.8245
lew	-10.8246
▁recalls	-10.8247
▁uncle	-10.825
▁todd	-10.8259
▁description	-10.826
our	-10.8262
▁600	-10.8264
air	-10.8265
▁alter	-10.8265
▁ali	-10.827
▁regulations	-10.8272
▁gadhafi	-10.8276
▁newt	-10.828
▁visible	-10.8283
▁opponents	-10.8283
▁guarantee	-10.8284
▁surprisingly	-10.829
▁nba	-10.8295
▁tattoo	-10.8295
▁updates	-10.8295
▁ra	-10.8302
▁asian	-10.8306
▁constitutional	-10.8309
▁producers	-10.8312
▁finance	-10.8314
▁supplies	-10.8322
▁greece	-10.8328
▁vulnerable	-10.833
▁corruption	-10.8332
▁combined	-10.8348
▁elementary	-10.8349
▁promot	-10.8349
▁burn	-10.8353
▁proceeding	-10.8357
▁correspondent	-10.8359
▁barely	-10.836
▁fighters	-10.8363
▁declare	-10.8364
▁recalled	-10.8365
▁attacking	-10.8373
▁52	-10.8375
▁breakfast	-10.8375
▁regularly	-10.8375
▁du	-10.8381
▁communication	-10.8384
▁sentiment	-10.8387
▁promises	-10.8389
▁ann	-10.8396
more	-10.8398
▁bottles	-10.84
▁ipad	-10.8401
▁achieve	-10.8401
▁jenner	-10.8406
▁ceiling	-10.8406
▁eve	-10.841
▁turner	-10.8411
▁faster	-10.8414
▁mercury	-10.8417
▁transgender	-10.8418
▁plaintiff	-10.8425
▁humor	-10.8426
▁item	-10.8429
▁blind	-10.8429
▁parade	-10.8433
▁rebel	-10.8434
▁acknowledg	-10.844
▁lottery	-10.8442
▁impressive	-10.8443
▁crystal	-10.8447
▁dave	-10.8451
▁bee	-10.8451
▁2013.	-10.846
▁simon	-10.8463
▁daniels	-10.847
wife	-10.8474
▁unconscious	-10.848
▁server	-10.8486
▁hack	-10.8486
▁initiative	-10.8489
▁relationships	-10.8491
▁rihanna	-10.8491
▁opposite	-10.8492
▁arrive	-10.8494
▁universe	-10.8495
berg	-10.8501
▁physically	-10.8502
▁hospitalize	-10.8507
▁mac	-10.8509
▁assets	-10.8513
▁dear	-10.8513
▁executed	-10.8521
▁filmed	-10.8522
▁foul	-10.8525
▁gen	-10.8531
▁wrapped	-10.8533
▁hacked	-10.8533
▁painful	-10.8543
▁properly	-10.8545
▁idaho	-10.8553
▁rural	-10.8556
▁fisher	-10.8556
▁safely	-10.8556
▁represents	-10.8559
▁sixth	-10.8561
▁bet	-10.8568
▁amanda	-10.857
▁legacy	-10.8578
▁30,000	-10.86
▁alleg	-10.8608
▁agenda	-10.861
▁materials	-10.8612
▁lowest	-10.8613
▁trick	-10.8614
▁antonio	-10.8618
▁egg	-10.8619
▁moral	-10.8622
presented	-10.8623
▁chapter	-10.8626
▁aggravated	-10.8628
▁historian	-10.8629
▁passport	-10.8631
un	-10.8634
▁historical	-10.8638
▁tablet	-10.8641
▁applied	-10.8641
▁jumping	-10.8645
▁op	-10.8646
▁button	-10.8647
▁bu	-10.8649
▁charlotte	-10.8653
▁corporation	-10.8653
▁extraordinary	-10.8655
▁wondering	-10.866
▁pastor	-10.8662
▁maker	-10.8663
▁wage	-10.8668
▁underground	-10.8671
▁prepare	-10.8682
▁assad	-10.8684
il	-10.8685
▁2020	-10.8686
▁benjamin	-10.8693
▁netanyahu	-10.8694
▁liberty	-10.8696
▁burglary	-10.8698
▁donation	-10.8698
▁douglas	-10.8699
▁racism	-10.8702
▁loves	-10.8704
▁hiring	-10.8705
▁hbo	-10.8706
▁signing	-10.8707
▁awful	-10.8711
▁panic	-10.8713
▁wor	-10.8715
▁repeated	-10.8717
▁nonprofit	-10.8718
▁succeed	-10.8718
▁dutch	-10.872
▁heritage	-10.872
▁iraqi	-10.872
state	-10.8722
▁vanished	-10.8723
▁caution	-10.8724
▁hint	-10.8727
▁scores	-10.8728
▁cry	-10.873
▁tissue	-10.8736
ap	-10.8738
▁selfie	-10.8739
▁orleans	-10.8741
▁dylan	-10.8743
▁slowly	-10.8746
▁soul	-10.8748
▁blaze	-10.8749
0	-10.8751
▁install	-10.8751
▁nickname	-10.8751
▁therapy	-10.8759
▁newsweek	-10.8766
▁guidelines	-10.8767
▁diplomatic	-10.8768
▁ar	-10.8772
▁episodes	-10.8775
▁harsh	-10.8778
▁sub	-10.8787
▁drawn	-10.8789
▁jerusalem	-10.8789
▁attached	-10.8791
▁electronic	-10.8806
▁bombs	-10.8807
▁moderate	-10.8808
week	-10.8813
▁releas	-10.8813
▁duke	-10.8823
▁circuit	-10.8823
▁johnny	-10.8825
▁tight	-10.8828
▁pursue	-10.8831
▁54	-10.8836
▁rescuer	-10.8837
▁demands	-10.8841
▁established	-10.8843
▁murray	-10.8846
▁oliver	-10.8846
▁shoulder	-10.8848
▁resume	-10.8853
▁sony	-10.886
▁vessel	-10.8866
▁liquid	-10.8866
▁projects	-10.8872
ified	-10.8875
▁confidence	-10.8878
held	-10.8881
▁facilities	-10.8883
▁settled	-10.8885
▁z	-10.8885
▁childhood	-10.8888
▁turkish	-10.8888
▁crossing	-10.8893
▁trillion	-10.8895
▁montana	-10.8895
▁publisher	-10.8895
▁commitment	-10.8898
▁noise	-10.89
▁dig	-10.8902
▁phil	-10.8904
▁designer	-10.8906
▁compete	-10.891
▁fiscal	-10.8911
▁normally	-10.8914
▁streaming	-10.8919
▁snake	-10.8921
▁method	-10.8922
▁fields	-10.8922
▁frequent	-10.893
▁500,000	-10.8931
▁referenc	-10.8938
▁dust	-10.894
▁unfair	-10.8943
▁monument	-10.8947
▁miracle	-10.8947
▁overseas	-10.8955
▁1998	-10.8957
▁feelings	-10.8959
▁celebration	-10.8964
▁assist	-10.8964
▁speculate	-10.8966
▁screening	-10.8967
▁yard	-10.8972
▁teaching	-10.8975
▁gene	-10.8977
▁garden	-10.898
▁grounds	-10.8981
▁cabinet	-10.8983
▁sandwich	-10.8984
▁attending	-10.8986
▁lawmaker	-10.8988
▁stroke	-10.8991
▁keys	-10.8991
▁greg	-10.8992
▁dirty	-10.8996
llegedly	-10.8998
▁breath	-10.8999
▁alzheimer	-10.9005
▁biological	-10.9009
▁similarly	-10.901
▁horror	-10.9014
▁core	-10.9015
▁knight	-10.902
▁odds	-10.9026
▁sensitive	-10.903
▁toxic	-10.9033
▁application	-10.9036
▁scary	-10.9037
▁personality	-10.9038
▁conservation	-10.9041
▁jo	-10.9044
▁exec	-10.9044
▁champion	-10.9045
▁tie	-10.9053
▁brains	-10.9053
▁tokyo	-10.9055
▁intention	-10.9055
▁delayed	-10.9062
▁coins	-10.9063
▁killings	-10.9068
▁greek	-10.9079
▁emerging	-10.9081
century	-10.9084
▁bias	-10.9088
▁grandfather	-10.9094
▁tools	-10.9096
▁holder	-10.9098
▁dow	-10.911
▁solve	-10.9113
▁retail	-10.9125
▁voter	-10.9126
▁reddit	-10.9127
▁singing	-10.913
▁yellow	-10.9131
driven	-10.9142
▁steel	-10.9148
▁backlash	-10.9151
▁26-	-10.9153
,	-10.9154
▁skills	-10.9156
▁mandate	-10.916
▁tear	-10.9172
▁250	-10.9178
▁rodriguez	-10.9182
▁spike	-10.9186
▁tracking	-10.9191
▁outcome	-10.9196
▁minneapolis	-10.9199
▁roads	-10.9201
ri	-10.9209
▁chaos	-10.921
▁pac	-10.9216
▁kasich	-10.9224
▁edition	-10.9226
▁booked	-10.9229
▁sperm	-10.9235
▁settle	-10.9235
▁ruin	-10.924
▁password	-10.9244
▁peaceful	-10.9246
▁ro	-10.9249
▁deny	-10.9249
▁yeah	-10.9249
level	-10.9254
▁mansion	-10.9256
▁ski	-10.9258
▁laugh	-10.9259
▁pose	-10.9261
▁hashtag	-10.9268
▁buzz	-10.9273
▁vietnam	-10.9274
▁abused	-10.9275
▁select	-10.9276
▁roles	-10.9277
class	-10.9284
▁motor	-10.9286
▁disagree	-10.9286
▁awareness	-10.9286
▁supposedly	-10.9291
▁fa	-10.9302
▁epa	-10.9303
▁flu	-10.9303
▁madonna	-10.9304
▁1.5	-10.9309
▁lunch	-10.9309
▁200,000	-10.9323
▁flames	-10.9324
▁indictment	-10.9326
▁exciting	-10.9333
▁edwards	-10.9341
▁breaks	-10.9344
▁segment	-10.9351
over	-10.9356
▁observer	-10.9356
▁refus	-10.9361
▁gathering	-10.9367
▁belief	-10.9368
▁desk	-10.9377
▁monkey	-10.9377
▁organized	-10.9383
▁mon	-10.9385
▁starr	-10.9389
ist	-10.9392
▁missiles	-10.9394
▁positions	-10.9395
lindsey	-10.9398
▁dean	-10.9398
▁serial	-10.9402
▁craft	-10.9403
▁pit	-10.9403
▁bride	-10.9407
▁perez	-10.9408
▁copies	-10.9408
▁throat	-10.941
▁explore	-10.941
▁bible	-10.9411
▁murdoch	-10.9414
▁parked	-10.9421
▁stance	-10.9421
▁apps	-10.9422
ma	-10.9423
▁recruit	-10.9424
▁stranger	-10.9429
▁mice	-10.9436
▁islam	-10.9438
▁recommendation	-10.9439
▁operate	-10.944
▁warner	-10.9445
▁concept	-10.9446
▁controlled	-10.945
▁bankruptcy	-10.9451
▁halloween	-10.9451
▁muscle	-10.9451
▁garage	-10.9452
▁disabled	-10.9455
▁notorious	-10.9455
▁mont	-10.9456
▁reasonable	-10.9459
▁comfortable	-10.9459
▁menu	-10.9462
▁jacket	-10.9464
▁lord	-10.9466
▁aim	-10.9468
▁promising	-10.9471
▁automatic	-10.9475
▁sacramento	-10.9479
story	-10.9488
▁gig	-10.9488
▁rolled	-10.9491
▁cabin	-10.9492
▁congressman	-10.9495
▁sharks	-10.9497
raped	-10.9497
▁combination	-10.95
▁robinson	-10.9504
med	-10.9506
ayback	-10.9508
▁remarkable	-10.9511
▁1999	-10.9513
▁ignored	-10.9515
▁mood	-10.9515
slaughter	-10.9517
de	-10.9518
▁surgeon	-10.9522
▁riot	-10.9529
▁plate	-10.9537
▁bike	-10.9541
▁christ	-10.9541
▁ships	-10.9549
▁stunning	-10.9556
▁recovering	-10.9571
▁jean	-10.9572
▁hang	-10.9578
▁reject	-10.9579
▁democracy	-10.9585
▁lifestyle	-10.9586
▁atmosphere	-10.9591
▁smartphone	-10.9591
▁depart	-10.9601
▁intent	-10.9603
word	-10.9617
▁steal	-10.962
▁pump	-10.9623
▁prompting	-10.9628
▁aged	-10.9639
▁sentencing	-10.9639
ability	-10.9641
▁frame	-10.9642
▁transcript	-10.9647
▁investigations	-10.9651
▁donor	-10.9654
▁assembly	-10.9654
▁distress	-10.9656
▁mountains	-10.9665
▁oxygen	-10.9665
▁youngest	-10.9668
▁hacking	-10.9669
▁boxes	-10.9672
▁temporarily	-10.968
▁northeast	-10.9681
▁crossed	-10.9682
▁cnet	-10.9688
▁capabl	-10.9688
▁bomber	-10.9689
▁detected	-10.9694
▁establishment	-10.9705
▁gossip	-10.9708
▁survival	-10.971
▁mate	-10.9711
ned	-10.9712
▁northwest	-10.9714
▁lawsuits	-10.9723
▁pure	-10.9724
▁morris	-10.9727
▁longest	-10.9737
▁tyler	-10.9737
▁dollar	-10.9738
▁devastated	-10.974
▁springs	-10.9744
▁thrilled	-10.9745
▁index	-10.9746
▁evacuated	-10.9748
▁database	-10.9757
▁tune	-10.9757
▁magic	-10.9762
▁fail	-10.9767
its	-10.977
▁hearts	-10.977
▁urban	-10.9773
▁candy	-10.9774
▁radical	-10.9777
▁dennis	-10.9786
▁kingdom	-10.9787
▁dis	-10.979
▁restrictions	-10.9795
▁computers	-10.9797
▁boycott	-10.9798
▁yorker	-10.9799
▁prayer	-10.98
▁laughing	-10.9803
▁del	-10.9803
der	-10.9804
▁mis	-10.9808
▁beside	-10.9809
▁fee	-10.9813
▁gesture	-10.9815
▁et	-10.9817
▁courts	-10.9817
▁visits	-10.982
▁heather	-10.9821
▁careful	-10.9825
▁incoming	-10.9826
ine	-10.9828
▁expenses	-10.9831
▁liked	-10.9832
▁winfrey	-10.9836
▁donnell	-10.9837
▁57	-10.9838
▁concrete	-10.9838
▁tons	-10.9839
▁consumption	-10.9839
▁knock	-10.9839
▁investigator	-10.9842
▁bleeding	-10.9844
▁sum	-10.9845
tic	-10.9846
▁accurate	-10.9854
▁valuable	-10.9854
▁nj	-10.9854
▁loaded	-10.9858
▁transported	-10.986
▁overwhelming	-10.9873
▁holy	-10.9875
▁protein	-10.9878
▁repeat	-10.9878
▁ronald	-10.9879
▁walls	-10.9881
▁juvenile	-10.9889
▁hat	-10.989
▁realiz	-10.9893
▁franchise	-10.9898
▁ethics	-10.9901
▁climbing	-10.9906
▁unfortunate	-10.9909
▁solo	-10.9915
▁carrie	-10.9921
▁destruction	-10.9922
▁silent	-10.9922
▁56	-10.9922
▁reserved	-10.9922
▁protective	-10.9924
▁hip	-10.9925
▁endorse	-10.9931
▁loving	-10.9933
▁encouraging	-10.9937
▁invest	-10.9937
▁giuliani	-10.9944
▁russell	-10.9944
▁courtroom	-10.9944
et	-10.9945
▁objects	-10.9953
▁loan	-10.9957
▁pleased	-10.9964
▁uniform	-10.9965
▁fundraising	-10.997
▁beverage	-10.9973
▁1.	-10.9974
▁roman	-10.9977
▁symbol	-10.9979
▁ken	-10.9982
▁advanced	-10.9986
▁dick	-10.9987
▁pat	-10.9988
▁existing	-10.9992
▁lightning	-10.9996
▁mothers	-11.0003
bit	-11.0004
▁facial	-11.0007
▁soil	-11.0013
▁waited	-11.0014
▁portray	-11.0014
bury	-11.0015
▁soft	-11.0019
▁jeb	-11.0019
▁spots	-11.002
▁luxury	-11.0023
▁emerge	-11.0024
▁underway	-11.0032
▁theories	-11.0033
▁teach	-11.0033
▁procedures	-11.0037
▁laura	-11.0038
▁stake	-11.0043
▁belt	-11.0048
▁exclusively	-11.005
▁economist	-11.005
▁diabetes	-11.0055
▁diseases	-11.0056
▁romantic	-11.0059
▁reckless	-11.0066
▁barry	-11.0068
▁lt	-11.0069
▁sullivan	-11.0082
▁diagnosis	-11.0085
▁glenn	-11.0086
lly	-11.0087
▁observed	-11.0089
▁cheer	-11.0095
▁explosive	-11.0095
▁spider	-11.0101
▁insult	-11.0103
▁underwater	-11.0105
▁deficit	-11.0106
▁comic	-11.0108
▁cage	-11.0112
▁aaron	-11.0113
▁penis	-11.0114
▁rio	-11.0121
▁9-	-11.0125
▁monster	-11.0128
▁tumor	-11.0128
▁aside	-11.0128
▁destination	-11.0131
▁flynn	-11.0131
▁ear	-11.0136
▁distribution	-11.0138
▁malaysia	-11.014
▁mask	-11.0141
▁testify	-11.0144
▁orbit	-11.0146
▁ny	-11.015
▁patent	-11.0152
▁equivalent	-11.0156
▁superintendent	-11.0156
▁timing	-11.0162
▁practices	-11.0167
▁forum	-11.0172
melania	-11.0181
▁endorsement	-11.0182
▁resolve	-11.0183
▁handful	-11.0183
ship	-11.019
▁transferr	-11.0191
▁touching	-11.0192
▁mosque	-11.0197
▁nerve	-11.02
▁answered	-11.02
▁houses	-11.0201
▁technical	-11.0202
▁circle	-11.0206
▁specialist	-11.0209
▁benghazi	-11.0209
▁math	-11.0212
▁infamous	-11.0212
▁meals	-11.0214
▁pelosi	-11.0215
▁corp	-11.0222
▁caller	-11.0232
▁jared	-11.0233
▁mitchell	-11.0242
▁digg	-11.0242
▁taxpayer	-11.0244
▁bang	-11.0247
▁85	-11.0257
▁hopefully	-11.0258
▁principle	-11.0263
▁boot	-11.0264
▁forensic	-11.0267
aimed	-11.027
▁delta	-11.0278
▁huckab	-11.0278
conic	-11.0279
▁obtain	-11.0282
▁replac	-11.0282
▁anne	-11.0288
▁28-	-11.0289
▁pipeline	-11.0294
▁forms	-11.0296
ful	-11.0297
▁spark	-11.0301
▁sheet	-11.0301
▁invasion	-11.0302
▁hatch	-11.0303
▁smile	-11.0305
▁farmers	-11.031
▁hail	-11.0318
▁signature	-11.0319
▁citizenship	-11.032
▁reilly	-11.0323
▁unacceptable	-11.0325
getty	-11.0329
▁articles	-11.0335
winning	-11.0342
▁brave	-11.0354
▁priority	-11.0355
▁developer	-11.0358
▁creek	-11.0362
threatening	-11.0379
▁confused	-11.0381
▁furious	-11.0382
▁shower	-11.0383
▁dui	-11.0384
▁2011.	-11.0384
▁anxiety	-11.0385
night	-11.0388
▁admit	-11.0388
▁civilian	-11.0401
▁declar	-11.0402
▁scotland	-11.0403
▁township	-11.0404
▁courthouse	-11.0409
▁holocaust	-11.0409
▁ward	-11.0411
▁temple	-11.0413
▁beaten	-11.0413
▁elephants	-11.0418
▁threaten	-11.0419
▁cambridge	-11.0421
▁substantial	-11.0424
▁creation	-11.0424
▁hosts	-11.0424
▁martinez	-11.0432
▁multi	-11.0437
▁awesome	-11.044
▁violations	-11.044
▁squad	-11.0443
▁comfort	-11.0447
▁compromise	-11.045
▁semi	-11.0453
▁advised	-11.0455
ol	-11.0455
third	-11.0456
▁founded	-11.0456
▁universal	-11.0457
ro	-11.0458
▁genuine	-11.0462
▁naval	-11.0462
▁tsa	-11.0463
▁canyon	-11.0464
▁hood	-11.0468
▁stat	-11.0471
▁popularity	-11.0472
▁critic	-11.0476
▁string	-11.0476
▁factory	-11.0482
▁establish	-11.0484
what	-11.0485
▁aviation	-11.0487
▁shame	-11.0488
samsung	-11.0489
▁brands	-11.0492
▁flooding	-11.0496
▁toys	-11.0499
im	-11.0499
▁publicity	-11.0505
▁khan	-11.0505
▁classes	-11.0507
▁brady	-11.051
rew	-11.051
▁58	-11.051
▁recipient	-11.0519
ca	-11.0522
▁paramedic	-11.0522
▁charlottesville	-11.0523
▁pickup	-11.0523
▁cake	-11.053
▁existence	-11.0548
▁genes	-11.0552
water	-11.0555
▁lung	-11.0571
▁powers	-11.0572
▁confess	-11.0573
▁survivor	-11.0573
▁pole	-11.0573
▁escort	-11.0577
▁ge	-11.058
▁fires	-11.0582
▁metro	-11.0593
▁ivanka	-11.06
▁aclu	-11.06
▁bolt	-11.06
▁indianapolis	-11.06
▁rico	-11.0601
▁columbus	-11.0602
▁bite	-11.0605
▁eligible	-11.061
▁harbor	-11.0614
▁mainly	-11.0623
▁feeding	-11.0625
▁portrait	-11.0626
▁firearms	-11.0627
▁root	-11.0627
▁properties	-11.0629
▁craig	-11.0631
shirt	-11.0632
▁melissa	-11.0636
▁welfare	-11.0637
▁endangered	-11.064
▁holes	-11.0643
▁romance	-11.0644
▁polling	-11.0645
▁posed	-11.0645
elect	-11.0647
▁logo	-11.0655
▁treasury	-11.0658
▁salary	-11.0659
▁flick	-11.0673
woman	-11.0673
chelsea	-11.0674
▁800	-11.0677
hi	-11.0678
▁cape	-11.0681
▁visa	-11.0682
▁rooms	-11.0682
▁bristol	-11.0689
▁cream	-11.069
▁venue	-11.0701
▁represented	-11.0702
▁ch	-11.0707
▁sets	-11.0709
▁consistent	-11.071
▁picking	-11.0711
ney	-11.0711
▁trademark	-11.0716
▁knee	-11.0719
▁cleaning	-11.072
▁wishes	-11.0722
▁assert	-11.0723
▁politically	-11.0726
▁accidental	-11.0727
▁graphic	-11.073
▁psychological	-11.0732
▁roy	-11.074
▁attendant	-11.0741
▁stem	-11.0743
▁spotlight	-11.0745
▁chat	-11.0748
▁freed	-11.0749
▁capacity	-11.0749
▁fundraiser	-11.0749
▁ashley	-11.0753
▁affordable	-11.0757
▁fighter	-11.0769
▁armstrong	-11.0771
▁dawn	-11.0773
▁intentionally	-11.0774
▁rarely	-11.0774
▁virgin	-11.0776
▁pardon	-11.0779
ke	-11.0782
▁philip	-11.0784
▁household	-11.0791
▁yards	-11.0791
▁arriv	-11.0793
▁script	-11.08
▁poisoning	-11.0804
nt	-11.0807
▁erupt	-11.0809
ir	-11.0816
▁opponent	-11.0827
▁patch	-11.0831
▁classroom	-11.0831
▁confusion	-11.0831
▁cincinnati	-11.0831
▁palestinian	-11.0835
▁59	-11.0836
▁vocal	-11.0842
▁margin	-11.0842
▁woke	-11.0844
▁choices	-11.0848
▁warnings	-11.0849
▁ri	-11.0852
▁carpet	-11.0852
▁delaware	-11.0858
▁enormous	-11.086
▁norway	-11.086
da	-11.0861
▁empire	-11.0864
▁leonard	-11.0865
▁assume	-11.0869
▁independence	-11.0885
▁fundamental	-11.0887
▁bipartisan	-11.0889
▁parenthood	-11.0889
plus	-11.0889
▁compensation	-11.089
▁gps	-11.0892
▁shkreli	-11.0893
▁50-	-11.0894
▁perfectly	-11.0901
▁chef	-11.0903
▁lethal	-11.0904
▁southeast	-11.0906
▁mtv	-11.0907
▁memoir	-11.091
▁thorough	-11.0917
▁surrender	-11.0919
▁priest	-11.0919
▁echo	-11.0922
▁healthcare	-11.0923
▁aka	-11.0924
▁sweep	-11.0928
▁sketch	-11.0931
▁hundred	-11.0935
▁nra	-11.0941
▁endanger	-11.0943
▁maps	-11.0944
▁nightmare	-11.0948
▁widow	-11.0949
▁vermont	-11.0952
▁1997	-11.0961
▁hu	-11.0963
▁grade	-11.0965
▁ne	-11.0966
▁nicole	-11.0968
▁dealer	-11.0971
▁intervention	-11.0976
▁offense	-11.0979
▁jurors	-11.0986
▁impressed	-11.0987
▁shipping	-11.0989
▁rat	-11.0989
▁lit	-11.0991
▁yelling	-11.0994
▁chemicals	-11.0996
▁zika	-11.1005
▁jamie	-11.1011
▁campbell	-11.1011
▁politician	-11.1012
▁handled	-11.1013
▁swim	-11.1016
▁heels	-11.1022
▁explicit	-11.1035
▁recommended	-11.1035
▁advisor	-11.1038
▁examined	-11.104
▁arts	-11.1043
▁pills	-11.1043
when	-11.1047
▁yemen	-11.105
▁notable	-11.105
▁creator	-11.1052
tan	-11.1058
▁conway	-11.1066
▁kyle	-11.1069
▁rome	-11.1069
▁swiss	-11.1069
▁oakland	-11.1071
▁fluid	-11.1074
▁privilege	-11.1076
▁diversity	-11.108
▁cuban	-11.1081
▁attract	-11.1084
▁oscars	-11.1085
▁rand	-11.1087
▁regulator	-11.109
cy	-11.1093
▁aftermath	-11.1094
▁kidney	-11.1095
▁preliminary	-11.1096
▁nervous	-11.1097
▁punched	-11.1106
end	-11.1109
▁voices	-11.1109
▁ugly	-11.1112
▁males	-11.1113
▁caucus	-11.1117
▁nazis	-11.1123
▁franklin	-11.1125
▁jewelry	-11.1127
▁bullets	-11.1129
▁enemy	-11.1133
▁fe	-11.1134
▁humanity	-11.1135
face	-11.1137
▁costume	-11.1141
▁pretend	-11.1148
▁ellen	-11.1152
▁tsarnaev	-11.1153
▁wipe	-11.1153
some	-11.1154
▁radiation	-11.1155
▁fleeing	-11.1156
▁thousand	-11.116
▁tone	-11.1162
▁explosives	-11.1162
▁partially	-11.1163
port	-11.1163
▁elaborate	-11.1173
▁par	-11.1178
ha	-11.1183
▁neil	-11.1185
▁27-	-11.1186
▁su	-11.1187
▁hamilton	-11.119
▁casino	-11.1191
▁disgusting	-11.1198
▁communicate	-11.1198
▁transfer	-11.1198
▁iceland	-11.1201
▁29-	-11.1203
▁manafort	-11.1213
▁tariff	-11.1213
▁administrative	-11.1214
▁tillerson	-11.1214
▁perspective	-11.1215
▁alan	-11.1216
▁drought	-11.1219
▁excessive	-11.122
▁dated	-11.1223
person	-11.1223
▁rage	-11.1224
▁adopt	-11.1225
▁blunt	-11.1226
▁carefully	-11.123
▁definition	-11.123
▁lyrics	-11.1234
▁happiness	-11.1234
▁jesse	-11.1238
▁ga	-11.1238
area	-11.1238
written	-11.1238
▁flood	-11.1239
▁jaw	-11.1239
▁mohammed	-11.1245
▁25,000	-11.1248
▁berlin	-11.1248
▁columnist	-11.1248
▁trace	-11.1252
▁slash	-11.1253
▁poland	-11.1255
▁sentences	-11.126
▁hire	-11.1263
▁pocket	-11.1264
▁tensions	-11.1264
▁volume	-11.1266
▁kris	-11.127
pping	-11.1272
▁occupy	-11.1274
▁interstate	-11.1276
▁engage	-11.1285
ell	-11.1292
▁bra	-11.1293
▁publication	-11.1293
▁prevention	-11.1294
viewed	-11.1294
▁terminal	-11.1295
▁4,000	-11.1295
▁mrs	-11.1298
▁35-	-11.13
▁elite	-11.13
▁99	-11.1302
▁demonstrate	-11.1303
▁gibson	-11.1304
▁addresses	-11.1304
▁convince	-11.1307
▁elder	-11.1307
▁certificate	-11.131
▁1995	-11.1312
▁na	-11.1316
▁employers	-11.1322
▁height	-11.1328
▁openly	-11.1332
▁purposes	-11.1334
▁cemetery	-11.1336
▁forth	-11.1336
▁tsunami	-11.134
▁dose	-11.1348
▁busted	-11.1348
▁1994	-11.1352
▁deer	-11.1364
▁barrel	-11.1369
▁wayne	-11.1369
let	-11.1371
▁nasty	-11.1375
▁epic	-11.1376
▁timeline	-11.1377
▁nebraska	-11.138
▁tag	-11.1389
▁wells	-11.1391
▁asleep	-11.1393
▁prank	-11.1395
▁affidavit	-11.1396
▁artificial	-11.1396
▁jezebel	-11.14
significantly	-11.14
sen	-11.1403
▁snapped	-11.1405
▁superior	-11.1405
▁nyc	-11.1408
▁challenging	-11.1411
▁earn	-11.1412
▁acid	-11.1414
▁brett	-11.1416
▁treasure	-11.1421
▁marvel	-11.1422
looking	-11.1426
▁suspension	-11.1427
▁impose	-11.1434
▁1960	-11.1434
▁flags	-11.1449
▁naturally	-11.1451
▁spears	-11.1454
▁checking	-11.1455
▁peninsula	-11.1458
▁vital	-11.1463
▁legitimate	-11.1463
▁lock	-11.1463
▁comparison	-11.1465
reaching	-11.1468
▁amber	-11.1468
▁cox	-11.1473
▁leap	-11.1476
▁friendly	-11.1478
▁dial	-11.1485
▁eagle	-11.1487
▁excerpt	-11.1488
▁battl	-11.1489
▁pollution	-11.1491
▁jeffrey	-11.1491
▁evacuation	-11.1491
▁damag	-11.1492
▁firearm	-11.1495
▁medicare	-11.1496
▁15,000	-11.1499
ck	-11.1502
▁hammer	-11.1502
▁examples	-11.1505
blew	-11.1507
▁whet	-11.151
▁vox	-11.1521
▁cyrus	-11.1521
▁confrontation	-11.1522
▁kush	-11.1523
▁potter	-11.1523
▁shake	-11.1524
▁95	-11.1526
▁chan	-11.1528
▁consult	-11.1529
▁hostage	-11.1532
▁deceased	-11.1533
▁tourism	-11.1533
▁poverty	-11.1533
▁remov	-11.1538
▁hike	-11.1542
▁creatures	-11.1545
▁expectations	-11.1546
▁reynolds	-11.1553
▁stunned	-11.1556
▁hudson	-11.1559
▁occasional	-11.1562
▁seth	-11.1565
▁wash	-11.1566
▁executives	-11.1575
▁duck	-11.1576
▁bashar	-11.1582
ur	-11.1582
ai	-11.1584
▁irs	-11.1585
▁madison	-11.1586
ping	-11.1586
▁rings	-11.159
▁gallon	-11.1591
▁des	-11.1596
assad	-11.1597
▁institution	-11.1612
▁feat	-11.1614
▁newborn	-11.1616
▁1,500	-11.1617
▁boeing	-11.1618
▁cent	-11.1618
▁mu	-11.1618
▁haul	-11.1619
▁currency	-11.162
▁immune	-11.1621
▁soviet	-11.1627
▁improvement	-11.1631
▁carey	-11.1632
▁employment	-11.1633
▁deposit	-11.1634
▁methods	-11.1638
▁cents	-11.1642
▁phenomenon	-11.1645
▁ukrainian	-11.1648
▁angelina	-11.1648
▁hilarious	-11.1649
▁burial	-11.165
making	-11.1659
▁cancel	-11.1662
▁requir	-11.1674
▁embrace	-11.1675
▁buffalo	-11.1679
▁72	-11.1679
▁flowers	-11.168
▁creature	-11.1683
▁signatures	-11.1685
▁carl	-11.1689
▁reminder	-11.1695
▁covers	-11.1695
▁painted	-11.1697
▁borders	-11.17
▁recognition	-11.17
▁ignore	-11.1706
▁pile	-11.1708
allowing	-11.171
▁publishing	-11.171
▁counties	-11.1713
▁discount	-11.1719
▁opt	-11.1721
▁warming	-11.1723
▁excuse	-11.1728
▁noon	-11.1728
▁industrial	-11.173
▁moms	-11.1731
trump	-11.1735
▁restore	-11.1737
▁ranch	-11.1741
▁propaganda	-11.1742
▁physician	-11.1742
▁pics	-11.1742
▁dragged	-11.1743
▁icon	-11.1749
▁playboy	-11.175
▁hug	-11.175
▁experiences	-11.1757
▁punish	-11.1758
▁submitted	-11.1758
▁supporter	-11.176
▁limbaugh	-11.1773
▁troubled	-11.1775
▁increases	-11.1777
▁skeptical	-11.1778
▁colleague	-11.1779
▁contrast	-11.1782
▁photographs	-11.1787
▁retweet	-11.1794
▁awkward	-11.1796
▁mammal	-11.1798
▁mistakes	-11.1804
▁2.5	-11.1809
▁workplace	-11.1811
▁urine	-11.1813
▁spice	-11.1814
▁improved	-11.1814
▁participat	-11.1817
▁surviv	-11.1819
▁negotiate	-11.182
▁viewing	-11.1822
▁700	-11.1823
▁66	-11.1836
▁collision	-11.1837
▁extent	-11.1838
▁closest	-11.1844
▁sterling	-11.1845
trained	-11.1846
▁fiance	-11.1848
▁soda	-11.1855
▁magnitude	-11.1856
▁wallet	-11.1861
▁powder	-11.1862
▁defendant	-11.1864
▁rats	-11.1865
▁smithsonian	-11.1871
▁embarrassing	-11.1879
▁interaction	-11.1893
▁belonging	-11.1893
▁pakistani	-11.1901
ter	-11.1903
▁hometown	-11.1908
▁ranks	-11.191
traveled	-11.1912
▁outrageous	-11.1914
▁cycle	-11.1923
▁suburb	-11.1924
▁robot	-11.1925
▁rivals	-11.1926
▁em	-11.1926
▁thin	-11.1931
▁yell	-11.1932
▁elevator	-11.1935
▁relevant	-11.1937
▁subscribe	-11.1938
▁phase	-11.1939
▁mentally	-11.1965
▁junior	-11.1968
▁watson	-11.1968
▁detect	-11.197
▁exploded	-11.197
▁id	-11.1976
▁bi	-11.1976
▁hoax	-11.1976
▁appearances	-11.1979
▁beliefs	-11.198
▁32-	-11.1986
▁pour	-11.1987
elected	-11.199
▁deeper	-11.199
▁aunt	-11.1993
▁halt	-11.1993
▁2.	-11.1993
▁scratch	-11.1994
ka	-11.1996
▁joking	-11.1996
ham	-11.1999
▁120	-11.2
security	-11.2002
▁cow	-11.2025
▁revenge	-11.203
▁attacker	-11.203
▁hilton	-11.2034
▁hospitaliz	-11.2035
are	-11.2035
▁spencer	-11.2036
▁angel	-11.2038
▁revelation	-11.204
▁vi	-11.2045
▁briefing	-11.2046
▁castle	-11.2048
ably	-11.205
▁cargo	-11.205
▁withdraw	-11.2058
▁rivers	-11.2063
▁butter	-11.2064
▁inspiration	-11.2064
after	-11.2066
▁approve	-11.2067
▁smiling	-11.2067
▁gordon	-11.2075
▁revolution	-11.2086
▁abroad	-11.2086
lifted	-11.2087
▁col	-11.2088
▁losses	-11.2089
▁ingredients	-11.2089
▁62	-11.209
inquirer	-11.2094
▁angela	-11.2094
▁reverse	-11.2095
▁surge	-11.2095
▁milestone	-11.2098
▁prais	-11.21
▁partnership	-11.21
▁quot	-11.2106
▁wow	-11.2108
▁complications	-11.2111
▁quest	-11.2113
▁ripped	-11.2113
▁tongue	-11.2114
▁250,000	-11.2119
house	-11.2122
hand	-11.2123
▁ta	-11.2124
▁flip	-11.2125
▁progressive	-11.2127
jaze	-11.2128
▁stressed	-11.2129
▁pride	-11.2133
▁supervisor	-11.2133
▁dug	-11.2142
iness	-11.2143
▁migrants	-11.2156
▁loans	-11.2157
▁pace	-11.2158
▁61	-11.2158
▁criminals	-11.216
▁osama	-11.2163
▁insight	-11.2165
▁react	-11.2166
scale	-11.2168
▁trips	-11.2174
▁stepping	-11.2176
▁julian	-11.2176
▁absence	-11.2177
▁traffick	-11.2178
▁liver	-11.2179
▁ladies	-11.2185
▁freak	-11.2186
▁presumabl	-11.2187
▁flaw	-11.2187
▁gaza	-11.2191
▁indict	-11.2196
▁sergeant	-11.2197
▁exists	-11.2199
▁organs	-11.2199
▁tries	-11.2199
▁slide	-11.2203
▁depp	-11.2204
▁hopeful	-11.2204
▁burst	-11.2205
▁marshal	-11.2205
▁stevens	-11.2208
▁coal	-11.221
▁gym	-11.2211
▁gains	-11.2219
▁nowhere	-11.2219
▁vaccine	-11.2219
▁heaven	-11.2221
▁40-	-11.2223
▁wonders	-11.2228
ford	-11.2233
▁tobacco	-11.2238
▁chronic	-11.2243
▁stor	-11.2243
▁grass	-11.2245
▁occasion	-11.2246
▁simmons	-11.2247
pped	-11.2247
▁bloody	-11.2248
▁divorced	-11.225
▁writ	-11.2253
▁intel	-11.2255
▁ourselves	-11.2263
▁hispanic	-11.2263
▁flint	-11.2272
▁bust	-11.2273
▁lapd	-11.2284
▁fitness	-11.2284
▁poster	-11.2288
▁assess	-11.2288
▁makeup	-11.2288
▁polish	-11.2288
containing	-11.229
ish	-11.2299
▁connor	-11.2301
▁musician	-11.2303
▁fascinating	-11.2305
▁flee	-11.231
▁famously	-11.2313
▁submit	-11.2316
▁jets	-11.2318
picer	-11.232
▁treatments	-11.2324
lipped	-11.2329
▁laptop	-11.233
▁spacecraft	-11.233
▁clue	-11.2333
▁ordeal	-11.2337
▁rhetoric	-11.2342
▁indonesia	-11.2343
▁ease	-11.2343
▁67	-11.2348
▁texts	-11.235
▁circulat	-11.2354
▁corps	-11.2354
▁strict	-11.2356
▁retrieve	-11.2361
ate	-11.2364
▁scare	-11.2365
▁caribbean	-11.2365
▁seoul	-11.2365
▁attackers	-11.2365
▁extension	-11.2367
▁juice	-11.2372
▁billy	-11.2373
▁organ	-11.2375
▁lawn	-11.2389
▁accidents	-11.2393
▁marc	-11.2398
▁refuse	-11.24
▁gifts	-11.2404
▁enquirer	-11.2409
▁teenagers	-11.241
▁prisoner	-11.241
▁garcia	-11.2413
▁bullying	-11.2421
tz	-11.2422
▁lynch	-11.2428
▁cnnmoney	-11.2433
▁infrastructure	-11.2434
/1	-11.2436
▁pornography	-11.2437
▁bucket	-11.2439
▁admission	-11.2442
▁cairo	-11.2444
▁64	-11.2445
▁recession	-11.2446
▁travelers	-11.2449
▁banner	-11.2453
▁abbott	-11.2454
▁analyz	-11.2456
▁rex	-11.2457
▁memories	-11.247
▁stabbing	-11.247
▁2010.	-11.2471
▁31-	-11.2478
▁yield	-11.2479
▁mi	-11.2479
technically	-11.2481
▁emma	-11.2484
▁anna	-11.2485
▁experienc	-11.249
▁differently	-11.2497
▁1992	-11.25
▁stopping	-11.2502
▁optimistic	-11.2505
▁container	-11.2507
▁mini	-11.2508
▁ordinary	-11.2513
▁confidential	-11.2521
▁blanket	-11.2522
▁employer	-11.2524
unconstitutional	-11.2525
▁businessman	-11.2529
▁grocery	-11.2534
▁exception	-11.2535
▁shield	-11.2535
▁tube	-11.254
▁abu	-11.2541
refore	-11.2545
▁breitbart	-11.2546
▁basement	-11.2546
▁jacob	-11.2547
▁saint	-11.2561
▁sticking	-11.2562
▁singapore	-11.2562
▁firms	-11.2564
▁berry	-11.2567
▁javascript	-11.2568
▁duties	-11.2569
▁electricity	-11.2571
▁jeremy	-11.2574
▁grabbe	-11.2576
▁lgbt	-11.2578
▁emissions	-11.2581
journal	-11.2584
▁opinions	-11.2586
▁pundit	-11.2586
▁2009.	-11.2587
▁klein	-11.2597
▁responses	-11.2597
▁cheating	-11.2598
▁coma	-11.2599
▁import	-11.2599
▁panda	-11.2601
tribune	-11.2605
▁exam	-11.2605
▁feud	-11.2606
▁airstrikes	-11.2608
than	-11.2613
sange	-11.2615
▁arctic	-11.2616
▁cruel	-11.2622
▁sexy	-11.2633
▁engineering	-11.264
▁tomatoes	-11.264
▁sweat	-11.264
▁cure	-11.2643
▁inform	-11.2644
ill	-11.2644
▁stones	-11.2648
▁scout	-11.2648
▁prevented	-11.265
▁scenario	-11.2653
▁lately	-11.2656
▁punch	-11.2658
▁comply	-11.2663
▁athlete	-11.2671
▁phillips	-11.2676
▁proven	-11.2677
▁bennett	-11.2679
▁classmate	-11.2687
▁terry	-11.2688
▁writers	-11.2688
▁consume	-11.269
▁elephant	-11.2695
▁quietly	-11.2699
▁doug	-11.2703
isolated	-11.2705
▁centuries	-11.2707
▁attendance	-11.2708
▁fierce	-11.271
▁thieves	-11.2713
▁consultant	-11.2713
▁swept	-11.2716
▁gore	-11.2716
▁brilliant	-11.2718
ssociated	-11.2721
▁exhibit	-11.2725
▁pursu	-11.2729
▁arena	-11.273
argues	-11.2734
funded	-11.2735
▁shell	-11.2735
▁dubbe	-11.2736
▁compet	-11.2741
▁glasses	-11.2743
▁nightclub	-11.2745
▁33-	-11.2749
▁newser	-11.276
▁origin	-11.2765
▁utter	-11.2767
▁fingers	-11.2768
▁swing	-11.277
▁switzerland	-11.2777
▁dementia	-11.2779
▁milwaukee	-11.2781
▁taxi	-11.2781
▁aisle	-11.2782
▁evolution	-11.2786
▁profound	-11.2789
▁sir	-11.2791
▁accompany	-11.2792
▁bat	-11.2795
▁asteroid	-11.2801
▁adjust	-11.2809
ides	-11.2811
▁garbage	-11.2812
▁integrity	-11.2813
▁netherlands	-11.2815
▁coin	-11.2817
▁crucial	-11.2817
▁seventh	-11.2819
▁tha	-11.2821
▁assumed	-11.2822
▁motorcycle	-11.2823
▁strongest	-11.2825
▁baker	-11.2825
▁hunger	-11.2827
▁honored	-11.283
▁300,000	-11.2832
▁clues	-11.2834
▁acres	-11.2835
▁lauren	-11.2836
▁68	-11.2836
▁inspector	-11.2837
▁venture	-11.2838
▁spill	-11.2839
▁verizon	-11.2848
▁asylum	-11.2848
▁commerce	-11.285
▁dispatcher	-11.2853
▁yale	-11.2853
▁miley	-11.2854
▁camps	-11.2855
▁cruelty	-11.2855
▁android	-11.286
gov	-11.2866
▁journalism	-11.2868
▁herman	-11.2868
▁annually	-11.2871
▁sorts	-11.2876
▁cookies	-11.2877
▁modest	-11.2883
▁scrutiny	-11.2884
white	-11.2885
han	-11.2886
ian	-11.2886
▁drones	-11.2886
▁affleck	-11.2887
▁40,000	-11.2888
▁removal	-11.2894
▁offended	-11.2898
ery	-11.2901
▁barrier	-11.2903
▁accessible	-11.2904
▁deployed	-11.2906
▁instructions	-11.2906
▁blake	-11.2912
▁habit	-11.2912
▁slept	-11.2922
mentioned	-11.2923
▁carries	-11.2924
parked	-11.2926
▁campaigns	-11.2935
▁improper	-11.2935
▁tomb	-11.2935
▁entrance	-11.2945
▁slam	-11.2946
▁academic	-11.2947
▁mason	-11.2948
▁promotion	-11.2951
▁poison	-11.2954
▁culprit	-11.2955
▁agriculture	-11.2956
▁unlawful	-11.2957
▁inquiry	-11.2958
▁respectively	-11.2959
▁friendship	-11.2967
▁spin	-11.297
▁vet	-11.2971
▁pill	-11.2974
▁pipe	-11.2984
▁insect	-11.2988
▁silicon	-11.2992
▁thankful	-11.2993
▁thick	-11.2993
▁fi	-11.2995
▁arnold	-11.2995
▁carlson	-11.2997
▁suburban	-11.2999
▁export	-11.3001
▁applaud	-11.3002
▁harper	-11.3005
▁inauguration	-11.3008
▁ideal	-11.3009
▁bow	-11.3011
▁sta	-11.3017
▁rear	-11.302
▁curb	-11.3023
▁instrument	-11.3024
▁bernardino	-11.3027
▁opportunities	-11.3027
▁unaware	-11.3027
▁kenneth	-11.3028
▁vomit	-11.3029
▁bystander	-11.3029
▁washed	-11.3031
▁2017.	-11.3032
▁brazilian	-11.3032
ut	-11.3034
▁separation	-11.3035
▁versions	-11.3037
▁sadden	-11.3038
▁mubarak	-11.3041
▁fever	-11.3052
▁specifics	-11.3053
▁dreams	-11.3053
▁goods	-11.3054
▁visual	-11.3056
ew	-11.3057
ak	-11.306
▁ka	-11.3063
▁quarterback	-11.3066
▁oversight	-11.3066
▁rotten	-11.3069
▁oral	-11.3079
▁dish	-11.3089
▁calories	-11.3091
▁abortions	-11.3094
▁fallon	-11.3098
▁dialogue	-11.31
▁ammunition	-11.31
▁lions	-11.3107
▁supremacist	-11.3108
▁reunion	-11.3108
▁0	-11.3108
▁span	-11.311
▁mortgage	-11.311
▁libyan	-11.3113
▁centre	-11.3114
▁races	-11.3115
▁prom	-11.3117
▁meth	-11.3124
▁sometime	-11.3128
▁opens	-11.3128
▁verbal	-11.3133
▁scan	-11.3138
▁defendants	-11.3139
▁terrifying	-11.3142
▁cease	-11.3148
▁drowned	-11.3148
▁rapidly	-11.315
▁bread	-11.3151
▁ditch	-11.3157
▁wages	-11.3158
▁seasons	-11.3164
new	-11.3166
▁predecessor	-11.3173
▁tornado	-11.3176
bobby	-11.3177
▁gomez	-11.3178
▁convictions	-11.3179
▁arrangement	-11.3179
▁cpr	-11.3186
▁courage	-11.3187
▁paula	-11.3196
▁hart	-11.3197
▁mel	-11.3198
▁demonstrator	-11.3201
▁boo	-11.321
▁tournament	-11.3211
▁venezuela	-11.3211
rated	-11.3212
▁concentration	-11.3215
▁powell	-11.322
▁telephone	-11.3226
▁attendee	-11.3227
▁cannon	-11.3232
world	-11.3237
▁critically	-11.324
▁34-	-11.3243
▁sector	-11.3244
▁debates	-11.3247
▁joshua	-11.3248
▁wallace	-11.325
▁divided	-11.3251
▁spurr	-11.3253
▁generations	-11.3254
▁fines	-11.3257
▁emily	-11.3257
▁stranded	-11.3257
▁tennis	-11.3257
▁insane	-11.3259
▁barnes	-11.3263
▁trucks	-11.3265
▁noah	-11.3271
▁prohibit	-11.3273
▁trap	-11.3282
▁abandon	-11.3284
▁retain	-11.3285
▁trayvon	-11.3285
▁urge	-11.3285
▁1989	-11.3286
▁sanchez	-11.3286
▁divers	-11.3287
▁lu	-11.329
▁juan	-11.3292
▁consum	-11.3296
▁infections	-11.3299
▁kissing	-11.3301
▁cord	-11.3302
▁vest	-11.3303
▁hamas	-11.3304
▁notion	-11.3306
▁qualified	-11.3308
▁institutions	-11.3316
▁forgotten	-11.3317
ina	-11.3322
▁techcrunch	-11.3322
▁fixed	-11.3322
▁wyoming	-11.3323
▁volcano	-11.3324
ah	-11.3325
▁plague	-11.3325
▁habitat	-11.3333
▁attracted	-11.3334
▁borrow	-11.3342
▁everest	-11.3342
▁carlos	-11.3347
gregory	-11.3356
▁undercover	-11.3362
▁eighth	-11.3364
mail	-11.3372
▁essential	-11.3374
▁jake	-11.3375
▁sacrifice	-11.3376
school	-11.3384
ain	-11.3386
▁bitter	-11.3386
▁secretly	-11.3387
▁goals	-11.3395
▁continent	-11.3396
▁responder	-11.3397
▁humanitarian	-11.3398
▁secrets	-11.3405
▁fireworks	-11.3406
▁pepper	-11.3406
don	-11.3411
▁eaten	-11.3411
▁butler	-11.3419
▁helpful	-11.3421
psychiatric	-11.3425
▁impression	-11.3427
▁counting	-11.3432
most	-11.3433
▁denmark	-11.3433
▁jefferson	-11.3436
▁paltrow	-11.3437
▁intoxicated	-11.3437
▁trans	-11.3438
▁alliance	-11.3438
▁roundup	-11.3438
▁estranged	-11.3441
▁reduction	-11.3441
▁comprehensive	-11.3442
▁69	-11.3452
nes	-11.3453
▁sank	-11.3459
▁wrap	-11.346
▁packages	-11.3461
▁philippines	-11.3466
▁costa	-11.3468
▁jackpot	-11.3472
▁reception	-11.3473
▁holidays	-11.3473
▁iii	-11.3475
▁benedict	-11.3476
▁sequel	-11.3476
▁trudeau	-11.3477
▁obesity	-11.3478
▁remark	-11.3479
▁evans	-11.3479
▁skip	-11.3482
▁identical	-11.3482
▁mega	-11.3483
▁patriots	-11.3487
▁runway	-11.3487
reprints	-11.3494
ent	-11.3499
▁watt	-11.3506
contrary	-11.3506
▁adventure	-11.3507
▁referendum	-11.3509
listening	-11.351
▁gunfire	-11.351
▁resistance	-11.3513
goldman	-11.3514
▁nuts	-11.3519
waiting	-11.3521
▁marshall	-11.3522
square	-11.3523
▁tackle	-11.3525
▁dumb	-11.3537
▁situations	-11.3541
▁katy	-11.3543
▁knox	-11.3548
head	-11.3549
▁chi	-11.3551
▁uncomfortable	-11.3553
▁premium	-11.3553
▁dancer	-11.3558
▁farmer	-11.3559
hood	-11.356
▁refugee	-11.356
▁boring	-11.3561
uomo	-11.3565
care	-11.3566
▁revive	-11.357
▁theaters	-11.3571
▁dana	-11.3576
▁oversee	-11.3579
▁bold	-11.3585
▁enemies	-11.359
▁kutcher	-11.3591
▁machines	-11.3591
▁latin	-11.3592
size	-11.3599
▁pond	-11.36
▁headache	-11.3603
▁accord	-11.3604
▁essay	-11.3606
▁rapid	-11.3607
▁credible	-11.361
▁bitcoin	-11.3613
▁absurd	-11.3614
▁drain	-11.3616
▁minds	-11.3619
▁cartoon	-11.3622
▁narrative	-11.3623
▁poses	-11.3627
▁credits	-11.3629
▁premature	-11.3629
▁nephew	-11.3634
▁colin	-11.3635
▁karen	-11.3641
▁runner	-11.3642
▁allegation	-11.3648
▁snl	-11.3649
▁nail	-11.3656
stone	-11.3656
▁diana	-11.3662
▁gifford	-11.3662
▁legislature	-11.3663
▁precious	-11.3669
▁berkeley	-11.367
▁rip	-11.3674
▁disclosed	-11.3677
▁sporting	-11.3679
▁govern	-11.3683
▁warehouse	-11.3684
▁deen	-11.3691
▁inbox	-11.3693
▁fugitive	-11.37
▁leaks	-11.3702
▁mainstream	-11.3702
▁autism	-11.3702
▁consideration	-11.3703
▁females	-11.3703
▁bradley	-11.3704
▁backyard	-11.3706
▁deck	-11.3708
▁peterson	-11.3711
▁renewed	-11.3718
force	-11.3721
▁drill	-11.3722
▁pets	-11.3724
▁overturned	-11.3726
▁hawking	-11.3727
▁63	-11.3727
▁tremendous	-11.3729
▁towns	-11.3729
▁strategist	-11.3729
▁publicist	-11.373
▁legislative	-11.3742
▁lied	-11.3743
▁bug	-11.3748
▁brien	-11.3748
▁implications	-11.375
charging	-11.3755
▁equality	-11.3755
▁airing	-11.3756
host	-11.3765
▁peanut	-11.3767
▁attitude	-11.3771
▁bishop	-11.3775
▁commenter	-11.378
second	-11.378
gan	-11.378
▁lesbian	-11.378
▁assassination	-11.3781
▁demi	-11.3781
▁franco	-11.3781
▁frankly	-11.3792
▁gm	-11.3793
per	-11.3796
▁embarrassed	-11.3797
▁controls	-11.3803
▁resemble	-11.3806
▁reduc	-11.3806
▁marie	-11.3808
ble	-11.381
▁lamar	-11.3816
▁belgium	-11.3817
▁paperwork	-11.3818
▁expedition	-11.382
▁qualify	-11.3821
▁underwear	-11.3824
▁wise	-11.3824
▁acquire	-11.3825
▁concede	-11.3826
▁brush	-11.3826
rich	-11.3831
▁rallie	-11.3831
▁2008.	-11.3837
▁groom	-11.3841
▁forecast	-11.3842
▁recipe	-11.3844
▁equally	-11.3847
▁discharge	-11.3856
his	-11.3856
▁unhappy	-11.3859
▁charleston	-11.3861
▁transaction	-11.3862
▁condolences	-11.3863
▁escap	-11.3868
▁christina	-11.3871
▁astronomer	-11.3875
▁outstanding	-11.3877
constitution	-11.3881
▁mode	-11.3881
den	-11.3883
▁speeding	-11.3885
▁1993	-11.3885
▁advocacy	-11.3897
▁taiwan	-11.3898
▁stanford	-11.3899
▁drank	-11.3899
▁clinical	-11.3902
▁middleton	-11.3903
▁curry	-11.3906
appeals	-11.3909
frustrated	-11.3912
▁kristen	-11.3913
▁worn	-11.3915
▁protesting	-11.392
▁afore	-11.3921
▁puzzle	-11.3922
▁airports	-11.3923
▁sandra	-11.3934
▁unsuccessful	-11.3936
▁snap	-11.3938
ni	-11.394
▁hiker	-11.3942
▁lone	-11.3943
▁nursing	-11.3944
▁stops	-11.3946
▁staffer	-11.3949
▁burden	-11.395
too	-11.3951
▁criticiz	-11.3952
▁oregonian	-11.3952
▁phys	-11.3956
government	-11.3958
▁fracture	-11.396
▁strangers	-11.3963
▁fool	-11.3964
▁hung	-11.3971
▁dnc	-11.3974
▁medicaid	-11.3975
▁consulate	-11.3976
▁closure	-11.3976
▁graves	-11.3977
▁deliberately	-11.3985
▁etc	-11.3985
▁broadway	-11.399
▁edt	-11.399
▁walter	-11.399
▁grandson	-11.3991
▁presentation	-11.3998
▁dive	-11.3999
pieces	-11.4003
▁competitive	-11.4004
ning	-11.4009
▁gu	-11.4012
▁inner	-11.4015
▁1.2	-11.4016
ron	-11.4017
▁celebs	-11.4025
▁kfc	-11.4028
▁blown	-11.4035
▁faa	-11.4036
▁chunk	-11.4036
▁introduce	-11.4037
▁strengthen	-11.4041
being	-11.4043
▁grey	-11.4048
▁championship	-11.4048
▁harrison	-11.4052
▁grief	-11.4054
▁nashville	-11.4056
▁brooks	-11.4058
▁deportation	-11.4058
▁doubled	-11.4061
em	-11.4063
ledger	-11.4067
▁unspecifi	-11.4068
stein	-11.4071
▁envelope	-11.4086
▁appointed	-11.4086
▁extract	-11.4087
▁cubs	-11.4091
▁generate	-11.4097
▁nixon	-11.41
▁confederate	-11.4104
ization	-11.4117
▁passion	-11.413
▁offenses	-11.4135
▁sandusky	-11.4136
▁log	-11.4137
▁strategic	-11.4138
▁epidemic	-11.414
▁peer	-11.4143
▁stanley	-11.4145
▁tanks	-11.4148
▁expression	-11.4148
▁valued	-11.4155
food	-11.4156
▁clash	-11.4168
action	-11.4169
▁pistol	-11.4171
▁editors	-11.4177
▁crackdown	-11.4178
▁clerk	-11.4183
▁default	-11.4183
▁rebecca	-11.4186
▁pierce	-11.4188
▁euro	-11.4189
▁manufacturing	-11.4192
ud	-11.4197
▁selection	-11.42
▁transform	-11.4203
fi	-11.4209
▁interrupt	-11.421
▁administer	-11.4212
▁happier	-11.4217
▁horses	-11.4217
▁bother	-11.4219
▁linda	-11.4222
▁kidnapp	-11.4224
people	-11.4224
▁aging	-11.4224
▁freeze	-11.4224
▁understood	-11.4226
▁goldberg	-11.4229
▁logan	-11.4234
▁doll	-11.4236
▁advise	-11.4237
▁reunited	-11.4238
▁tropical	-11.4239
▁accompanie	-11.4239
▁angle	-11.424
▁intimate	-11.4242
▁decid	-11.4245
▁contend	-11.4247
▁transit	-11.4249
▁define	-11.4251
imothy	-11.4251
▁tail	-11.426
▁subscription	-11.4261
▁buffett	-11.4262
▁cannabis	-11.4264
▁vulture	-11.4265
▁catching	-11.4271
▁decent	-11.4273
▁habits	-11.4277
/2	-11.4277
▁hungry	-11.4279
▁mourning	-11.428
▁steep	-11.4283
▁preserve	-11.4284
▁shoppers	-11.4285
▁patriot	-11.4289
▁cigarettes	-11.4289
▁useful	-11.429
▁dirt	-11.4294
▁sexist	-11.4296
flown	-11.4297
▁whitney	-11.4298
▁immigrant	-11.4299
▁unnecessary	-11.4301
▁norwegian	-11.4302
▁emmy	-11.4302
ked	-11.4307
▁browser	-11.431
▁formula	-11.4314
signed	-11.4315
▁hacker	-11.4317
▁intercept	-11.4318
▁analyze	-11.432
▁unfold	-11.4328
▁lip	-11.4329
husband	-11.4331
q	-11.4334
michele	-11.4337
▁chant	-11.4339
▁screenshot	-11.4345
▁assuming	-11.4346
▁argentina	-11.4347
▁nam	-11.4347
▁purple	-11.4348
▁rhode	-11.4351
▁shadow	-11.4353
▁nominat	-11.4355
▁pageant	-11.4361
ek	-11.4365
▁disrupt	-11.4366
▁tossed	-11.4372
▁airplane	-11.4377
▁dismiss	-11.4378
▁fragment	-11.4382
▁wrongdoing	-11.4382
▁steam	-11.4384
▁sang	-11.4388
▁engaging	-11.4389
▁paintings	-11.4389
▁hid	-11.439
▁collector	-11.4391
▁xi	-11.4397
▁injur	-11.4398
▁suspend	-11.4406
dale	-11.4407
▁fl	-11.4407
▁plunge	-11.4409
▁choos	-11.4417
cing	-11.4419
▁appointment	-11.4424
▁passage	-11.4427
▁ke	-11.4427
▁superhero	-11.443
▁lava	-11.443
▁punished	-11.4433
▁achievement	-11.4433
▁amnesty	-11.4433
▁capt	-11.4437
▁kremlin	-11.4439
▁jacki	-11.444
▁contributions	-11.4445
▁animated	-11.4446
▁robbed	-11.4446
▁ethan	-11.4451
▁backpack	-11.4454
▁evolve	-11.4457
▁counterparts	-11.4458
▁technique	-11.4459
▁oval	-11.446
will	-11.4463
▁gilbert	-11.4463
▁precaution	-11.4464
▁marketwatch	-11.4465
▁breathe	-11.4466
▁caffeine	-11.4467
▁sidewalk	-11.4468
▁clarify	-11.4468
▁cafe	-11.4469
nce	-11.4469
▁newsletter	-11.4473
▁layer	-11.4475
▁okay	-11.4479
▁2019	-11.4482
▁colombia	-11.4483
▁wings	-11.4483
▁concealed	-11.4488
▁griffin	-11.4488
5,000	-11.4491
▁smash	-11.4492
▁fried	-11.4499
▁pi	-11.4503
▁kenya	-11.4503
▁ted	-11.4503
▁triple	-11.4505
▁helicopters	-11.4507
▁hannity	-11.4509
▁aleppo	-11.451
▁separat	-11.451
▁adoption	-11.4512
▁solved	-11.452
▁guinness	-11.452
▁vague	-11.4525
▁nominations	-11.4529
▁speeches	-11.4533
sh	-11.4536
si	-11.4537
▁roots	-11.4539
▁bio	-11.4546
▁administrator	-11.4547
▁cardiac	-11.4548
▁penalties	-11.4548
▁mari	-11.4548
▁wikipedia	-11.4549
▁unresponsive	-11.4549
▁opioid	-11.4551
▁affiliate	-11.4553
▁commentary	-11.4553
▁goodbye	-11.4557
▁wooden	-11.4559
▁designe	-11.4565
wide	-11.4569
▁documented	-11.457
▁denying	-11.4573
tting	-11.4574
▁honestly	-11.4583
▁71	-11.4586
▁tribe	-11.4588
▁valid	-11.459
▁eyebrow	-11.459
▁brussels	-11.4591
went	-11.4591
▁sanctuary	-11.4592
▁bloom	-11.4592
▁wit	-11.4593
▁pioneer	-11.4595
▁unanimous	-11.4595
▁prospect	-11.4599
with	-11.4601
▁richardson	-11.4605
▁nominate	-11.4605
▁lobster	-11.4609
▁tooth	-11.4614
▁coat	-11.4618
▁bro	-11.4619
ired	-11.4622
▁elon	-11.4627
▁anticipated	-11.4629
▁1988	-11.4632
▁tehran	-11.4634
▁deadliest	-11.4636
▁innovation	-11.4639
▁manchester	-11.4639
▁curious	-11.4644
▁savings	-11.4647
▁ram	-11.4648
▁exceed	-11.465
▁meyer	-11.4655
▁com	-11.4656
▁laughed	-11.4657
mes	-11.4659
▁pu	-11.4666
▁disclose	-11.4668
▁cigarette	-11.4669
▁chambers	-11.467
▁organic	-11.4673
now	-11.4673
▁inspection	-11.4675
▁shy	-11.4676
▁presents	-11.4677
▁expansion	-11.4678
▁harmful	-11.4679
▁instant	-11.4681
▁excellent	-11.4683
▁schultz	-11.4684
▁vancouver	-11.4684
▁gazette	-11.4686
▁generous	-11.4686
worthy	-11.4687
▁joel	-11.4689
▁rely	-11.4699
▁ranger	-11.4705
▁balloon	-11.4706
▁performances	-11.4708
▁pleasure	-11.4708
▁strain	-11.4709
▁crushed	-11.4715
ok	-11.4719
generated	-11.4721
▁implement	-11.4721
ski	-11.4723
▁ontario	-11.4723
▁bubble	-11.4725
▁fossil	-11.4726
▁withdrawal	-11.473
▁telescope	-11.473
▁eruption	-11.4734
▁privately	-11.4734
asks	-11.4745
▁eclipse	-11.4745
▁130	-11.4748
bc	-11.4749
▁merit	-11.475
▁landscape	-11.4751
▁casual	-11.4756
▁dubai	-11.4761
▁anchorage	-11.4763
▁breakthrough	-11.4764
▁slogan	-11.4764
▁invitation	-11.4768
▁yoga	-11.477
▁judicia	-11.4771
shot	-11.4771
▁podcast	-11.4772
▁shade	-11.4775
▁damon	-11.4777
▁commentator	-11.4779
ray	-11.4781
ice	-11.4782
▁bp	-11.4782
▁coastal	-11.4782
▁mayer	-11.4785
▁dental	-11.4789
▁provision	-11.479
domain	-11.479
▁makers	-11.4792
▁slave	-11.4796
▁prey	-11.4803
▁candidacy	-11.4803
stephanie	-11.4804
▁schwarzenegger	-11.4804
▁ballistic	-11.4805
▁vs	-11.4807
▁hannah	-11.4808
▁1950	-11.4809
▁pepsi	-11.481
▁worries	-11.4811
▁fantasy	-11.4814
▁bailey	-11.4814
ware	-11.4814
iest	-11.4814
▁courtney	-11.4817
▁pause	-11.4818
▁millennial	-11.4819
▁rocky	-11.4821
▁commonly	-11.4822
▁predator	-11.4823
▁exploit	-11.4824
ki	-11.4825
▁employed	-11.4831
▁recogniz	-11.4832
▁kelley	-11.4833
▁psychologist	-11.4848
▁damn	-11.4849
▁athletic	-11.485
brandon	-11.4851
▁scali	-11.4857
▁britney	-11.4861
▁shak	-11.4862
▁corn	-11.4865
▁reply	-11.4865
▁grande	-11.4871
▁verified	-11.4871
▁ja	-11.4883
▁sober	-11.4885
driving	-11.4886
▁lungs	-11.489
▁abrupt	-11.489
▁avalanche	-11.489
▁pyramid	-11.4891
▁frustration	-11.4891
▁1984	-11.4892
▁giraffe	-11.4893
▁abusive	-11.4894
▁geological	-11.4896
▁eager	-11.4897
▁fraternity	-11.4898
▁secured	-11.49
▁tactics	-11.4901
▁boom	-11.4902
▁penned	-11.4903
▁attractive	-11.4904
▁farms	-11.4905
▁shook	-11.4907
▁....	-11.4912
duty	-11.4914
gay	-11.4916
▁meteor	-11.4916
▁taco	-11.4918
▁45-	-11.4923
▁meters	-11.4924
▁preparation	-11.4924
▁picks	-11.4932
▁tabloid	-11.4933
iston	-11.4934
▁lobby	-11.4937
▁fogle	-11.4937
▁increas	-11.4937
▁bachelor	-11.4939
▁pete	-11.4939
▁obituary	-11.4939
▁flavor	-11.4939
▁arthur	-11.4941
▁misleading	-11.4943
▁veto	-11.4944
▁flooded	-11.4947
▁heated	-11.4949
▁2,500	-11.4952
▁reef	-11.4962
▁lucas	-11.4963
▁permanently	-11.4967
▁sc	-11.4968
▁dot	-11.4974
▁richmond	-11.4978
▁1.3	-11.4978
▁structures	-11.498
▁electoral	-11.4981
▁travis	-11.4985
▁walsh	-11.4985
▁courier	-11.4987
▁extinction	-11.4988
▁occasions	-11.4989
▁dodge	-11.499
▁rampage	-11.4991
▁bans	-11.4992
screen	-11.4992
00	-11.4993
place	-11.4995
▁evaluation	-11.4997
▁omar	-11.5
▁ashes	-11.5003
▁decrease	-11.5008
▁stripped	-11.5009
mistakenly	-11.5012
▁rail	-11.5013
▁fetus	-11.5013
▁sneak	-11.5015
▁1991	-11.502
▁ktla	-11.5021
▁subpoena	-11.5022
▁chapman	-11.5025
▁biologist	-11.5025
▁emanuel	-11.5025
▁techniques	-11.5028
▁emotions	-11.5031
▁medium	-11.5032
▁improving	-11.5038
har	-11.5038
ich	-11.5038
▁searches	-11.5039
ge	-11.5043
▁blessing	-11.5048
▁stint	-11.5048
▁poorly	-11.505
▁qatar	-11.5051
▁providers	-11.5052
▁letterman	-11.5054
▁ku	-11.5059
▁cri	-11.5061
▁bath	-11.5061
▁trader	-11.5062
om	-11.5065
▁competitors	-11.5065
▁universities	-11.5066
▁mandatory	-11.5066
▁movements	-11.5067
▁meteorologist	-11.5068
▁nepal	-11.5068
▁monroe	-11.5069
▁assertion	-11.507
▁momentum	-11.507
▁cornell	-11.507
▁categories	-11.507
▁vitamin	-11.5071
▁gut	-11.5071
▁cal	-11.5071
▁huntsman	-11.5075
▁beca	-11.5076
▁technica	-11.5081
▁aids	-11.5081
▁bronze	-11.5084
▁dubb	-11.5086
▁locker	-11.509
▁booze	-11.5093
▁observation	-11.5096
▁troubles	-11.5098
▁avoided	-11.5099
▁duo	-11.51
▁peta	-11.5103
▁hunters	-11.5108
▁yellowstone	-11.5112
▁hottest	-11.5112
▁macron	-11.5113
io	-11.5114
▁maintenance	-11.5116
▁spree	-11.5119
▁creepy	-11.5121
▁shorter	-11.5126
▁ashton	-11.5127
▁tumblr	-11.5127
▁heidi	-11.5127
▁examine	-11.513
▁73	-11.5135
▁randy	-11.5136
▁exceptional	-11.5143
▁grim	-11.5148
▁partisan	-11.5151
ho	-11.5153
▁landmark	-11.5158
▁halted	-11.5158
▁demonstration	-11.5163
▁refuge	-11.5164
▁spacey	-11.5164
▁intellectual	-11.5167
▁00	-11.517
▁ferry	-11.5171
▁defender	-11.5176
▁neal	-11.5177
rt	-11.5177
ugh	-11.5183
▁crowds	-11.5183
▁challenger	-11.5184
▁ghost	-11.5185
hat	-11.5189
▁thail	-11.5189
pe	-11.5192
▁smashed	-11.5192
▁antibiotics	-11.5198
▁stark	-11.5199
▁invite	-11.5199
▁queens	-11.52
▁intentional	-11.5201
▁clooney	-11.5201
▁rant	-11.5202
▁fights	-11.5203
▁titanic	-11.5204
▁particle	-11.5206
▁genius	-11.5208
▁dignit	-11.5212
▁studios	-11.5212
lin	-11.5213
▁77	-11.5217
▁clown	-11.522
▁mild	-11.5223
▁www	-11.5225
▁lighter	-11.5229
▁registration	-11.5232
▁brake	-11.5233
▁harvest	-11.5236
▁respected	-11.5238
▁hello	-11.5245
▁degeneres	-11.5245
▁altercation	-11.5247
que	-11.5248
▁khloe	-11.5248
▁cognitive	-11.5252
▁billions	-11.5254
▁trio	-11.5255
▁cooperate	-11.5258
standing	-11.526
▁marriages	-11.5266
▁chen	-11.5267
▁archives	-11.5272
▁weaken	-11.5272
▁1.6	-11.5275
▁mic	-11.5278
brand	-11.5286
▁6,000	-11.5287
00012	-11.5288
▁74	-11.529
▁whereabouts	-11.5291
▁convenience	-11.5293
▁joan	-11.5294
▁placing	-11.5294
▁electronics	-11.5295
shamed	-11.5295
▁ownership	-11.5296
▁catastrophic	-11.5297
▁36-	-11.5303
▁meghan	-11.5305
▁leon	-11.5309
▁marines	-11.5311
▁idol	-11.5312
eating	-11.5313
▁contractor	-11.5315
▁persons	-11.5317
▁1986	-11.5317
▁regain	-11.5318
formed	-11.5319
▁distracted	-11.5322
▁overcome	-11.5326
▁purse	-11.5331
▁smooth	-11.5334
▁stored	-11.5336
▁intersection	-11.5337
▁franken	-11.5341
▁thrones	-11.5341
▁3.5	-11.5345
▁murderer	-11.5347
▁ultra	-11.5353
▁jill	-11.5353
▁importan	-11.5354
▁scar	-11.5354
friendly	-11.5361
ette	-11.5362
dispatch	-11.5364
christine	-11.5364
▁wing	-11.5368
light	-11.5369
ups	-11.5371
▁protester	-11.5376
▁filter	-11.5376
▁bonus	-11.5376
▁coral	-11.5378
half	-11.538
▁legendary	-11.5384
▁monica	-11.5384
▁chart	-11.5386
▁fiction	-11.5388
▁curtis	-11.5391
▁purchases	-11.5392
▁unrelated	-11.5397
▁heartbreaking	-11.5398
▁accountable	-11.5398
▁memorabl	-11.5401
▁chemo	-11.5402
▁dj	-11.5411
▁1,200	-11.5411
▁nominees	-11.5412
▁successor	-11.5416
▁bench	-11.5418
▁julie	-11.5419
distributed	-11.542
▁dinosaurs	-11.5421
▁slight	-11.5423
▁lover	-11.5426
ore	-11.5427
▁eagles	-11.5428
▁rev	-11.543
▁listing	-11.5435
▁proposals	-11.5441
▁deported	-11.5443
▁perception	-11.5444
▁polar	-11.5446
grade	-11.5451
▁che	-11.5452
▁sec	-11.5454
▁140	-11.5455
▁filling	-11.5456
▁wales	-11.5459
▁drunken	-11.5461
▁differ	-11.5463
▁megan	-11.5465
▁anytime	-11.5465
▁horn	-11.5465
▁judicial	-11.5467
▁presidents	-11.5471
▁outline	-11.5472
▁metropoli	-11.5476
▁interact	-11.5476
▁standoff	-11.5479
▁galaxy	-11.548
▁pleading	-11.5483
filled	-11.5492
▁drowning	-11.5495
▁stamp	-11.5496
▁matches	-11.5497
▁julia	-11.5507
▁spouse	-11.5507
▁earthquakes	-11.5511
▁formation	-11.5513
▁flesh	-11.5514
▁mob	-11.5514
▁hostages	-11.5515
▁tab	-11.5515
▁retreat	-11.5516
▁mocked	-11.5517
▁outdoor	-11.5519
▁toyota	-11.5519
▁filibuster	-11.5523
▁lennon	-11.5525
▁riders	-11.5529
▁ag	-11.553
authorized	-11.5535
▁haley	-11.5536
▁lets	-11.5537
▁tiffan	-11.5539
▁balls	-11.554
▁barred	-11.5541
▁sensor	-11.5541
▁hugh	-11.5548
▁kirk	-11.5548
▁closet	-11.5556
breaking	-11.5564
▁connections	-11.5564
▁petraeus	-11.5567
▁slip	-11.5568
▁ebay	-11.5569
▁troubling	-11.557
▁latino	-11.5572
▁pig	-11.5575
▁conscious	-11.5576
ington	-11.5576
▁hockey	-11.5579
▁incumbent	-11.5581
worth	-11.5585
▁swirl	-11.5586
▁detainee	-11.5588
hop	-11.5589
▁fantastic	-11.5591
▁silly	-11.5593
▁frog	-11.5599
▁cult	-11.5608
▁sic	-11.5611
▁oxford	-11.5614
ped	-11.5619
▁spectacular	-11.5619
▁andrea	-11.5619
▁guid	-11.5624
▁regrets	-11.5625
wanted	-11.5625
▁slavery	-11.5626
▁rivera	-11.5629
unham	-11.563
themed	-11.563
▁tap	-11.5631
▁heights	-11.5632
▁doom	-11.5633
▁baptist	-11.5642
▁explor	-11.5644
▁leno	-11.5647
▁executions	-11.5647
▁counseling	-11.5662
▁dentist	-11.5663
▁150,000	-11.5663
▁selfies	-11.5663
▁salute	-11.5664
▁obligation	-11.5666
▁radaronline	-11.5666
▁dam	-11.5666
▁alerts	-11.5668
ins	-11.5669
▁stir	-11.5671
▁shoe	-11.5673
▁claire	-11.5675
▁grammy	-11.5676
▁im	-11.5683
▁defined	-11.5684
▁wil	-11.5688
ou	-11.5688
▁experimental	-11.5691
▁papa	-11.5694
▁minors	-11.5697
▁sauce	-11.5698
▁killers	-11.5699
▁electrical	-11.57
hrew	-11.5702
▁casualties	-11.5707
▁ru	-11.5707
▁retaliation	-11.5708
▁definitive	-11.5712
▁brennan	-11.5712
▁butt	-11.5712
▁divide	-11.5713
▁warc	-11.5713
▁bann	-11.5716
▁intact	-11.5718
president	-11.5718
▁doubts	-11.5722
was	-11.5727
▁sensation	-11.5729
▁trek	-11.5729
▁solutions	-11.5731
▁motivation	-11.5738
▁lakes	-11.5747
lo	-11.5748
▁hanks	-11.575
▁levi	-11.575
▁evan	-11.5754
▁penny	-11.5757
▁verification	-11.5758
▁rod	-11.5759
▁thief	-11.5761
▁natalie	-11.5762
▁valentine	-11.5762
▁filmmaker	-11.5764
▁publish	-11.5764
▁samantha	-11.5766
▁inevitable	-11.5767
▁kilometer	-11.5771
▁easter	-11.5773
▁markle	-11.5774
▁interfere	-11.5777
▁ellis	-11.5782
▁trains	-11.5783
▁mock	-11.5788
▁onstage	-11.5789
only	-11.5794
▁abduct	-11.5794
girlfriend	-11.5801
▁innocence	-11.5802
income	-11.5803
▁puppy	-11.5803
▁admitting	-11.5808
▁37-	-11.5808
▁identification	-11.5809
▁dinosaur	-11.5809
▁advances	-11.5811
▁scope	-11.5817
▁colors	-11.5818
▁beard	-11.582
figured	-11.5821
▁islamist	-11.5822
uring	-11.5826
tracked	-11.5834
▁texting	-11.5839
▁forgot	-11.584
▁pension	-11.5846
▁paddock	-11.585
▁industries	-11.585
▁underage	-11.5852
popeater	-11.5852
▁overhaul	-11.5853
▁declaration	-11.5854
▁protocol	-11.5857
▁pos	-11.5857
▁shotgun	-11.5857
▁obese	-11.5859
▁splash	-11.5861
▁undermine	-11.5862
high	-11.5865
▁attraction	-11.5867
▁restraining	-11.5868
▁recreational	-11.5869
▁shelves	-11.5872
▁stuffed	-11.5876
▁observers	-11.5881
▁scans	-11.5882
▁backup	-11.5884
▁eliminate	-11.5891
▁78	-11.5892
▁greet	-11.5896
▁emphasize	-11.5899
▁simultaneous	-11.59
▁load	-11.59
▁glacier	-11.5902
▁riches	-11.5903
▁guitar	-11.5905
▁defensive	-11.5907
▁vogue	-11.5907
▁devoted	-11.5911
▁jeans	-11.5916
burg	-11.5919
▁meyers	-11.5922
work	-11.5922
▁eli	-11.5925
documented	-11.5929
▁ctv	-11.5931
▁pigs	-11.5937
▁consecutive	-11.5937
▁charter	-11.5941
▁snakes	-11.5944
▁extradition	-11.5947
▁credibility	-11.5947
▁concussion	-11.5948
▁seals	-11.5949
▁snyder	-11.5949
▁breakdown	-11.595
▁daddy	-11.595
▁belgian	-11.5951
▁mohamed	-11.5955
▁clashe	-11.5956
▁explosions	-11.5957
▁hogan	-11.5958
▁chemistry	-11.5958
▁neglect	-11.5965
▁intensive	-11.5966
▁arrives	-11.5968
▁dude	-11.5968
▁struggles	-11.5975
li	-11.5978
▁revelations	-11.5981
▁fare	-11.5983
▁60-	-11.5986
▁sp	-11.5986
▁gotta	-11.5989
▁postal	-11.5992
▁ash	-11.5992
▁steenkamp	-11.5995
▁graffiti	-11.5995
▁earliest	-11.5995
▁concession	-11.5995
▁sponsor	-11.5997
▁bikini	-11.5997
▁jenkins	-11.5998
▁biology	-11.6
▁sierra	-11.6
▁abus	-11.6003
▁helen	-11.6007
▁statute	-11.6009
▁instantly	-11.601
▁wrist	-11.6013
▁suits	-11.6014
▁verify	-11.6017
▁risky	-11.6025
▁carol	-11.6026
▁loyal	-11.6034
ba	-11.6036
▁br	-11.6038
▁median	-11.6038
▁karl	-11.6039
▁mit	-11.604
▁distinct	-11.6042
▁coffin	-11.6048
▁forc	-11.6048
▁lanza	-11.6051
▁odom	-11.6051
▁steady	-11.6056
▁fastest	-11.6058
▁affecting	-11.6059
▁nathan	-11.6062
ti	-11.6068
▁noble	-11.6071
▁accomplished	-11.6073
▁hey	-11.6079
▁buck	-11.6079
▁richards	-11.6083
▁pulse	-11.6087
▁newest	-11.609
▁pediatric	-11.6092
▁ceasefire	-11.6093
▁von	-11.6093
▁liquor	-11.6094
▁laughter	-11.6095
▁rodman	-11.6096
versus	-11.6096
▁demographic	-11.6097
▁comcast	-11.6097
▁lining	-11.6098
ines	-11.6099
▁snapchat	-11.6102
▁mil	-11.6103
▁cartel	-11.6106
▁shortage	-11.6109
nc	-11.611
▁rope	-11.6111
game	-11.6119
▁texted	-11.612
▁michel	-11.6124
▁fred	-11.6129
▁unarm	-11.6129
kin	-11.6131
beat	-11.6136
▁submarine	-11.6139
▁coup	-11.614
▁damascus	-11.6143
fall	-11.6144
▁bezos	-11.6146
arranged	-11.6146
set	-11.6147
10	-11.6149
▁disturb	-11.6152
tally	-11.6152
▁dairy	-11.6153
▁scoop	-11.6153
▁tick	-11.6154
controlled	-11.6156
▁perceived	-11.6158
▁instructor	-11.6163
▁sponsored	-11.6171
ds	-11.6175
▁poop	-11.6175
range	-11.6176
▁contaminated	-11.6178
▁educational	-11.6178
▁chilling	-11.6182
▁restrict	-11.6183
mo	-11.6187
ves	-11.6189
▁khashoggi	-11.6191
▁kaepernick	-11.6193
▁execs	-11.6195
▁supermarket	-11.6195
opted	-11.6196
▁76	-11.6198
▁acceptance	-11.6198
▁vary	-11.6201
▁adapt	-11.6202
▁bacon	-11.6203
▁skeleton	-11.6203
▁kills	-11.6205
top	-11.6205
▁thai	-11.6205
▁glimpse	-11.6209
posing	-11.6211
▁prisons	-11.6212
ant	-11.6214
▁luke	-11.6216
▁nike	-11.6216
▁supplement	-11.6227
▁climbers	-11.6231
▁reforms	-11.6232
▁appealing	-11.6234
list	-11.6237
▁akin	-11.6238
▁brick	-11.6243
▁brotherhood	-11.6244
▁margaret	-11.6244
ot	-11.6245
▁vegan	-11.6252
▁sanford	-11.6254
▁laser	-11.6255
▁ingredient	-11.6257
▁precedent	-11.6257
tech	-11.6259
▁sufficient	-11.6259
▁pbs	-11.6262
▁trending	-11.6264
▁reacted	-11.6266
▁negotiating	-11.6267
▁passes	-11.6269
▁jar	-11.6271
▁locate	-11.6272
▁declin	-11.6273
▁supportive	-11.6276
▁bare	-11.6288
▁cillizza	-11.6291
▁soup	-11.6293
▁dramatically	-11.6295
▁lovers	-11.6299
▁81	-11.6301
▁pal	-11.6305
▁khou	-11.6307
▁sophisticated	-11.6308
▁koch	-11.6311
llowing	-11.6311
▁justify	-11.6312
▁84	-11.6313
▁owe	-11.6313
▁hollande	-11.6314
▁potato	-11.6318
▁defect	-11.6322
▁wo	-11.6322
▁sharon	-11.6323
▁vessels	-11.6327
za	-11.6327
▁savage	-11.6331
▁delays	-11.6334
▁3.	-11.6336
▁heroes	-11.6336
▁bugs	-11.6339
▁demonstrations	-11.6342
▁startup	-11.6343
▁mogul	-11.6344
▁pompeo	-11.6344
▁federation	-11.6345
▁measur	-11.6345
▁emoji	-11.6345
▁reliabl	-11.6345
▁navigation	-11.6348
▁attendants	-11.6349
▁upgrade	-11.6349
▁drops	-11.6352
▁gravity	-11.6356
▁dea	-11.6356
▁fleet	-11.6359
▁fallout	-11.6359
▁responds	-11.6361
▁midst	-11.6362
▁bury	-11.6366
▁mick	-11.6373
▁cups	-11.6376
▁mill	-11.6384
▁offend	-11.639
▁coke	-11.6391
▁precisely	-11.6391
▁duterte	-11.6392
▁malicious	-11.6392
▁1981	-11.6392
▁aquarium	-11.6394
▁shall	-11.6397
▁cab	-11.6397
▁hatred	-11.6397
▁rolls	-11.64
▁gwyneth	-11.6403
▁circles	-11.6404
▁porter	-11.6406
▁rnc	-11.6406
defense	-11.6406
▁acceptable	-11.6411
▁drag	-11.6411
aged	-11.6416
▁gabriel	-11.6417
▁shaken	-11.6419
▁plug	-11.6426
▁manufacturers	-11.6429
▁breeding	-11.6432
▁tattoos	-11.6433
▁conflicts	-11.6434
▁descend	-11.6436
▁horizon	-11.6436
▁ears	-11.644
uk	-11.6441
▁priests	-11.6442
▁captivity	-11.6443
▁jupiter	-11.6444
▁unpaid	-11.6445
▁tina	-11.6448
▁beaches	-11.6449
▁cheney	-11.645
▁danny	-11.645
▁refund	-11.6451
car	-11.6451
▁roommate	-11.6461
▁investor	-11.6463
ailed	-11.6463
▁comb	-11.6463
▁confine	-11.6469
▁nigeria	-11.6473
▁slaughter	-11.6483
ps	-11.6483
▁collective	-11.6485
▁dash	-11.6485
▁cows	-11.6487
▁gruesome	-11.6493
▁surgeries	-11.6494
▁prohibited	-11.6494
▁scrambl	-11.6495
▁scottish	-11.6495
▁overwhelmed	-11.6502
▁existed	-11.6503
shaped	-11.6508
▁7,000	-11.6509
▁pursuit	-11.6519
▁thriller	-11.652
used	-11.652
▁pan	-11.6531
▁uploaded	-11.6531
▁guilt	-11.6539
▁drilling	-11.6544
▁mediterranean	-11.6547
▁mph	-11.6547
▁crop	-11.6549
▁champagne	-11.6549
▁drake	-11.6553
▁programm	-11.6555
▁twenty	-11.6555
rque	-11.6557
▁compelling	-11.6558
▁insert	-11.6559
▁8,000	-11.6562
ding	-11.6564
▁panther	-11.6568
▁cracked	-11.6568
▁deaf	-11.6571
▁motorist	-11.6571
▁counted	-11.6575
▁mutual	-11.6583
board	-11.6585
▁rude	-11.6588
ig	-11.6589
▁1982	-11.6597
▁tenure	-11.6603
▁sampling	-11.6604
▁fcc	-11.6605
▁spirits	-11.6606
memphis	-11.6608
▁graduation	-11.661
▁fur	-11.6611
▁kindness	-11.6614
▁homeowner	-11.6615
can	-11.6616
▁theme	-11.6616
▁seizure	-11.6617
▁determination	-11.6617
▁scouts	-11.6617
▁ko	-11.6622
▁expose	-11.6622
control	-11.6625
▁chill	-11.6626
▁kit	-11.6627
▁newark	-11.6627
acre	-11.663
▁proclaim	-11.6632
▁lett	-11.6636
▁cole	-11.6637
mm	-11.6637
gate	-11.6638
▁explorer	-11.6638
▁charities	-11.6649
▁manhunt	-11.6649
▁slaves	-11.6652
▁laboratory	-11.6652
▁difficulty	-11.6654
▁dies	-11.6655
▁unearthed	-11.6655
▁han	-11.6655
▁membership	-11.6655
▁hostile	-11.6657
usat	-11.6658
▁speculat	-11.6659
▁mining	-11.6661
▁crude	-11.6661
▁conn	-11.6665
▁pin	-11.6667
▁manufacturer	-11.6669
▁pound	-11.667
▁advertiser	-11.6671
proof	-11.6671
▁assaults	-11.6671
▁cattle	-11.6672
▁worthy	-11.6674
bo	-11.6683
▁chip	-11.6686
▁scor	-11.6686
▁doj	-11.6687
▁reopen	-11.669
▁ramp	-11.6694
▁legislator	-11.6704
▁huffpost	-11.6705
▁vincent	-11.6705
▁bullock	-11.6705
▁wrongful	-11.6706
▁distraction	-11.6707
▁partial	-11.6708
▁interactive	-11.6708
▁wives	-11.6712
▁scam	-11.6712
▁cute	-11.6712
▁arson	-11.6713
oli	-11.6713
ties	-11.6719
▁caring	-11.6721
▁fancy	-11.6723
▁charm	-11.6728
▁helm	-11.673
▁switched	-11.6734
▁160	-11.6737
▁mormon	-11.674
▁1985	-11.6742
▁practical	-11.6745
▁efficient	-11.6747
▁cheek	-11.6749
▁sink	-11.6749
▁bergdahl	-11.6752
▁assailant	-11.6753
▁employ	-11.6754
▁dynamic	-11.6755
▁rockets	-11.676
▁retir	-11.676
▁900	-11.6763
▁broadcaster	-11.6765
▁har	-11.6767
▁socialist	-11.6771
▁absent	-11.6774
▁eddie	-11.6775
▁prompte	-11.6777
▁artifacts	-11.6778
▁rental	-11.6779
▁sha	-11.6779
▁consciousness	-11.6779
▁specify	-11.6781
▁zip	-11.6782
▁albert	-11.6784
▁illustrated	-11.6785
▁palmer	-11.6787
▁sprint	-11.679
▁vault	-11.6791
▁gentle	-11.6793
▁lin	-11.6794
▁alien	-11.68
▁grad	-11.6801
▁ahmed	-11.6801
▁directors	-11.6805
▁pork	-11.6806
▁refusal	-11.6809
▁salman	-11.681
wick	-11.6811
▁palestinians	-11.6812
▁packag	-11.6812
▁gathere	-11.6815
▁boulder	-11.6816
nicholas	-11.6825
▁freeway	-11.6826
ger	-11.6831
▁1976	-11.6833
▁singh	-11.6834
▁insurer	-11.6835
▁haram	-11.6836
▁clearance	-11.6837
▁churches	-11.6839
▁johnston	-11.6841
▁astronauts	-11.6843
▁illnesses	-11.6844
▁unusually	-11.6844
floor	-11.6844
▁consist	-11.6844
▁bryan	-11.6845
▁79	-11.6847
owed	-11.6848
▁rover	-11.6848
▁breakup	-11.685
million	-11.6851
▁spare	-11.6854
▁ridge	-11.6857
▁imminent	-11.6858
▁86	-11.6858
▁auschwitz	-11.6858
24	-11.686
▁coleman	-11.6861
▁hearings	-11.6862
▁technologies	-11.6863
▁lips	-11.6865
▁driveway	-11.6866
▁battles	-11.6866
▁180	-11.6867
▁bombshell	-11.6869
net	-11.6869
▁amusing	-11.6871
▁fargo	-11.6873
▁fulfill	-11.6873
▁detection	-11.6875
▁handcuff	-11.6875
▁helmet	-11.6876
▁washing	-11.6879
▁comeback	-11.6879
ff	-11.6881
▁inch	-11.6884
▁enterprise	-11.6888
▁securities	-11.6889
▁bud	-11.6891
▁stein	-11.6898
▁fails	-11.6898
▁operative	-11.6901
▁respondent	-11.6902
▁spelling	-11.6902
▁economics	-11.6903
▁fries	-11.6903
▁contradict	-11.6905
▁bailout	-11.6907
ide	-11.691
▁negligen	-11.691
▁humane	-11.691
▁altogether	-11.6915
▁unrest	-11.6918
ue	-11.692
▁shallow	-11.6921
▁astronaut	-11.6921
▁depressed	-11.6922
ons	-11.6922
▁kidnappe	-11.6923
▁irma	-11.6926
borne	-11.6927
▁disappointing	-11.6928
▁chick	-11.6929
▁sochi	-11.693
▁pratt	-11.6931
▁slim	-11.6934
▁preview	-11.6934
▁straw	-11.6939
▁mat	-11.694
0,000	-11.6942
▁shepherd	-11.6942
▁webb	-11.6947
▁warrior	-11.6948
▁proves	-11.6948
▁injection	-11.695
bus	-11.6951
▁grandchildren	-11.6956
residential	-11.6956
▁stats	-11.6959
▁scatter	-11.6959
▁chile	-11.6961
▁82	-11.6964
▁lloyd	-11.6965
▁offshore	-11.6967
▁archaeological	-11.6967
▁luther	-11.6968
▁stump	-11.6969
▁joine	-11.6969
▁ucla	-11.6969
▁dire	-11.6973
▁unsafe	-11.6974
very	-11.6982
▁flipped	-11.6986
▁fin	-11.6988
ft	-11.699
▁bunker	-11.6993
▁lean	-11.6994
▁evacuate	-11.6995
▁honey	-11.6996
▁sooner	-11.7
▁addict	-11.7003
▁pri	-11.701
▁lays	-11.701
▁newtown	-11.7012
pointing	-11.7012
▁rogue	-11.7014
▁excess	-11.7016
▁grimm	-11.7017
▁controller	-11.7018
▁bowie	-11.7019
▁catherine	-11.7025
▁shipment	-11.7031
▁trends	-11.7031
frequency	-11.7033
▁contents	-11.7034
▁beau	-11.7034
▁dolphins	-11.7037
▁salmon	-11.7037
▁militia	-11.7038
obsessed	-11.7038
shire	-11.7041
▁booth	-11.7045
▁extremist	-11.7046
▁tolerance	-11.7047
ference	-11.7048
▁cookie	-11.7051
▁batch	-11.7053
▁ailes	-11.7055
▁mills	-11.7057
dy	-11.7058
▁ransom	-11.706
▁communist	-11.7061
▁examination	-11.7068
▁lament	-11.7069
ecame	-11.707
▁cobain	-11.7074
▁adequate	-11.7076
▁contempt	-11.7077
grader	-11.7078
▁suicidal	-11.7078
▁bulk	-11.7081
▁wendy	-11.7083
▁sworn	-11.7086
▁restored	-11.7087
▁kurt	-11.709
▁bros	-11.7094
▁expense	-11.7097
▁witch	-11.7099
▁dictator	-11.7103
▁emotion	-11.7105
▁110	-11.7105
▁cub	-11.7108
▁frat	-11.7115
▁discriminat	-11.7116
▁tigers	-11.7121
-1	-11.7122
runner	-11.7123
▁bash	-11.7124
▁marking	-11.7125
▁furniture	-11.7127
ms	-11.7127
▁census	-11.7128
▁birmingham	-11.7129
▁assured	-11.713
disclosed	-11.7131
▁lego	-11.7133
▁depth	-11.7135
▁respirator	-11.7137
▁translate	-11.7139
▁passionate	-11.7139
▁hayes	-11.7143
▁meaningful	-11.7148
fully	-11.7149
▁41-	-11.715
▁bryant	-11.7151
▁voluntar	-11.7153
▁fr	-11.716
▁grip	-11.7163
▁brawl	-11.7167
low	-11.7168
▁cough	-11.7171
▁retiring	-11.7173
einstein	-11.7175
alexis	-11.7176
moving	-11.7179
▁welcom	-11.7179
▁rebuild	-11.7182
▁1983	-11.7182
▁celeb	-11.7182
▁collusion	-11.7183
▁intriguing	-11.7184
ammar	-11.7186
▁prostitution	-11.7189
▁38-	-11.7191
▁satisfied	-11.7191
▁proportion	-11.7192
▁scientology	-11.7192
▁rupert	-11.7199
duncan	-11.7199
▁mario	-11.7201
▁scrap	-11.7202
▁walke	-11.7203
▁adele	-11.7204
▁granddaughter	-11.7209
rites	-11.7209
▁shed	-11.721
unauthorized	-11.7214
▁42-	-11.7229
media	-11.723
▁premier	-11.7237
home	-11.7237
▁ya	-11.7237
▁chavez	-11.7238
▁pays	-11.7239
▁cotton	-11.7239
▁heartbroken	-11.7241
▁moderator	-11.7242
▁applicant	-11.7245
▁spiritual	-11.7248
▁operat	-11.725
▁christians	-11.7256
▁indigen	-11.726
▁protections	-11.7261
▁46-	-11.7262
les	-11.7262
▁endured	-11.7264
▁mourn	-11.7265
good	-11.7267
mann	-11.7268
fortunately	-11.727
ium	-11.7272
gomer	-11.7273
▁mint	-11.7278
▁governors	-11.7279
▁examin	-11.7279
▁der	-11.728
▁chains	-11.7281
▁correctly	-11.7287
▁climber	-11.7288
▁teammates	-11.729
▁aspects	-11.729
▁florence	-11.7293
ready	-11.7294
▁vodka	-11.7295
▁blowing	-11.7295
▁forgive	-11.7297
▁confusing	-11.7299
su	-11.7301
▁unbelievable	-11.7301
▁blend	-11.7302
▁vicious	-11.7303
▁antarctica	-11.7306
▁prevail	-11.7306
▁cooperat	-11.7308
▁crimea	-11.7309
▁beatles	-11.7312
▁curve	-11.7316
▁trunk	-11.7317
▁genital	-11.7319
▁statistics	-11.7322
▁bearing	-11.733
sville	-11.7331
▁severed	-11.7333
▁divert	-11.7333
▁endors	-11.7346
▁luggage	-11.7347
▁fivethirtyeight	-11.7347
▁demonstrat	-11.7348
▁balcony	-11.7348
▁binge	-11.7351
▁gibb	-11.7354
▁psychology	-11.7355
▁inherit	-11.7356
▁regulation	-11.7356
▁1977	-11.7359
▁hopkins	-11.7359
defeated	-11.7363
▁si	-11.7363
▁insulting	-11.7369
▁ethical	-11.7369
▁jeopardy	-11.7373
▁nights	-11.7376
▁planets	-11.738
▁blessed	-11.738
▁kent	-11.7382
▁relieved	-11.7385
ppears	-11.7386
▁snack	-11.7387
▁mann	-11.7396
▁giants	-11.7397
pa	-11.7402
▁embarrassment	-11.7404
leslie	-11.7406
▁lockdown	-11.7406
▁airlift	-11.7408
▁administrators	-11.7409
▁characteristic	-11.7414
▁ipo	-11.7415
fer	-11.7416
▁defamation	-11.7418
▁runners	-11.742
▁errors	-11.7421
▁gown	-11.7422
▁designated	-11.7425
▁intelligent	-11.7429
▁captive	-11.743
▁harassed	-11.7437
gging	-11.7439
▁sinking	-11.744
▁intervene	-11.7449
▁cam	-11.745
ick	-11.7452
▁outfit	-11.7453
▁diverse	-11.7454
▁sara	-11.7459
▁shanghai	-11.7459
▁guzman	-11.746
▁disability	-11.746
▁fresno	-11.7461
chief	-11.7463
▁homosexuality	-11.7464
key	-11.7465
▁trophy	-11.7467
▁colo	-11.747
▁inequality	-11.7473
▁visitor	-11.7474
▁ethnic	-11.7474
▁superstar	-11.7477
▁foley	-11.7478
▁url	-11.7479
▁felon	-11.7479
racked	-11.748
▁parachute	-11.7485
▁scroll	-11.7485
▁wheelchair	-11.7486
▁bald	-11.7487
▁cantor	-11.7491
▁sexuality	-11.7492
ement	-11.7493
▁saga	-11.7496
▁odor	-11.7497
▁tense	-11.7497
ster	-11.7497
▁denial	-11.7499
▁entitle	-11.7504
▁tenn	-11.7508
▁reign	-11.7508
door	-11.7509
backed	-11.7511
▁pew	-11.7514
▁plaza	-11.7516
▁landslide	-11.7516
▁significance	-11.7518
▁delhi	-11.7518
▁premise	-11.752
▁portman	-11.7522
▁orientation	-11.7522
▁abduction	-11.7524
▁clouds	-11.7524
▁lap	-11.7525
▁jen	-11.7525
▁imprisoned	-11.7526
▁erin	-11.7527
chasing	-11.7527
▁professionals	-11.753
▁spacex	-11.7531
▁schmidt	-11.7533
▁4.	-11.7534
▁slamm	-11.7535
rose	-11.7536
▁sword	-11.7537
▁renown	-11.7541
▁cart	-11.7545
▁sudan	-11.7546
▁symbolic	-11.7547
▁leather	-11.7547
▁owen	-11.7548
▁chapel	-11.7548
▁relate	-11.7551
war	-11.7554
▁occupation	-11.7556
▁intentions	-11.7559
▁ankle	-11.756
view	-11.7561
americans	-11.7563
▁assisted	-11.7564
▁expired	-11.7567
▁mocking	-11.7569
▁thumb	-11.757
▁applause	-11.7573
▁lieutenant	-11.7574
▁muhammad	-11.758
▁pleasant	-11.758
▁1969	-11.7582
▁ignor	-11.7584
▁wolves	-11.7585
sley	-11.7585
▁observator	-11.759
ure	-11.7592
▁someday	-11.7593
lying	-11.7593
▁flak	-11.7595
▁accusation	-11.7597
▁5.	-11.7602
▁bases	-11.7605
▁contender	-11.7605
▁instruct	-11.7607
▁missions	-11.7607
▁audit	-11.761
▁extremists	-11.761
▁suggeste	-11.7611
13	-11.7616
▁intake	-11.7617
▁83	-11.7619
▁chew	-11.7621
▁hicks	-11.7628
▁kathleen	-11.763
▁somalia	-11.7631
▁1987	-11.7631
▁activate	-11.7632
▁martha	-11.7632
▁1979	-11.7632
▁cocktail	-11.7633
eyed	-11.7636
▁seaworld	-11.7638
▁swat	-11.7638
▁wireless	-11.7639
▁mama	-11.764
▁boots	-11.7642
▁soap	-11.7642
▁dissent	-11.7645
▁lauer	-11.7645
pouring	-11.765
▁purported	-11.7654
▁itunes	-11.7654
▁alarming	-11.7654
▁destin	-11.7658
▁350	-11.7665
▁lovely	-11.7668
▁counselor	-11.7669
▁yank	-11.7669
▁traces	-11.7669
ions	-11.7673
▁canal	-11.7674
▁robots	-11.7675
▁leban	-11.7675
▁replica	-11.7683
▁reader	-11.7683
▁inspire	-11.7684
▁brink	-11.7684
▁vigil	-11.7687
▁phelps	-11.7687
▁disrespect	-11.7688
▁minorities	-11.7688
▁bronx	-11.7689
▁influential	-11.7691
▁liberals	-11.7691
▁seinfeld	-11.7693
▁enthusiastic	-11.7694
▁tucson	-11.7694
▁jfk	-11.7695
▁roast	-11.7696
▁tub	-11.7698
▁60,000	-11.7704
▁blade	-11.7706
▁buddy	-11.7707
▁identifie	-11.771
racing	-11.7712
diane	-11.7714
▁healing	-11.7717
▁lanes	-11.7718
▁disgrace	-11.7727
▁fle	-11.7729
boyfriend	-11.7731
▁criticize	-11.7731
▁freezing	-11.7733
▁prosecuted	-11.7738
▁subscribers	-11.7741
▁eva	-11.7743
▁portugal	-11.7745
▁speeds	-11.7747
▁terrified	-11.7748
▁aurora	-11.7748
row	-11.7749
▁restroom	-11.7749
▁mistaken	-11.7753
▁rudy	-11.7755
▁preferr	-11.7756
▁accuser	-11.7758
allows	-11.776
▁shattered	-11.7761
▁victor	-11.7766
▁bison	-11.7766
▁cho	-11.7771
▁stemm	-11.7771
▁mur	-11.7772
▁coca	-11.7772
▁cardinal	-11.7773
▁crocodile	-11.7778
selling	-11.7779
have	-11.7781
wa	-11.7789
▁worsen	-11.7789
▁trusted	-11.7791
▁origins	-11.7796
▁intern	-11.7799
▁haiti	-11.7799
▁48-	-11.78
▁zones	-11.78
▁ptsd	-11.7803
▁expletive	-11.7803
▁anonymity	-11.7803
▁bolster	-11.7804
▁quarantine	-11.7804
▁fertility	-11.7805
▁wider	-11.7805
▁mugshot	-11.7805
▁terribly	-11.7808
▁corrupt	-11.7809
rogers	-11.781
▁1978	-11.7811
▁hallway	-11.7813
▁heal	-11.7814
▁rubber	-11.7815
▁upside	-11.7815
▁mercy	-11.7816
▁consensu	-11.7816
▁channels	-11.7818
▁moss	-11.7821
▁erect	-11.7821
▁ousted	-11.7822
▁oath	-11.7822
▁oz	-11.7825
▁titles	-11.7829
▁pedestrians	-11.783
▁preference	-11.783
logged	-11.783
▁lodge	-11.7833
▁pc	-11.7839
▁brexit	-11.784
▁thicke	-11.7841
▁sever	-11.7841
▁shawn	-11.7842
▁cr	-11.7843
▁hoffman	-11.7843
▁ni	-11.7843
▁denounc	-11.7843
▁43-	-11.7852
▁opera	-11.7854
▁flower	-11.7854
▁baton	-11.7854
▁spying	-11.7855
▁expos	-11.7858
yer	-11.7858
▁predators	-11.7861
▁ninth	-11.7863
▁deadspin	-11.7864
▁convincing	-11.7867
▁vandalism	-11.7868
▁artwork	-11.7872
▁petty	-11.7872
ack	-11.7875
▁deliberate	-11.7877
▁limitations	-11.7877
▁pearl	-11.7877
▁12,000	-11.7879
▁2007.	-11.7879
▁plates	-11.788
aid	-11.788
▁bangladesh	-11.7886
▁nutrition	-11.7888
▁turnout	-11.7888
▁mum	-11.7889
▁sculpture	-11.7889
▁queensland	-11.7891
▁atop	-11.7891
▁confession	-11.7891
city	-11.7893
▁spur	-11.7894
▁fu	-11.7897
▁1.8	-11.7898
▁downplay	-11.7903
▁detector	-11.7906
▁respectful	-11.7909
▁ought	-11.7909
▁est	-11.791
▁boarding	-11.7914
▁conventional	-11.7914
▁uproar	-11.7917
▁speakers	-11.792
▁hartford	-11.7921
▁fishermen	-11.7922
▁6.	-11.7923
▁isaac	-11.7923
▁1-	-11.7926
▁gallup	-11.7927
ries	-11.7929
▁chips	-11.793
▁nielsen	-11.7931
▁aggression	-11.7932
▁aspect	-11.7933
▁cu	-11.7936
▁luis	-11.7937
▁mag	-11.7938
ridge	-11.794
▁walters	-11.7943
▁introduc	-11.7944
▁disclosure	-11.7945
▁peru	-11.7952
▁consistently	-11.7953
▁incorrect	-11.7955
irresponsible	-11.7957
▁dining	-11.7958
review	-11.796
▁unity	-11.796
▁lend	-11.7961
▁fuck	-11.7965
gives	-11.7969
▁distant	-11.7977
▁kickstarter	-11.798
▁acquitted	-11.798
▁contractors	-11.7982
speed	-11.7985
▁slot	-11.7985
▁zhang	-11.7987
▁meme	-11.7996
tyson	-11.7996
▁heist	-11.8
▁100-	-11.8
▁checkpoint	-11.8001
▁theatre	-11.8006
▁roam	-11.8007
▁arch	-11.8008
▁floated	-11.8012
▁nest	-11.8023
▁await	-11.8024
ow	-11.8027
▁stash	-11.8033
▁assure	-11.8033
part	-11.8038
▁carnival	-11.8039
▁pesticide	-11.8039
ered	-11.8041
▁timberlake	-11.8041
▁broward	-11.8041
▁grieving	-11.8042
▁duchess	-11.8043
▁primaries	-11.8044
▁happily	-11.8044
▁creators	-11.8046
▁digs	-11.8046
▁danish	-11.8046
▁princeton	-11.8046
wise	-11.8047
▁mal	-11.8049
sisted	-11.8053
▁camping	-11.8058
▁mistress	-11.8058
▁absorb	-11.8059
▁bites	-11.8063
▁booker	-11.8064
▁scandals	-11.8066
▁wherever	-11.8066
▁lucki	-11.8068
ranking	-11.8069
▁fetch	-11.8071
▁judd	-11.8072
▁contribution	-11.8074
▁iceberg	-11.8075
▁7.	-11.8075
facebook	-11.8077
smith	-11.8077
▁ruth	-11.8077
▁jam	-11.8082
▁lesser	-11.8083
▁steer	-11.8083
▁stray	-11.8086
▁gaffe	-11.8087
founded	-11.8087
▁philly	-11.8092
ucci	-11.8095
▁montreal	-11.8099
▁harass	-11.8101
▁provocative	-11.8101
▁staggering	-11.8104
▁400,000	-11.8104
▁sacred	-11.8105
▁batter	-11.8106
▁ambitious	-11.8107
▁chancellor	-11.8108
praying	-11.8112
▁micro	-11.8113
▁bulls	-11.8115
ola	-11.8118
▁tinder	-11.8122
▁wildly	-11.8123
▁spell	-11.8125
▁humble	-11.8129
bank	-11.8131
▁accusers	-11.8135
▁4.5	-11.8139
▁rowling	-11.814
▁departments	-11.8141
▁quipp	-11.8143
▁salvador	-11.8148
▁tapes	-11.815
running	-11.815
▁whip	-11.8151
▁drift	-11.8154
▁oak	-11.8154
▁determin	-11.8155
▁ordinance	-11.8159
▁octopus	-11.8159
▁unharmed	-11.8159
▁meltdown	-11.8159
▁mateen	-11.8165
▁bmw	-11.8168
show	-11.8168
▁ikea	-11.8168
▁megyn	-11.8168
▁ios	-11.817
▁shops	-11.817
▁legalize	-11.817
▁wwii	-11.8171
▁devil	-11.8175
▁finishe	-11.8182
▁fre	-11.8183
▁wade	-11.8183
▁hardest	-11.8184
▁smartphones	-11.8188
▁tracy	-11.8191
ically	-11.8192
▁flies	-11.82
▁gi	-11.8204
▁belongings	-11.8209
▁sch	-11.8213
▁catalog	-11.8217
▁newton	-11.8217
▁comet	-11.8217
▁compliment	-11.8219
▁abdullah	-11.822
▁sympathy	-11.8221
▁cockpit	-11.8222
▁jacksonville	-11.8224
minded	-11.8227
▁sailors	-11.8227
▁civilization	-11.8228
▁backs	-11.8232
▁physics	-11.8233
▁disagreement	-11.8238
▁python	-11.8238
▁reboot	-11.8238
▁assignment	-11.8241
▁toy	-11.8242
▁inaccurate	-11.8243
paid	-11.8245
▁relay	-11.8247
▁belly	-11.8248
▁olive	-11.8249
▁advis	-11.8253
▁hotels	-11.8254
-15	-11.8255
▁unleash	-11.8258
tability	-11.8261
▁flake	-11.8262
ight	-11.8263
▁ingest	-11.8264
▁tension	-11.8264
▁swear	-11.8264
▁chad	-11.827
pack	-11.8272
mer	-11.8274
▁isolation	-11.8275
▁abdul	-11.8279
▁guantanamo	-11.8281
▁veterinarian	-11.8281
▁calf	-11.8282
▁participation	-11.8287
▁lure	-11.8287
▁paralyzed	-11.8292
▁vulnerabilit	-11.8293
▁cindy	-11.8294
▁ac	-11.8295
▁lighting	-11.8296
verly	-11.8297
▁accuracy	-11.8302
▁91	-11.831
po	-11.831
two	-11.8314
▁barr	-11.8316
▁propose	-11.833
▁1.4	-11.8331
▁toxicolog	-11.8335
▁sightings	-11.8338
ely	-11.8342
▁microphone	-11.8343
▁fiorina	-11.8344
▁gorilla	-11.8344
▁consumerist	-11.8345
▁enforce	-11.8345
▁blackberry	-11.8346
▁10.	-11.8346
▁greenhouse	-11.8347
▁watchdog	-11.8349
ough	-11.835
▁carney	-11.8354
▁reversed	-11.8354
▁wagner	-11.8354
▁capsule	-11.8357
▁objection	-11.8357
▁loyalty	-11.8359
▁apologies	-11.8359
▁bruises	-11.8359
▁mud	-11.836
▁faithful	-11.836
▁88	-11.836
▁magazines	-11.8364
▁samuel	-11.8365
▁usda	-11.8366
▁entertaining	-11.8366
master	-11.8367
▁gloves	-11.8368
▁scarlet	-11.8368
▁shelf	-11.837
▁upward	-11.8373
▁knot	-11.8373
▁guinea	-11.8374
▁pedestrian	-11.8376
▁loop	-11.8377
▁leo	-11.8379
▁figur	-11.8384
▁idiot	-11.8391
lec	-11.8395
▁bur	-11.8404
▁jeep	-11.8404
ctively	-11.8404
▁quinn	-11.8406
▁mona	-11.8409
▁primari	-11.8411
▁characterize	-11.8416
▁weaver	-11.8416
▁125	-11.8416
▁shakespeare	-11.8416
▁archiv	-11.8418
▁corey	-11.8424
▁gonzalez	-11.8428
▁mandel	-11.8433
▁compromised	-11.8433
▁finale	-11.8434
▁breasts	-11.8435
▁baron	-11.844
▁drastic	-11.844
fire	-11.8445
▁grenade	-11.8448
▁homophobi	-11.845
▁bon	-11.8453
▁uc	-11.8453
nhap	-11.8455
section	-11.8458
▁limb	-11.846
organ	-11.8464
▁clause	-11.8465
▁spectrum	-11.8468
▁solitary	-11.8468
▁johansson	-11.8468
▁olberman	-11.8468
▁reluctant	-11.8468
▁rapist	-11.847
▁delegation	-11.8471
▁mirand	-11.8472
▁blasio	-11.8474
▁dolls	-11.8476
▁parody	-11.8476
▁slur	-11.848
▁celebrat	-11.8484
▁crater	-11.8491
▁inadvertent	-11.8491
ied	-11.8492
▁seeds	-11.8493
case	-11.8493
abilities	-11.8495
▁boko	-11.8495
▁disciplinar	-11.8496
▁sheep	-11.8499
▁parasite	-11.8501
▁parenting	-11.8501
▁deutsche	-11.8505
▁warmer	-11.8514
oc	-11.8515
▁vegetables	-11.8518
cola	-11.8519
▁lynn	-11.852
▁swallow	-11.852
▁stereotype	-11.8525
▁samaritan	-11.8528
▁specimen	-11.8529
▁identities	-11.8529
▁finland	-11.853
from	-11.853
▁cheerleader	-11.8531
▁collaboration	-11.8531
▁equity	-11.8532
▁lunar	-11.8533
▁neo	-11.8534
▁breed	-11.8534
workers	-11.8535
freddie	-11.8539
▁lobbyist	-11.854
▁nash	-11.8541
▁bourd	-11.8542
▁punching	-11.8544
▁authentic	-11.8545
member	-11.8545
▁kkk	-11.8553
▁colorful	-11.8553
▁nonsense	-11.8557
▁disagrees	-11.8559
▁walt	-11.8559
yn	-11.8563
profit	-11.8563
worker	-11.8568
▁robertson	-11.8573
▁austria	-11.8574
ez	-11.8581
▁campaigning	-11.8582
▁liu	-11.8585
▁plos	-11.8586
▁accomplice	-11.8592
▁fahrenheit	-11.8593
▁cancellation	-11.8594
▁pee	-11.8594
▁nikki	-11.8595
$	-11.8598
▁dynasty	-11.8598
▁1.1	-11.86
▁tidal	-11.8602
▁marble	-11.8603
▁burke	-11.8605
▁crush	-11.8605
▁spinal	-11.861
▁tent	-11.8611
cted	-11.8612
ded	-11.8616
▁fry	-11.8618
▁combine	-11.8619
▁rides	-11.862
▁grandparents	-11.8623
▁plung	-11.8625
▁salad	-11.8626
▁backers	-11.8627
▁tri	-11.863
▁malaysian	-11.8631
affiliated	-11.8632
▁bargain	-11.8632
▁handcuffs	-11.8637
art	-11.8641
teresa	-11.8642
▁myth	-11.8643
▁char	-11.8643
▁sake	-11.8646
▁myers	-11.8646
▁zimbabwe	-11.8647
▁dock	-11.8651
▁equipp	-11.8651
▁disappear	-11.8652
▁39-	-11.8654
▁panama	-11.8654
▁calendar	-11.8655
▁imprisonment	-11.8655
▁streep	-11.8655
ounces	-11.8656
▁pine	-11.8657
▁bits	-11.8657
▁pruitt	-11.8659
▁uncommon	-11.8659
▁fictional	-11.8659
▁pumpkin	-11.866
▁medic	-11.8662
▁min	-11.8663
▁plummet	-11.8663
▁polite	-11.8664
▁takeaway	-11.8664
▁noaa	-11.8665
▁lands	-11.8666
▁mercedes	-11.8667
▁inflation	-11.8668
▁confesse	-11.8668
▁pirates	-11.8668
ged	-11.8669
▁wrestling	-11.867
▁vendor	-11.8671
▁quips	-11.8674
▁boarded	-11.8677
▁crashes	-11.8686
▁chickens	-11.8686
▁diary	-11.8687
▁87	-11.8688
▁surpass	-11.8689
▁disguise	-11.869
▁charitabl	-11.8695
▁regulatory	-11.8696
▁urgent	-11.8697
▁experiments	-11.87
ten	-11.87
about	-11.8708
ga	-11.8709
▁adrian	-11.871
▁municipal	-11.8711
▁pockets	-11.8713
dollar	-11.8714
▁czech	-11.8718
▁honolulu	-11.8718
▁threshold	-11.8719
lton	-11.872
▁slowed	-11.8722
▁alike	-11.8724
▁lowered	-11.8724
▁paparazzi	-11.8725
▁feminist	-11.8727
▁disturbance	-11.8727
ira	-11.8729
▁educate	-11.873
▁uprising	-11.873
ranos	-11.8731
▁spotify	-11.8732
▁bicycle	-11.8734
▁periods	-11.8735
▁bragg	-11.8735
▁gq	-11.8735
▁seniors	-11.8735
▁mainland	-11.8735
▁tales	-11.8737
▁abrams	-11.8739
▁tucker	-11.8739
laying	-11.8745
▁altitude	-11.8745
▁fianc	-11.8747
▁traced	-11.8748
▁distribute	-11.8749
opoulos	-11.8752
▁intruder	-11.876
▁conan	-11.876
▁grill	-11.876
▁languages	-11.876
▁1.7	-11.8761
▁freeman	-11.8761
▁1972	-11.8761
▁carr	-11.8762
▁loses	-11.8768
fashion	-11.8775
op	-11.8776
▁reel	-11.8777
▁90-	-11.878
▁linger	-11.8781
▁sin	-11.8786
▁woody	-11.8786
▁restoration	-11.8789
▁horrifying	-11.879
▁transparent	-11.8791
pilot	-11.8792
▁expire	-11.8792
powered	-11.8795
▁considerabl	-11.8796
▁entrepreneur	-11.8797
▁horrifi	-11.8799
appearing	-11.8807
▁compile	-11.8812
▁cares	-11.8812
warded	-11.8816
▁calculated	-11.8817
▁crops	-11.8819
▁wildfire	-11.8822
▁alligator	-11.8824
▁shipwreck	-11.8824
▁mug	-11.8833
▁patrons	-11.8836
▁mouse	-11.8841
▁amateur	-11.8843
jenny	-11.8846
▁beta	-11.8846
▁arpaio	-11.8847
▁possibilities	-11.8847
ana	-11.8847
▁faculty	-11.8849
▁strauss	-11.885
▁physicist	-11.8851
▁libertarian	-11.8855
▁bahamas	-11.8856
▁indoor	-11.8856
▁diaz	-11.8856
▁batman	-11.8857
▁drives	-11.8859
▁deposition	-11.8859
▁hawk	-11.886
▁plight	-11.886
▁disrespectful	-11.886
▁graph	-11.8861
▁tribal	-11.8861
▁sadness	-11.8863
▁denounce	-11.8868
▁clay	-11.8872
▁13.	-11.8874
course	-11.8876
buque	-11.888
language	-11.888
ise	-11.888
▁reed	-11.888
▁postpone	-11.8881
play	-11.8882
▁avail	-11.8882
▁conceal	-11.8884
▁juror	-11.8887
▁oceans	-11.8892
▁rainbow	-11.8892
▁conclusions	-11.8893
▁skies	-11.8893
▁keller	-11.8893
▁translation	-11.89
▁antarctic	-11.89
▁bribe	-11.8909
▁junk	-11.8912
▁hanged	-11.8913
▁operational	-11.8913
▁hagel	-11.8913
▁discipline	-11.8914
▁labeouf	-11.8914
▁transparency	-11.8914
▁abraham	-11.8915
▁volatil	-11.8916
▁accountability	-11.8917
apped	-11.8926
▁alternate	-11.8926
▁dealers	-11.8928
▁malik	-11.8929
▁installation	-11.8929
▁underwood	-11.8929
▁wax	-11.893
▁bodyguard	-11.8932
largest	-11.8937
▁clever	-11.8938
book	-11.894
apping	-11.8942
fish	-11.8943
▁scour	-11.8946
▁issu	-11.8948
▁steele	-11.8948
▁holly	-11.8951
▁eyewitness	-11.8953
▁sicken	-11.8954
▁conscience	-11.8955
▁processed	-11.8962
▁iphones	-11.8964
▁monitored	-11.8965
▁burglar	-11.8966
▁litter	-11.8966
▁enhance	-11.8967
▁migration	-11.8972
▁scathing	-11.8977
▁ostensibl	-11.8977
▁ecosystem	-11.8977
▁kimberly	-11.8978
▁hathaway	-11.8979
▁aerial	-11.898
▁yosemite	-11.8981
▁households	-11.8984
▁methane	-11.8985
▁parkland	-11.8985
▁gosling	-11.8985
▁theoretical	-11.899
▁holland	-11.8991
▁clubs	-11.8993
▁spiders	-11.8998
▁neutral	-11.8999
▁convert	-11.9
▁flier	-11.9001
"	-11.9002
sey	-11.9004
▁conclud	-11.9006
handed	-11.9007
▁holt	-11.9007
▁dressing	-11.9007
▁windsor	-11.901
▁wynn	-11.9015
▁outlook	-11.9016
▁prop	-11.9017
▁nationalist	-11.902
▁voluntary	-11.9024
whoever	-11.9026
olds	-11.9033
▁apprentice	-11.9035
▁albums	-11.9037
▁coaches	-11.9038
▁prep	-11.904
▁flush	-11.9042
▁kabul	-11.9043
▁cathedral	-11.9043
▁bonds	-11.9045
▁pneumonia	-11.9046
▁immunity	-11.9046
▁curiosity	-11.9048
▁safeguard	-11.9048
ul	-11.9049
▁poisoned	-11.905
▁49-	-11.9051
ik	-11.9052
▁colony	-11.9053
▁halfway	-11.9053
▁healthier	-11.9055
▁slice	-11.9057
▁53-	-11.9062
▁utility	-11.9064
▁conceive	-11.9068
▁relax	-11.9069
turned	-11.907
▁deploy	-11.9073
▁baghdad	-11.9074
▁1968	-11.9076
▁iq	-11.9076
▁tide	-11.9077
▁tu	-11.9081
▁separatist	-11.9086
therapy	-11.9089
▁corrected	-11.909
▁scholarship	-11.9091
▁condom	-11.9093
▁nassa	-11.9094
▁zombie	-11.9095
▁gilli	-11.9105
ended	-11.9106
▁acquaintance	-11.9109
▁coincidence	-11.911
▁remorse	-11.9111
▁occurrence	-11.9112
▁carrey	-11.9113
▁craigslist	-11.9114
▁fisherman	-11.9114
northwestern	-11.9116
▁gambling	-11.9116
▁deepest	-11.9118
marcus	-11.9121
▁alice	-11.9121
▁refuses	-11.9123
▁persuade	-11.9128
▁breastfeeding	-11.9132
▁boxer	-11.9132
▁exemption	-11.9134
▁resource	-11.914
▁incredib	-11.9142
▁93	-11.9144
▁pie	-11.9145
▁robb	-11.9145
▁corpse	-11.9146
▁reactor	-11.915
▁greene	-11.9155
▁negligent	-11.9155
▁lax	-11.9156
▁brock	-11.9159
▁restricted	-11.9164
▁subsidi	-11.9167
▁beaver	-11.9167
dom	-11.9167
▁oddly	-11.9168
▁cooler	-11.917
▁clan	-11.9174
▁hurdle	-11.9174
▁carcass	-11.9176
▁1973	-11.9176
▁stairs	-11.9176
▁allergy	-11.9178
▁poet	-11.9178
▁gorsuch	-11.918
▁pub	-11.918
▁biography	-11.9182
▁demise	-11.9184
▁naac	-11.9185
▁interestingly	-11.9191
▁tel	-11.9192
just	-11.9196
channel	-11.9199
▁operates	-11.9199
▁legalization	-11.9202
▁wraps	-11.9202
▁possess	-11.9205
▁waist	-11.9206
▁drum	-11.9207
▁railing	-11.9207
▁vampire	-11.921
▁karz	-11.921
▁showdown	-11.9214
certified	-11.9215
inspiring	-11.9216
▁ci	-11.922
had	-11.9221
▁historically	-11.9221
▁cl	-11.9223
▁seizures	-11.9225
▁hol	-11.923
▁reflection	-11.9233
▁buses	-11.9233
▁embryos	-11.9233
▁wal	-11.9236
▁55-	-11.9242
▁musicians	-11.9242
▁fist	-11.9243
▁disregard	-11.9243
▁technician	-11.9243
▁radioactive	-11.9244
▁contentious	-11.9244
▁simpsons	-11.9246
▁barrett	-11.9247
▁honeymoon	-11.9247
▁problematic	-11.9248
▁labour	-11.9248
▁cautious	-11.9248
▁coordinat	-11.9249
▁solidarity	-11.925
sically	-11.925
▁blair	-11.925
▁gr	-11.925
▁distinction	-11.9252
▁contestants	-11.9259
▁disputes	-11.9259
▁investigati	-11.9259
▁sachs	-11.9261
▁stab	-11.9261
▁molest	-11.9264
▁villager	-11.9266
▁te	-11.9271
▁thumbs	-11.9273
▁enthusias	-11.9274
▁ensued	-11.928
▁trainer	-11.9284
▁taped	-11.9284
▁selena	-11.9285
▁ambush	-11.9289
has	-11.929
▁clinics	-11.929
▁reopened	-11.9292
▁statues	-11.9293
saw	-11.9298
▁gill	-11.93
▁drinkers	-11.9302
▁hormone	-11.9302
▁tebow	-11.931
▁obstacle	-11.931
▁bathtub	-11.9315
bullied	-11.9318
kowski	-11.9319
▁uncertain	-11.9322
▁convey	-11.9323
▁deserved	-11.9325
ari	-11.9326
▁generat	-11.9328
▁carpenter	-11.9332
▁instinct	-11.9332
▁matthews	-11.9336
▁cinema	-11.9336
stream	-11.9338
▁questionable	-11.9338
▁surveys	-11.9339
▁mich	-11.9348
▁attribute	-11.9348
▁mature	-11.9353
▁motivate	-11.9353
▁yankees	-11.9354
meddling	-11.9355
meter	-11.9357
ini	-11.9357
▁ab	-11.9357
▁bend	-11.9357
▁kin	-11.9361
3,000	-11.9369
▁rabbit	-11.9372
tified	-11.9374
▁gala	-11.9375
▁streak	-11.9376
sounding	-11.9378
▁enroll	-11.9379
▁fraudulent	-11.9381
▁voicemail	-11.9384
▁rider	-11.9385
con	-11.9386
ative	-11.9387
▁probable	-11.9395
11	-11.9395
▁circus	-11.9398
▁fifty	-11.9399
▁shootout	-11.9401
▁lacking	-11.9405
▁doe	-11.9405
▁cheated	-11.9413
▁tommy	-11.9414
limited	-11.9416
▁tractor	-11.9416
▁smuggling	-11.9418
res	-11.9418
▁insensitive	-11.9419
▁blank	-11.9419
▁mattis	-11.9422
▁surrogate	-11.9427
▁laughs	-11.9428
▁achiev	-11.9428
▁shareholders	-11.9434
hit	-11.9439
▁cleaner	-11.9444
▁cement	-11.9445
▁genre	-11.9446
▁meek	-11.9447
▁barcelona	-11.9447
▁arraign	-11.9448
▁kunis	-11.9449
▁92	-11.9449
▁uncertainty	-11.945
▁woes	-11.9452
▁coyote	-11.9454
▁alley	-11.9455
▁frontrunner	-11.9458
▁mosquitoes	-11.9458
▁olivia	-11.9459
▁payout	-11.9459
▁getaway	-11.9459
▁falcon	-11.9459
▁sequence	-11.9465
▁tuition	-11.9465
▁lonely	-11.9466
▁impair	-11.9481
erkel	-11.9482
▁erase	-11.9483
▁lance	-11.9486
▁acute	-11.9487
▁rove	-11.9487
▁choked	-11.9488
▁tolerate	-11.9488
▁bucks	-11.9489
halftime	-11.949
ounded	-11.9491
▁fusion	-11.9492
kind	-11.95
▁swap	-11.9503
▁torn	-11.9504
▁pals	-11.9509
atherine	-11.9509
▁wed	-11.9512
▁ham	-11.9515
▁24/7	-11.9516
▁disappointment	-11.9519
▁acquisition	-11.9521
▁botched	-11.9522
▁gum	-11.9522
▁cyclist	-11.9522
▁exploration	-11.9523
▁winehouse	-11.9524
▁arabic	-11.9524
unemployed	-11.9524
▁substances	-11.9525
▁reince	-11.9526
▁overtime	-11.9526
20	-11.9527
▁descent	-11.9529
watch	-11.953
risk	-11.9531
▁realistic	-11.9533
▁constitute	-11.9535
▁trespassing	-11.9536
▁evolutionary	-11.9537
▁kidding	-11.9541
▁bella	-11.9542
stop	-11.9545
▁fitting	-11.9547
▁travers	-11.9548
▁niece	-11.9553
▁bosses	-11.9553
▁rosa	-11.9555
▁condo	-11.9556
▁nun	-11.9562
▁obstruction	-11.957
▁dolphin	-11.957
▁representation	-11.9574
▁accompani	-11.9575
▁mutation	-11.9575
▁pierre	-11.9575
chased	-11.9575
▁outer	-11.9577
▁subtle	-11.9577
▁70,000	-11.9577
▁18.	-11.9578
▁adolf	-11.9579
▁frames	-11.958
▁hedge	-11.9581
▁wis	-11.9583
▁eliminated	-11.9583
▁awake	-11.9586
▁cecil	-11.9587
▁blockbuster	-11.9588
▁lemon	-11.9589
▁sitcom	-11.9589
▁asthma	-11.9592
▁mia	-11.9592
▁elect	-11.9592
▁nunes	-11.9592
▁synthetic	-11.9594
darren	-11.9594
▁transmission	-11.9596
▁daca	-11.9598
▁homosexual	-11.9598
room	-11.9599
oh	-11.9605
lc	-11.9609
▁harmless	-11.961
▁prosecute	-11.961
love	-11.961
▁kn	-11.9613
maintained	-11.9613
▁liz	-11.9616
▁bridges	-11.9616
▁grove	-11.9622
ung	-11.9623
▁dems	-11.9626
▁dragon	-11.9627
▁provider	-11.963
lapped	-11.963
▁contacts	-11.9634
▁70-	-11.9634
lihood	-11.9636
▁hyper	-11.9637
▁grain	-11.964
▁sunset	-11.9641
airways	-11.9648
drew	-11.965
▁curse	-11.9651
▁decidedly	-11.9653
▁costumes	-11.9654
▁lebron	-11.9655
▁schizophrenia	-11.9656
▁disabilities	-11.9656
▁hansen	-11.9657
nicolas	-11.966
▁alexandria	-11.966
▁motel	-11.9662
▁apprehended	-11.9663
▁lena	-11.9664
acted	-11.9665
▁fossils	-11.9665
▁emirates	-11.9665
▁wfaa	-11.9667
▁nationally	-11.9667
▁congratulations	-11.9668
▁waitress	-11.9672
▁donat	-11.9672
first	-11.9675
ved	-11.9675
▁relat	-11.9677
▁constituent	-11.9677
depth	-11.9679
▁sho	-11.9679
▁spawn	-11.9679
▁wang	-11.968
▁sting	-11.9681
▁jazz	-11.9683
▁cour	-11.9691
▁converted	-11.9692
▁devo	-11.9694
▁ritual	-11.9694
▁peters	-11.9696
▁lowe	-11.9698
▁parish	-11.9701
▁cancers	-11.9701
▁nails	-11.9702
▁triumph	-11.9707
▁docs	-11.9708
▁euros	-11.9708
mariah	-11.9716
▁miners	-11.9716
vanessa	-11.9717
▁bre	-11.9718
▁lobbying	-11.9718
ging	-11.972
▁traumati	-11.972
▁traits	-11.9724
ramirez	-11.9726
▁yelp	-11.9726
▁pledg	-11.9729
▁fentanyl	-11.973
▁airbnb	-11.9732
▁aluminum	-11.9733
▁tactic	-11.9733
50	-11.9734
▁genetically	-11.9735
▁shine	-11.9739
▁spa	-11.9741
▁terrain	-11.9742
▁gag	-11.9742
▁snoop	-11.9742
▁911.	-11.9743
▁avery	-11.9744
▁owens	-11.9744
▁astonishing	-11.9747
▁94	-11.9749
nate	-11.9754
▁unlock	-11.9758
▁spaces	-11.9759
▁shar	-11.9759
allest	-11.9761
gged	-11.9762
ives	-11.9763
▁translates	-11.9765
▁pains	-11.9772
▁jade	-11.9774
▁aviv	-11.9776
▁mechanism	-11.9778
▁ky	-11.978
angelo	-11.9791
sburg	-11.9791
▁hughe	-11.9794
▁artistic	-11.9795
proving	-11.9796
▁compassion	-11.9796
▁warmbier	-11.9797
▁impeachment	-11.9797
ld	-11.9798
▁thigh	-11.9798
▁priorities	-11.9798
▁melbourne	-11.9799
▁payroll	-11.9799
▁cholesterol	-11.9801
▁spiegel	-11.9802
rangers	-11.9802
▁suppress	-11.9803
▁feedback	-11.9803
▁gradually	-11.9804
▁sequester	-11.9804
▁prolong	-11.9804
▁automaker	-11.9804
▁wary	-11.9806
▁dioxide	-11.9809
▁negotiator	-11.9809
▁regulate	-11.981
▁dixon	-11.981
▁alt	-11.9813
▁98	-11.9815
▁skinny	-11.9817
▁behavioral	-11.9821
▁exclude	-11.9821
▁performe	-11.9821
use	-11.9822
▁sincerely	-11.9823
▁modeling	-11.9825
▁shaw	-11.983
▁torso	-11.983
▁communicat	-11.983
▁citation	-11.9831
▁destructive	-11.9841
▁cleric	-11.9841
▁squeeze	-11.9856
▁14.	-11.9862
▁lily	-11.9865
alia	-11.9865
▁atlas	-11.9866
▁worship	-11.9866
▁migrant	-11.9867
▁graduat	-11.9867
▁jungle	-11.9868
gadget	-11.9869
▁credential	-11.987
▁nabb	-11.9871
pinning	-11.9871
▁elvis	-11.9874
▁senseless	-11.9875
▁dishonest	-11.9877
▁fingerprints	-11.9878
▁mechanical	-11.9878
▁harmed	-11.9878
▁seller	-11.9879
leaning	-11.988
▁fathers	-11.988
▁lam	-11.988
▁wildfires	-11.9896
▁35,000	-11.9896
▁tulsa	-11.9898
▁releases	-11.9902
▁imports	-11.9903
▁malfunction	-11.9904
▁ancestors	-11.9908
▁mortal	-11.9908
▁candid	-11.9909
▁swarm	-11.9911
▁gaming	-11.9913
sdom	-11.9913
▁47-	-11.992
▁44-	-11.9921
▁motivat	-11.9922
▁listened	-11.9925
▁wheat	-11.9929
shannon	-11.9933
▁brooke	-11.9934
trial	-11.9934
▁surf	-11.9936
▁pod	-11.9936
▁leopard	-11.994
▁swamp	-11.994
▁offspring	-11.9942
▁allergies	-11.9942
▁stack	-11.9943
▁worrying	-11.9945
▁kurdish	-11.9945
▁agricultural	-11.9945
▁prostitutes	-11.9945
▁curator	-11.9946
pac	-11.9946
▁copper	-11.9947
▁interrogation	-11.9948
▁malley	-11.9949
▁miserable	-11.9949
▁exotic	-11.995
ev	-11.9951
▁excavation	-11.9954
▁sellers	-11.9961
▁sedan	-11.9966
▁manufacture	-11.997
▁births	-11.9973
quality	-11.9973
ker	-11.9975
ided	-11.9975
edited	-11.9979
▁clarifie	-11.9979
▁heck	-11.9982
▁align	-11.9986
▁hawaiian	-11.9986
▁tunnels	-11.9994
▁coordinate	-11.9997
▁exercis	-11.9999
▁plow	-12
crowley	-12.0001
▁honda	-12.001
▁squirrel	-12.0012
▁empathy	-12.0013
▁traditionally	-12.0013
▁shi	-12.0014
▁800,000	-12.0016
▁inaugural	-12.0017
▁contraception	-12.0017
▁albany	-12.0018
▁ivory	-12.0018
▁kylie	-12.0019
▁acquir	-12.0019
▁minaj	-12.0019
▁powerball	-12.0021
▁brew	-12.0025
▁paycheck	-12.0028
▁reache	-12.0028
ying	-12.003
▁occurr	-12.0032
mi	-12.0032
▁schwartz	-12.0033
▁colon	-12.0034
▁reiterate	-12.0034
▁ye	-12.0036
▁barbie	-12.0039
▁contributor	-12.0041
▁raft	-12.0042
▁loser	-12.0048
▁barriers	-12.0049
▁shrink	-12.0049
▁murk	-12.0051
▁sharply	-12.0059
▁stall	-12.006
▁shifts	-12.006
▁networking	-12.0066
▁thread	-12.0067
▁prie	-12.0067
▁contestant	-12.007
▁prediction	-12.008
ara	-12.0081
win	-12.0084
▁geneva	-12.0088
▁external	-12.0089
▁roseanne	-12.0089
▁laundry	-12.0089
▁solomon	-12.0094
▁accounting	-12.0094
▁96	-12.0096
▁enlist	-12.0097
burn	-12.0098
▁knees	-12.0098
grams	-12.0102
▁permitt	-12.0107
peacefully	-12.0108
▁alberta	-12.0111
▁hurts	-12.0113
▁suite	-12.0114
▁54-	-12.0115
cal	-12.0115
lessness	-12.0115
police	-12.0115
▁bart	-12.0119
▁crap	-12.0121
ino	-12.0122
▁derail	-12.0123
▁rode	-12.0124
▁ti	-12.0124
▁agreements	-12.0126
2,000	-12.0126
▁reinstate	-12.0131
hubby	-12.0131
fty	-12.0137
▁parallel	-12.0138
▁homeowners	-12.0141
▁blogs	-12.0141
▁ensur	-12.0141
▁grants	-12.0142
▁eventual	-12.0146
service	-12.015
▁midterm	-12.0151
▁leaning	-12.0154
▁hurl	-12.0157
▁beans	-12.0158
▁kings	-12.0158
▁sausage	-12.0161
▁havana	-12.0162
▁intoxication	-12.0164
▁fruits	-12.0166
▁wheels	-12.0166
▁seas	-12.0171
▁hussein	-12.0171
▁judy	-12.0173
▁mentor	-12.0174
▁sponsors	-12.0175
▁informant	-12.0175
▁amtrak	-12.0176
▁womb	-12.0176
▁mattress	-12.0176
▁outpouring	-12.0177
▁overweight	-12.018
▁sewer	-12.0182
▁setback	-12.0183
▁8.	-12.019
▁atomic	-12.019
▁dayton	-12.0195
▁ministers	-12.0199
▁frightening	-12.0203
▁hollow	-12.0204
▁glori	-12.0204
▁alcoholic	-12.0205
▁dunn	-12.0206
▁cleaned	-12.0207
▁rejection	-12.0209
ving	-12.0209
▁lump	-12.021
▁outage	-12.0212
pic	-12.0217
done	-12.0217
▁audition	-12.0218
▁dicaprio	-12.0233
▁lou	-12.0233
▁divisive	-12.0234
▁empower	-12.0234
▁pivot	-12.0235
ese	-12.0238
▁revoke	-12.0241
▁parkinson	-12.0243
▁patel	-12.0244
▁outspoken	-12.0245
▁jin	-12.025
▁potatoes	-12.0251
▁shorts	-12.0252
▁finalized	-12.0254
▁reconsider	-12.0255
▁renew	-12.0256
▁viewer	-12.0264
▁screens	-12.0265
any	-12.0265
▁smokers	-12.0269
▁14,000	-12.0271
▁skirt	-12.0272
▁tipped	-12.0275
▁ounce	-12.0277
▁52-	-12.0277
▁tweak	-12.0277
▁specifi	-12.0279
▁gardens	-12.0285
▁grilled	-12.0286
▁glee	-12.0286
▁cries	-12.0288
▁organiz	-12.0291
▁pharmaceutical	-12.0297
▁forcibl	-12.0302
▁stripes	-12.0303
▁gasoline	-12.0308
▁amsterdam	-12.0308
▁coulter	-12.0308
▁raids	-12.0308
▁resemblance	-12.0309
▁robberies	-12.0309
▁andrews	-12.031
▁glory	-12.0311
▁litigation	-12.0312
▁dominated	-12.0312
▁mccartney	-12.0313
▁suitcase	-12.0317
▁katrina	-12.0318
▁merchandise	-12.0325
▁ju	-12.0329
▁accent	-12.033
▁illustrate	-12.033
▁tire	-12.0332
felt	-12.0335
▁viable	-12.0337
▁1975	-12.034
fner	-12.0346
ab	-12.0348
▁performers	-12.0353
setting	-12.0354
▁honesty	-12.0356
gazette	-12.0357
▁usher	-12.0362
▁reps	-12.0365
▁yacht	-12.0372
▁cheering	-12.0377
season	-12.0377
▁spilled	-12.0377
▁melt	-12.0382
▁eugen	-12.0382
tainted	-12.0382
▁punk	-12.0383
▁mosquito	-12.0384
▁carroll	-12.0386
die	-12.0387
child	-12.0388
▁disneyland	-12.0388
▁petersburg	-12.0388
▁bogus	-12.0392
▁earhart	-12.0395
▁decree	-12.0398
▁dwarf	-12.0402
get	-12.0406
▁barron	-12.0407
▁75,000	-12.0409
▁screw	-12.0412
▁surgical	-12.0412
these	-12.0414
▁failures	-12.0416
▁hence	-12.0421
▁implant	-12.0426
▁airbus	-12.0427
▁flores	-12.0428
▁actresses	-12.0428
ano	-12.0432
▁dorm	-12.0433
▁golfer	-12.0433
▁1971	-12.0437
▁skipp	-12.0438
▁brenda	-12.0439
▁andy	-12.0441
▁lineup	-12.0442
dade	-12.0443
▁mahmo	-12.0443
▁flock	-12.0447
▁daytime	-12.0448
▁profession	-12.0455
▁occupie	-12.0455
▁owed	-12.0458
▁boulevard	-12.0458
▁chipotle	-12.0459
▁copenhagen	-12.0459
▁measles	-12.0459
adly	-12.0459
ks	-12.0461
▁caps	-12.0461
▁midwest	-12.0462
▁vent	-12.0463
▁louisville	-12.0463
▁jurisdiction	-12.0464
▁fragile	-12.0465
▁eastwood	-12.0466
▁alpha	-12.0468
▁farook	-12.0469
▁usage	-12.047
▁comparable	-12.047
▁battled	-12.047
▁kitten	-12.047
▁reset	-12.0473
▁adverse	-12.0473
ui	-12.0474
▁linkedin	-12.0481
▁ivy	-12.0497
▁faint	-12.0497
▁popp	-12.05
ade	-12.05
▁ups	-12.0502
▁sunni	-12.0504
▁exempt	-12.0508
▁bale	-12.0509
▁withdrawn	-12.0511
▁admire	-12.0512
▁swipe	-12.0514
tta	-12.0515
▁vets	-12.052
▁viruses	-12.052
▁abuses	-12.0521
▁maid	-12.0524
▁suck	-12.0524
iled	-12.0528
▁revise	-12.0533
▁exxon	-12.0535
▁marker	-12.0535
▁forbid	-12.0536
cia	-12.0537
▁nutrient	-12.0537
▁propublica	-12.0537
▁literary	-12.0539
▁archbishop	-12.054
▁hammond	-12.0541
▁infectious	-12.0543
▁sophomore	-12.0545
▁enact	-12.0545
▁chiefs	-12.0549
semitic	-12.0549
▁deployment	-12.055
▁continuous	-12.0551
▁annoying	-12.0551
▁tampering	-12.0553
▁il	-12.0554
▁midterms	-12.0554
▁finishing	-12.0554
lain	-12.0555
▁runoff	-12.0555
▁uniforms	-12.0556
▁format	-12.0557
▁thirty	-12.0558
▁devin	-12.0561
fil	-12.0561
▁terminated	-12.0563
ipping	-12.0563
▁89	-12.0563
owitz	-12.0564
going	-12.0566
▁dip	-12.057
▁awaken	-12.0573
▁willis	-12.0573
▁stu	-12.058
▁indonesian	-12.058
▁frighten	-12.0583
▁poem	-12.0583
▁smear	-12.0584
▁satisfaction	-12.0584
weight	-12.0587
▁medically	-12.0591
▁bland	-12.0593
▁masks	-12.06
nick	-12.0601
uted	-12.0601
▁kicks	-12.0604
looming	-12.0609
▁johns	-12.061
▁revamp	-12.061
▁munich	-12.0612
▁meredith	-12.0612
▁lexington	-12.0612
▁endure	-12.0612
▁performer	-12.0613
▁170	-12.0613
raping	-12.0615
▁ailment	-12.0615
▁architect	-12.0616
▁gratitude	-12.0617
▁sobriety	-12.0617
▁fend	-12.0617
▁notify	-12.0618
▁fetal	-12.0619
▁functional	-12.0621
▁umbrella	-12.0621
▁shoulders	-12.0624
▁occupant	-12.0624
▁dragging	-12.0626
▁swan	-12.0626
▁tripp	-12.0627
▁gentleman	-12.0628
aims	-12.063
▁predictions	-12.0632
▁les	-12.0633
▁aol	-12.0635
▁cod	-12.0636
▁substitute	-12.0637
▁mack	-12.0637
▁disruption	-12.0637
ntsb	-12.0637
▁extinct	-12.064
▁duration	-12.0641
▁taunt	-12.0643
▁harold	-12.0643
mouth	-12.0645
mitted	-12.0649
▁masters	-12.0649
▁irony	-12.0651
▁lil	-12.0653
▁frantic	-12.0654
▁chok	-12.0654
▁1963	-12.0658
▁sto	-12.0659
▁rhino	-12.066
▁prevalen	-12.0662
ilia	-12.0664
tality	-12.0666
rown	-12.0666
yard	-12.0666
▁therapist	-12.0668
▁beyonc	-12.0669
▁sci	-12.0673
▁97	-12.0675
▁115	-12.0676
▁consequence	-12.0676
▁chalk	-12.0677
gaining	-12.0679
▁scanner	-12.0686
▁laundering	-12.0686
mington	-12.0688
▁waking	-12.0689
▁strains	-12.0689
▁mohammad	-12.0692
▁leah	-12.0693
▁1945	-12.0693
▁volcanic	-12.0693
▁smack	-12.0694
ealed	-12.0694
▁adorable	-12.0695
▁backstage	-12.0695
▁hazard	-12.0696
▁patricia	-12.0696
▁monetary	-12.0697
▁prostate	-12.0699
▁appropriately	-12.0699
vented	-12.0699
▁criteri	-12.0703
▁rosie	-12.0704
▁interpretation	-12.0705
▁arrange	-12.0705
▁seize	-12.0711
▁chow	-12.0713
▁fits	-12.0713
17	-12.0714
▁bark	-12.0715
▁poke	-12.0716
▁jpm	-12.072
▁sickness	-12.0721
▁tenant	-12.0722
lifting	-12.0723
▁reese	-12.0726
iagara	-12.0731
round	-12.0736
▁generic	-12.0737
▁bal	-12.074
▁slap	-12.074
misunderstanding	-12.0742
black	-12.0743
▁thunder	-12.0743
▁fiber	-12.0744
▁melting	-12.0745
▁echoe	-12.0745
▁void	-12.0746
took	-12.0746
▁skill	-12.0747
▁accomplish	-12.0748
▁prone	-12.0751
▁brewer	-12.0753
▁cannes	-12.0754
▁coli	-12.0755
▁hindu	-12.076
▁frontier	-12.0761
casting	-12.0761
▁costly	-12.0762
▁civic	-12.0763
▁reservoir	-12.0767
▁whatsoever	-12.0768
▁mccabe	-12.0768
▁relentless	-12.0769
▁airspace	-12.0769
▁charts	-12.0769
▁hydrogen	-12.0769
▁leukemia	-12.077
▁spine	-12.077
▁ominous	-12.077
▁spelled	-12.0771
▁disastrous	-12.0773
▁stonehenge	-12.0773
▁reproductive	-12.0773
▁embedded	-12.0774
breivik	-12.0775
▁installment	-12.0778
▁booking	-12.0779
▁delicious	-12.0779
▁enduring	-12.078
▁jetblue	-12.078
▁rouge	-12.0783
▁davidson	-12.0786
▁difficulties	-12.0788
▁pirate	-12.0791
▁asset	-12.0795
▁stun	-12.0802
▁keen	-12.0806
▁inspectors	-12.0809
▁sincere	-12.0809
▁11,000	-12.0811
mont	-12.0811
▁comprise	-12.0811
hill	-12.0816
▁topless	-12.0819
ls	-12.0819
▁loot	-12.082
di	-12.0822
▁woo	-12.0823
▁till	-12.0825
▁joaqu	-12.0828
▁gangs	-12.0828
▁airstrike	-12.0836
▁fingerprint	-12.0837
chi	-12.0841
▁sears	-12.0845
mart	-12.0846
▁nasdaq	-12.0846
▁mugabe	-12.0846
▁pattinson	-12.0846
▁wsb	-12.0848
▁robust	-12.0849
▁psychiatrist	-12.085
fox	-12.0851
▁emphasis	-12.0852
girl	-12.0852
▁georgetown	-12.0852
▁appetite	-12.0854
▁beacon	-12.0854
▁injunction	-12.0854
▁gorgeous	-12.0858
▁hooked	-12.0858
▁motors	-12.086
▁sol	-12.0861
▁summon	-12.0861
▁bonuses	-12.0862
▁elevated	-12.0862
▁bitch	-12.0867
▁dem	-12.0868
▁cooked	-12.0872
▁beds	-12.0873
▁au	-12.0877
▁kathy	-12.0878
▁banker	-12.0879
▁nestle	-12.088
▁cur	-12.0882
▁kindle	-12.0883
▁collaps	-12.0883
▁texan	-12.0884
▁atmospher	-12.0885
▁ribs	-12.0885
▁reeves	-12.0888
lago	-12.089
▁swearing	-12.0891
▁consensual	-12.0894
ventura	-12.0897
▁donna	-12.0902
,000	-12.0906
▁rocker	-12.0906
▁corker	-12.0914
▁80-	-12.0914
▁invent	-12.0917
▁distinctive	-12.0917
tter	-12.0919
xml	-12.0921
▁sewage	-12.0926
▁reconciliation	-12.0926
▁pla	-12.0927
▁ecuador	-12.0928
▁earnest	-12.0928
▁feces	-12.0928
▁televised	-12.093
▁abbey	-12.0931
away	-12.0935
▁manuel	-12.0936
▁riverside	-12.0937
▁distribut	-12.0938
ov	-12.0938
▁francois	-12.0947
▁distr	-12.0949
▁caucuses	-12.0951
ipped	-12.0952
▁thi	-12.0954
spiring	-12.0956
va	-12.0961
▁scholar	-12.0963
▁maneuver	-12.0963
rie	-12.0966
▁exhibition	-12.0967
▁licensing	-12.097
general	-12.0974
▁kay	-12.0975
▁dresses	-12.0978
▁liberia	-12.0987
▁unravel	-12.0989
▁albe	-12.0995
▁51-	-12.0996
▁liter	-12.0999
▁frances	-12.1
ky	-12.1004
▁weekday	-12.1005
▁elle	-12.1005
▁methamphetamine	-12.1006
▁mischief	-12.1006
itz	-12.1007
▁swimmer	-12.1008
▁introduction	-12.1009
ball	-12.1009
▁monologue	-12.1011
▁hypothetical	-12.1011
greenwald	-12.1014
▁villain	-12.1015
▁liar	-12.1017
anning	-12.1021
▁handler	-12.1021
▁duff	-12.1022
▁henderson	-12.1024
▁execute	-12.1024
kellyanne	-12.1027
▁promotional	-12.1028
▁contemporar	-12.1029
▁peanuts	-12.1031
▁condoms	-12.1034
▁codes	-12.1035
▁chimp	-12.1037
▁sway	-12.1037
ounce	-12.1037
▁molly	-12.1039
▁offset	-12.1039
▁panett	-12.1049
▁practic	-12.1051
▁contra	-12.1052
▁carly	-12.1057
▁filings	-12.106
▁invasive	-12.1065
▁lang	-12.1065
▁crab	-12.1066
▁strokes	-12.1066
▁diets	-12.1069
▁erratic	-12.1071
▁surreal	-12.1072
▁370	-12.1072
▁edg	-12.1074
▁15.	-12.1074
russia	-12.1076
▁dove	-12.1078
▁silva	-12.1081
▁sniper	-12.1082
▁nut	-12.1082
▁hobby	-12.1083
▁scent	-12.1085
▁bangkok	-12.1086
▁cardiovascular	-12.1086
▁infringement	-12.1087
▁abdomen	-12.1087
▁envoy	-12.1088
▁winston	-12.109
▁heroic	-12.109
▁twilight	-12.1094
▁fey	-12.1095
▁onion	-12.1095
▁shells	-12.1098
▁mayo	-12.1103
▁eater	-12.1104
▁600,000	-12.1109
▁troy	-12.1114
shima	-12.1118
▁newman	-12.1121
▁nigerian	-12.1123
inspired	-12.1128
chester	-12.1132
▁maher	-12.1132
bar	-12.1136
▁cory	-12.1145
▁dale	-12.1151
▁betty	-12.1155
▁temper	-12.1155
▁turtles	-12.1155
▁valeri	-12.1159
▁cereal	-12.1161
▁behave	-12.1163
▁thoughtful	-12.1164
▁congo	-12.1165
aking	-12.1165
▁pap	-12.1167
▁anxious	-12.1168
▁exploited	-12.1168
▁magical	-12.1169
▁billionaires	-12.117
▁illicit	-12.117
▁emperor	-12.117
▁malware	-12.117
▁railroad	-12.117
▁omaha	-12.1171
▁unstable	-12.1171
▁comics	-12.1172
▁quebec	-12.1172
▁photographers	-12.1176
▁prospects	-12.118
▁poker	-12.118
▁distinguish	-12.1182
▁madrid	-12.1185
otic	-12.1188
▁embrac	-12.1189
▁portions	-12.1189
▁9,000	-12.119
aol	-12.1193
▁101	-12.1193
▁fury	-12.1201
▁invention	-12.1202
▁slurs	-12.1205
▁spectators	-12.121
▁allison	-12.1211
▁siri	-12.1212
▁relaxed	-12.1214
une	-12.1215
▁freezer	-12.1216
calise	-12.1216
▁roadway	-12.1221
▁cared	-12.1222
▁showcase	-12.1223
▁accurately	-12.1223
voluntary	-12.1224
▁convict	-12.1224
▁gauge	-12.1227
▁hugg	-12.123
▁taser	-12.123
▁racially	-12.1231
▁nix	-12.1232
▁burr	-12.1234
rights	-12.1236
▁weiss	-12.1243
▁wander	-12.1244
▁towel	-12.1245
▁sailor	-12.1246
deleted	-12.1248
▁2.2	-12.1249
▁mosul	-12.125
▁sinkhole	-12.125
▁component	-12.125
▁venezuelan	-12.1251
▁ncaa	-12.1251
▁ass	-12.1252
▁catholics	-12.1252
▁gosselin	-12.1252
▁rehabilitation	-12.1253
▁crow	-12.1254
▁1967	-12.1255
▁spiral	-12.1256
▁discard	-12.1257
▁sunk	-12.1257
▁cooling	-12.1258
▁whistleblower	-12.1261
▁facilitate	-12.1261
▁terrific	-12.1261
▁unsolved	-12.1262
cooking	-12.1263
▁prostitute	-12.1265
▁daylight	-12.1268
▁commuter	-12.127
ong	-12.1271
▁boxing	-12.1272
▁circulation	-12.1275
▁exhausted	-12.1275
▁sights	-12.1283
▁scaram	-12.1285
ebbie	-12.1289
▁crunch	-12.129
▁stag	-12.1293
▁80,000	-12.1296
▁euthanize	-12.1297
▁lecture	-12.1301
▁lively	-12.1303
▁outfits	-12.1305
▁ensu	-12.1306
▁dunkin	-12.1306
▁specialize	-12.1307
▁18,000	-12.1308
▁toxin	-12.1315
press	-12.1316
▁hut	-12.132
band	-12.1322
▁thre	-12.1322
▁filmmakers	-12.1324
▁levin	-12.1326
▁weakness	-12.1329
box	-12.1332
▁scholars	-12.1333
▁clapper	-12.1333
▁diarrhea	-12.1335
▁plaque	-12.1335
▁maternity	-12.1336
▁touchdown	-12.1339
▁upstairs	-12.134
▁measurement	-12.1341
▁pois	-12.1342
▁medieval	-12.1343
▁liability	-12.1343
mp	-12.1345
▁amaz	-12.1345
▁mila	-12.1346
▁62-	-12.1348
▁diamonds	-12.135
▁frustrating	-12.135
▁inspect	-12.1352
▁hamm	-12.1353
▁leaf	-12.1353
▁bel	-12.1354
▁badge	-12.1354
▁remarkabl	-12.1355
▁kaine	-12.1356
▁magnetic	-12.1359
▁grid	-12.1361
▁secondary	-12.1363
▁12.	-12.1369
something	-12.1371
▁discredit	-12.1374
▁inherent	-12.1375
▁concentrate	-12.1376
▁autonomous	-12.1382
▁prob	-12.1383
15	-12.1384
▁careers	-12.1387
body	-12.1387
imply	-12.1388
▁axi	-12.1391
▁slowing	-12.1392
▁robber	-12.1392
▁favors	-12.1394
▁ver	-12.1398
▁wrestler	-12.14
pop	-12.14
▁losers	-12.1401
▁puppet	-12.1403
▁statistical	-12.1405
▁acclaim	-12.1406
▁unpopular	-12.1411
flight	-12.1412
▁implemented	-12.1412
▁kardashians	-12.1412
▁surfing	-12.1414
▁underscore	-12.1414
▁jagger	-12.1415
▁havoc	-12.1416
▁dorsey	-12.1416
▁optimis	-12.1416
▁whiskey	-12.1417
▁appreciation	-12.1417
▁norman	-12.1418
ver	-12.1419
▁stuart	-12.1419
▁argent	-12.1419
▁responsibilit	-12.142
▁colonel	-12.142
▁sail	-12.1422
▁collide	-12.1422
▁springfield	-12.1423
▁compensate	-12.1427
▁obscure	-12.1427
▁guitarist	-12.1427
▁hub	-12.1427
▁unload	-12.1427
▁grasp	-12.1427
▁brittany	-12.1428
paramount	-12.1428
▁genocide	-12.1429
▁sniff	-12.1429
▁oswald	-12.1431
▁secrecy	-12.1431
▁amend	-12.1432
lived	-12.1432
▁grades	-12.1433
▁restraint	-12.1435
bee	-12.1441
▁caveat	-12.1441
▁olsen	-12.1443
ena	-12.1445
▁stiff	-12.1446
entities	-12.1447
▁imply	-12.1447
▁jihadist	-12.1447
▁57-	-12.1456
▁quarters	-12.1456
▁excite	-12.1458
▁austrian	-12.1459
▁escalated	-12.1459
▁rig	-12.1459
▁forests	-12.146
▁fortunate	-12.1461
▁tally	-12.1462
▁chatter	-12.1463
▁lewd	-12.1465
▁solicit	-12.1468
▁photography	-12.1472
again	-12.1472
great	-12.1473
▁minus	-12.1475
▁stumble	-12.1479
▁weddings	-12.1479
▁aliens	-12.1481
mar	-12.1486
ors	-12.1486
▁ariz	-12.1491
▁uphold	-12.1492
▁zach	-12.1492
▁adventures	-12.1492
▁sailing	-12.1497
▁raymon	-12.1498
▁ideology	-12.15
▁whistle	-12.1501
▁rampant	-12.1502
▁paypal	-12.1503
▁serena	-12.1503
▁macy	-12.1504
▁myanmar	-12.1505
▁spokane	-12.1505
▁bas	-12.1505
▁foolish	-12.1508
▁preston	-12.1509
▁swell	-12.1511
▁draws	-12.1511
▁blatant	-12.1512
▁throne	-12.1512
▁insulted	-12.1514
▁paradise	-12.1514
▁elliott	-12.1516
terim	-12.1517
▁persistent	-12.1521
▁cope	-12.1522
mobile	-12.1527
▁17.	-12.1528
▁lens	-12.1529
lan	-12.1531
▁lame	-12.1532
using	-12.1532
▁pact	-12.1532
mcgowan	-12.1533
take	-12.1533
▁partying	-12.1536
▁bless	-12.1538
▁ricky	-12.1539
▁barber	-12.154
▁revolve	-12.1543
hlberg	-12.1545
▁philosoph	-12.1545
▁joyce	-12.1547
▁steering	-12.1547
▁ralph	-12.1549
▁deter	-12.1551
generation	-12.1553
nted	-12.1555
▁ros	-12.1558
▁milan	-12.1559
▁dislike	-12.1561
▁sherman	-12.1561
▁outcomes	-12.1564
▁burgers	-12.1565
allergic	-12.1568
▁barn	-12.1571
▁calvin	-12.1572
▁bernard	-12.1576
▁fatigue	-12.158
▁overturn	-12.1582
podesta	-12.1583
▁volkswagen	-12.1584
▁springsteen	-12.1584
▁outburst	-12.1585
ends	-12.1586
▁fuku	-12.1587
▁playground	-12.1587
▁pregnancies	-12.1587
▁antiquities	-12.1587
▁jaz	-12.1589
▁neutrality	-12.1591
ility	-12.1593
▁capabilit	-12.1595
▁19.	-12.1599
▁grandma	-12.16
▁pillow	-12.1601
▁bernstein	-12.1602
▁sustainable	-12.1602
▁freely	-12.1603
▁teddy	-12.1605
▁warfare	-12.1607
▁clearing	-12.1608
▁abnormal	-12.1612
▁liberti	-12.1612
▁pres	-12.1613
▁hateful	-12.1614
▁advertise	-12.1615
▁commercials	-12.1621
ac	-12.1624
▁allah	-12.1631
▁hop	-12.1637
▁cooperati	-12.1638
track	-12.164
14	-12.1641
lost	-12.1647
▁arguabl	-12.1648
▁wield	-12.1651
▁interfer	-12.1661
▁blonde	-12.1664
▁bulge	-12.1665
▁suicides	-12.1665
▁clint	-12.1666
▁56-	-12.1667
▁debat	-12.1667
▁xinhua	-12.1669
▁enclosure	-12.167
▁ramsey	-12.167
▁dehydration	-12.167
▁stepfather	-12.167
▁arsenal	-12.1671
ja	-12.1674
▁fischer	-12.1676
duced	-12.1676
ere	-12.1681
▁piano	-12.1686
▁kenny	-12.1686
▁inclusion	-12.1686
wichita	-12.1686
▁shia	-12.1688
▁cloth	-12.1689
▁dull	-12.1692
aring	-12.1692
▁malia	-12.1693
▁favorable	-12.1696
▁prototype	-12.1698
lace	-12.1698
▁mafia	-12.1701
mon	-12.1701
▁hazardous	-12.1701
▁yuan	-12.1703
▁phony	-12.1705
▁bands	-12.1705
▁messaging	-12.1711
▁nap	-12.1711
betsy	-12.1716
reating	-12.1716
maker	-12.1717
▁pleas	-12.1721
▁dare	-12.1722
▁outdoors	-12.1723
▁inject	-12.1724
▁shrine	-12.1728
crowdfunding	-12.1729
diving	-12.173
ord	-12.1735
▁tables	-12.1735
▁tilt	-12.1736
▁klan	-12.1736
check	-12.1737
▁gasp	-12.1739
▁tires	-12.1739
▁constructed	-12.174
▁kneel	-12.1742
▁brewing	-12.1742
▁messy	-12.1743
▁finances	-12.1744
usa	-12.1751
▁apartments	-12.1753
gubernator	-12.1753
denise	-12.1753
▁adaptation	-12.1754
▁turmoil	-12.1756
▁ginsburg	-12.1756
▁kazakhstan	-12.1756
▁remedy	-12.1757
▁peek	-12.1758
▁bipolar	-12.1759
▁duggar	-12.1759
▁dzhok	-12.176
▁chess	-12.176
▁uranium	-12.1761
▁wilderness	-12.1762
▁1940	-12.1762
▁derek	-12.1764
▁refrain	-12.1764
▁purchasing	-12.1765
▁caitlyn	-12.1767
▁imp	-12.1768
▁gabrielle	-12.1769
▁distract	-12.1771
▁oj	-12.1771
▁reeva	-12.1772
▁jerk	-12.1772
▁groupon	-12.1774
▁nichols	-12.1775
▁cassidy	-12.1776
▁9.	-12.1777
▁evaluate	-12.1781
▁incorrectly	-12.1782
▁coincide	-12.1782
▁flame	-12.1783
▁balanced	-12.1784
▁wanna	-12.1786
▁alps	-12.179
▁shuttle	-12.179
▁72-	-12.1791
▁disgusted	-12.1792
▁broker	-12.1794
▁insurgents	-12.1795
tion	-12.1805
▁paso	-12.1807
▁settings	-12.1808
▁hampton	-12.1808
▁stakes	-12.1808
▁norm	-12.1809
8,000	-12.1809
▁onboard	-12.1812
▁evident	-12.1814
▁noises	-12.182
▁basin	-12.1824
▁hay	-12.1824
wire	-12.1826
▁shit	-12.1827
▁exceptions	-12.1828
▁comparisons	-12.1832
▁rack	-12.1832
▁prejudice	-12.1835
▁chin	-12.1837
ire	-12.1839
▁ahmad	-12.1839
▁miscarriage	-12.1841
ix	-12.1841
ite	-12.1843
▁jind	-12.1843
▁bodily	-12.1843
ber	-12.1844
▁floods	-12.1844
cc	-12.1845
▁lieberman	-12.1846
▁unpleasant	-12.1846
▁bats	-12.1847
▁pinpoint	-12.1849
▁dome	-12.1849
▁1944	-12.185
▁submerged	-12.185
▁factories	-12.1852
▁constand	-12.1853
slew	-12.1855
▁villa	-12.1855
▁cleanup	-12.1857
▁zeta	-12.1859
▁pad	-12.186
▁chev	-12.186
▁drugged	-12.1861
▁palestin	-12.1861
▁accommodate	-12.1862
▁championships	-12.1863
▁somali	-12.1863
▁duplicate	-12.1864
▁neill	-12.1867
▁superman	-12.1868
▁icy	-12.1868
▁morrison	-12.1869
big	-12.1871
jo	-12.1876
eastern	-12.1876
▁narcotics	-12.188
▁bidding	-12.188
iming	-12.1881
ran	-12.1886
ical	-12.1888
istic	-12.1889
cut	-12.1891
ex	-12.1893
▁minimal	-12.1898
▁ebert	-12.19
▁discourage	-12.1902
▁suri	-12.1904
induc	-12.1904
hey	-12.1905
▁massage	-12.1906
▁litera	-12.1907
▁tunisia	-12.1907
sotheby	-12.1908
▁cancell	-12.191
▁kara	-12.191
▁shutter	-12.1911
ruiz	-12.1911
▁disasters	-12.1911
▁perpetrators	-12.1912
▁zachar	-12.1913
▁harness	-12.192
▁jealous	-12.1921
▁glitch	-12.1927
▁veterinar	-12.193
▁rourke	-12.193
▁magistrate	-12.1931
▁cummins	-12.1931
▁malibu	-12.1933
▁salmonella	-12.1933
▁landlord	-12.1933
▁lewandowski	-12.1934
kessler	-12.1934
▁cyberattack	-12.1936
▁malcolm	-12.1936
▁gil	-12.1942
agged	-12.1945
▁65-	-12.1946
▁homework	-12.1949
▁manipulate	-12.1951
▁tying	-12.1951
wealth	-12.1953
▁blister	-12.1954
▁ortiz	-12.1955
▁blasting	-12.1958
▁2.7	-12.1961
eck	-12.1967
loving	-12.1969
▁overhead	-12.1969
▁batteri	-12.197
▁embark	-12.197
▁digit	-12.1971
▁watches	-12.1972
▁lavish	-12.1974
▁hybrid	-12.1976
▁hal	-12.1977
▁unlocked	-12.1977
▁pipes	-12.1981
▁tuned	-12.1982
dicated	-12.1983
zy	-12.1983
card	-12.1984
strong	-12.1984
▁disappearing	-12.1989
▁forbidd	-12.1989
ular	-12.199
izing	-12.1993
▁harmon	-12.1997
▁sox	-12.2
▁skeletons	-12.2001
even	-12.2001
▁flagged	-12.2003
tall	-12.2004
▁needle	-12.2014
▁dolezal	-12.2019
▁slump	-12.2019
▁defiant	-12.2021
▁peggy	-12.2023
dianne	-12.2023
▁griffith	-12.2025
▁bundy	-12.2026
▁pharmacy	-12.2027
▁blizzard	-12.2028
▁ratio	-12.2028
▁supplier	-12.2028
ightened	-12.2029
▁swimmers	-12.203
▁appalling	-12.203
▁approaches	-12.2031
▁fedex	-12.2032
nazi	-12.2037
▁awoke	-12.2037
▁sync	-12.2037
restrained	-12.204
▁750	-12.204
▁ironic	-12.2044
▁kristina	-12.2045
▁endless	-12.2046
▁practically	-12.2051
▁pol	-12.2054
▁commute	-12.2054
▁jun	-12.2056
▁ridicule	-12.2056
▁saints	-12.2059
▁crane	-12.2061
▁brook	-12.2061
▁adolescent	-12.2063
▁snacks	-12.2064
een	-12.2064
hard	-12.2068
▁annie	-12.2069
▁bidder	-12.2069
▁observ	-12.2072
▁shipp	-12.2073
rock	-12.2073
▁plott	-12.2074
▁veil	-12.2074
▁camill	-12.2078
▁2.3	-12.2081
▁zoe	-12.2082
today	-12.2085
▁sens	-12.2085
▁randomly	-12.2088
▁rash	-12.2088
▁kane	-12.2089
▁dyke	-12.2091
▁emine	-12.2092
▁campuses	-12.2093
▁fringe	-12.2097
▁mali	-12.2098
▁fond	-12.2099
▁motives	-12.2102
name	-12.2104
type	-12.2105
▁bathrooms	-12.2106
▁compli	-12.2107
▁marion	-12.2107
▁uchitel	-12.2108
▁baggage	-12.2108
▁marilyn	-12.2109
▁ultrasound	-12.2109
▁messed	-12.211
▁gays	-12.2111
▁wardrobe	-12.2111
your	-12.2113
▁precinct	-12.2114
▁cardi	-12.2114
ward	-12.2115
▁blasts	-12.2115
▁untrue	-12.2116
▁drummer	-12.2116
▁manchin	-12.2116
▁nanny	-12.2117
▁depot	-12.2117
▁dalton	-12.2119
▁capability	-12.212
▁chester	-12.2124
▁wifi	-12.2125
▁kinda	-12.2127
▁rum	-12.213
▁eleven	-12.2133
ova	-12.2136
▁useless	-12.2137
▁elk	-12.214
▁unite	-12.2145
earth	-12.2148
▁cracks	-12.2149
▁downward	-12.215
▁cheat	-12.2151
▁stan	-12.2152
▁complaine	-12.2155
▁hospitalization	-12.2157
▁contenders	-12.2162
esque	-12.2163
▁labs	-12.2164
▁whit	-12.2168
pp	-12.2171
▁summar	-12.2173
nbc	-12.2175
▁edible	-12.2178
▁2.4	-12.2179
▁logic	-12.218
faced	-12.2182
▁arrow	-12.2183
▁appoint	-12.2183
▁correspond	-12.2186
branson	-12.2186
km	-12.2188
sesame	-12.2188
▁robotic	-12.2189
▁kat	-12.219
▁marin	-12.219
▁feeds	-12.2191
oxide	-12.2195
▁cafeteria	-12.2198
▁buckingham	-12.2198
▁vienna	-12.2198
▁swastika	-12.2201
▁pluto	-12.2202
▁obsession	-12.2202
▁1930	-12.2203
▁pippa	-12.2204
▁rebuke	-12.2204
▁personalities	-12.2205
▁abbas	-12.2205
▁forgiveness	-12.2206
▁den	-12.2206
▁apparel	-12.2206
▁hangover	-12.2207
▁bored	-12.2207
▁discretion	-12.2209
▁spectacle	-12.221
▁balloons	-12.2211
owner	-12.2212
▁backward	-12.2213
▁headphones	-12.2216
say	-12.2216
▁hotline	-12.2216
▁calculation	-12.2218
▁lucy	-12.2218
▁santia	-12.222
▁daytona	-12.2221
▁preservation	-12.2221
▁merger	-12.2222
▁gdp	-12.2224
▁designation	-12.2225
▁dreamed	-12.2229
▁2000.	-12.223
▁pinterest	-12.2231
▁attribut	-12.2239
▁foil	-12.224
▁gator	-12.2244
▁bully	-12.2245
▁hos	-12.2246
▁bundle	-12.2247
▁mommy	-12.2247
▁uncover	-12.2253
dead	-12.2254
▁jab	-12.2255
▁mascot	-12.2256
▁strangle	-12.2258
▁fernand	-12.226
▁complet	-12.2261
▁primer	-12.2264
kahn	-12.2266
▁lol	-12.2269
▁stumbl	-12.2272
▁indicator	-12.2274
western	-12.2275
▁initiatives	-12.2275
▁assign	-12.2277
ists	-12.2278
▁staple	-12.228
▁mechanics	-12.2286
▁hurricanes	-12.2286
▁wolfe	-12.2287
wollen	-12.2287
chan	-12.2287
▁rubbl	-12.2288
▁suppliers	-12.2291
▁barnett	-12.2292
▁berlusconi	-12.2292
▁dubious	-12.2292
▁patience	-12.2293
▁lochte	-12.2293
iding	-12.2293
▁abedin	-12.2294
▁lac	-12.2294
▁spat	-12.2295
▁syracuse	-12.2295
-3	-12.2296
▁mammoth	-12.2297
▁competitor	-12.2297
▁ibm	-12.2298
▁toughest	-12.2299
▁limp	-12.23
▁reli	-12.2301
▁buddhist	-12.2301
▁happiest	-12.2302
▁bartender	-12.2302
▁wolff	-12.2304
wo	-12.2305
▁champ	-12.2306
▁captor	-12.2307
▁spoof	-12.2307
sentinel	-12.2309
▁daycare	-12.2309
▁wandering	-12.2323
lousy	-12.2324
▁defector	-12.2325
▁genome	-12.2326
▁lifeguard	-12.2326
▁vick	-12.2331
forth	-12.2332
▁favorites	-12.2336
▁2.6	-12.234
▁digest	-12.2344
▁faulty	-12.2349
▁thrill	-12.235
▁roller	-12.2352
youtube	-12.2361
▁maj	-12.2361
▁1964	-12.2365
vision	-12.2367
▁biblical	-12.2367
gb	-12.2367
▁avid	-12.2368
▁toilets	-12.2375
▁diver	-12.2377
realdonaldtrump	-12.2377
kensington	-12.2378
▁skripal	-12.2381
▁knoxville	-12.2382
▁marina	-12.2382
▁130,000	-12.2383
▁tidbit	-12.2383
▁travolta	-12.2384
▁doughnut	-12.2384
wear	-12.2385
▁assumption	-12.2385
▁tracker	-12.2388
▁bahrain	-12.2388
▁dre	-12.239
▁commanders	-12.2391
▁bounty	-12.2394
▁secur	-12.2394
▁confiscated	-12.2395
▁mastermind	-12.2396
▁elin	-12.2397
▁moose	-12.2398
▁norton	-12.2399
▁automat	-12.2399
▁limo	-12.24
▁animation	-12.2401
power	-12.2404
▁lombard	-12.2404
itis	-12.2404
yers	-12.2405
▁ark	-12.2405
▁..........	-12.2406
▁bil	-12.241
▁brent	-12.2411
alicia	-12.2413
▁kan	-12.2414
▁memorab	-12.2415
▁replie	-12.2422
▁objective	-12.2427
▁sensitivity	-12.2435
▁emmys	-12.244
▁porch	-12.244
▁wet	-12.2443
▁gal	-12.2444
▁render	-12.2447
▁5.5	-12.2447
▁shrinking	-12.245
az	-12.245
▁61-	-12.2451
▁warden	-12.2451
▁collar	-12.2455
▁payne	-12.2457
▁deport	-12.2458
▁covert	-12.2461
▁founding	-12.2468
▁sheer	-12.2469
▁hepatitis	-12.2474
▁skepticism	-12.2474
▁mysteries	-12.2474
▁railway	-12.2476
▁behaviour	-12.2476
▁tanzania	-12.2476
▁structural	-12.2477
▁boil	-12.2478
▁catastrophe	-12.2479
▁cctv	-12.248
cent	-12.248
▁undergone	-12.2482
bi	-12.2482
▁marketplace	-12.2483
ming	-12.2487
▁convenient	-12.249
▁lamb	-12.2491
▁witherspoon	-12.2492
▁koran	-12.2492
sson	-12.2493
▁shiite	-12.2495
▁camel	-12.2497
music	-12.2497
▁lat	-12.2498
owing	-12.2499
available	-12.25
▁recycl	-12.2504
▁distort	-12.2506
▁chanel	-12.2506
▁donuts	-12.251
▁marital	-12.2511
▁nu	-12.2511
▁injustice	-12.2512
▁emphasiz	-12.2514
▁encourag	-12.2515
▁mlive	-12.2516
gen	-12.2518
mg	-12.252
▁jihad	-12.2521
▁kidnapper	-12.2521
▁heath	-12.2522
etti	-12.2522
why	-12.2528
dj	-12.2529
through	-12.2533
▁resembl	-12.2534
▁millionaire	-12.2536
▁sur	-12.2536
▁cove	-12.2537
▁flare	-12.2537
layers	-12.2541
▁vaccines	-12.2541
▁issa	-12.2543
▁fairy	-12.2548
▁nutritional	-12.2548
▁morale	-12.2552
▁biker	-12.2552
▁cv	-12.2556
▁11.	-12.2557
1,000	-12.2559
▁shaped	-12.256
▁raleigh	-12.2567
▁discomfort	-12.2567
▁navigate	-12.2569
▁clarence	-12.257
▁programme	-12.2571
▁reviewer	-12.2572
▁shelby	-12.2572
ates	-12.2572
▁unheard	-12.2573
▁rochester	-12.2574
▁stallone	-12.2574
▁amputated	-12.2574
▁skype	-12.2576
▁accommodation	-12.2577
▁goat	-12.2578
cry	-12.2578
▁fracking	-12.258
▁casket	-12.258
rage	-12.258
▁immense	-12.2581
logging	-12.2581
▁opioids	-12.2581
goers	-12.2584
▁lieu	-12.2584
▁vowe	-12.2585
▁handsome	-12.2586
▁triplets	-12.2587
▁provoke	-12.2588
clad	-12.2593
▁bishops	-12.2596
-47	-12.2596
westminster	-12.2599
▁smiles	-12.2601
▁tearful	-12.2602
▁ariel	-12.2602
▁1962	-12.2602
abc	-12.2604
dominant	-12.2605
elli	-12.261
▁1,300	-12.2611
telegram	-12.2611
▁socks	-12.2614
▁dominate	-12.2614
erdog	-12.2616
▁rift	-12.2618
growing	-12.2621
fly	-12.2623
years	-12.2624
▁charming	-12.2625
▁beg	-12.2625
▁flirt	-12.2626
▁cardinals	-12.2626
▁nausea	-12.2632
▁outgoing	-12.2633
▁gunned	-12.2634
tha	-12.2635
▁bore	-12.2637
▁59-	-12.2643
▁bain	-12.2648
▁overlook	-12.2649
▁kale	-12.265
▁airs	-12.2653
shift	-12.2654
▁450	-12.2655
▁whites	-12.2656
▁staring	-12.2658
market	-12.266
tumbled	-12.266
▁osbourne	-12.2661
▁mcdonnell	-12.2661
▁sunglasses	-12.2661
▁1965	-12.2662
▁darrell	-12.2663
▁prospective	-12.2663
▁livestock	-12.2664
▁gymnastic	-12.2664
▁prophet	-12.2664
▁celebuzz	-12.2664
▁rafael	-12.2665
▁condemnation	-12.2666
elton	-12.2666
despicable	-12.2668
▁authenticity	-12.2669
▁discoveries	-12.2669
maggie	-12.267
▁components	-12.267
▁schiff	-12.267
▁amusement	-12.2671
▁feathers	-12.2673
▁pinned	-12.2674
▁shameful	-12.2674
▁portrayal	-12.2675
▁guam	-12.2677
▁teammate	-12.2677
▁patty	-12.2677
▁scooter	-12.2678
▁tatum	-12.2679
▁statewide	-12.2679
▁chrys	-12.2679
▁primate	-12.2684
▁fema	-12.2685
▁stephan	-12.2686
▁salem	-12.2687
▁startling	-12.2689
▁deduction	-12.269
▁angels	-12.2692
▁30.	-12.2692
▁24.	-12.2693
▁shining	-12.2694
▁foam	-12.2695
▁16,000	-12.2695
▁fabric	-12.2696
▁scoff	-12.2696
▁1,600	-12.2698
bedroom	-12.2699
complete	-12.2701
▁smarter	-12.2701
▁dual	-12.2702
▁bent	-12.2702
ture	-12.2702
▁realm	-12.2703
▁alternatives	-12.2704
▁affection	-12.2706
due	-12.2708
▁reptile	-12.2712
▁accomplishments	-12.2713
▁dowd	-12.2714
▁boing	-12.2717
▁pedro	-12.272
annoyed	-12.2722
herald	-12.2723
▁thwart	-12.2723
▁diapers	-12.2724
▁roth	-12.2724
du	-12.2726
▁clad	-12.2728
▁celebrations	-12.2729
▁relation	-12.2732
▁takeoff	-12.2737
▁neuron	-12.2741
▁pollster	-12.2743
possessing	-12.2748
lowing	-12.2754
▁overly	-12.2755
▁registr	-12.2756
▁hypothermi	-12.2757
▁claudia	-12.2758
▁sunlight	-12.2759
▁lightly	-12.2761
▁piers	-12.2761
▁housekeeper	-12.2761
▁coordinator	-12.2764
▁hemisphere	-12.2765
▁strapped	-12.2766
eera	-12.2766
stars	-12.2766
▁trove	-12.2767
▁outsider	-12.2768
▁transmitt	-12.2769
▁inventory	-12.2769
▁emmanuel	-12.2772
▁toast	-12.2775
▁fairness	-12.2777
▁ferrell	-12.2778
gina	-12.2779
abortion	-12.2779
▁kindergarten	-12.2779
▁athens	-12.2782
▁strategi	-12.2783
▁brace	-12.2785
axelrod	-12.2785
▁1,100	-12.2786
▁1974	-12.2788
▁bottled	-12.279
▁potent	-12.279
▁chang	-12.2791
▁delighted	-12.2792
▁diners	-12.2798
lated	-12.2799
▁invit	-12.2799
▁secretive	-12.28
storm	-12.2801
▁stephens	-12.2803
▁gmail	-12.2804
▁termination	-12.2806
▁seasonal	-12.2807
▁brit	-12.2808
▁vine	-12.2814
▁denis	-12.2819
▁marching	-12.282
▁tackl	-12.2821
▁hype	-12.2823
ammy	-12.283
▁pools	-12.2837
ious	-12.2837
▁cache	-12.2841
taking	-12.2845
fax	-12.2846
▁visas	-12.2848
▁damning	-12.2849
▁mnuchin	-12.2853
▁paraphern	-12.2853
▁rosenstein	-12.2853
▁unesco	-12.2854
▁lucrative	-12.2856
▁whisky	-12.2856
▁dedication	-12.2856
▁quantity	-12.2857
▁similarities	-12.2859
▁logistics	-12.2861
▁input	-12.2862
▁kourtney	-12.2862
▁dependent	-12.2862
▁groped	-12.2862
commercial	-12.2869
▁accessory	-12.2869
▁textbook	-12.2871
▁dhs	-12.2873
▁cooperative	-12.2873
▁rigged	-12.2876
des	-12.2876
▁ruins	-12.2878
▁organism	-12.2878
▁fade	-12.2879
servers	-12.288
▁vulgar	-12.288
▁sal	-12.2881
▁canceling	-12.2881
▁symbols	-12.2882
▁weed	-12.2885
uro	-12.2887
▁2.8	-12.289
▁strictly	-12.289
▁120,000	-12.2892
▁tipping	-12.2893
▁sour	-12.2901
▁soared	-12.2901
▁unofficial	-12.2902
west	-12.2903
▁colombian	-12.2905
▁13,000	-12.2911
▁accelerate	-12.2912
▁mushrooms	-12.2913
ko	-12.2914
▁misuse	-12.2915
▁polic	-12.2916
▁folk	-12.2918
▁workshop	-12.2919
▁abolish	-12.2921
▁chatt	-12.2924
▁reiterat	-12.2927
▁kristin	-12.2929
▁injections	-12.2931
▁jumps	-12.2934
paul	-12.2934
automatic	-12.2935
▁bells	-12.2935
▁hijab	-12.2937
shed	-12.2942
ars	-12.2945
▁entertainer	-12.2946
quentin	-12.2947
▁roar	-12.2948
▁abstract	-12.2949
▁scarborough	-12.295
▁remnant	-12.295
▁biopic	-12.295
▁beam	-12.2951
▁pussy	-12.2951
▁slideshow	-12.2951
▁onlooker	-12.2952
▁heating	-12.2952
▁northeastern	-12.2953
▁poultry	-12.2953
▁dawson	-12.2953
▁tarantino	-12.2953
▁revival	-12.2955
▁gardner	-12.2955
▁expectancy	-12.2957
colored	-12.2961
▁handles	-12.2964
▁comp	-12.2966
▁taping	-12.2967
▁wheeler	-12.2968
▁antibiotic	-12.297
▁ignorant	-12.2973
▁er	-12.2974
▁vinci	-12.2975
▁colored	-12.298
▁pencil	-12.298
rlington	-12.2983
stating	-12.2988
▁rogen	-12.2995
▁finalist	-12.2996
▁disbelie	-12.3
▁greeting	-12.3
▁phillip	-12.3002
▁scenarios	-12.3004
▁enabl	-12.3004
▁3,500	-12.3004
▁siberia	-12.3005
▁foreigner	-12.3022
▁entitl	-12.3022
▁remotely	-12.3024
▁darker	-12.3025
▁stamps	-12.3025
▁alum	-12.3026
statesman	-12.3028
▁decay	-12.3029
▁chu	-12.3029
continental	-12.3031
▁wsj	-12.3032
owes	-12.3033
▁liam	-12.3034
released	-12.3034
▁vein	-12.3035
hearted	-12.3035
ea	-12.3041
▁sweater	-12.3043
deep	-12.3043
union	-12.3045
▁bushes	-12.3045
crime	-12.3045
▁rhythm	-12.3047
▁miguel	-12.3048
▁tragedies	-12.3048
▁unequivocal	-12.3048
▁bracelet	-12.3048
▁upload	-12.3048
▁unwilling	-12.3049
▁calgary	-12.3049
▁grammys	-12.3049
▁supervision	-12.3049
▁detain	-12.305
▁mumbai	-12.3051
▁dossier	-12.3051
▁ars	-12.3051
rner	-12.3052
▁hawkins	-12.3052
▁mines	-12.3053
▁grievance	-12.3054
▁caretaker	-12.3055
▁kraft	-12.3056
▁cherry	-12.3056
▁slower	-12.3057
▁malala	-12.3058
iland	-12.3058
▁mlb	-12.306
▁blacks	-12.306
▁liberation	-12.306
▁yearbook	-12.3064
▁patton	-12.3066
▁neat	-12.3066
▁steak	-12.3066
▁fatality	-12.3067
▁productive	-12.3071
▁sunny	-12.3072
▁soros	-12.3076
▁inflict	-12.308
panicked	-12.3081
▁stella	-12.3086
agging	-12.3089
▁barring	-12.309
▁testifying	-12.309
working	-12.309
▁coaster	-12.3091
nard	-12.3093
▁basket	-12.3096
▁directive	-12.3099
yo	-12.3101
▁devastati	-12.3102
sworth	-12.3108
▁haters	-12.3109
savannah	-12.311
▁mara	-12.3111
▁za	-12.3114
▁21.	-12.3114
▁lease	-12.3117
▁plac	-12.312
▁memes	-12.3121
aya	-12.3122
▁prescribe	-12.3125
6,000	-12.3129
▁sighting	-12.3129
▁minn	-12.3132
etz	-12.3134
▁intensity	-12.3135
sch	-12.3137
▁clayto	-12.3137
▁concord	-12.3138
▁vacan	-12.3138
▁salvage	-12.3138
▁crushing	-12.314
▁boyle	-12.3142
▁patents	-12.3143
ealthy	-12.3144
▁referee	-12.3145
▁corridor	-12.3147
death	-12.3147
▁nuns	-12.3147
▁earl	-12.3147
▁lookout	-12.3147
▁podium	-12.3147
▁fluke	-12.3149
▁kcna	-12.315
▁naples	-12.315
▁hover	-12.3151
▁hygien	-12.3152
▁specifica	-12.3154
▁motherboard	-12.3154
▁baffled	-12.3154
▁alexandra	-12.3154
▁revere	-12.3155
▁seahawks	-12.3156
▁humphries	-12.3156
pamela	-12.3157
▁forehead	-12.3158
▁vacuum	-12.316
▁eatery	-12.316
▁gogh	-12.316
▁105	-12.3161
▁adjacen	-12.3163
▁evangelical	-12.3163
▁hoodie	-12.3163
▁schneider	-12.3164
▁bracket	-12.3164
▁16.	-12.3166
▁pontif	-12.3166
▁sergey	-12.3167
▁fixing	-12.3168
▁eliminat	-12.3169
▁64-	-12.317
▁educator	-12.3172
▁sinai	-12.3176
▁censorship	-12.3176
▁sodium	-12.318
▁inclusive	-12.3182
▁advocat	-12.3183
▁betray	-12.3185
▁flatter	-12.3185
▁pens	-12.3186
▁vertical	-12.3189
▁contaminati	-12.3194
▁judg	-12.3195
▁pai	-12.3196
▁controll	-12.3196
▁ally	-12.3197
russian	-12.3201
who	-12.3202
rick	-12.3203
▁thor	-12.3205
▁ambitions	-12.3207
▁sheikh	-12.3208
bul	-12.3208
▁warship	-12.3209
▁recreation	-12.3215
▁prosper	-12.3217
▁colonial	-12.3218
▁je	-12.3219
▁58-	-12.3219
▁intervened	-12.3225
▁pale	-12.3227
▁kits	-12.3227
rounded	-12.3228
▁cheape	-12.323
▁cb	-12.3233
▁technological	-12.3234
ejected	-12.3235
▁voyage	-12.3235
ents	-12.3235
▁dried	-12.3236
according	-12.3237
▁bulletin	-12.3238
▁counterfeit	-12.3241
▁implants	-12.3244
▁pfizer	-12.3246
▁hospice	-12.3247
▁entourage	-12.3247
▁farewell	-12.3247
▁ivf	-12.3248
▁caravan	-12.3249
▁heartbeat	-12.325
▁brisbane	-12.325
▁inflammation	-12.325
pplies	-12.3253
▁egregious	-12.3253
▁rehearsal	-12.3253
▁nudity	-12.3253
▁compton	-12.3253
▁villages	-12.3254
▁nai	-12.3256
▁indecent	-12.3258
▁renovation	-12.3258
▁tragically	-12.3259
▁rutgers	-12.326
▁175	-12.326
▁cosmetic	-12.326
▁messenger	-12.326
▁traveler	-12.3261
▁placenta	-12.3261
▁75-	-12.3262
▁equifax	-12.3263
▁randall	-12.3263
▁appall	-12.3264
▁expell	-12.3264
▁descendants	-12.3268
▁6.5	-12.3273
▁lori	-12.3275
saving	-12.3276
▁dion	-12.3277
quarter	-12.3279
▁nickel	-12.3281
▁finn	-12.3282
▁ladder	-12.3284
▁af	-12.3289
▁jama	-12.329
ze	-12.3293
▁systematic	-12.3296
▁jamal	-12.3296
▁intimidati	-12.3304
▁unfit	-12.3304
▁coward	-12.3305
▁halls	-12.3305
▁swam	-12.3308
▁hor	-12.3309
because	-12.3312
▁ledger	-12.3314
▁conspir	-12.3317
eye	-12.3319
▁counterterroris	-12.3323
▁marsh	-12.3325
▁slope	-12.3326
lane	-12.3329
9,000	-12.333
▁condemning	-12.3331
▁sped	-12.3335
▁horns	-12.3337
▁shores	-12.3341
suicide	-12.3344
▁ktrk	-12.3347
▁reunite	-12.3347
▁lavrov	-12.3347
▁contraceptive	-12.3348
▁landfill	-12.3348
▁maddow	-12.3349
▁dublin	-12.3349
▁tanker	-12.3349
▁housewives	-12.3349
▁painter	-12.335
▁proposition	-12.335
▁cambodia	-12.3351
▁puppies	-12.3351
▁paterno	-12.3351
▁beneficial	-12.3351
▁provocation	-12.3352
▁wasserman	-12.3352
▁socially	-12.3352
▁inventor	-12.3352
▁darling	-12.3352
▁flavors	-12.3353
▁intestine	-12.3355
▁chp	-12.3356
thru	-12.3356
▁rains	-12.3357
▁entirety	-12.3358
ings	-12.3363
▁diesel	-12.3364
▁uh	-12.3365
▁touches	-12.3366
arrow	-12.3366
fo	-12.3367
▁prohibition	-12.3369
▁espionage	-12.3371
▁lawful	-12.3371
▁daring	-12.3373
▁outlin	-12.3376
santo	-12.3377
▁profitable	-12.338
▁donkey	-12.338
▁pony	-12.338
produc	-12.338
▁gerald	-12.3381
▁levy	-12.3381
▁1,800	-12.3383
▁reclaim	-12.3383
▁pillar	-12.3384
▁weaker	-12.3385
▁independently	-12.3388
▁amused	-12.3389
▁displace	-12.339
▁downgrade	-12.3392
▁trent	-12.3393
▁ala	-12.3398
▁crust	-12.3402
▁goop	-12.3402
▁poaching	-12.3405
jonah	-12.3406
▁takeover	-12.3406
▁juli	-12.3408
tended	-12.3408
▁evaluated	-12.3409
▁needless	-12.341
ile	-12.3413
▁thermal	-12.3413
▁restart	-12.3414
▁duran	-12.3418
▁embryo	-12.3418
▁bavaria	-12.3419
operation	-12.3421
▁congratulate	-12.3421
▁delicate	-12.3426
▁lurk	-12.3431
cha	-12.3433
▁extradite	-12.3434
east	-12.3435
▁diminish	-12.3443
▁spous	-12.3449
here	-12.3449
▁gallagher	-12.345
▁diplomacy	-12.345
▁7.5	-12.3451
▁windshield	-12.3452
▁glance	-12.3452
▁hershey	-12.3452
▁cruiser	-12.3452
▁stitches	-12.3453
▁kelsey	-12.3453
▁gospel	-12.3454
▁spitzer	-12.3454
▁nguyen	-12.3456
▁imagination	-12.3456
▁tamerlan	-12.3456
▁curtain	-12.3457
▁bunny	-12.3457
▁disposal	-12.3458
▁dominican	-12.3458
▁garland	-12.3459
▁zinke	-12.3459
▁bono	-12.3461
▁revolutionar	-12.3462
▁gar	-12.3464
▁recorder	-12.3464
▁kidman	-12.3466
▁norris	-12.3468
▁domino	-12.3469
▁adjustment	-12.3469
▁lilo	-12.3472
▁andreas	-12.3475
▁beforehand	-12.3477
▁compell	-12.3478
▁fraction	-12.3481
▁bc	-12.3483
▁boris	-12.3483
▁nets	-12.3483
▁burton	-12.3486
▁pricing	-12.349
▁robbers	-12.3491
▁ledge	-12.3491
▁neanderthals	-12.3494
▁saleh	-12.3501
▁roose	-12.3502
▁relie	-12.3502
▁barbecue	-12.3503
▁recycled	-12.3503
▁sidelines	-12.3507
engine	-12.3512
▁monarch	-12.3513
▁rowe	-12.3514
etting	-12.352
▁persona	-12.3521
▁nook	-12.3522
▁attach	-12.3528
▁rubin	-12.3534
▁sexting	-12.3539
tammy	-12.3539
wall	-12.3542
▁bleak	-12.3543
ence	-12.3543
▁barrage	-12.3544
▁teller	-12.3544
ebus	-12.3544
▁console	-12.3546
apollo	-12.3547
▁thrive	-12.3552
▁discrepanc	-12.3553
▁longevity	-12.3553
▁pulitzer	-12.3553
▁woodward	-12.3554
▁cheryl	-12.3554
▁razor	-12.3554
▁arraignment	-12.3554
▁unintentional	-12.3555
▁affiliation	-12.3555
▁revis	-12.3555
▁av	-12.3556
▁meds	-12.3557
▁fog	-12.3558
▁fifa	-12.3559
▁nuptials	-12.3559
▁dent	-12.3559
30	-12.356
▁creativity	-12.356
▁missionary	-12.356
▁garrett	-12.3562
▁conquer	-12.3562
▁grizzly	-12.3562
▁congresswoman	-12.3563
▁adweek	-12.3565
▁watchers	-12.3569
▁elbow	-12.357
▁2002.	-12.3572
▁bleacher	-12.3574
▁molecule	-12.3577
▁incentive	-12.3577
▁metric	-12.3579
rod	-12.3591
▁gamble	-12.3593
▁dina	-12.3594
bruno	-12.3596
▁subscriber	-12.3596
▁alaskan	-12.3597
ology	-12.3599
▁tow	-12.3603
▁wu	-12.3603
▁mineral	-12.3607
addam	-12.3607
▁hikes	-12.3614
▁strangl	-12.3615
▁alphabet	-12.3616
code	-12.3617
▁cue	-12.3626
▁3.6	-12.3629
enko	-12.3629
brook	-12.3631
▁organize	-12.3636
▁exceeding	-12.3637
rely	-12.3638
▁steadi	-12.3641
▁shortages	-12.3641
ports	-12.3641
▁finest	-12.3646
▁wig	-12.3648
overboard	-12.3654
▁engulf	-12.3657
▁cosmopolitan	-12.3657
▁stockholm	-12.3657
▁rosenberg	-12.3658
ating	-12.3658
▁swath	-12.3659
▁bobbi	-12.366
▁testosterone	-12.3661
▁archaeology	-12.3661
▁inquiries	-12.3663
▁kitty	-12.3664
▁bobbitt	-12.3664
▁kirby	-12.3664
▁mcgraw	-12.3667
▁buttocks	-12.3667
aw	-12.3668
▁67-	-12.367
▁qu	-12.3672
▁scaled	-12.3673
▁counterpart	-12.3673
▁ticked	-12.3674
▁beers	-12.3678
▁reservation	-12.368
▁autopilot	-12.3681
brain	-12.3683
▁fridge	-12.3684
▁kerr	-12.3687
▁presid	-12.3692
steps	-12.3693
▁colts	-12.3693
▁singled	-12.3695
▁punches	-12.3696
25	-12.3698
▁acosta	-12.3698
▁meg	-12.3698
site	-12.37
▁kiro	-12.37
▁vip	-12.3701
▁nod	-12.3701
▁offline	-12.3701
▁lowering	-12.3703
▁connell	-12.3704
▁cor	-12.3705
▁diploma	-12.3706
▁indefinitely	-12.3707
▁moran	-12.3707
'	-12.3707
▁tribes	-12.3707
▁decency	-12.3708
▁farming	-12.3708
core	-12.3708
▁pl	-12.3716
fetch	-12.372
jected	-12.3721
five	-12.3722
horn	-12.3723
▁kor	-12.3728
▁jarr	-12.3728
▁penguins	-12.3729
▁uganda	-12.3731
12	-12.3735
stock	-12.3735
▁pablo	-12.374
lon	-12.3743
▁und	-12.3744
▁disperse	-12.3744
▁downside	-12.3744
▁remake	-12.3746
▁blitz	-12.3747
▁processor	-12.3748
reported	-12.3749
▁fuss	-12.375
oslo	-12.3751
▁staples	-12.3751
▁inconsistent	-12.3752
▁collid	-12.3756
ale	-12.3757
▁doping	-12.3759
▁ce	-12.376
▁nafta	-12.3762
▁sunshine	-12.3762
▁lauderdale	-12.3762
▁generosity	-12.3762
▁huffpo	-12.3763
▁cavalier	-12.3766
▁blurred	-12.3767
▁hungary	-12.377
▁slogans	-12.377
▁rescind	-12.3772
▁rossi	-12.3772
▁silk	-12.3772
▁seismic	-12.3773
▁selfish	-12.3773
▁publications	-12.3773
▁ghana	-12.3774
-2	-12.3775
▁satirical	-12.3775
stitution	-12.3776
▁chorus	-12.3776
▁stoke	-12.3777
▁turtle	-12.3778
▁microwave	-12.3778
▁guru	-12.3779
▁ferrari	-12.3785
▁shepard	-12.3785
oria	-12.3788
▁expir	-12.379
▁snatch	-12.3792
▁surfer	-12.3792
▁banana	-12.3795
▁armored	-12.3795
▁bauer	-12.3797
gs	-12.3802
▁hyun	-12.3803
zinski	-12.3807
▁blackmail	-12.381
▁erik	-12.3812
▁fuller	-12.3813
▁imaging	-12.3815
▁depths	-12.3815
[...]
