<unk>	0
<s>	0
</s>	0
story_separator_special_tag	0
▁the	-3.09251
▁,	-3.33499
.	-3.52407
▁of	-3.56827
▁a	-3.80493
▁and	-3.85342
▁to	-3.89652
-	-3.93975
▁in	-4.06095
▁@	-4.21549
▁	-4.31099
cite	-4.4581
▁is	-4.4896
▁for	-4.56757
▁we	-4.61641
▁.	-4.71244
▁that	-4.71356
▁on	-4.86294
▁)	-5.00195
▁this	-5.06646
▁(	-5.10998
▁with	-5.11537
▁as	-5.19919
▁are	-5.20187
ing	-5.21918
▁by	-5.26314
s	-5.30161
▁an	-5.3709
▁be	-5.51642
▁our	-5.55981
▁from	-5.6032
▁which	-5.64262
▁can	-5.66002
▁data	-5.73989
math	-5.75165
▁model	-5.79812
▁-	-5.85468
▁it	-5.94118
▁learning	-6.03228
▁network	-6.03314
▁or	-6.08675
▁using	-6.10725
▁have	-6.11508
▁problem	-6.13772
▁such	-6.1487
▁these	-6.19719
▁paper	-6.20163
▁has	-6.20875
▁approach	-6.2461
▁also	-6.25678
▁not	-6.25687
▁algorithm	-6.27648
▁method	-6.27954
▁based	-6.2829
▁methods	-6.30657
d	-6.33109
▁proposed	-6.33188
▁results	-6.34947
▁more	-6.36029
▁'	-6.37879
▁work	-6.38043
▁networks	-6.38109
▁show	-6.38314
▁been	-6.4023
▁models	-6.40512
▁used	-6.41377
▁image	-6.44206
▁at	-6.44783
▁two	-6.45991
▁information	-6.4654
▁performance	-6.47798
▁their	-6.49226
▁time	-6.50516
▁different	-6.52367
▁use	-6.53345
▁one	-6.57817
▁between	-6.59225
based	-6.61806
▁system	-6.63944
▁each	-6.65897
▁where	-6.6642
▁:	-6.66429
▁new	-6.67008
▁algorithms	-6.68099
▁propose	-6.68929
▁they	-6.69367
ly	-6.69559
▁neural	-6.72588
▁features	-6.7353
▁however	-6.74142
▁number	-6.74499
▁s	-6.75281
▁both	-6.76047
▁large	-6.76503
▁state	-6.76695
▁other	-6.77941
▁set	-6.812
▁training	-6.81301
▁into	-6.81739
▁present	-6.82941
▁but	-6.83006
▁only	-6.84273
▁all	-6.84531
▁than	-6.85901
▁over	-6.86475
▁deep	-6.867
▁first	-6.88094
▁its	-6.88288
▁systems	-6.89119
▁images	-6.89429
▁when	-6.89824
▁analysis	-6.93878
▁well	-6.94693
▁while	-6.95891
▁many	-6.988
▁most	-6.99985
▁high	-7.00881
▁some	-7.01219
▁approaches	-7.01658
▁graph	-7.02947
e	-7.03096
▁real	-7.0337
▁task	-7.04244
▁detection	-7.06051
▁framework	-7.06541
of	-7.07213
▁multi	-7.08363
▁object	-7.09276
▁tasks	-7.10132
▁problems	-7.10996
▁several	-7.13217
the	-7.13585
▁given	-7.13928
▁study	-7.14642
▁"	-7.15099
▁was	-7.15948
▁how	-7.16125
▁applications	-7.16595
▁space	-7.16878
▁3	-7.17667
ed	-7.17928
▁techniques	-7.1906
▁there	-7.19283
▁then	-7.20766
▁classification	-7.21195
▁feature	-7.21575
▁non	-7.24152
▁multiple	-7.25831
▁i	-7.26007
▁provide	-7.26284
▁;	-7.26372
▁function	-7.26936
▁result	-7.29972
▁e	-7.30717
▁user	-7.31726
▁any	-7.318
▁novel	-7.31809
art	-7.3226
▁single	-7.32304
▁recent	-7.33518
▁existing	-7.34354
▁dataset	-7.34828
▁input	-7.35565
▁structure	-7.36289
▁process	-7.36391
g	-7.37014
▁recognition	-7.37777
▁knowledge	-7.37978
▁random	-7.41023
▁human	-7.41137
▁users	-7.41324
▁general	-7.43499
▁representation	-7.4357
▁research	-7.43954
▁language	-7.45267
▁datasets	-7.45314
▁order	-7.45708
▁experiments	-7.45833
▁demonstrate	-7.46322
▁case	-7.46707
▁2	-7.47013
▁search	-7.47713
▁accuracy	-7.48088
▁optimization	-7.48328
▁learn	-7.48715
▁same	-7.4903
▁machine	-7.4923
▁domain	-7.49883
▁particular	-7.50345
▁design	-7.50896
▁n	-7.51503
▁if	-7.51543
▁may	-7.52079
▁low	-7.52277
▁through	-7.52427
▁local	-7.53087
▁visual	-7.54263
▁al	-7.5519
▁simple	-7.55256
▁efficient	-7.55365
▁semantic	-7.55536
to	-7.55932
▁convolutional	-7.56529
▁under	-7.56659
▁linear	-7.57363
▁similar	-7.57775
▁very	-7.57829
▁video	-7.58674
▁recently	-7.58691
▁text	-7.59763
▁1	-7.59938
▁without	-7.60109
▁important	-7.60684
▁them	-7.61329
▁previous	-7.61523
▁social	-7.61583
▁context	-7.62866
(	-7.62869
▁nodes	-7.6307
▁architecture	-7.6389
▁better	-7.64028
▁optimal	-7.64323
▁includ	-7.65235
▁objects	-7.65638
▁control	-7.66557
▁class	-7.66972
▁distribution	-7.67311
▁representations	-7.67516
▁about	-7.67827
▁so	-7.67921
▁works	-7.68008
▁various	-7.68318
▁consider	-7.68486
▁point	-7.6883
▁do	-7.69434
▁small	-7.69612
▁related	-7.69846
▁no	-7.69891
▁introduce	-7.70244
▁graphs	-7.71059
▁even	-7.71279
▁solution	-7.71434
▁were	-7.71947
level	-7.71961
▁three	-7.72045
▁uses	-7.72728
▁segmentation	-7.7331
▁functions	-7.73364
▁improve	-7.74339
▁distributed	-7.74619
▁matrix	-7.75014
▁best	-7.75211
▁applied	-7.75215
▁further	-7.75236
▁available	-7.76102
▁quality	-7.7622
▁find	-7.77114
▁word	-7.77774
▁example	-7.77906
▁estimation	-7.77961
▁trained	-7.78024
▁possible	-7.78396
▁complexity	-7.78398
▁size	-7.78403
▁known	-7.78706
▁prediction	-7.78794
▁perform	-7.79729
▁target	-7.79824
▁complex	-7.80327
▁application	-7.80657
▁parameters	-7.81245
▁due	-7.81421
▁shown	-7.81701
▁technique	-7.81731
▁compared	-7.82703
▁achieve	-7.8376
▁online	-7.84183
y	-7.8421
▁attention	-7.84398
▁often	-7.84883
▁outperform	-7.84885
▁properties	-7.8533
▁terms	-7.85443
▁does	-7.85882
▁within	-7.86152
▁allows	-7.86593
▁memory	-7.86901
▁cost	-7.87378
▁will	-7.87711
▁thus	-7.87901
▁rate	-7.8854
▁loss	-7.88961
▁source	-7.89554
▁evaluation	-7.89667
▁standard	-7.89785
▁natural	-7.90476
▁provides	-7.90481
▁way	-7.90535
▁probability	-7.90648
▁key	-7.90906
▁test	-7.91377
▁error	-7.91969
▁focus	-7.92122
▁up	-7.92165
▁second	-7.9242
▁power	-7.92642
▁k	-7.92756
▁dynamic	-7.92817
▁since	-7.92982
▁among	-7.92985
▁cnn	-7.9322
▁code	-7.93306
▁presented	-7.94404
es	-7.94421
▁end	-7.94449
▁current	-7.94745
▁called	-7.94911
▁content	-7.95031
▁scheme	-7.95365
time	-7.95454
▁points	-7.95587
2	-7.95867
▁computational	-7.96113
▁able	-7.96515
▁communication	-7.97122
▁level	-7.97321
▁sequence	-7.97509
▁processing	-7.97678
▁matching	-7.99595
▁vector	-7.99721
▁significant	-7.99805
▁query	-7.99891
▁obtain	-8.00205
▁constraints	-8.00313
▁generate	-8.00814
▁studied	-8.00932
▁software	-8.00995
▁clustering	-8.01011
▁computing	-8.01491
▁evaluate	-8.0152
▁distance	-8.01701
▁examples	-8.01916
▁significantly	-8.02569
▁give	-8.0263
▁motion	-8.02729
▁experimental	-8.02752
▁theory	-8.02979
▁long	-8.03221
▁global	-8.0345
n	-8.04241
▁like	-8.04262
▁developed	-8.04277
▁main	-8.04515
scale	-8.04734
▁specific	-8.04812
▁web	-8.05587
▁sets	-8.05707
▁form	-8.0598
▁address	-8.06683
▁computer	-8.06771
▁need	-8.07045
▁another	-8.07406
▁modeling	-8.0771
▁studies	-8.07737
▁much	-8.08117
▁energy	-8.08344
▁make	-8.08424
▁directly	-8.0927
▁face	-8.09323
▁authors	-8.09332
▁node	-8.0938
▁common	-8.09398
▁those	-8.09438
▁field	-8.09663
▁effective	-8.09808
▁include	-8.09963
▁during	-8.09971
▁temporal	-8.10026
▁hand	-8.10361
▁depth	-8.10597
▁action	-8.10606
▁final	-8.10927
▁support	-8.11047
▁part	-8.11052
▁spatial	-8.11239
▁learned	-8.11407
▁addition	-8.11936
▁additional	-8.121
▁introduced	-8.12158
▁pose	-8.1218
▁inference	-8.12333
▁solutions	-8.1285
▁require	-8.12865
▁adversarial	-8.1291
▁describe	-8.13404
▁layer	-8.13432
▁behavior	-8.13454
▁sparse	-8.13481
▁words	-8.13562
▁approximation	-8.1361
▁similarity	-8.13691
▁considered	-8.13705
▁layers	-8.13926
▁obtained	-8.14209
▁out	-8.14334
dimensional	-8.14342
▁setting	-8.14751
▁scale	-8.14762
▁bound	-8.15034
▁via	-8.15249
▁map	-8.15714
▁computation	-8.15842
▁r	-8.15967
▁classes	-8.15987
▁]	-8.15992
▁requires	-8.16087
cause	-8.16457
▁generation	-8.17067
▁across	-8.17088
▁types	-8.17424
▁few	-8.17556
▁lower	-8.17626
▁prior	-8.18896
▁output	-8.18997
▁mechanism	-8.19322
▁vision	-8.19606
▁range	-8.19885
▁challenging	-8.20224
▁patterns	-8.20245
▁environment	-8.20268
▁o	-8.20404
▁robust	-8.20794
▁d	-8.20885
▁instead	-8.20919
▁samples	-8.2096
▁t	-8.21328
▁generated	-8.21398
▁tree	-8.21434
▁literature	-8.21614
▁translation	-8.21668
▁found	-8.21803
▁typical	-8.21855
▁access	-8.22199
▁p	-8.22534
▁re	-8.22633
▁good	-8.22672
▁extend	-8.23084
▁traditional	-8.23243
▁noise	-8.23386
▁apply	-8.2372
▁open	-8.23831
▁limited	-8.23923
▁gradient	-8.24085
over	-8.24187
▁type	-8.242
▁represent	-8.24203
▁c	-8.24282
▁prove	-8.24394
▁still	-8.24984
▁train	-8.25066
▁decision	-8.25168
▁programming	-8.2536
▁strategy	-8.25604
▁scene	-8.25846
▁fully	-8.26416
▁being	-8.26424
▁designed	-8.26583
▁goal	-8.26714
▁value	-8.27399
▁f	-8.27707
▁mobile	-8.27739
▁implementation	-8.28289
world	-8.28359
▁transfer	-8.29076
▁sampling	-8.29191
▁tracking	-8.2931
▁develop	-8.29356
▁latent	-8.29973
▁higher	-8.30269
▁statistical	-8.30892
▁cases	-8.31137
▁pre	-8.31752
▁parallel	-8.31887
▁bounds	-8.31965
▁fixed	-8.32185
▁achieves	-8.3223
▁identify	-8.32277
▁here	-8.32359
▁certain	-8.3247
▁labels	-8.32568
▁conditions	-8.32866
▁measure	-8.32966
▁contrast	-8.32968
▁selection	-8.33065
▁question	-8.33244
▁us	-8.33657
▁agents	-8.33766
t	-8.34137
▁m	-8.34548
▁objective	-8.34774
▁robot	-8.3498
▁policy	-8.35018
▁stochastic	-8.35053
▁solve	-8.35145
▁popular	-8.35406
▁allow	-8.35648
▁achieved	-8.35708
▁reduce	-8.35735
▁either	-8.35791
▁individual	-8.35818
▁path	-8.35975
▁step	-8.36298
▁fast	-8.36565
▁interest	-8.36912
▁community	-8.37158
▁per	-8.37167
▁furthermore	-8.37301
▁security	-8.37357
▁automatically	-8.377
▁presents	-8.37884
▁could	-8.37959
▁program	-8.38025
▁generative	-8.38091
▁instance	-8.38266
▁efficiency	-8.38343
▁flow	-8.38508
▁supervised	-8.38535
▁domains	-8.38557
▁original	-8.38574
▁embedding	-8.38718
▁values	-8.38913
▁signal	-8.3898
▁exploit	-8.39273
▁shape	-8.39516
though	-8.39679
▁potential	-8.39698
▁combine	-8.39725
▁estimate	-8.39791
▁channel	-8.39969
▁privacy	-8.39976
▁queries	-8.4073
▁predict	-8.4123
▁less	-8.4136
▁convergence	-8.41753
▁compare	-8.41941
end	-8.42013
▁recurrent	-8.42016
▁future	-8.42255
▁database	-8.42342
▁variety	-8.42594
▁retrieval	-8.42721
▁efficiently	-8.42755
▁regression	-8.42792
▁who	-8.42877
▁metric	-8.43142
▁unsupervised	-8.43241
▁years	-8.43311
▁classifier	-8.43362
▁discuss	-8.4355
▁architectures	-8.43891
▁structures	-8.43925
▁investigate	-8.44437
▁sensor	-8.4446
▁accurate	-8.44659
▁specifically	-8.44738
▁defined	-8.44922
▁cloud	-8.45021
▁average	-8.45029
▁sample	-8.45456
▁location	-8.4561
▁finding	-8.45631
▁regions	-8.46025
▁probabilistic	-8.46169
▁difficult	-8.46213
▁maximum	-8.46505
▁game	-8.46691
▁required	-8.46704
▁improved	-8.46737
▁shows	-8.4681
▁camera	-8.46851
▁idea	-8.4688
▁capture	-8.46954
▁traffic	-8.46976
▁highly	-8.47292
▁practical	-8.47314
▁understanding	-8.47396
▁useful	-8.47432
▁b	-8.47965
▁benchmark	-8.48181
▁against	-8.48198
▁explore	-8.48712
▁self	-8.48971
▁strategies	-8.49307
▁log	-8.49325
▁group	-8.49341
▁effectiveness	-8.49357
▁development	-8.49461
▁detect	-8.49721
▁edge	-8.49975
▁theoretical	-8.50154
▁analyze	-8.5031
▁variables	-8.50453
▁continuous	-8.50457
▁maps	-8.50527
▁provided	-8.5064
al	-8.51564
▁compute	-8.5185
▁challenge	-8.52014
a	-8.52359
▁attacks	-8.52365
▁protocol	-8.52497
▁independent	-8.5272
▁constant	-8.52744
▁corresponding	-8.5284
▁polynomial	-8.52901
▁environments	-8.53292
▁service	-8.5339
▁approximate	-8.5352
▁should	-8.53553
▁construct	-8.5394
er	-8.54086
▁cannot	-8.54193
▁programs	-8.54195
▁resources	-8.54556
▁view	-8.54616
▁videos	-8.54617
▁agent	-8.54656
▁full	-8.54826
▁binary	-8.54965
▁components	-8.55119
▁mapping	-8.55335
▁usually	-8.55337
▁makes	-8.55462
▁reinforcement	-8.56075
▁ability	-8.56126
▁region	-8.56134
▁area	-8.56184
▁every	-8.56456
▁extensive	-8.56482
▁relevant	-8.56681
▁relations	-8.56713
▁amount	-8.56714
▁after	-8.56742
▁scenarios	-8.56777
▁parameter	-8.57091
▁sequences	-8.57378
▁made	-8.57399
▁rely	-8.57524
▁finite	-8.57531
▁codes	-8.58056
▁simulation	-8.58177
▁see	-8.58194
▁devices	-8.58242
▁what	-8.58251
▁changes	-8.58288
▁tools	-8.59118
▁distributions	-8.59501
▁degree	-8.59701
▁planning	-8.59803
▁least	-8.59899
▁reconstruction	-8.59922
▁challenges	-8.59942
▁making	-8.6
▁mean	-8.60077
▁wide	-8.60156
▁abstract	-8.60408
▁arbitrary	-8.60553
▁short	-8.60731
▁actions	-8.60901
▁wireless	-8.61038
▁version	-8.61052
▁processes	-8.6107
▁whether	-8.61493
▁vectors	-8.61503
▁x	-8.61514
▁joint	-8.61573
▁speed	-8.61646
▁dynamics	-8.61713
▁strong	-8.62733
▁factor	-8.62863
▁following	-8.63016
▁widely	-8.63127
▁automatic	-8.63366
▁kernel	-8.63569
▁combination	-8.63865
▁associated	-8.64058
▁rules	-8.64132
▁cnns	-8.64168
▁pairs	-8.64193
▁logic	-8.64288
▁suggest	-8.64314
▁weights	-8.64486
▁respect	-8.64517
▁select	-8.64553
▁empirical	-8.64727
▁top	-8.64963
▁schemes	-8.65191
▁convex	-8.65213
▁hierarchical	-8.6533
▁languages	-8.65365
▁sub	-8.65858
▁label	-8.65912
▁take	-8.65951
▁minimum	-8.66102
▁underlying	-8.6618
▁classical	-8.6622
refore	-8.66296
▁fine	-8.66481
▁world	-8.66483
▁build	-8.66621
▁capacity	-8.66666
▁cross	-8.66709
▁solving	-8.66744
▁tool	-8.66969
▁sentence	-8.67017
▁speech	-8.6714
▁learns	-8.67231
▁extended	-8.6735
▁extraction	-8.67362
1	-8.67705
r	-8.67713
▁along	-8.67768
▁topic	-8.68046
▁g	-8.68095
▁complete	-8.68187
▁edges	-8.6833
▁resource	-8.68438
▁faster	-8.68441
▁produce	-8.68489
▁concept	-8.68539
▁constraint	-8.68542
▁gaussian	-8.68583
▁procedure	-8.6859
▁link	-8.68636
▁semantics	-8.68776
▁measures	-8.68886
▁semi	-8.69186
▁people	-8.69312
▁times	-8.69413
▁must	-8.69416
▁instances	-8.69435
▁interaction	-8.69544
▁shared	-8.69657
▁embeddings	-8.69831
▁previously	-8.70033
▁metrics	-8.70148
▁help	-8.70251
▁would	-8.70918
▁researchers	-8.7134
▁improvement	-8.71986
▁operations	-8.72005
▁frame	-8.7227
▁account	-8.72271
▁routing	-8.72363
▁testing	-8.72472
▁performed	-8.72578
▁enables	-8.72642
▁attributes	-8.72864
▁internet	-8.72931
▁states	-8.73081
▁impact	-8.73161
▁parts	-8.73179
▁especially	-8.73225
▁deal	-8.73255
▁comparison	-8.73611
▁observed	-8.73697
▁implemented	-8.73764
▁determine	-8.73943
▁according	-8.74041
▁discrete	-8.74132
▁series	-8.74157
▁special	-8.74171
▁component	-8.74181
▁active	-8.7437
▁hard	-8.74415
▁evaluated	-8.74642
▁localization	-8.74682
▁document	-8.74842
▁bayesian	-8.75107
▁change	-8.75405
▁co	-8.75627
▁frames	-8.75649
▁games	-8.7609
▁improves	-8.76269
▁generating	-8.76283
▁execution	-8.7629
▁issues	-8.76473
▁generalization	-8.76776
▁means	-8.76931
▁physical	-8.76982
▁requirements	-8.77099
▁initial	-8.77234
▁yet	-8.7735
▁implement	-8.77425
▁fact	-8.77489
▁increase	-8.77493
▁above	-8.77506
m	-8.77572
▁l	-8.77855
▁relation	-8.7796
▁storage	-8.78097
▁relative	-8.7821
▁interactions	-8.78924
▁simultaneously	-8.78938
▁scheduling	-8.79076
▁building	-8.79584
▁density	-8.79647
▁matrices	-8.79744
▁basic	-8.79967
▁labeled	-8.80122
▁connected	-8.80157
▁reduction	-8.80219
▁pattern	-8.80704
▁static	-8.80802
▁services	-8.80926
▁effect	-8.80971
▁positive	-8.81032
▁aim	-8.8125
▁expected	-8.81347
▁increasing	-8.81434
▁markov	-8.81575
▁total	-8.81595
▁mechanisms	-8.81885
▁extract	-8.81965
▁events	-8.82244
▁categories	-8.82371
▁issue	-8.82421
▁define	-8.82616
▁--	-8.82669
▁ranking	-8.82762
▁interesting	-8.8285
▁derive	-8.82869
▁adaptation	-8.82903
▁suitable	-8.8298
▁derived	-8.83465
▁trees	-8.8381
;	-8.83835
▁line	-8.83852
▁manner	-8.83909
▁lstm	-8.84052
▁extracted	-8.84093
▁combined	-8.84119
▁property	-8.84254
▁hidden	-8.84384
▁major	-8.84416
▁un	-8.84659
▁become	-8.84688
▁geometric	-8.84992
▁length	-8.85138
▁synthetic	-8.85138
▁signals	-8.85151
▁term	-8.85234
▁consists	-8.85331
▁success	-8.85577
▁four	-8.85719
▁answer	-8.86114
▁coding	-8.86146
free	-8.86206
▁errors	-8.86217
▁resolution	-8.86256
▁alternative	-8.864
▁focused	-8.86401
▁classifiers	-8.86458
▁role	-8.86677
specific	-8.86695
▁employ	-8.86715
▁dense	-8.86715
▁characteristics	-8.86915
▁management	-8.87053
▁predictions	-8.87061
▁proof	-8.87226
▁discriminative	-8.87274
▁measurements	-8.87306
k	-8.87395
in	-8.87595
▁vertices	-8.87705
▁showed	-8.87794
▁adaptive	-8.8791
▁de	-8.88312
▁described	-8.88364
▁unlike	-8.88551
▁critical	-8.88682
▁documents	-8.88692
▁attack	-8.8883
▁hence	-8.88895
▁sense	-8.88911
▁factors	-8.88914
▁relationships	-8.8898
▁explicit	-8.8915
▁media	-8.892
▁competitive	-8.89247
▁settings	-8.89257
▁mining	-8.89431
▁handle	-8.89638
▁demonstrated	-8.89645
▁policies	-8.89762
▁assumption	-8.89928
▁levels	-8.90147
▁questions	-8.90501
▁providing	-8.9051
▁rank	-8.90603
▁unknown	-8.90619
▁quantum	-8.90663
▁feedback	-8.90711
i	-8.90715
▁together	-8.90715
▁subset	-8.90863
▁effectively	-8.90986
▁weight	-8.91106
▁pixel	-8.91141
▁survey	-8.91174
▁uncertainty	-8.91235
▁advantage	-8.91292
▁protocols	-8.91437
▁sensors	-8.91502
▁robots	-8.91586
▁rates	-8.91647
▁collection	-8.91754
▁towards	-8.91911
▁create	-8.91928
▁structured	-8.91945
▁cluster	-8.91988
▁phase	-8.92004
▁event	-8.92072
▁notion	-8.92111
▁easily	-8.92182
▁robustness	-8.92183
▁takes	-8.92192
▁inputs	-8.9221
▁hardware	-8.92353
▁proposes	-8.92364
▁leads	-8.92407
▁conditional	-8.92419
▁far	-8.92419
▁variable	-8.92426
▁ground	-8.92655
▁aspects	-8.92842
▁style	-8.92903
▁weighted	-8.92913
▁body	-8.92943
▁entities	-8.93012
▁importance	-8.93014
▁paths	-8.93018
▁explicitly	-8.93126
▁sequential	-8.93331
▁last	-8.93407
▁sources	-8.93597
▁exact	-8.93875
▁successfully	-8.93986
▁base	-8.94034
▁basis	-8.941
▁art	-8.94407
supervised	-8.9449
▁fundamental	-8.94567
▁public	-8.94637
▁score	-8.948
▁deterministic	-8.94814
▁next	-8.94852
▁activity	-8.9492
▁estimates	-8.94962
▁groups	-8.95319
▁practice	-8.95449
▁promising	-8.95479
▁direct	-8.957
net	-8.95729
▁construction	-8.95741
▁larger	-8.95802
▁extension	-8.9585
▁improvements	-8.96219
▁jointly	-8.9669
order	-8.9671
▁w	-8.96825
▁necessary	-8.96829
▁color	-8.97092
▁corpus	-8.97112
▁powerful	-8.97144
▁utilize	-8.9732
▁overall	-8.97378
▁influence	-8.97388
▁review	-8.97502
▁baseline	-8.97526
▁product	-8.97759
▁virtual	-8.97805
▁entity	-8.97985
▁twitter	-8.98087
▁leverage	-8.98304
▁numerical	-8.9832
▁incorporate	-8.98365
▁early	-8.98376
▁upper	-8.98503
▁clusters	-8.98714
▁nature	-8.98802
▁past	-8.98856
▁locations	-8.98872
less	-8.98908
▁respectively	-8.9892
▁zero	-8.98932
term	-8.99149
p	-8.99302
▁correlation	-8.99399
▁minimize	-8.99416
▁combining	-8.9944
▁appearance	-8.99851
▁transform	-8.99897
▁frequency	-8.99912
▁encoder	-8.99947
▁aims	-9.00131
▁elements	-9.00554
▁presence	-9.00559
▁computed	-9.00569
▁noisy	-9.00617
▁sentences	-9.00839
x	-9.00862
▁run	-9.01104
▁essential	-9.01189
▁background	-9.01283
▁partial	-9.01317
▁sharing	-9.01321
▁theorem	-9.01354
▁4	-9.0146
▁discussed	-9.01563
▁assumptions	-9.01645
▁bounded	-9.01968
▁before	-9.02091
▁running	-9.02138
▁ratio	-9.0224
▁avoid	-9.02286
o	-9.02521
▁sentiment	-9.02623
▁concepts	-9.02725
▁formulation	-9.02845
▁dimension	-9.03046
3	-9.03106
▁done	-9.03174
▁sensing	-9.03439
▁share	-9.03538
▁depend	-9.03602
▁close	-9.03645
▁article	-9.03658
▁unit	-9.03723
▁lack	-9.0374
▁conventional	-9.03893
▁fields	-9.04114
▁generally	-9.04202
▁light	-9.05023
▁person	-9.05042
▁surface	-9.05083
▁areas	-9.05128
▁exploration	-9.05146
▁category	-9.05188
▁links	-9.05456
▁rule	-9.05472
▁predicting	-9.05828
as	-9.05844
▁automated	-9.06058
▁optimize	-9.06062
▁guarantees	-9.06063
▁allocation	-9.0625
▁block	-9.06296
able	-9.06321
▁iterative	-9.064
▁autonomous	-9.06404
▁relationship	-9.06449
▁successful	-9.0655
▁recovery	-9.06814
▁establish	-9.07187
▁employed	-9.07205
▁effects	-9.07245
▁machines	-9.07334
▁steps	-9.07462
▁pair	-9.07695
capable	-9.07907
▁compression	-9.07942
▁observations	-9.07951
▁built	-9.07964
▁---	-9.08061
▁spectral	-9.0823
▁assume	-9.08249
▁connections	-9.08368
▁condition	-9.08607
▁considering	-9.08646
▁items	-9.08961
wise	-9.09059
▁position	-9.09093
▁enable	-9.09359
▁correct	-9.09611
▁generic	-9.09742
▁risk	-9.0981
▁filter	-9.10056
▁hybrid	-9.10089
▁contains	-9.10175
▁alignment	-9.10183
▁investigated	-9.10201
▁difference	-9.10234
▁detecting	-9.10251
▁seen	-9.10455
▁computationally	-9.10473
▁upon	-9.1049
▁etc	-9.10606
te	-9.10714
▁ones	-9.10851
▁reasoning	-9.10921
c	-9.11433
▁represented	-9.11454
▁needed	-9.11497
▁transformation	-9.11808
▁evidence	-9.11872
▁spaces	-9.12076
▁exist	-9.121
▁benchmarks	-9.12171
▁regularization	-9.1235
▁actual	-9.12506
▁scenes	-9.12843
▁transmission	-9.12934
▁lead	-9.12976
▁appropriate	-9.1309
▁needs	-9.13104
▁negative	-9.13281
▁start	-9.13406
▁verification	-9.13494
▁sufficient	-9.13498
▁operation	-9.13621
▁showing	-9.13625
▁namely	-9.13659
▁classify	-9.13676
▁improving	-9.13848
▁statistics	-9.13882
▁regard	-9.13924
▁generalized	-9.13933
▁realistic	-9.13974
▁v	-9.14024
▁throughput	-9.14067
▁description	-9.14201
▁introduces	-9.14288
l	-9.14353
▁extreme	-9.14515
▁describes	-9.14543
▁performing	-9.14608
▁response	-9.14667
▁grid	-9.14707
▁rnn	-9.14761
▁annotations	-9.1483
▁geometry	-9.14835
▁almost	-9.14846
▁whole	-9.14919
▁consistency	-9.14951
▁rich	-9.15142
▁topology	-9.15196
▁report	-9.15214
▁stable	-9.15392
▁utility	-9.15452
▁easy	-9.15479
▁subject	-9.15537
▁communities	-9.1579
▁np	-9.15969
▁decomposition	-9.15979
▁platform	-9.16093
▁structural	-9.16199
▁scenario	-9.16212
▁recommendation	-9.16236
▁perspective	-9.16463
▁message	-9.16872
▁adapt	-9.16996
▁diverse	-9.17256
▁advantages	-9.17537
▁just	-9.17601
▁stage	-9.17905
▁delay	-9.17905
▁discover	-9.17922
▁scales	-9.17987
▁saliency	-9.18059
▁simulations	-9.18075
▁named	-9.18113
▁motivated	-9.18151
▁illustrate	-9.18164
▁units	-9.18239
▁q	-9.18591
▁update	-9.18632
▁expensive	-9.18867
▁optical	-9.19066
▁threshold	-9.19092
▁rgb	-9.19109
▁unique	-9.19227
▁others	-9.19328
▁detailed	-9.1935
▁near	-9.19435
▁own	-9.19472
▁maximize	-9.19557
▁convolution	-9.19572
▁call	-9.19783
▁index	-9.19868
resolution	-9.19869
▁direction	-9.19952
▁measurement	-9.20099
▁guarantee	-9.20108
▁heuristic	-9.2036
▁consistent	-9.20426
▁principle	-9.20558
▁entire	-9.20656
▁reduced	-9.20776
▁always	-9.20806
▁focuses	-9.20897
▁trajectory	-9.21063
▁little	-9.21122
▁identification	-9.21154
▁ways	-9.2122
▁explored	-9.21603
▁interference	-9.21686
▁comprehensive	-9.21749
▁tensor	-9.21784
▁vehicle	-9.21821
▁around	-9.21903
▁modern	-9.21954
▁mainly	-9.21994
▁differences	-9.22218
▁estimat	-9.22306
▁inspire	-9.22332
▁understand	-9.2251
▁variational	-9.2265
might	-9.22671
▁differ	-9.22802
▁visualization	-9.22875
▁usage	-9.2294
▁proved	-9.22945
▁ii	-9.23036
▁audio	-9.23038
trained	-9.23041
▁h	-9.23201
▁smaller	-9.23247
▁imagenet	-9.2336
▁gap	-9.2341
▁precision	-9.23466
▁choice	-9.23474
▁vertex	-9.23769
▁propagation	-9.23959
▁interactive	-9.24089
▁core	-9.24171
▁adopt	-9.24329
▁sum	-9.24359
▁channels	-9.24541
▁relatively	-9.24555
▁views	-9.24573
▁synthesis	-9.24704
▁conducted	-9.24826
▁selected	-9.25122
▁collected	-9.25196
▁encoding	-9.25212
▁scalable	-9.25312
▁minimal	-9.25318
▁proposal	-9.25408
▁contribution	-9.25494
▁separate	-9.25667
▁annotation	-9.25804
▁news	-9.26001
▁tested	-9.26073
▁5	-9.26235
▁family	-9.26306
▁server	-9.26477
▁stream	-9.26538
▁consumption	-9.2655
on	-9.26577
▁trajectories	-9.26633
▁purpose	-9.2671
▁solved	-9.26764
▁ensure	-9.26794
▁limitations	-9.26814
▁filtering	-9.26835
▁free	-9.26905
▁reported	-9.26908
▁facial	-9.26909
▁get	-9.2693
▁yields	-9.26954
▁relie	-9.27055
▁comparable	-9.27118
▁attribute	-9.27139
▁descriptors	-9.27176
▁vehicles	-9.27178
▁definition	-9.27192
▁though	-9.27454
▁heterogeneous	-9.27594
▁filters	-9.27652
ally	-9.27688
▁gain	-9.27726
▁messages	-9.27818
se	-9.27819
▁later	-9.27872
▁paradigm	-9.27904
▁methodology	-9.27993
▁restricted	-9.2809
▁identifying	-9.28111
▁neighbor	-9.28244
▁benefits	-9.28274
▁gan	-9.28329
▁reference	-9.285
▁ensemble	-9.28607
▁variations	-9.28735
▁already	-9.29016
▁variant	-9.29087
▁commonly	-9.29125
▁regular	-9.29152
▁great	-9.29387
▁attempt	-9.29419
▁equivalent	-9.29476
▁section	-9.29499
▁match	-9.29605
▁inter	-9.29695
▁scores	-9.297
▁external	-9.29774
▁technology	-9.29866
▁subspace	-9.29917
▁true	-9.30073
▁functional	-9.30111
▁proposals	-9.30116
▁contain	-9.30139
▁generates	-9.30255
▁formal	-9.30301
linear	-9.30365
▁labeling	-9.30482
▁sparsity	-9.3052
▁taking	-9.30577
▁costs	-9.30648
known	-9.30683
▁capabilities	-9.30754
▁variants	-9.30808
▁evolution	-9.30833
▁nonlinear	-9.30861
▁device	-9.30881
▁outputs	-9.30961
▁engineering	-9.31004
▁coverage	-9.31279
▁exists	-9.31279
▁randomized	-9.31356
▁experience	-9.31385
▁analyzed	-9.31392
▁papers	-9.31422
▁currently	-9.31481
▁load	-9.31533
▁supervision	-9.31562
▁effort	-9.31583
▁project	-9.31698
like	-9.31734
▁candidate	-9.31937
▁residual	-9.32026
▁scalability	-9.32183
▁closely	-9.32348
▁analyzing	-9.32412
▁dimensions	-9.32469
▁activities	-9.32481
▁transition	-9.32486
▁existence	-9.32504
▁generalize	-9.32639
▁topics	-9.3264
▁benefit	-9.32985
▁taken	-9.33043
▁crucial	-9.33148
▁remains	-9.3328
▁missing	-9.33292
▁decisions	-9.33592
▁interface	-9.33593
▁reward	-9.33611
▁back	-9.33731
▁boundary	-9.33855
▁observation	-9.34074
▁despi	-9.34297
▁received	-9.34484
▁side	-9.34601
▁progress	-9.34692
▁moving	-9.34729
▁detector	-9.34843
▁third	-9.35083
▁overhead	-9.35104
▁compact	-9.35227
aware	-9.35326
▁predictive	-9.35391
f	-9.35448
▁fusion	-9.35611
▁details	-9.35646
▁latter	-9.35654
▁10	-9.35696
▁parsing	-9.35696
▁gpu	-9.35784
▁reduces	-9.35801
▁differential	-9.36023
▁containing	-9.36028
▁scaling	-9.36208
▁greedy	-9.36215
▁character	-9.36297
view	-9.36406
▁embedded	-9.36429
▁applicable	-9.36496
▁reduc	-9.3659
▁descent	-9.36609
▁desired	-9.3663
st	-9.36874
▁patches	-9.36925
driven	-9.36969
▁itself	-9.37153
▁segment	-9.37155
▁exponential	-9.37173
▁flexible	-9.37229
▁dual	-9.37332
▁super	-9.37344
▁annotated	-9.37433
grained	-9.37449
▁efforts	-9.37773
▁navigation	-9.37784
▁databases	-9.37807
▁svm	-9.37886
▁rl	-9.37944
▁normal	-9.38033
▁central	-9.3804
▁beyond	-9.38045
▁tackle	-9.3807
▁encode	-9.38084
▁packet	-9.3811
▁consist	-9.38128
▁limit	-9.38155
▁inverse	-9.38272
▁considers	-9.38341
▁operator	-9.38399
▁constrained	-9.38535
rank	-9.38756
▁discovery	-9.38878
▁combinatorial	-9.39035
▁increases	-9.3905
▁entropy	-9.3919
▁secure	-9.39242
▁likely	-9.3925
▁facilitate	-9.39608
▁detectors	-9.39736
▁becomes	-9.39889
▁generator	-9.39907
▁constructed	-9.39958
▁faces	-9.40046
learning	-9.40137
up	-9.40206
▁likelihood	-9.40275
▁examine	-9.40346
▁english	-9.40385
▁validate	-9.40492
▁addresses	-9.40632
▁estimated	-9.40636
▁dependencies	-9.40752
▁factorization	-9.41114
▁empirically	-9.41117
▁fashion	-9.41186
▁variation	-9.41202
▁indicate	-9.41219
▁advances	-9.41239
▁connection	-9.41274
▁humans	-9.4128
▁superior	-9.41327
▁minimizing	-9.41362
▁note	-9.41375
having	-9.41589
▁module	-9.41638
▁fault	-9.41765
▁characterize	-9.42012
▁enough	-9.42061
hard	-9.42222
▁mixture	-9.4239
▁correspond	-9.42406
▁configuration	-9.42511
▁comparing	-9.42595
▁manipulation	-9.42709
▁bias	-9.42717
▁affect	-9.42738
124	-9.42831
▁science	-9.43174
and	-9.43232
▁variance	-9.43258
▁experiment	-9.43345
▁never	-9.43406
▁trade	-9.43409
▁integrated	-9.43522
▁minimization	-9.43577
▁identified	-9.43712
▁cameras	-9.4374
▁safety	-9.43843
▁consensus	-9.4386
▁optimized	-9.43883
▁updates	-9.43923
▁participants	-9.4401
▁weak	-9.44072
▁driving	-9.44376
▁expression	-9.44412
▁refer	-9.44425
▁bounding	-9.4447
▁decoder	-9.44481
▁manually	-9.44494
▁conduct	-9.44583
▁produces	-9.44646
▁operators	-9.44694
▁meta	-9.4487
▁diversity	-9.44972
▁post	-9.45056
▁depends	-9.45095
▁pixels	-9.45101
▁forward	-9.4514
ic	-9.45148
▁hashing	-9.45154
▁ad	-9.45174
▁stereo	-9.45198
▁decoding	-9.453
▁independently	-9.45366
▁behaviors	-9.45658
▁follow	-9.45673
▁adopted	-9.45776
an	-9.45996
▁answering	-9.46004
▁texture	-9.46088
▁rath	-9.46131
▁accurately	-9.46198
▁mathematical	-9.46233
▁publicly	-9.46351
▁modeled	-9.46418
▁population	-9.46519
▁contextual	-9.46608
▁ideas	-9.46635
▁collect	-9.46662
▁individuals	-9.46783
▁blocks	-9.46851
▁addressed	-9.46862
▁off	-9.46909
▁smart	-9.46924
▁relational	-9.47042
▁overcome	-9.47105
▁infer	-9.47211
▁platforms	-9.47273
▁spectrum	-9.47455
▁uniform	-9.47516
▁transformations	-9.47536
▁norm	-9.47661
▁place	-9.47771
▁manifold	-9.47828
▁pipeline	-9.47896
▁digital	-9.48075
▁offer	-9.48218
▁dictionary	-9.48228
▁streaming	-9.48384
▁similarly	-9.48479
▁hash	-9.48656
▁assess	-9.4868
▁intermediate	-9.4872
▁unlabeled	-9.48728
▁expert	-9.48798
▁simulated	-9.48798
▁quantitative	-9.48899
▁unified	-9.48905
▁preferences	-9.4896
▁reconstruct	-9.49009
▁u	-9.49054
▁developing	-9.49091
▁cover	-9.49097
▁integration	-9.49109
ather	-9.49182
▁infrastructure	-9.49398
▁sensitive	-9.4943
▁increasingly	-9.49457
▁stability	-9.49463
▁projection	-9.49487
▁potentially	-9.49704
applying	-9.49977
▁observe	-9.49992
▁established	-9.50049
▁dimensionality	-9.5016
▁requiring	-9.50184
achieving	-9.50226
▁monitoring	-9.50747
▁naturally	-9.50794
▁directed	-9.50916
▁invariant	-9.51017
▁nearest	-9.51026
▁randomly	-9.51201
▁enhance	-9.51259
▁bandwidth	-9.5127
▁demand	-9.51292
▁add	-9.51709
▁formulate	-9.51767
▁identity	-9.51821
▁collaborative	-9.51987
▁integer	-9.52017
▁auto	-9.52054
▁failure	-9.5206
▁iot	-9.52139
▁implementations	-9.52255
▁list	-9.52294
▁reliable	-9.52388
▁leading	-9.52398
▁involves	-9.52531
▁pairwise	-9.52594
▁chain	-9.52644
▁chosen	-9.52698
▁magnitude	-9.52742
▁million	-9.52759
▁gans	-9.52774
▁artificial	-9.52858
cnn	-9.52892
▁worst	-9.52969
▁optimiz	-9.52998
▁findings	-9.53061
▁private	-9.53134
▁black	-9.53218
▁pooling	-9.53239
▁verify	-9.53242
▁distinct	-9.53265
▁extracting	-9.5343
▁criteria	-9.53909
▁offers	-9.54048
▁aggregation	-9.54079
▁represents	-9.54095
▁iteration	-9.54157
▁sizes	-9.54273
▁insights	-9.54502
▁equal	-9.54513
▁situations	-9.54689
▁distinguish	-9.54728
▁shapes	-9.5474
▁probabilities	-9.54786
▁earlier	-9.54866
▁now	-9.54935
▁connectivity	-9.54938
▁latency	-9.5494
▁recover	-9.55322
▁try	-9.55521
▁maintain	-9.55572
▁partition	-9.55576
▁deployment	-9.55692
▁runtime	-9.5573
▁beside	-9.55743
▁closed	-9.55753
▁box	-9.55962
▁argue	-9.56361
▁smooth	-9.56384
▁dependency	-9.56431
class	-9.56512
▁cell	-9.56514
▁trust	-9.56546
▁cues	-9.56758
▁created	-9.56931
▁symmetric	-9.57055
▁raw	-9.57148
▁designing	-9.57158
▁prevent	-9.57281
task	-9.57312
▁explain	-9.57322
▁kernels	-9.57334
shot	-9.57357
▁preserve	-9.57367
▁batch	-9.57392
▁integrate	-9.57503
▁attempts	-9.57634
▁introducing	-9.57657
▁players	-9.58066
▁play	-9.58109
▁forms	-9.58181
▁distances	-9.58402
▁quit	-9.58428
▁contributions	-9.58514
▁availability	-9.58565
▁relevance	-9.5874
▁equilibrium	-9.58949
▁let	-9.59244
▁track	-9.59277
▁detected	-9.59367
▁cache	-9.59394
▁feasible	-9.59427
▁expressions	-9.59482
▁item	-9.59567
▁increased	-9.59571
▁composition	-9.5959
▁yield	-9.59624
▁syntactic	-9.59661
▁predicted	-9.59803
▁numbers	-9.59915
by	-9.59985
▁streams	-9.60036
▁textual	-9.60042
off	-9.60081
▁directions	-9.60144
▁assumed	-9.60196
▁popularity	-9.60215
▁followed	-9.60304
amp	-9.60337
▁fail	-9.60419
▁captured	-9.60584
▁tend	-9.60586
▁bits	-9.6081
▁answers	-9.60826
▁truth	-9.60956
▁volume	-9.60966
▁appear	-9.60987
▁plane	-9.61242
▁hypothesis	-9.6131
▁tests	-9.6134
▁meaningful	-9.61378
▁0	-9.61484
▁turn	-9.61644
▁extensively	-9.61835
▁algorithmic	-9.61845
▁precise	-9.61936
▁heuristics	-9.62079
▁dynamically	-9.62131
optimal	-9.62133
▁simply	-9.62205
▁max	-9.62311
▁mostly	-9.62367
▁published	-9.62391
▁shortest	-9.62421
▁produced	-9.62526
▁asymptotic	-9.62658
layer	-9.62696
▁supports	-9.62747
▁surprising	-9.62811
▁projects	-9.62823
▁detail	-9.62909
▁equation	-9.62925
▁infinite	-9.63007
▁growing	-9.63096
▁varying	-9.63151
▁market	-9.63213
▁once	-9.63305
▁clear	-9.63376
▁perception	-9.63489
▁interpretation	-9.63538
line	-9.63585
▁locally	-9.63608
▁too	-9.63835
▁extensions	-9.63974
▁operating	-9.63988
▁implicit	-9.64004
▁leverag	-9.64143
▁patch	-9.64252
▁equations	-9.643
▁completely	-9.64347
▁reason	-9.64422
▁reach	-9.64431
▁unseen	-9.64533
▁window	-9.64533
▁soft	-9.64545
▁failures	-9.6485
▁exhibit	-9.64993
▁numerous	-9.6502
▁false	-9.65066
▁estimator	-9.65147
▁completion	-9.65227
▁poses	-9.65284
▁evaluating	-9.65325
▁applies	-9.65349
▁overview	-9.65411
▁engine	-9.65433
▁corpora	-9.65533
▁topological	-9.65561
▁five	-9.65566
▁confidence	-9.65684
▁assign	-9.65847
▁pruning	-9.65882
▁dimensional	-9.6597
▁linguistic	-9.66141
▁descriptions	-9.66198
▁technologies	-9.66234
▁incorporat	-9.66337
▁summarization	-9.66374
▁utilized	-9.66382
▁music	-9.66535
▁hierarchy	-9.66551
▁kind	-9.66592
▁cause	-9.66617
▁partitioning	-9.66645
▁aspect	-9.66654
▁association	-9.66672
▁emotion	-9.66719
▁difficulty	-9.66782
▁measured	-9.66887
▁bit	-9.66952
▁follows	-9.67105
▁strongly	-9.67105
▁choose	-9.67188
▁weakly	-9.67221
▁segments	-9.67479
▁servers	-9.67494
▁versions	-9.67543
▁lines	-9.67556
▁controller	-9.67651
▁robotic	-9.67717
▁capability	-9.67771
▁introduction	-9.67846
▁exploited	-9.67955
▁crowd	-9.67973
▁utiliz	-9.67984
▁medical	-9.6807
crafted	-9.68157
stage	-9.68157
box	-9.68248
▁big	-9.68421
▁history	-9.68456
▁suffer	-9.68511
▁modified	-9.6861
▁diffusion	-9.68655
▁internal	-9.68998
▁exploits	-9.69082
▁counting	-9.69236
▁unfortunately	-9.69583
▁graphical	-9.69752
inally	-9.69886
▁et	-9.7
oriented	-9.70023
▁contribute	-9.70027
▁mentioned	-9.70071
▁euclidean	-9.70307
▁captures	-9.70327
▁quickly	-9.70433
▁nlp	-9.70447
▁criterion	-9.70526
quality	-9.70542
▁modules	-9.70546
▁manual	-9.70619
▁imaging	-9.70684
▁loop	-9.70765
▁file	-9.70848
▁contexts	-9.71241
▁partially	-9.71427
▁exactly	-9.71518
▁tweets	-9.71532
▁articles	-9.71546
is	-9.71725
▁neighbors	-9.71779
▁analytical	-9.72048
▁6	-9.72166
▁rnns	-9.72186
▁representative	-9.72216
▁dnn	-9.72462
▁table	-9.72502
▁demonstrates	-9.72618
▁positions	-9.72771
▁tight	-9.72781
▁frameworks	-9.72832
h	-9.72875
▁broad	-9.73072
characterization	-9.7308
▁road	-9.73122
▁planar	-9.73192
ng	-9.7321
▁scientific	-9.73275
▁evaluations	-9.73584
▁enabling	-9.73606
▁deployed	-9.73674
▁universal	-9.73772
▁complementary	-9.73922
temporal	-9.74114
▁mobility	-9.74141
▁computations	-9.74207
▁coarse	-9.7422
▁tags	-9.74243
▁2-	-9.74449
▁coefficients	-9.74487
▁proven	-9.74664
▁price	-9.74671
ness	-9.74877
dependent	-9.74905
▁configurations	-9.74908
▁recognize	-9.75027
▁meaning	-9.75336
▁gradients	-9.7534
▁qualitative	-9.75364
llowing	-9.7544
▁developers	-9.7548
▁bag	-9.75487
v	-9.75502
▁baselines	-9.75564
modal	-9.75718
▁runs	-9.75763
▁majority	-9.75986
▁down	-9.76007
▁recall	-9.76017
▁formulated	-9.76126
▁orientation	-9.76138
▁fraction	-9.76219
▁prototype	-9.76244
▁substantially	-9.76285
▁remove	-9.76314
point	-9.76331
▁collision	-9.76429
▁composed	-9.76528
▁eye	-9.76606
▁limits	-9.76704
▁peer	-9.76708
▁behaviour	-9.76766
▁reflect	-9.76786
▁radio	-9.77066
▁determin	-9.77069
▁j	-9.77139
▁voting	-9.77183
▁suggested	-9.77271
▁intrinsic	-9.77423
▁packets	-9.77448
▁simpler	-9.77458
▁reviews	-9.77592
▁reliability	-9.77704
▁amounts	-9.78087
▁descriptor	-9.78116
▁abstraction	-9.78153
▁situation	-9.78163
▁dropout	-9.78295
▁concern	-9.78416
▁decentralized	-9.78588
▁discussion	-9.787
▁fit	-9.78711
▁involved	-9.78716
▁technical	-9.78749
approximation	-9.789
▁ra	-9.7903
▁offline	-9.79046
▁bi	-9.79128
▁http	-9.79129
▁fairness	-9.792
▁margin	-9.79248
▁requirement	-9.7925
▁mutual	-9.79288
▁goals	-9.79439
▁belief	-9.79505
▁experts	-9.79519
▁auxiliary	-9.79598
▁coordinate	-9.79673
▁quadratic	-9.79704
▁mixed	-9.79771
▁handling	-9.79779
▁cpu	-9.79788
▁malicious	-9.79886
▁primary	-9.79938
▁assignment	-9.80113
▁lexical	-9.80258
▁orthogonal	-9.80295
▁had	-9.80386
▁multimodal	-9.80468
▁gains	-9.8053
▁broadcast	-9.80656
▁today	-9.80658
▁quantization	-9.80766
▁salient	-9.80773
▁added	-9.80866
▁employs	-9.81004
▁classic	-9.81271
▁robotics	-9.814
▁author	-9.81492
▁approximations	-9.8151
▁satisfy	-9.81614
▁communications	-9.81686
▁extra	-9.81817
▁mode	-9.81853
▁lot	-9.81865
▁maximiz	-9.8198
▁experimentally	-9.82041
▁specified	-9.82234
▁element	-9.82264
▁advanced	-9.82306
▁pages	-9.82371
▁capturing	-9.82399
▁boundaries	-9.82497
▁authentication	-9.82522
▁maintaining	-9.82567
case	-9.8262
▁modalities	-9.82633
▁substantial	-9.82658
▁assessment	-9.82793
▁incremental	-9.82847
▁posterior	-9.82922
▁cascade	-9.8312
▁center	-9.83169
▁8	-9.83178
▁controlled	-9.83221
▁assum	-9.83334
▁adapted	-9.83375
▁preserving	-9.83473
4	-9.83488
▁phrases	-9.83657
▁largest	-9.83689
▁cellular	-9.83768
▁dialogue	-9.83836
▁insight	-9.84122
▁growth	-9.84219
▁creat	-9.84226
▁shift	-9.84266
▁look	-9.84356
▁texts	-9.84405
▁flexibility	-9.84415
▁finall	-9.84486
▁right	-9.84615
▁boxes	-9.84707
▁greatly	-9.84766
▁go	-9.8478
▁occur	-9.84815
▁movement	-9.84822
▁plan	-9.84881
▁specify	-9.84912
▁modify	-9.8509
▁monte	-9.85289
▁normalization	-9.85429
▁reveal	-9.85618
called	-9.85669
▁processors	-9.85718
▁dependent	-9.85735
▁modelling	-9.85737
▁name	-9.85913
▁determined	-9.85944
▁approximately	-9.86029
▁nearly	-9.86036
▁aggregate	-9.86049
step	-9.86072
▁computes	-9.86085
▁similarities	-9.86371
▁correlations	-9.86477
▁augmentation	-9.86554
▁applicability	-9.86587
▁come	-9.86748
▁specification	-9.86799
▁repair	-9.86838
▁limitation	-9.86887
▁changing	-9.87034
▁recursive	-9.87116
▁candidates	-9.87151
decoder	-9.87299
▁discriminator	-9.87329
▁20	-9.87332
▁analyses	-9.87464
▁library	-9.87471
▁reasonable	-9.87477
▁matches	-9.87517
▁inherent	-9.87519
▁store	-9.87582
theoretic	-9.8771
▁neighborhood	-9.87789
▁slam	-9.87808
▁procedures	-9.87849
▁head	-9.8803
▁operate	-9.88066
▁remain	-9.88511
▁focusing	-9.88702
▁checking	-9.88705
agent	-9.89005
forward	-9.89026
▁systematic	-9.89184
label	-9.89189
▁allowed	-9.89213
▁products	-9.89246
▁did	-9.89444
▁regret	-9.89558
▁cooperative	-9.89604
▁targets	-9.8963
▁his	-9.89716
▁contact	-9.89745
▁traces	-9.89834
▁involve	-9.89919
▁personal	-9.89936
▁guide	-9.89984
defined	-9.90106
▁subsequent	-9.90153
image	-9.90174
▁viewpoint	-9.90192
▁searching	-9.90215
space	-9.90259
▁possibly	-9.90346
▁logical	-9.90355
▁keep	-9.90359
▁clouds	-9.90397
▁comparisons	-9.90414
▁viewed	-9.90475
▁validation	-9.90501
▁cifar	-9.90604
▁quantify	-9.90623
▁express	-9.90662
▁anomaly	-9.90832
▁pascal	-9.90869
▁additive	-9.90924
▁hold	-9.9096
▁spatio	-9.90981
ity	-9.91049
▁bring	-9.91158
▁correlated	-9.91201
▁denoising	-9.91237
▁y	-9.91242
▁correspondence	-9.91549
▁production	-9.91567
▁fewer	-9.9165
▁java	-9.9166
▁emerging	-9.91947
▁recommender	-9.91949
▁google	-9.92025
▁none	-9.92086
▁indoor	-9.92121
▁seem	-9.92234
▁considerable	-9.92275
b	-9.92353
▁page	-9.92381
▁separation	-9.92437
▁stored	-9.92487
▁genetic	-9.92579
▁phrase	-9.92664
▁interested	-9.92667
▁intelligence	-9.92673
▁extent	-9.92689
▁urban	-9.92698
source	-9.92847
▁believe	-9.93048
▁responses	-9.93142
▁builds	-9.93266
ability	-9.93295
▁sophisticated	-9.93323
▁written	-9.93324
reby	-9.93361
▁cognitive	-9.93397
▁frequently	-9.934
▁nets	-9.93573
▁characters	-9.93587
▁tuning	-9.93706
▁separately	-9.93721
▁flows	-9.93752
▁subjects	-9.93813
▁helps	-9.93837
performs	-9.94003
▁interval	-9.94071
▁hyper	-9.94134
▁illumination	-9.94191
▁layout	-9.94224
▁commercial	-9.94231
▁entries	-9.94243
▁treat	-9.94276
▁proofs	-9.94325
▁ontology	-9.94399
▁longer	-9.94429
▁feasibility	-9.94642
▁compressed	-9.94663
▁algebraic	-9.94711
▁finds	-9.94714
▁preliminar	-9.94728
▁adversary	-9.94782
▁slow	-9.94807
▁inside	-9.94829
▁delivery	-9.9485
▁sampled	-9.94907
▁conclude	-9.94935
▁know	-9.95032
▁easier	-9.95167
▁interfaces	-9.95223
▁rapidly	-9.95224
▁evolutionary	-9.95249
▁seek	-9.95288
▁treatment	-9.95288
▁kinds	-9.95374
▁wikipedia	-9.95479
▁balance	-9.95484
▁string	-9.9561
▁iteratively	-9.95626
▁centralized	-9.95631
▁micro	-9.95665
▁asymptotically	-9.95735
▁greater	-9.95761
▁frequent	-9.95781
▁causal	-9.95821
▁strength	-9.95838
▁lattice	-9.95894
▁stages	-9.95946
▁largely	-9.96078
▁massive	-9.9617
▁autoencoder	-9.96245
▁combinations	-9.96345
▁denote	-9.96406
▁confirm	-9.96428
▁walk	-9.96486
▁huge	-9.96521
▁drawn	-9.96599
▁dnns	-9.96717
▁relay	-9.96722
▁interact	-9.96847
▁possibility	-9.97062
▁ours	-9.97193
▁recommendations	-9.97415
▁measur	-9.97465
▁centrality	-9.97556
▁augmented	-9.97746
▁principal	-9.97763
▁100	-9.97849
▁spann	-9.98055
▁millions	-9.98189
domain	-9.98437
▁generalizes	-9.98548
▁client	-9.98578
▁sound	-9.98698
▁desirable	-9.98714
▁cycle	-9.98724
▁objectives	-9.98728
▁translate	-9.98766
▁expressive	-9.98786
▁summary	-9.98891
re	-9.9897
▁processor	-9.99035
▁rounds	-9.99088
▁maximal	-9.99147
▁convert	-9.99157
▁characterized	-9.99253
▁highlight	-9.99302
▁thousands	-9.99306
▁modification	-9.99371
▁poor	-9.99405
until	-9.99586
▁chinese	-9.9959
▁feed	-9.99645
▁consequently	-9.99685
▁implies	-9.99714
▁maximization	-9.99719
▁exploring	-9.99773
▁concurrent	-9.99776
▁brain	-9.99807
▁template	-10
or	-10
▁7	-10.0005
▁captioning	-10.0007
▁semantically	-10.0016
▁exchange	-10.0022
▁occlusion	-10.0047
▁orders	-10.005
▁students	-10.0053
▁mesh	-10.0053
▁why	-10.0069
▁complicated	-10.0084
▁interpretable	-10.009
▁https	-10.0097
▁working	-10.0098
volving	-10.01
▁rotation	-10.0104
▁expressed	-10.0107
▁he	-10.0113
▁covariance	-10.0115
▁describing	-10.0128
▁life	-10.0134
▁curves	-10.0153
▁formula	-10.017
valued	-10.0177
▁perturbations	-10.0181
▁period	-10.0196
▁holds	-10.0203
▁degrees	-10.0204
▁six	-10.0212
▁read	-10.0214
▁neurons	-10.0235
▁providers	-10.0237
▁photo	-10.0237
▁profile	-10.0244
▁simultaneous	-10.0248
▁encoded	-10.0249
▁iterations	-10.0255
deed	-10.0265
▁carlo	-10.0276
▁tagging	-10.0277
▁move	-10.0282
▁intra	-10.0282
▁correctly	-10.0287
▁voc	-10.029
▁perfect	-10.029
gan	-10.0297
▁sites	-10.0314
necessarily	-10.0318
▁conjecture	-10.0335
▁fair	-10.0348
way	-10.0368
▁convolutions	-10.0374
▁proper	-10.0376
▁cells	-10.0377
▁url	-10.0386
▁collections	-10.0398
▁spread	-10.0415
▁intersection	-10.0417
▁designs	-10.042
▁carefully	-10.0445
▁sufficiently	-10.0446
▁precisely	-10.0453
▁decide	-10.0462
▁law	-10.0471
▁half	-10.0471
ther	-10.0478
▁deeper	-10.0482
▁monocular	-10.0485
▁consistently	-10.0489
▁principles	-10.0491
▁malware	-10.0494
▁speaker	-10.0495
▁physics	-10.0504
▁receiver	-10.0516
▁blockchain	-10.0516
▁assumes	-10.0531
related	-10.0536
▁predicts	-10.0542
▁team	-10.0547
▁asynchronous	-10.0551
▁forest	-10.0566
▁left	-10.0568
▁behind	-10.0574
▁book	-10.0575
processing	-10.059
▁coordination	-10.0593
referred	-10.0607
▁budget	-10.0607
▁augment	-10.0608
▁converge	-10.0617
▁theoretically	-10.0629
means	-10.0633
▁pedestrian	-10.0634
▁concerns	-10.0636
▁modular	-10.0638
▁iii	-10.0654
▁below	-10.0656
▁relaxation	-10.0657
▁correspondences	-10.0657
▁landmarks	-10.0692
▁priors	-10.0695
▁pseudo	-10.0711
▁player	-10.0712
▁accounts	-10.0719
▁intelligent	-10.0726
▁setup	-10.073
▁arguments	-10.0735
▁defining	-10.0739
▁addressing	-10.0741
▁references	-10.0746
▁vocabulary	-10.0747
▁net	-10.076
▁curve	-10.0771
▁arise	-10.0775
▁parametric	-10.0788
▁transport	-10.079
▁congestion	-10.079
core	-10.0794
▁coupled	-10.0796
▁return	-10.0799
▁expectation	-10.0799
▁perturbation	-10.0801
▁bottom	-10.0802
▁recogniz	-10.0806
▁producing	-10.0809
▁transactions	-10.0817
▁student	-10.0825
▁trace	-10.0828
▁canonical	-10.0831
▁align	-10.0832
▁overlapping	-10.0836
▁bottleneck	-10.0864
▁requests	-10.0865
▁intensity	-10.0868
▁...	-10.0869
▁agreement	-10.0885
▁classified	-10.0892
▁min	-10.0917
preserving	-10.0922
▁transmit	-10.0927
▁activation	-10.0928
▁consideration	-10.0935
▁supporting	-10.0941
▁qa	-10.0947
▁plays	-10.0949
▁gps	-10.0953
▁check	-10.0962
▁mnist	-10.0965
▁initialization	-10.0973
hose	-10.0977
▁redundancy	-10.0992
▁encourage	-10.1004
▁skeleton	-10.1014
▁guaranteed	-10.1014
▁phenomenon	-10.1016
▁stationary	-10.1019
▁choices	-10.1033
▁rendering	-10.1035
▁fitting	-10.1048
▁business	-10.1059
training	-10.1074
▁closest	-10.1083
▁performances	-10.1096
▁supported	-10.1105
▁workload	-10.1111
▁3-	-10.1135
▁hypotheses	-10.1142
▁induced	-10.116
▁informative	-10.1163
▁nor	-10.1165
▁sometimes	-10.1174
▁route	-10.1179
▁z	-10.1179
▁fourier	-10.1187
▁gpus	-10.121
▁count	-10.1217
▁grammar	-10.1222
▁boost	-10.1229
▁primari	-10.1234
▁opinion	-10.1241
▁obstacles	-10.125
▁symmetry	-10.1273
▁deploy	-10.1275
at	-10.1294
▁optimality	-10.1304
▁themselves	-10.1315
tuning	-10.1324
▁uniformly	-10.1328
▁stack	-10.1339
independent	-10.1342
▁landmark	-10.1346
▁square	-10.1351
▁implications	-10.1352
▁pure	-10.1362
▁age	-10.1364
▁nmt	-10.1372
▁intuitive	-10.141
▁solver	-10.1412
▁calculate	-10.1415
▁integrat	-10.1417
▁crf	-10.1421
▁expansion	-10.1428
▁rewards	-10.1433
▁remote	-10.1436
▁assigned	-10.1438
▁subgraph	-10.1462
▁root	-10.1464
▁preference	-10.1464
▁health	-10.1467
▁industry	-10.1476
▁coordinates	-10.1479
▁synchronization	-10.1483
▁array	-10.1487
▁ranging	-10.1489
▁serve	-10.1505
▁reasons	-10.1506
▁outliers	-10.1522
▁coco	-10.1527
▁facebook	-10.1541
complete	-10.1553
▁valuable	-10.1555
convex	-10.1556
▁subsets	-10.1575
▁integral	-10.1577
▁ml	-10.159
▁movements	-10.1604
▁encryption	-10.1612
▁speedup	-10.1616
▁placement	-10.1616
▁meet	-10.1618
▁divided	-10.1622
▁pca	-10.1625
▁proximity	-10.1628
▁carrie	-10.1637
▁appears	-10.1638
▁safe	-10.1653
▁scoring	-10.1658
▁straightforward	-10.1658
▁2015	-10.1664
▁blur	-10.1672
ve	-10.1674
▁deliver	-10.1675
▁profiles	-10.1677
▁correctness	-10.1678
▁demonstrating	-10.1684
▁led	-10.1684
▁cut	-10.1689
▁caching	-10.1695
▁medium	-10.1709
▁perceptual	-10.1716
▁solves	-10.1733
▁arm	-10.1737
▁former	-10.1738
▁locality	-10.1739
▁skip	-10.1761
▁tractable	-10.1761
▁api	-10.1766
regularized	-10.1767
sensitive	-10.177
▁slightly	-10.1775
▁50	-10.1776
▁job	-10.1781
▁queue	-10.1782
▁round	-10.1791
▁material	-10.1798
▁shallow	-10.1798
▁boolean	-10.1804
▁activations	-10.1807
ose	-10.1811
▁toward	-10.1811
▁registration	-10.1815
▁refinement	-10.1818
▁particle	-10.182
centric	-10.1822
▁surveillance	-10.1826
-1	-10.1837
▁guided	-10.1843
▁records	-10.1843
th	-10.1844
▁nash	-10.1845
▁attacker	-10.1857
▁onto	-10.1864
▁surfaces	-10.1887
▁2012	-10.189
▁behavioral	-10.1893
▁ordering	-10.1894
▁calibration	-10.1894
▁valid	-10.1895
▁spatially	-10.1903
▁iris	-10.1914
▁alleviate	-10.193
▁automata	-10.195
▁singular	-10.1965
▁excellent	-10.1977
▁bleu	-10.1977
▁remaining	-10.1979
▁theories	-10.1981
▁coherence	-10.1984
▁bases	-10.1989
▁her	-10.1999
▁distortion	-10.2004
▁competition	-10.2005
▁xml	-10.2009
▁phone	-10.2009
▁purposes	-10.2015
▁optimum	-10.2015
▁refine	-10.2018
▁tradeoff	-10.2018
▁industrial	-10.2019
0	-10.2027
one	-10.2032
▁characteristic	-10.2035
▁syntax	-10.2035
▁15	-10.2045
▁sketch	-10.205
▁definitions	-10.2077
▁personalized	-10.2086
▁drawing	-10.2087
▁em	-10.2089
▁acquisition	-10.2091
▁date	-10.2094
▁synthesize	-10.2109
▁city	-10.2112
▁fake	-10.2116
▁analytics	-10.2116
▁linearly	-10.2121
connected	-10.2141
▁alone	-10.2142
▁proving	-10.2142
▁gaze	-10.2143
▁relate	-10.2151
▁argument	-10.2151
▁artifacts	-10.2161
▁naive	-10.2163
▁operational	-10.2165
it	-10.2177
▁30	-10.218
▁subspaces	-10.218
▁utilization	-10.218
▁vast	-10.2181
hop	-10.2188
▁converges	-10.2189
▁things	-10.2195
▁hoc	-10.2205
▁modifications	-10.2207
▁contents	-10.2207
▁therefor	-10.2221
▁limiting	-10.2224
state	-10.2228
▁validated	-10.2232
▁symbols	-10.2232
▁examined	-10.2233
▁phenomena	-10.2238
▁motivation	-10.2245
▁notions	-10.2247
▁outcome	-10.2248
▁undirected	-10.2254
▁acoustic	-10.2258
▁incomplete	-10.2259
▁concerned	-10.2266
▁faults	-10.2269
▁destination	-10.2271
▁reports	-10.2272
▁balancing	-10.2279
▁normalized	-10.2287
▁dynamical	-10.2289
▁included	-10.2299
▁boosting	-10.2301
▁grasp	-10.2312
▁car	-10.2326
▁disease	-10.2333
▁rapid	-10.2336
▁branch	-10.2339
▁linked	-10.2341
▁architectural	-10.2342
▁purely	-10.235
▁absolute	-10.2353
▁heavily	-10.236
▁poisson	-10.2366
▁wh	-10.2375
▁solely	-10.2378
▁protect	-10.2381
▁differentiable	-10.2403
▁specialized	-10.2403
▁dependence	-10.2407
▁reality	-10.2414
▁gender	-10.2419
▁protection	-10.2426
▁windows	-10.2432
▁mask	-10.2435
▁keeping	-10.2444
▁graphics	-10.2446
▁split	-10.2446
▁pyramid	-10.2453
▁display	-10.2455
▁arbitrarily	-10.2468
▁adoption	-10.2477
▁biological	-10.2478
▁identical	-10.2486
▁choosing	-10.2486
▁creation	-10.2488
▁adjust	-10.2508
▁hundreds	-10.252
▁receive	-10.254
▁ideal	-10.254
▁driven	-10.2543
▁visually	-10.2546
▁symbolic	-10.2558
▁exponentially	-10.2561
▁names	-10.2562
▁resnet	-10.2575
▁absence	-10.2576
▁rise	-10.2577
▁manage	-10.2612
▁pricing	-10.2615
▁enhanced	-10.2616
en	-10.2637
▁affine	-10.2638
▁advance	-10.2643
▁jobs	-10.2644
▁put	-10.2647
▁restrict	-10.2657
▁subsequently	-10.266
▁clearly	-10.2662
▁android	-10.2682
▁solvers	-10.2691
▁bipartite	-10.27
▁considerably	-10.2704
▁gained	-10.2709
▁ai	-10.2716
▁variability	-10.2724
▁oracle	-10.274
▁aimed	-10.2743
▁incorporated	-10.2744
▁connect	-10.2745
▁chains	-10.2746
▁schema	-10.2763
▁members	-10.2765
▁covering	-10.2769
▁redundant	-10.2782
▁laplacian	-10.2787
▁reveals	-10.2792
▁bugs	-10.2795
▁foreground	-10.2797
▁environmental	-10.2801
▁want	-10.2819
▁force	-10.2821
▁16	-10.2831
▁metadata	-10.2834
▁simulator	-10.2845
▁scope	-10.2846
▁circuit	-10.285
▁targeted	-10.285
▁overfitting	-10.2856
▁cryptographic	-10.2857
▁plans	-10.2863
▁act	-10.2868
gram	-10.2876
▁lighting	-10.2876
com	-10.2883
▁indexing	-10.2885
▁coherent	-10.2891
▁multivariate	-10.2891
▁difficulties	-10.2892
▁2014	-10.2898
▁site	-10.29
▁treated	-10.2903
▁unstructured	-10.291
▁predefined	-10.2913
-10	-10.2914
▁decades	-10.2915
▁uncertain	-10.2927
▁dedicated	-10.2928
▁historical	-10.2933
▁disk	-10.2942
caused	-10.2955
▁files	-10.2957
▁secret	-10.2968
▁lists	-10.2969
▁avoiding	-10.2988
▁roles	-10.2997
▁satisfying	-10.2997
▁discovered	-10.3
▁qos	-10.3
▁replace	-10.3004
▁join	-10.3005
▁release	-10.3007
▁tag	-10.3011
▁sift	-10.3014
▁ca	-10.3015
▁suited	-10.3034
▁correction	-10.3034
▁doing	-10.3038
▁daily	-10.3042
▁reuse	-10.3044
▁autoencoders	-10.305
ian	-10.3051
▁mitigate	-10.3077
▁aforementioned	-10.3079
▁carry	-10.3081
▁functionality	-10.3083
▁costly	-10.3088
▁satisfies	-10.3098
trivial	-10.3105
length	-10.3128
▁proportional	-10.313
▁collective	-10.3132
▁localize	-10.3139
efficient	-10.3144
▁achievable	-10.3162
▁reading	-10.3162
▁complement	-10.3163
▁losses	-10.3168
▁implicitly	-10.3171
▁lie	-10.318
▁highest	-10.3183
▁centers	-10.3197
▁parameterized	-10.3203
▁estimators	-10.3206
▁optimisation	-10.3207
▁logs	-10.3208
▁retain	-10.3209
▁bayes	-10.3211
▁sgd	-10.3219
▁host	-10.322
▁decade	-10.3226
▁again	-10.3227
▁course	-10.3228
▁acquired	-10.323
▁stronger	-10.323
▁actor	-10.3233
down	-10.3238
us	-10.3244
▁aware	-10.3245
▁decrease	-10.3247
▁sliding	-10.3254
▁alternatives	-10.3256
▁ip	-10.326
▁late	-10.3261
▁pass	-10.3274
▁visible	-10.3285
▁occurs	-10.3288
▁multimedia	-10.3293
▁stations	-10.3305
▁otherwise	-10.3306
▁schedule	-10.3322
▁emerged	-10.3323
▁consequence	-10.3325
▁instructions	-10.333
▁impressive	-10.3331
▁aerial	-10.3332
le	-10.3343
▁demonstrations	-10.3349
▁updated	-10.3351
▁equivalence	-10.3365
▁constructs	-10.3369
▁double	-10.3369
id	-10.337
▁conditioned	-10.3384
▁tables	-10.3392
▁mac	-10.34
▁arithmetic	-10.3407
▁inferred	-10.3409
▁discrepancy	-10.3413
▁histogram	-10.3425
▁mixing	-10.3428
▁live	-10.3434
▁outcomes	-10.3442
▁lidar	-10.3447
▁write	-10.3451
▁cope	-10.3451
equipped	-10.3464
▁planner	-10.3465
▁enhancement	-10.347
▁transforms	-10.3472
▁formulas	-10.3483
▁accelerate	-10.3487
▁protein	-10.3514
▁concrete	-10.3515
▁penalty	-10.353
▁vary	-10.3533
▁transitions	-10.3539
▁forwarding	-10.3539
▁investigation	-10.3543
▁engines	-10.3543
▁attract	-10.3549
▁motions	-10.356
▁cooperation	-10.357
▁defines	-10.357
▁partitions	-10.3576
▁request	-10.3584
▁regime	-10.359
▁compositional	-10.3593
▁day	-10.3594
▁divergence	-10.3594
▁overlap	-10.3605
▁admit	-10.3608
▁communicate	-10.361
▁squares	-10.3614
▁decay	-10.3615
▁station	-10.3625
▁submodular	-10.3629
▁simplicity	-10.3629
▁click	-10.3632
▁crowdsourcing	-10.3657
▁calculated	-10.3659
invariant	-10.3667
▁invariance	-10.3675
we	-10.3683
▁curvature	-10.3689
▁bidirectional	-10.3691
▁bandit	-10.3693
▁sensitivity	-10.3704
channel	-10.3705
▁originally	-10.3706
▁vgg	-10.3711
▁networking	-10.3712
▁formation	-10.3719
▁quasi	-10.3726
▁passing	-10.3734
▁demands	-10.3737
▁workers	-10.3747
▁wavelet	-10.3751
▁attractive	-10.3769
▁grows	-10.3775
▁se	-10.3779
▁identifies	-10.3794
▁traditionally	-10.3795
▁intended	-10.3808
▁reader	-10.3812
▁explanations	-10.3813
▁patient	-10.3815
set	-10.3819
dding	-10.3824
▁political	-10.3831
▁format	-10.3836
▁closer	-10.3836
▁clinical	-10.385
▁divide	-10.3851
▁globally	-10.3852
▁calculus	-10.3857
▁efficacy	-10.3859
ite	-10.3859
▁buffer	-10.3859
▁places	-10.3873
▁taxonomy	-10.3874
▁backpropagation	-10.3875
ting	-10.3878
▁heavy	-10.3885
▁captions	-10.3888
▁maintenance	-10.3896
structured	-10.3897
▁eliminate	-10.3902
▁aligned	-10.3903
▁th	-10.3913
▁figure	-10.3913
▁transformed	-10.3914
▁averaging	-10.3916
▁preprocessing	-10.3925
▁trend	-10.3925
bit	-10.3936
▁obtains	-10.3936
▁modes	-10.3937
▁parser	-10.3938
▁rigid	-10.3942
size	-10.3956
▁firstly	-10.3961
▁fuzzy	-10.3961
peer	-10.397
▁repeated	-10.3974
▁initially	-10.3995
▁walks	-10.3998
▁roughly	-10.4002
▁families	-10.4003
▁lda	-10.4029
form	-10.4031
▁writing	-10.4031
▁surveys	-10.4035
▁revenue	-10.4037
▁signature	-10.404
▁12	-10.4041
▁interpret	-10.4042
▁diameter	-10.4048
▁la	-10.4049
▁ignore	-10.4052
▁adaptively	-10.4057
▁usability	-10.407
▁oriented	-10.4071
user	-10.4072
▁width	-10.4073
▁promise	-10.4074
▁verified	-10.4075
▁email	-10.4081
▁posts	-10.4083
▁priori	-10.4088
spite	-10.4094
▁clients	-10.411
▁approximated	-10.4111
▁9	-10.4111
▁constructions	-10.4112
network	-10.4112
▁alternating	-10.4113
ization	-10.4121
▁inequality	-10.4129
▁placed	-10.4132
▁grow	-10.4133
▁emotions	-10.4138
▁ratings	-10.4139
▁homogeneous	-10.4143
▁lightweight	-10.4153
▁sharp	-10.4175
▁contained	-10.4176
▁modality	-10.4185
▁wordnet	-10.4185
▁causes	-10.4191
▁customers	-10.42
▁tailor	-10.4204
▁rdf	-10.4205
▁independence	-10.4207
▁summaries	-10.4233
▁usefulness	-10.4234
side	-10.4234
▁satisfaction	-10.4235
▁softmax	-10.425
▁lies	-10.4252
▁teacher	-10.4258
▁processed	-10.4262
▁transaction	-10.4262
▁logarithmic	-10.4262
identification	-10.4263
▁ordered	-10.4268
▁electronic	-10.4271
▁tries	-10.4271
▁transmissions	-10.4273
▁outside	-10.4274
▁neither	-10.4275
▁primitives	-10.4286
▁switch	-10.4288
▁equilibria	-10.4303
▁cyber	-10.4307
▁grasping	-10.4314
▁fails	-10.4316
▁algebra	-10.4319
▁reconstructed	-10.432
▁indicates	-10.4321
▁templates	-10.4325
▁styles	-10.433
w	-10.4332
▁respective	-10.4334
▁discourse	-10.4337
▁trends	-10.4345
▁learner	-10.4345
▁properly	-10.4351
▁quantitatively	-10.4359
▁inner	-10.4364
▁simplified	-10.4375
▁recovering	-10.4376
▁recorded	-10.4379
▁optimizations	-10.4391
▁distributional	-10.4404
▁bitcoin	-10.4405
▁belong	-10.4411
▁simplify	-10.4417
▁intervals	-10.4422
removing	-10.4424
▁interpolation	-10.4424
▁coefficient	-10.4428
▁bridge	-10.4439
▁executed	-10.4446
▁workloads	-10.4447
type	-10.4452
while	-10.4455
▁affected	-10.4463
▁splitting	-10.4473
truth	-10.4476
▁approximat	-10.448
▁trusted	-10.4482
range	-10.4486
▁grouping	-10.4491
▁opportunities	-10.4492
▁parallelism	-10.4506
▁ms	-10.4512
▁multiplication	-10.4514
hoc	-10.4515
▁auction	-10.4532
▁hav	-10.454
▁apps	-10.4542
▁grids	-10.455
▁specifications	-10.4555
▁projections	-10.4572
▁adjacent	-10.4587
▁interacting	-10.459
▁evolving	-10.4591
▁statistically	-10.4603
▁retrieve	-10.4606
▁covers	-10.4624
▁simulate	-10.4629
▁velocity	-10.4633
▁1-	-10.4634
▁freedom	-10.4637
▁interpreted	-10.4637
▁controllers	-10.464
▁remarkable	-10.4649
▁fragments	-10.4651
▁record	-10.4652
▁compiler	-10.4675
▁vs	-10.4683
▁experiences	-10.4685
▁stacked	-10.4689
▁intensive	-10.4689
▁rigorous	-10.4689
▁formally	-10.4692
▁propos	-10.4701
▁strings	-10.4705
▁decompose	-10.4709
▁occlusions	-10.4709
▁learnt	-10.471
▁forecasting	-10.4712
▁termination	-10.4717
▁dialog	-10.4735
▁smoothing	-10.4737
▁street	-10.4739
▁polynomials	-10.4744
rising	-10.4747
vec	-10.475
▁inferring	-10.4764
▁removal	-10.4765
▁becom	-10.4766
▁arises	-10.4768
▁continuously	-10.4769
▁dominant	-10.4772
▁except	-10.4782
▁briefly	-10.4787
▁packing	-10.4791
▁extracts	-10.4791
ive	-10.4798
▁membership	-10.4811
▁marginal	-10.4812
▁lp	-10.4824
▁friends	-10.4829
▁ieee	-10.485
▁anomalies	-10.4851
▁summarize	-10.4851
▁lasso	-10.4859
stream	-10.4866
▁impose	-10.4871
cost	-10.4872
▁analogous	-10.4875
▁rare	-10.4884
norm	-10.4894
▁serious	-10.4898
▁demonstration	-10.4902
memory	-10.4907
▁thorough	-10.4911
▁operates	-10.4912
▁coupling	-10.4914
▁explanation	-10.4919
▁convnet	-10.4926
▁aggregated	-10.4942
▁intuition	-10.4942
▁beneficial	-10.4942
▁turns	-10.4945
▁seed	-10.4948
ized	-10.4956
▁inspir	-10.4959
▁matched	-10.4959
flow	-10.4962
▁impossible	-10.4965
▁visualizations	-10.4968
▁motivate	-10.4968
5	-10.4973
▁white	-10.4976
words	-10.4982
▁polygon	-10.4982
▁asp	-10.4992
▁unconstrained	-10.4994
▁cycles	-10.4995
▁automation	-10.5038
▁notably	-10.5038
▁outdoor	-10.5058
▁instruction	-10.5063
ar	-10.5065
▁keyword	-10.5067
▁exhibits	-10.5072
▁updating	-10.5085
▁understood	-10.5086
▁throughout	-10.5087
▁yielding	-10.5092
sized	-10.51
ory	-10.5101
▁fuse	-10.5106
▁logistic	-10.5125
▁14	-10.5126
▁topologies	-10.5128
▁keywords	-10.5134
▁ease	-10.5136
▁companies	-10.5152
▁mappings	-10.5195
▁row	-10.5197
purpose	-10.5202
▁competing	-10.5207
contrary	-10.5207
▁tracks	-10.5229
▁perceived	-10.5238
▁analyse	-10.5244
▁synchronous	-10.5259
ms	-10.5264
▁skills	-10.5267
▁dramatically	-10.527
▁deformable	-10.5272
▁predictor	-10.528
▁execute	-10.5288
▁biased	-10.5292
▁vulnerable	-10.5294
tree	-10.5297
▁collaboration	-10.5319
▁triplet	-10.533
▁fog	-10.5338
▁gp	-10.5344
▁computers	-10.535
▁strictly	-10.5352
▁involv	-10.5356
▁claim	-10.5362
▁enabled	-10.5364
▁contour	-10.5367
gave	-10.5368
▁labelled	-10.5369
▁deals	-10.5392
▁categorization	-10.5392
▁theoretic	-10.5393
▁transportation	-10.5394
z	-10.5395
▁away	-10.5395
▁lstms	-10.5398
▁li	-10.5405
▁smt	-10.5415
▁2016	-10.5416
▁recovered	-10.5422
▁cardinality	-10.5423
▁front	-10.5428
▁calls	-10.543
▁prominent	-10.5438
▁clean	-10.5438
▁peers	-10.5439
▁academic	-10.5442
▁organization	-10.5457
▁induce	-10.5461
person	-10.5463
▁facts	-10.5466
▁draw	-10.5474
▁scans	-10.548
man	-10.5482
▁priority	-10.5483
▁keys	-10.5485
▁ever	-10.5488
▁kitti	-10.5488
▁moment	-10.5491
▁economic	-10.5493
▁smoothness	-10.5494
▁circuits	-10.5499
▁scan	-10.55
▁whenever	-10.5514
▁counter	-10.5535
▁provably	-10.5537
▁column	-10.5539
▁suite	-10.554
▁monitor	-10.5541
▁ordinary	-10.5543
▁analytic	-10.5543
▁timing	-10.5548
▁developments	-10.5551
▁looking	-10.5554
▁workflow	-10.5556
▁minimax	-10.5562
▁tcp	-10.5564
▁novelty	-10.5564
▁consecutive	-10.5579
▁vulnerabilities	-10.5584
▁interests	-10.5591
▁restrictions	-10.5591
object	-10.5596
text	-10.5602
▁validity	-10.561
▁linking	-10.5616
▁mimo	-10.5627
▁tracker	-10.5628
▁formed	-10.5637
▁transferring	-10.5662
▁obstacle	-10.5663
▁guidance	-10.5666
life	-10.5667
rate	-10.5675
▁multiplicative	-10.5677
▁sorting	-10.5682
▁disambiguation	-10.5684
▁mention	-10.5686
▁replaced	-10.5687
▁selective	-10.569
▁merging	-10.5693
▁hours	-10.5697
▁union	-10.57
value	-10.5703
frame	-10.5706
▁periodic	-10.5708
▁lexicon	-10.5713
▁entirely	-10.5714
out	-10.5717
▁methodologies	-10.5733
▁biases	-10.5737
▁swarm	-10.5739
▁projected	-10.575
▁exhaustive	-10.5759
▁foundation	-10.5762
▁ask	-10.5765
▁usual	-10.5775
▁invariants	-10.5778
▁apart	-10.5782
▁forests	-10.5792
constrained	-10.5804
▁accelerated	-10.5807
▁university	-10.5808
▁vae	-10.5823
▁columns	-10.5832
▁replac	-10.5839
▁patients	-10.5839
▁eigenvalue	-10.5841
▁formulations	-10.5853
▁fix	-10.5859
▁systematically	-10.5862
▁characteriz	-10.5872
speech	-10.5877
▁bug	-10.5882
▁dictionaries	-10.5887
▁rain	-10.5906
u	-10.5908
▁inductive	-10.5914
comes	-10.5918
▁send	-10.5923
making	-10.5926
varying	-10.5928
▁scratch	-10.593
▁opinions	-10.5931
▁libraries	-10.5934
▁distillation	-10.5935
▁smallest	-10.5941
▁comments	-10.5949
▁comparative	-10.5952
▁successive	-10.5954
▁imagery	-10.5956
izing	-10.5962
▁avoidance	-10.5965
▁portion	-10.5969
▁parse	-10.5976
▁lengths	-10.5978
▁trainable	-10.5981
▁drawback	-10.5989
▁switching	-10.6004
consuming	-10.601
▁optimally	-10.6017
▁dirichlet	-10.6019
▁deformation	-10.6019
▁entry	-10.6027
▁imitation	-10.6036
▁options	-10.6043
▁refined	-10.6046
▁enforce	-10.6054
▁geographic	-10.6058
▁40	-10.606
▁disparity	-10.6062
▁push	-10.6069
▁blind	-10.6071
▁connecting	-10.6075
▁devise	-10.6083
▁horizon	-10.6085
▁rest	-10.6088
▁visibility	-10.6093
▁outline	-10.6093
▁pay	-10.6096
▁drone	-10.6103
▁kalman	-10.6112
▁lane	-10.6138
▁ten	-10.6156
▁incrementally	-10.6156
frequency	-10.6157
▁newly	-10.6162
▁mapped	-10.6162
interpretability	-10.6163
▁illustrated	-10.6163
▁cf	-10.6165
▁expertise	-10.6166
▁odometry	-10.6167
▁visualize	-10.6178
▁wave	-10.6188
▁touch	-10.6193
▁deconvolution	-10.6195
▁poorly	-10.6204
▁status	-10.6208
▁cores	-10.6214
▁reliably	-10.6217
▁cars	-10.622
▁pursuit	-10.6224
▁signatures	-10.6224
▁mass	-10.6226
▁chapter	-10.6226
▁90	-10.6226
▁nested	-10.6226
▁boltzmann	-10.6227
▁voice	-10.6235
▁inherently	-10.6236
▁primal	-10.6245
▁regarded	-10.6257
▁detects	-10.6264
▁neuron	-10.6274
▁app	-10.6275
▁drift	-10.6276
▁phases	-10.6286
▁qualitatively	-10.6287
▁gestures	-10.6292
▁fall	-10.6293
▁reverse	-10.6294
▁biomedical	-10.6295
▁inequalities	-10.6299
▁citation	-10.6303
▁symbol	-10.6307
▁radius	-10.6309
▁rating	-10.6312
▁wild	-10.6313
▁passive	-10.6316
▁subjective	-10.6316
▁sensory	-10.6322
▁da	-10.6329
▁controlling	-10.6332
▁versus	-10.6332
▁emotional	-10.6343
▁60	-10.6346
▁integrity	-10.6354
▁surrounding	-10.6364
▁ubiquitous	-10.6367
▁attain	-10.6375
▁disjoint	-10.6376
encoder	-10.6378
▁careful	-10.6394
▁drive	-10.6407
▁tolerance	-10.6408
▁statements	-10.6409
▁acceleration	-10.6411
▁sign	-10.6414
performance	-10.642
▁conversation	-10.6427
▁802.11	-10.6428
▁assist	-10.6429
▁cast	-10.6432
▁intractable	-10.6436
▁norms	-10.6437
▁rational	-10.6448
▁routes	-10.645
▁spam	-10.646
▁home	-10.6461
▁incentive	-10.6464
▁notable	-10.6466
▁parties	-10.6468
▁food	-10.6468
sequence	-10.6468
▁embed	-10.6469
adding	-10.6474
▁moments	-10.6479
▁balanced	-10.6487
▁conceptual	-10.649
▁intel	-10.6497
▁calculation	-10.6499
▁gesture	-10.6504
▁github	-10.6519
▁angle	-10.6525
▁voxel	-10.6526
▁expect	-10.6527
▁proxy	-10.6537
▁constitute	-10.6538
▁colors	-10.6538
▁pagerank	-10.6546
▁monotone	-10.6546
ts	-10.6558
▁cs	-10.658
depth	-10.6581
▁air	-10.6585
▁readily	-10.659
▁welfare	-10.6592
▁convnets	-10.6593
▁2017	-10.6594
▁conjunction	-10.6598
lingual	-10.6598
▁replication	-10.661
▁scalar	-10.6611
▁ontologies	-10.6618
▁11	-10.6618
▁aggregates	-10.6619
▁piecewise	-10.6621
▁travel	-10.6637
▁eigenvalues	-10.6639
▁transformer	-10.6643
▁generators	-10.6643
▁multilingual	-10.6644
▁editing	-10.6646
▁span	-10.6648
▁eight	-10.6649
▁readers	-10.6651
▁practices	-10.6655
▁joints	-10.6656
▁consumer	-10.6662
▁hope	-10.6663
▁height	-10.6675
▁replay	-10.6676
▁arrival	-10.6677
▁mid	-10.6702
▁molecular	-10.6708
▁water	-10.6709
▁temperature	-10.672
▁forces	-10.6723
▁released	-10.6728
▁fisher	-10.6732
▁recognized	-10.6735
▁weather	-10.6736
▁strict	-10.6742
▁encrypted	-10.6748
▁subgraphs	-10.675
▁say	-10.6752
▁mapreduce	-10.6756
▁alexnet	-10.6758
▁ranked	-10.6766
▁morphological	-10.6774
▁localized	-10.6775
▁uav	-10.6779
▁pool	-10.678
▁goes	-10.6781
▁trivial	-10.6789
▁truthful	-10.6789
▁branches	-10.6796
▁located	-10.68
▁reli	-10.6803
▁sr	-10.6805
▁story	-10.6809
▁synthesized	-10.6811
▁plausible	-10.6818
▁lemma	-10.682
▁outlier	-10.6822
ers	-10.6825
▁detections	-10.6829
▁granularity	-10.6835
▁pos	-10.6837
parametric	-10.684
▁practitioners	-10.6841
▁siamese	-10.6844
▁strengths	-10.6849
▁hog	-10.685
▁revealed	-10.6858
▁observable	-10.686
▁permutation	-10.686
▁old	-10.6861
▁tv	-10.6868
▁geo	-10.6871
▁weighting	-10.6875
▁bin	-10.6887
▁byzantine	-10.6894
▁formalism	-10.6903
▁websites	-10.6905
▁movie	-10.6909
▁overlay	-10.6909
▁ensur	-10.691
▁seconds	-10.691
▁wang	-10.6912
▁materials	-10.6914
▁significance	-10.6921
▁youtube	-10.6923
▁diagnosis	-10.6924
▁token	-10.6926
field	-10.6944
▁download	-10.695
▁com	-10.6953
▁star	-10.6958
▁regress	-10.6972
▁di	-10.6974
▁handled	-10.6979
▁custom	-10.6985
▁2007	-10.699
▁riemann	-10.7002
▁mini	-10.7008
▁degradation	-10.7015
attention	-10.7016
▁pieces	-10.702
▁ambiguity	-10.7036
▁transmitted	-10.7036
occurrence	-10.7037
▁highlights	-10.7037
generated	-10.7048
▁sequentially	-10.7051
▁mpi	-10.7058
▁expand	-10.7073
▁randomness	-10.7074
▁drawbacks	-10.7085
▁fed	-10.7096
shelf	-10.7099
▁atomic	-10.7104
robot	-10.7105
▁customer	-10.7107
▁searches	-10.7108
▁spl	-10.7112
▁enjoy	-10.7121
▁financial	-10.7142
▁25	-10.7153
▁accessible	-10.7162
▁caption	-10.7177
▁distant	-10.7179
▁aid	-10.7185
▁suffers	-10.7187
adaptive	-10.7189
▁translations	-10.7193
▁anchor	-10.72
▁hmm	-10.7204
▁protected	-10.7205
▁robustly	-10.7213
▁laser	-10.7215
use	-10.7233
▁squared	-10.7234
▁compress	-10.7239
▁severe	-10.7246
▁manifolds	-10.7261
▁ensembles	-10.7261
▁mutation	-10.727
▁compatible	-10.7281
▁paired	-10.7285
▁volumes	-10.7295
▁imply	-10.7301
▁preferred	-10.7313
▁transferred	-10.7326
▁drop	-10.7329
▁manipulate	-10.7331
▁sdn	-10.7336
▁implements	-10.7342
j	-10.7345
▁organizations	-10.7348
▁quantities	-10.7351
▁amazon	-10.7352
▁minimized	-10.7361
▁inpainting	-10.7365
▁composite	-10.7368
▁bilinear	-10.7383
▁equally	-10.7384
▁recommend	-10.739
▁13	-10.7393
est	-10.7396
▁lifetime	-10.74
▁stor	-10.7404
▁proximal	-10.7412
▁flickr	-10.7415
▁wherea	-10.7417
▁threads	-10.7426
▁you	-10.7426
▁2010	-10.743
▁year	-10.7435
▁analytically	-10.7437
▁emergence	-10.744
▁sketches	-10.7456
▁locate	-10.7463
▁hardness	-10.7467
▁diagrams	-10.7478
vector	-10.7481
▁mimic	-10.7484
▁photos	-10.7502
▁comprehension	-10.7502
▁par	-10.7503
▁rewriting	-10.7504
▁unless	-10.7505
▁decreases	-10.751
▁formalize	-10.7512
ary	-10.7528
▁mine	-10.7528
▁widespread	-10.7529
▁teams	-10.7529
▁resolve	-10.7534
▁isolated	-10.7538
▁conclusions	-10.7544
▁delays	-10.7544
▁straight	-10.7546
▁stand	-10.7549
▁markets	-10.7551
▁identities	-10.7558
▁superiority	-10.7559
▁laws	-10.7562
▁nonparametric	-10.7562
▁encountered	-10.7563
▁battery	-10.7564
▁tokens	-10.7564
▁terrain	-10.7564
▁ma	-10.7565
▁adds	-10.7565
▁hyperparameter	-10.7572
▁anonymous	-10.7572
▁bots	-10.7581
▁attempted	-10.7596
▁sat	-10.7603
▁frequencies	-10.7619
▁tail	-10.7622
▁abstractions	-10.7623
▁prices	-10.7626
▁exploitation	-10.7628
▁corrupted	-10.7631
▁weaker	-10.7635
▁threat	-10.7636
la	-10.7641
▁temporally	-10.7646
▁inde	-10.7646
▁adjacency	-10.7649
▁fitness	-10.765
▁affinity	-10.7651
▁handcrafted	-10.7658
▁tuned	-10.7661
data	-10.7669
▁asymmetric	-10.7669
▁quantity	-10.7681
haps	-10.7681
▁room	-10.7688
▁cluttered	-10.7693
▁ambiguous	-10.77
▁emphasis	-10.7702
▁arrays	-10.7703
▁pioneer	-10.7708
▁advertising	-10.771
▁constrain	-10.7711
▁eventually	-10.7712
▁trains	-10.7713
▁persistent	-10.7717
▁conversational	-10.772
▁sp	-10.7726
▁textures	-10.773
ns	-10.7737
▁returns	-10.7738
▁imposed	-10.7738
style	-10.774
studied	-10.7741
▁ir	-10.7747
tolerant	-10.7757
▁starts	-10.7757
▁sent	-10.776
▁fcn	-10.7764
▁driver	-10.7765
▁duration	-10.7767
▁copy	-10.777
▁mechanical	-10.7773
▁conflict	-10.7777
▁skill	-10.7778
▁counterpart	-10.7785
▁svms	-10.7792
▁decreasing	-10.7794
▁fin	-10.7795
▁2013	-10.7796
▁predicate	-10.7809
▁viewpoints	-10.782
▁inefficient	-10.7831
party	-10.7838
▁started	-10.784
▁giv	-10.7841
▁positioning	-10.7844
▁smartphone	-10.7847
▁render	-10.7852
▁devote	-10.7855
▁satisfied	-10.7862
▁debugging	-10.7862
▁zhang	-10.7866
▁tried	-10.7867
▁rows	-10.7867
path	-10.7868
▁discrimination	-10.7869
▁potentials	-10.7872
negative	-10.7875
▁opportunistic	-10.7883
▁piece	-10.789
▁defense	-10.7893
▁80	-10.7898
▁modularity	-10.7901
▁intrusion	-10.7908
▁masks	-10.7914
▁occurrence	-10.7934
▁consequences	-10.7934
▁enrich	-10.7935
sum	-10.7947
nd	-10.7948
▁coloring	-10.797
word	-10.7973
▁consumers	-10.7975
▁ultimate	-10.7977
parameter	-10.7979
▁unbounded	-10.7986
▁pareto	-10.7988
▁ball	-10.7995
▁secondly	-10.7997
▁18	-10.8014
▁sort	-10.8015
▁appeared	-10.8015
▁handles	-10.8015
▁www	-10.8016
▁secondary	-10.8024
▁targeting	-10.803
▁hyperparameters	-10.8034
▁primitive	-10.8038
▁behave	-10.8044
▁isolation	-10.8048
▁pedestrians	-10.805
▁care	-10.8052
▁viewing	-10.8054
fold	-10.8061
▁tweet	-10.8061
▁querying	-10.8069
▁ill	-10.807
▁harder	-10.8072
▁accordingly	-10.8077
▁densities	-10.8081
▁helpful	-10.8081
▁dl	-10.8082
ation	-10.8099
model	-10.8108
▁fractional	-10.8111
▁inception	-10.8116
▁party	-10.8117
▁merge	-10.8121
▁beam	-10.8124
-3	-10.8126
▁counts	-10.8128
▁individually	-10.8137
▁resilience	-10.8145
▁wi	-10.8146
▁microsoft	-10.8146
▁cities	-10.815
▁histograms	-10.8152
▁conclusion	-10.8158
▁testbed	-10.816
▁acquire	-10.8163
▁completeness	-10.8167
ned	-10.8171
▁dns	-10.8173
▁option	-10.8174
▁volumetric	-10.8174
8	-10.8177
▁atari	-10.8178
▁posed	-10.8181
▁worse	-10.8191
▁responsibl	-10.8194
▁paradigms	-10.8195
▁antennas	-10.8205
▁actively	-10.8209
q	-10.8215
▁ssd	-10.8216
▁incorrect	-10.8218
output	-10.8225
▁removed	-10.8228
▁belonging	-10.8235
▁commodity	-10.8239
▁uncover	-10.8251
▁matter	-10.8259
▁induction	-10.8259
▁1.	-10.8259
▁origin	-10.8265
▁suboptimal	-10.8269
▁feedforward	-10.8271
▁clock	-10.8273
▁convenient	-10.8274
critical	-10.8278
▁guidelines	-10.8279
▁categorized	-10.8284
▁prone	-10.8286
▁smartphones	-10.8286
▁default	-10.829
▁emphasize	-10.8291
▁election	-10.8297
▁spatiotemporal	-10.8304
▁receptive	-10.8308
▁executing	-10.8315
▁days	-10.8324
▁backward	-10.8325
▁wider	-10.8335
▁warping	-10.8337
▁transparent	-10.8342
▁worth	-10.8345
▁supply	-10.8348
▁beginning	-10.8355
▁anonymity	-10.8366
▁opportunity	-10.8367
▁awareness	-10.837
▁negation	-10.8373
only	-10.8375
▁rarely	-10.8376
pixel	-10.8382
max	-10.8385
visual	-10.8391
▁realized	-10.8399
▁organized	-10.8402
▁ilsvrc	-10.8402
▁freely	-10.8404
▁fused	-10.8405
▁insufficient	-10.8405
▁analog	-10.8407
▁evolve	-10.8407
▁promote	-10.8432
▁somewhat	-10.8433
▁analyzes	-10.8434
▁categorical	-10.844
▁practically	-10.8449
▁cosine	-10.8455
▁separated	-10.8456
▁seven	-10.8459
▁thought	-10.846
▁investigating	-10.8461
body	-10.8464
▁raise	-10.8471
▁reachability	-10.8478
▁perspectives	-10.8482
▁geographical	-10.8493
▁trackers	-10.8495
▁hierarchies	-10.8499
▁photometric	-10.8501
▁leveraged	-10.8504
▁strategic	-10.8504
▁axis	-10.8505
▁uavs	-10.8521
▁controls	-10.8529
▁explained	-10.8531
▁fill	-10.8533
▁elegant	-10.8534
▁generality	-10.8546
▁closure	-10.8559
▁multicast	-10.8559
▁flat	-10.8576
▁prohibitive	-10.8577
▁lost	-10.8577
▁achiev	-10.8579
▁17	-10.8592
▁bs	-10.8598
▁clustered	-10.8603
▁relax	-10.8617
▁deviation	-10.8619
▁coded	-10.863
▁subtle	-10.8632
▁indices	-10.8633
▁profit	-10.8646
▁offering	-10.8648
▁le	-10.8651
▁randomization	-10.8652
▁minima	-10.8653
▁vertical	-10.8657
cut	-10.8657
▁wish	-10.8661
▁standards	-10.8671
▁clique	-10.8674
▁pr	-10.8674
▁switches	-10.8681
▁brief	-10.8692
giving	-10.8693
▁particles	-10.8695
▁stories	-10.8703
▁master	-10.8708
▁counterparts	-10.8713
▁sql	-10.8717
▁restoration	-10.8718
▁retrieved	-10.8724
▁speeds	-10.8731
▁copies	-10.8732
▁nn	-10.8737
noise	-10.8737
▁floating	-10.8738
▁aggregat	-10.8742
▁thread	-10.8746
▁fading	-10.8747
▁stress	-10.8751
▁website	-10.8752
▁transmitter	-10.8755
▁arms	-10.8758
▁leave	-10.8758
▁inertial	-10.8759
▁st	-10.8766
▁sa	-10.877
▁gene	-10.8771
▁partitioned	-10.8772
▁compressive	-10.8773
▁vqa	-10.8773
▁branching	-10.8781
▁separable	-10.8783
▁ratios	-10.8786
▁gate	-10.8787
▁replacement	-10.879
▁theorems	-10.8791
▁keypoint	-10.8796
local	-10.8797
▁handwritten	-10.8799
▁checks	-10.88
▁collisions	-10.8804
▁auctions	-10.8804
▁analogy	-10.8808
▁turing	-10.8834
▁offered	-10.8838
▁clutter	-10.884
▁perturbed	-10.885
▁irrelevant	-10.8851
▁receives	-10.8856
▁biometric	-10.8858
▁consuming	-10.8863
▁nearby	-10.8872
▁realize	-10.8877
node	-10.8881
▁lambda	-10.8885
▁adapts	-10.889
▁fairly	-10.889
▁grammars	-10.8897
▁gated	-10.8899
▁beliefs	-10.89
target	-10.8902
▁children	-10.8903
▁agree	-10.8908
▁periods	-10.8911
▁ring	-10.8913
▁exponent	-10.892
graph	-10.8929
▁clones	-10.8931
▁cp	-10.8934
propagation	-10.8934
▁pi	-10.8934
▁fig	-10.8934
▁accommodate	-10.8939
▁semidefinite	-10.895
broader	-10.8962
▁predictors	-10.8966
▁heterogeneity	-10.8968
▁defects	-10.897
▁programmers	-10.8972
▁predicates	-10.8982
▁chen	-10.8982
▁password	-10.8991
▁mi	-10.8997
▁diagram	-10.9001
▁repository	-10.9002
▁python	-10.9007
▁possess	-10.9013
ry	-10.9018
series	-10.902
▁multilayer	-10.9024
▁minor	-10.9028
▁vanishing	-10.903
▁indicators	-10.9038
▁society	-10.9039
▁break	-10.904
▁concurrency	-10.904
▁acceptable	-10.9041
▁regularity	-10.9042
▁acts	-10.9042
▁elastic	-10.9048
▁svd	-10.9052
ion	-10.9058
▁atoms	-10.9065
▁declarative	-10.9067
▁deblurring	-10.9072
▁accuracies	-10.9073
▁burden	-10.908
▁sc	-10.9087
nn	-10.9088
▁adjustment	-10.91
▁indicat	-10.9105
▁correlate	-10.9112
▁ner	-10.9115
▁met	-10.9115
▁slot	-10.9116
▁narrow	-10.9126
▁me	-10.9127
▁serves	-10.9132
▁restriction	-10.9133
▁impractical	-10.9134
degree	-10.9135
▁holistic	-10.9142
▁develops	-10.9146
▁obvious	-10.9147
▁wasserstein	-10.916
▁anti	-10.9175
▁savings	-10.9175
▁dissemination	-10.9177
▁gradually	-10.9179
▁transfers	-10.9181
▁reactive	-10.9182
▁gathered	-10.9184
▁concentrate	-10.9192
▁pipelines	-10.9193
▁keypoints	-10.9197
▁chemical	-10.9202
▁hypergraph	-10.9202
▁horizontal	-10.9208
▁contention	-10.9211
▁occupancy	-10.9212
▁persistence	-10.9222
▁mis	-10.923
critic	-10.9231
sampling	-10.9231
▁ar	-10.9232
▁calculat	-10.9237
rs	-10.924
▁reached	-10.924
▁reputation	-10.9244
designed	-10.9248
player	-10.9249
▁occurring	-10.9262
▁encouraging	-10.9265
▁covered	-10.9265
▁median	-10.9273
@	-10.9274
weight	-10.928
▁playing	-10.9284
▁decid	-10.9287
▁desp	-10.929
▁2011	-10.9294
▁claims	-10.9315
▁belongs	-10.9322
▁faced	-10.9328
▁getting	-10.9329
▁exposure	-10.9333
link	-10.9336
▁presentation	-10.9344
▁erasure	-10.9345
▁migration	-10.9347
▁adequate	-10.9348
▁vulnerability	-10.9354
▁deriving	-10.9371
loop	-10.938
▁pick	-10.9389
▁assignments	-10.9396
▁relat	-10.9397
▁intent	-10.94
▁oppose	-10.9419
▁trading	-10.9421
▁attribution	-10.9424
uniform	-10.9425
▁utterances	-10.9431
▁seeks	-10.9434
▁browsing	-10.9437
tuned	-10.9437
▁conflicts	-10.9445
▁si	-10.9449
▁spirit	-10.9451
ce	-10.9457
regular	-10.9457
parameterization	-10.9466
▁screen	-10.9466
▁nuclear	-10.9467
▁differentiate	-10.9472
enforcing	-10.9474
▁unable	-10.9476
▁inconsistent	-10.9478
▁broadcasting	-10.9482
▁2009	-10.9489
▁lr	-10.9494
▁musical	-10.9498
▁charging	-10.9508
▁allocate	-10.9522
▁conditioning	-10.9524
▁lipschitz	-10.9526
▁cuts	-10.9528
▁foundations	-10.9536
▁synthesizing	-10.9541
▁bad	-10.9547
▁accepted	-10.9554
rnn	-10.9554
▁actors	-10.9555
▁teaching	-10.9563
▁parsers	-10.9578
nearest	-10.9589
▁mri	-10.9589
▁segmentations	-10.9591
▁associations	-10.9593
likelihood	-10.9593
▁calculations	-10.9598
▁broadly	-10.96
▁unclear	-10.9607
▁walking	-10.9611
▁green	-10.9623
▁tens	-10.9628
▁hop	-10.9629
▁treebank	-10.9636
▁angles	-10.9638
▁scientists	-10.9649
▁occluded	-10.9666
▁alphabet	-10.9666
▁neighborhoods	-10.9671
▁conversations	-10.9672
▁preserved	-10.9679
▁tensors	-10.9694
▁hinder	-10.9695
▁appropriately	-10.9695
▁arrive	-10.9708
intensive	-10.971
▁indexes	-10.971
▁changed	-10.9711
ducing	-10.9715
▁tuples	-10.9716
▁billion	-10.9718
▁spreading	-10.9719
▁designers	-10.972
▁derivation	-10.9722
▁parallelization	-10.9724
▁compromise	-10.9732
▁solvable	-10.9733
engineered	-10.9736
▁loops	-10.9742
▁bp	-10.9748
▁infeasible	-10.9748
▁drones	-10.975
▁lte	-10.9751
▁reproduce	-10.9753
▁alternate	-10.9774
▁incoming	-10.9785
▁attackers	-10.9786
▁dqn	-10.9787
▁decomposed	-10.979
▁reviewed	-10.9792
▁accomplish	-10.9797
▁compilation	-10.9803
▁ignor	-10.982
▁poly	-10.9822
▁thousand	-10.9825
▁exception	-10.9827
▁fpga	-10.9829
▁egocentric	-10.983
▁scheduler	-10.9836
▁minutes	-10.9844
▁scattering	-10.9846
▁hot	-10.9848
▁fundamentally	-10.9851
▁begin	-10.9851
▁evolved	-10.9855
sparse	-10.9855
▁meshes	-10.9856
▁assembly	-10.9859
▁irregular	-10.9861
▁holes	-10.9867
▁mdp	-10.9889
▁resort	-10.9895
▁geodesic	-10.9901
▁hamming	-10.9908
▁multitask	-10.9911
▁provider	-10.9918
▁hate	-10.9928
▁moves	-10.9928
▁asked	-10.993
▁coming	-10.9935
▁rf	-10.9938
▁favorably	-10.9945
▁mt	-10.9949
▁19	-10.9962
▁slots	-10.9965
▁newton	-10.997
▁surrogate	-10.9973
▁ties	-10.9974
▁emerge	-10.998
▁conversion	-10.9981
▁repositories	-10.9981
▁band	-10.999
▁negotiation	-11.0013
▁admm	-11.0018
7	-11.0018
▁vm	-11.0019
▁influential	-11.002
▁underwater	-11.0021
▁ongoing	-11.0021
▁kinect	-11.0023
▁heart	-11.0025
lstm	-11.0031
▁peak	-11.0032
▁annotate	-11.0036
▁threats	-11.0038
▁ga	-11.0048
offs	-11.005
▁examin	-11.0052
▁phones	-11.0053
▁diagonal	-11.0058
▁electricity	-11.0059
▁ap	-11.0066
▁alternatively	-11.0085
▁concise	-11.0088
▁perceptron	-11.0089
▁segmented	-11.0092
▁pro	-11.0095
▁kb	-11.0099
▁receiving	-11.01
▁mtl	-11.0101
▁compatibility	-11.0102
▁moderate	-11.0104
▁generalizations	-11.0106
▁hilbert	-11.0108
▁nonconvex	-11.0114
▁dna	-11.0125
▁labelling	-11.0139
▁gathering	-11.0139
▁derivatives	-11.014
▁division	-11.014
▁varies	-11.0144
▁cancer	-11.0146
▁winning	-11.0146
▁mix	-11.0149
▁en	-11.0149
▁pa	-11.0152
▁voters	-11.0164
▁waiting	-11.0166
▁directional	-11.017
et	-11.0173
▁entailment	-11.0176
▁discriminant	-11.0177
▁stores	-11.0182
fi	-11.0188
▁null	-11.0202
▁32	-11.0211
▁problematic	-11.0211
▁publications	-11.0213
▁mathematics	-11.0214
▁sublinear	-11.0215
▁cyclic	-11.0217
all	-11.0227
▁comprises	-11.0233
▁shortcomings	-11.0236
▁perfectly	-11.0237
▁landscape	-11.0245
▁hessian	-11.0246
▁drastically	-11.0252
▁kl	-11.0253
▁virtualization	-11.0256
▁rankings	-11.0271
▁imbalance	-11.0279
▁reject	-11.0282
▁percolation	-11.0292
▁barrier	-11.0292
▁personality	-11.0295
▁considerations	-11.0299
▁spark	-11.03
▁thank	-11.0306
▁numerically	-11.0312
▁expressiveness	-11.0313
▁coalition	-11.0325
de	-11.0335
specified	-11.0336
▁native	-11.0337
▁said	-11.0337
▁spherical	-11.0354
▁deformations	-11.0361
▁immediate	-11.0364
zero	-11.0365
▁distinction	-11.0367
▁goods	-11.0369
ta	-11.0369
▁nowadays	-11.037
law	-11.037
▁discriminate	-11.0371
▁bilingual	-11.0372
▁weaknesses	-11.0375
▁therein	-11.0393
▁decompositions	-11.0402
▁remarkably	-11.0409
▁fps	-11.0415
▁differently	-11.0427
posed	-11.043
▁con	-11.0435
▁permits	-11.0437
▁credit	-11.0438
▁relaxed	-11.044
▁stay	-11.0444
▁enhancing	-11.0445
▁sections	-11.0447
▁shadow	-11.0451
▁beamforming	-11.0451
▁interior	-11.0452
▁card	-11.0454
nvidia	-11.0458
▁motor	-11.0459
▁ads	-11.046
▁accept	-11.0466
▁mds	-11.0467
used	-11.0474
▁trigger	-11.0485
▁hpc	-11.0486
▁1000	-11.0487
▁heat	-11.0489
▁downstream	-11.049
edge	-11.0491
▁liu	-11.05
▁explaining	-11.0504
▁dominating	-11.0507
▁inspection	-11.0525
me	-11.0525
▁caches	-11.0528
▁capacities	-11.0529
▁developer	-11.0535
▁clothing	-11.0538
▁experimentation	-11.0541
▁thresholds	-11.0543
▁gold	-11.0545
▁ordinal	-11.0545
▁tune	-11.0548
▁continue	-11.0551
ies	-11.0557
▁chord	-11.0564
▁valuations	-11.0564
coming	-11.0566
▁picture	-11.0567
▁intervention	-11.0569
▁decode	-11.0573
▁2000	-11.0574
▁assessed	-11.0575
▁license	-11.0579
▁thesis	-11.058
▁german	-11.0581
▁planners	-11.0582
tends	-11.0603
▁unreliable	-11.0611
▁ignored	-11.0611
▁utterance	-11.0612
▁deployments	-11.0614
▁reactions	-11.0617
▁id	-11.062
▁repeatedly	-11.0625
▁commands	-11.0635
▁advice	-11.0642
▁intuitively	-11.0643
▁leader	-11.0644
▁cpus	-11.0647
▁physically	-11.0647
ous	-11.0648
▁conference	-11.0648
▁complexities	-11.0654
▁impacts	-11.0671
▁magnetic	-11.0671
▁sports	-11.0673
▁prune	-11.0686
▁encoders	-11.0693
▁mechanics	-11.0693
▁failed	-11.0694
▁elementary	-11.0701
▁snr	-11.0707
▁allocations	-11.0713
▁densely	-11.0719
ful	-11.0724
▁workflows	-11.0733
-2	-11.0735
▁facility	-11.0735
grams	-11.0736
▁sec	-11.0737
▁hands	-11.0739
▁edit	-11.074
▁govern	-11.0741
▁severely	-11.0742
▁unify	-11.0745
▁occurrences	-11.0746
pplying	-11.0764
▁crossing	-11.0773
▁biology	-11.0775
▁vital	-11.0776
▁momentum	-11.0777
▁hosts	-11.0779
▁sphere	-11.0804
▁unexpected	-11.0807
▁red	-11.082
▁su	-11.0824
▁plus	-11.0827
da	-11.0829
▁optima	-11.0832
▁package	-11.0843
▁session	-11.085
▁concentration	-11.0853
▁wmt	-11.0858
score	-11.086
▁reaction	-11.0868
▁resilient	-11.0876
▁computable	-11.0879
▁devised	-11.0887
▁outer	-11.0891
▁db	-11.0895
▁regularize	-11.0896
▁middle	-11.0896
▁mentions	-11.0897
▁grammatical	-11.0897
▁learners	-11.0901
▁geometrical	-11.0915
▁appealing	-11.0918
▁speaking	-11.0918
▁angular	-11.0921
▁grasps	-11.0925
▁participation	-11.0926
▁ransac	-11.0933
▁positives	-11.0937
▁programmer	-11.0939
▁preservation	-11.0952
▁leaves	-11.0953
▁simplest	-11.0958
managing	-11.0963
▁summarized	-11.0971
▁pointed	-11.0972
▁reaches	-11.0977
▁electrical	-11.0979
▁vr	-11.098
▁contours	-11.0981
directional	-11.0987
▁lsh	-11.0992
▁nonnegative	-11.0996
▁spot	-11.0996
▁convey	-11.0997
▁pervasive	-11.1015
squares	-11.1023
▁elimination	-11.1024
▁propagate	-11.1028
▁reflection	-11.1032
▁regularizer	-11.1033
▁alpha	-11.1035
multidimensional	-11.1044
her	-11.1049
▁drivers	-11.1049
he	-11.1055
▁mixtures	-11.1061
6	-11.1062
▁race	-11.1063
▁percentage	-11.1063
▁going	-11.1065
▁reductions	-11.1066
map	-11.107
▁dp	-11.1071
▁bins	-11.1073
▁prover	-11.1074
▁flight	-11.1075
▁negligible	-11.1076
▁participating	-11.1077
▁manipulating	-11.1084
▁shed	-11.1084
▁tackled	-11.1085
instance	-11.1087
▁multicore	-11.1095
▁exceeds	-11.1103
be	-11.111
▁outage	-11.1111
▁influences	-11.1111
▁engagement	-11.1113
pass	-11.1114
armed	-11.1115
▁spin	-11.1118
▁modelled	-11.1118
▁descriptive	-11.112
bound	-11.1125
9	-11.1126
▁man	-11.1136
▁backbone	-11.1149
▁she	-11.1151
▁countries	-11.1152
▁spoken	-11.1155
▁ambient	-11.1157
▁constants	-11.1158
▁contemporar	-11.1159
▁satisfiability	-11.1173
▁automate	-11.1195
▁receivers	-11.12
product	-11.1203
▁derivative	-11.1207
▁defect	-11.1208
▁orientations	-11.1208
▁proportion	-11.1224
▁sciences	-11.1228
▁shorter	-11.1233
▁ex	-11.1233
▁stop	-11.1234
▁matchings	-11.1238
action	-11.124
▁drug	-11.1242
▁alignments	-11.1242
▁gossip	-11.1243
▁scanning	-11.1243
▁integers	-11.1251
▁constructive	-11.1255
▁thermal	-11.1258
▁macro	-11.1271
▁solid	-11.1276
▁reporting	-11.1277
▁sun	-11.1278
▁sdp	-11.128
▁unman	-11.1287
▁uniqueness	-11.1289
▁statement	-11.1292
nt	-11.1302
▁held	-11.1304
▁queues	-11.1315
▁wall	-11.1318
▁enumeration	-11.1321
▁inclusion	-11.1324
▁csma	-11.1328
▁parity	-11.1334
▁cubic	-11.1336
batch	-11.1337
▁infinity	-11.1338
ks	-11.1342
▁viable	-11.1342
▁approximates	-11.1343
sharing	-11.1344
▁defenses	-11.1346
▁compose	-11.1355
▁confirmed	-11.1355
org	-11.1359
▁radar	-11.1361
▁indirect	-11.1364
▁handwriting	-11.1369
▁possibilities	-11.1369
ir	-11.137
▁satisfactory	-11.1371
▁assurance	-11.1371
▁meeting	-11.1373
▁progressively	-11.1373
▁bundle	-11.1375
▁immediately	-11.1377
coloring	-11.1378
▁mil	-11.1384
▁fluid	-11.1385
▁optimizer	-11.139
▁exemplar	-11.1393
▁inaccurate	-11.1399
▁duality	-11.1404
▁locomotion	-11.1407
▁imperfect	-11.1413
▁experienced	-11.1414
▁fits	-11.1415
▁lock	-11.1415
▁revisit	-11.1417
▁packages	-11.1417
▁save	-11.1423
▁senses	-11.1425
▁played	-11.1426
▁navigate	-11.1427
▁translating	-11.1431
▁knn	-11.1436
▁organize	-11.1438
▁generaliz	-11.1441
▁enormous	-11.145
▁innovative	-11.1452
▁utilities	-11.1457
weighted	-11.1486
▁tradeoffs	-11.1487
sample	-11.149
▁mathematically	-11.1498
▁dis	-11.1502
ical	-11.1505
▁favorable	-11.1506
▁propositional	-11.1509
▁stanford	-11.1514
▁harmonic	-11.152
▁respond	-11.1523
▁traveling	-11.1526
pooling	-11.1527
▁locating	-11.1531
▁revealing	-11.1531
▁grouped	-11.1547
▁fastest	-11.155
▁rbm	-11.1551
▁mc	-11.1552
▁marketing	-11.1556
▁knapsack	-11.1557
▁falls	-11.1573
▁routers	-11.1584
▁unbiased	-11.1584
▁phishing	-11.1588
▁polarity	-11.159
tion	-11.159
▁truly	-11.1591
▁provenance	-11.1593
▁populations	-11.1593
▁votes	-11.1595
▁csp	-11.1595
▁cold	-11.1611
▁nontrivial	-11.1613
▁coincide	-11.1616
▁reconfiguration	-11.1616
ised	-11.1625
▁wrong	-11.1626
▁mirror	-11.163
▁bodies	-11.1641
▁rendered	-11.1649
▁typing	-11.1669
▁persons	-11.1671
▁transient	-11.1675
▁treats	-11.168
policy	-11.1683
▁disentangled	-11.1693
▁dr	-11.1708
▁na	-11.1709
▁200	-11.1714
parallel	-11.1723
▁ranges	-11.1725
10	-11.1731
▁legitimate	-11.1732
▁tracked	-11.1734
▁mental	-11.174
chieving	-11.1745
▁company	-11.1746
▁blocking	-11.1752
▁mission	-11.1758
▁cutting	-11.176
▁drl	-11.1762
▁eliminat	-11.1764
▁gaps	-11.1765
▁posted	-11.1769
▁professional	-11.1771
▁stated	-11.1774
▁argumentation	-11.1775
▁bss	-11.178
▁slice	-11.1783
▁gather	-11.1783
▁slower	-11.1784
▁soon	-11.1805
▁appendix	-11.1808
▁specially	-11.1808
▁abnormal	-11.1815
▁uplink	-11.1821
▁bio	-11.1824
▁national	-11.1825
▁insert	-11.1833
truncated	-11.1833
rought	-11.1835
▁quantized	-11.1841
▁transactional	-11.1847
▁incentives	-11.185
▁simulat	-11.1853
▁cumulative	-11.1854
,000	-11.186
▁innovation	-11.1862
▁wearable	-11.1869
▁neutral	-11.1869
▁noted	-11.188
▁learnable	-11.1881
▁clips	-11.1889
▁photographs	-11.189
▁2.	-11.1895
▁mr	-11.1901
▁resemble	-11.1907
language	-11.1907
▁ne	-11.1907
▁interpretations	-11.1908
▁distinctive	-11.1909
▁dcnn	-11.1917
▁downlink	-11.1917
▁retrieving	-11.192
objective	-11.1924
▁transmitters	-11.1924
▁meanings	-11.1926
encoders	-11.1937
▁plant	-11.1942
observing	-11.1943
fine	-11.1943
▁archive	-11.1944
▁agnostic	-11.1947
▁attentional	-11.1948
▁colour	-11.195
▁gates	-11.195
▁leakage	-11.1954
▁regularities	-11.1955
▁2018	-11.1955
▁slices	-11.1959
▁forming	-11.1967
▁reconstructions	-11.1971
▁infrastructures	-11.1975
▁months	-11.1981
▁kinematic	-11.2
▁compelling	-11.2001
▁triples	-11.2001
ne	-11.2003
error	-11.2003
▁mo	-11.2005
▁satellite	-11.2006
▁differentially	-11.2006
▁compris	-11.2007
▁anomalous	-11.2009
▁successes	-11.201
▁deletion	-11.201
▁abilities	-11.2013
▁tissue	-11.2013
motion	-11.2017
▁crime	-11.2024
▁rpn	-11.2025
▁compensate	-11.2033
▁depict	-11.2034
▁24	-11.2039
▁layered	-11.2041
▁uncertainties	-11.2048
▁hadoop	-11.2048
▁digit	-11.2052
▁attributed	-11.2058
▁zsl	-11.2065
networks	-11.2067
▁markers	-11.2072
▁fusing	-11.208
convolutional	-11.2082
▁ha	-11.2089
document	-11.2099
▁speakers	-11.21
▁warp	-11.2101
▁projective	-11.2108
▁completed	-11.2114
▁2005	-11.2117
dual	-11.2142
▁leaf	-11.2147
▁lagrangian	-11.2147
▁tsp	-11.2151
▁profiling	-11.2154
▁passwords	-11.2158
first	-11.2162
▁terminals	-11.2163
▁chooses	-11.2165
▁faulty	-11.2172
▁monolingual	-11.2181
▁laboratory	-11.2189
▁international	-11.2189
▁equipment	-11.219
standing	-11.2194
▁skin	-11.2194
▁publication	-11.2201
▁realization	-11.221
▁mrf	-11.2213
▁surpass	-11.2218
wide	-11.2228
▁tracing	-11.2236
▁memories	-11.2236
▁unstable	-11.2238
▁seq	-11.2239
▁indicator	-11.2242
▁obfuscation	-11.2247
▁centered	-11.2247
▁investigations	-11.2251
▁multiagent	-11.2267
▁clauses	-11.2271
▁arc	-11.228
▁fragment	-11.228
▁highlighting	-11.2283
▁twice	-11.2286
▁thresholding	-11.2294
▁prototypes	-11.2294
agnostic	-11.2301
▁sparql	-11.2302
▁autonomously	-11.2303
guided	-11.2304
▁schedules	-11.2308
▁blue	-11.232
▁visualiz	-11.2323
▁analysed	-11.2333
▁risks	-11.2335
ac	-11.2338
▁digits	-11.2343
▁circle	-11.2343
▁mcmc	-11.2346
▁conceptually	-11.2347
▁gru	-11.2348
▁thoroughly	-11.2348
▁constantly	-11.235
▁msr	-11.2351
▁ego	-11.2355
▁van	-11.2356
▁logics	-11.2365
▁scaled	-11.2367
▁inform	-11.2367
log	-11.2369
▁rat	-11.2369
▁distribute	-11.2378
▁circumvent	-11.2379
▁wiley	-11.2381
▁localisation	-11.2384
▁took	-11.2385
▁sessions	-11.2387
ner	-11.2392
▁objectness	-11.2405
▁prefix	-11.2405
▁ctc	-11.2407
▁allocated	-11.2421
▁apparent	-11.2421
▁des	-11.2426
▁ba	-11.2437
▁hmms	-11.244
▁lazy	-11.2443
▁restrictive	-11.2445
1-	-11.2458
▁resolutions	-11.2458
▁winner	-11.2461
▁grounded	-11.2466
▁2.5	-11.2467
▁advent	-11.2477
▁middleware	-11.2478
▁healthcare	-11.2483
▁continuity	-11.2485
▁interpreting	-11.2488
▁overheads	-11.249
▁fingerprint	-11.2492
▁intersections	-11.2497
▁acting	-11.2509
▁selfish	-11.2521
▁survival	-11.2527
▁toolkit	-11.2533
▁bidding	-11.2534
▁member	-11.2534
▁bank	-11.2536
▁jpeg	-11.2543
▁relatedness	-11.2543
▁visited	-11.2548
provable	-11.2552
▁familiar	-11.2563
▁recursively	-11.2563
▁clone	-11.2569
▁triple	-11.2571
▁acyclic	-11.2573
▁won	-11.2575
▁pe	-11.2576
▁facilities	-11.2576
▁categorize	-11.2578
▁maintained	-11.258
▁discovers	-11.2581
▁outstanding	-11.2582
▁paragraph	-11.2584
▁varied	-11.2586
▁gibbs	-11.2586
▁bandits	-11.259
▁selectively	-11.2592
using	-11.2598
▁plain	-11.2599
▁identifiers	-11.2609
▁distortions	-11.2611
▁mismatch	-11.2611
▁gait	-11.2612
▁instability	-11.2614
▁knowing	-11.2616
▁antenna	-11.2624
▁accesses	-11.2628
vertex	-11.2628
▁equality	-11.2631
▁register	-11.2631
▁steiner	-11.2632
▁discussions	-11.2632
test	-11.2635
▁seller	-11.2641
▁accomplished	-11.2641
▁cad	-11.2641
▁forecast	-11.2644
▁delta	-11.265
▁roots	-11.265
▁researches	-11.265
▁violations	-11.2656
▁trial	-11.2659
▁highway	-11.2663
▁nine	-11.2668
▁percent	-11.2676
▁argued	-11.2676
▁everyday	-11.2677
precision	-11.2678
▁quick	-11.2679
▁friendship	-11.2679
▁passage	-11.2691
▁french	-11.2696
▁indicated	-11.2708
for	-11.2716
▁gating	-11.272
▁adversaries	-11.2726
▁21	-11.2727
▁witnessed	-11.2729
▁whil	-11.2729
▁happen	-11.2729
▁ssl	-11.273
▁rectangular	-11.273
▁prefer	-11.2737
▁lo	-11.2743
▁2004	-11.2746
▁mind	-11.2746
performing	-11.2746
▁bob	-11.2751
▁diseases	-11.2754
▁tightly	-11.2761
os	-11.2772
▁convexity	-11.2772
▁reflectance	-11.2779
▁humanoid	-11.2779
▁lens	-11.2779
spectral	-11.278
▁scarce	-11.2785
▁steady	-11.2786
▁paid	-11.2788
▁fluctuations	-11.2792
▁nonzero	-11.2798
date	-11.28
▁vice	-11.2808
▁separat	-11.2813
▁prevalent	-11.2817
▁trials	-11.2819
▁passes	-11.2819
ma	-11.2822
integrates	-11.2829
▁mmd	-11.2829
▁probably	-11.2831
▁flash	-11.2832
▁citations	-11.2833
▁traits	-11.2835
▁determination	-11.2836
▁annotators	-11.284
▁fidelity	-11.284
▁breaking	-11.2843
service	-11.2848
▁customize	-11.2854
▁associate	-11.2863
▁partly	-11.2868
▁earliest	-11.2877
▁javascript	-11.2877
▁linux	-11.2881
▁simplification	-11.2883
▁hamiltonian	-11.2884
▁closeness	-11.2888
▁stopping	-11.2888
▁ge	-11.2889
▁normals	-11.2892
▁expanded	-11.2902
▁contract	-11.2902
▁vi	-11.2903
cs	-11.2903
▁vms	-11.2903
▁suggestions	-11.2903
▁terminal	-11.2906
▁hide	-11.291
▁movies	-11.2914
▁pnc	-11.2916
factor	-11.292
▁opposite	-11.292
▁preced	-11.2923
▁cultural	-11.2925
▁betweenness	-11.2928
▁guiding	-11.2932
▁expense	-11.2932
▁distinguished	-11.2934
▁succeed	-11.2935
▁22	-11.2941
▁eyes	-11.2946
▁inverted	-11.2947
demand	-11.2953
▁modulation	-11.2955
▁raised	-11.2957
rich	-11.296
band	-11.2964
▁95	-11.2965
ment	-11.2968
-5	-11.2969
▁crfs	-11.2975
▁mutually	-11.2976
▁benchmarking	-11.2976
▁shifts	-11.2977
▁cryptography	-11.2984
▁hundred	-11.2986
▁rumor	-11.2986
▁im	-11.299
▁voltage	-11.2991
▁countermeasures	-11.2996
▁expanding	-11.3002
▁disciplines	-11.3007
▁concurrently	-11.3007
▁attend	-11.3017
▁auc	-11.3019
▁tremendous	-11.3024
▁exposed	-11.3027
▁inject	-11.3032
▁decompos	-11.3032
▁enforcement	-11.3033
▁informed	-11.3036
▁portable	-11.3036
▁generalisation	-11.3038
▁cube	-11.3042
▁inspiration	-11.3046
▁artistic	-11.3051
qa	-11.3057
▁seeds	-11.3067
▁contracts	-11.3068
▁demanding	-11.3081
▁statistic	-11.3081
▁empty	-11.3084
▁forgetting	-11.3087
loss	-11.3092
▁acquir	-11.3106
▁cascades	-11.3117
ra	-11.3118
▁imbalanced	-11.3119
▁layouts	-11.312
▁restore	-11.3126
▁ranks	-11.3147
▁bot	-11.315
▁nns	-11.3156
▁transe	-11.3162
▁publish	-11.3164
▁strengthen	-11.3165
▁eigenvectors	-11.3167
light	-11.3172
▁70	-11.3178
▁extractor	-11.3185
▁ambiguities	-11.3187
▁impos	-11.3188
competitive	-11.3192
face	-11.3194
▁epidemic	-11.3195
▁vehicular	-11.3195
▁emails	-11.3196
tier	-11.3196
▁triangle	-11.3206
▁concentrated	-11.3216
▁suppose	-11.3226
▁lexicons	-11.3232
▁quantification	-11.324
▁interplay	-11.3241
▁expectations	-11.3242
▁autoregressive	-11.3245
▁saving	-11.3245
coded	-11.3245
▁snapshot	-11.3249
▁older	-11.3252
▁ultra	-11.3252
▁csi	-11.326
▁instant	-11.327
▁initialize	-11.3274
▁hol	-11.3274
▁overflow	-11.3277
▁formats	-11.3278
▁overcomes	-11.328
▁speedups	-11.3282
▁degrade	-11.3286
ble	-11.3287
▁tedious	-11.3293
▁curriculum	-11.3293
▁oblivious	-11.3293
▁recording	-11.3297
▁lee	-11.3299
▁googlenet	-11.3299
input	-11.3305
▁apache	-11.3307
▁relays	-11.3311
power	-11.3311
▁lowest	-11.3314
▁serving	-11.3315
stationary	-11.3315
▁deviations	-11.3317
▁cheap	-11.3318
▁demographic	-11.3319
▁pairing	-11.3322
▁species	-11.3323
▁indexed	-11.3346
▁suitability	-11.3347
▁command	-11.3348
parameters	-11.3356
▁payoff	-11.3358
▁billions	-11.3359
▁dominated	-11.3363
▁hr	-11.337
▁slicing	-11.3379
▁wait	-11.3392
▁discard	-11.3394
▁penn	-11.3395
▁couple	-11.3398
▁compete	-11.3398
▁notation	-11.3406
▁asr	-11.3406
▁supervisor	-11.3408
▁relaxations	-11.3409
▁28	-11.341
▁mu	-11.3411
▁lacking	-11.3412
▁regimes	-11.3414
▁assistance	-11.3418
▁bo	-11.3436
▁2008	-11.3442
▁placing	-11.3444
▁decoders	-11.3449
▁triplets	-11.3449
▁stimuli	-11.3454
sat	-11.3457
▁hierarchically	-11.3459
▁psychology	-11.3464
▁mainstream	-11.3465
▁enterprise	-11.3465
▁homology	-11.347
▁steering	-11.3477
▁cca	-11.3478
entropy	-11.3479
▁displays	-11.3484
▁permutations	-11.3488
▁gr	-11.3498
▁noun	-11.3503
▁polygons	-11.3504
▁notes	-11.3505
▁exceed	-11.3506
▁neighbour	-11.3509
search	-11.3509
▁carrier	-11.3509
▁concatenation	-11.3512
▁electric	-11.3513
▁bootstrapping	-11.3516
▁footprint	-11.3517
▁tell	-11.352
▁observer	-11.3523
▁normally	-11.3524
▁examination	-11.3526
▁classifies	-11.3528
limited	-11.3546
▁vote	-11.3551
▁manager	-11.3552
▁managed	-11.3552
▁confidentiality	-11.3563
▁planes	-11.3568
▁noises	-11.3573
▁elections	-11.358
vae	-11.3582
▁opens	-11.359
▁shifting	-11.3593
matching	-11.3595
▁pushing	-11.3597
▁rss	-11.3602
▁covert	-11.3602
▁omp	-11.3607
passing	-11.3607
▁favor	-11.3611
termed	-11.3611
▁waves	-11.3615
distribution	-11.3615
▁circumstances	-11.3621
▁modulo	-11.3625
▁alice	-11.3632
▁lattices	-11.3643
▁subproblems	-11.3657
▁damage	-11.3658
▁apis	-11.3661
detection	-11.3662
▁bittorrent	-11.3671
▁coordinated	-11.3678
▁signed	-11.3679
▁dcnns	-11.368
▁offset	-11.368
▁don	-11.3691
distance	-11.3692
▁reads	-11.3707
▁extremal	-11.3712
▁lbp	-11.3715
▁lots	-11.3718
▁elaborate	-11.3723
▁board	-11.3727
▁ct	-11.3732
▁hypothesize	-11.3733
▁lessons	-11.3735
through	-11.3739
▁uniquely	-11.3739
▁animation	-11.3741
ca	-11.3749
▁algebras	-11.3752
▁utilise	-11.3756
▁conservative	-11.3757
▁contacts	-11.3759
round	-11.3766
▁reformulate	-11.377
▁economics	-11.3775
▁psychological	-11.378
▁synchronized	-11.3785
▁caltech	-11.3786
▁mild	-11.3786
▁rounding	-11.3787
▁urls	-11.379
▁shannon	-11.3804
▁serial	-11.3806
▁rigorously	-11.381
▁simplifie	-11.3824
▁buildings	-11.3832
▁unnecessary	-11.3838
▁prescribed	-11.3841
▁worker	-11.3842
▁intention	-11.3842
▁incorporation	-11.3849
▁cards	-11.385
▁multipliers	-11.3853
▁iv	-11.3861
center	-11.387
▁returned	-11.3874
compositionality	-11.3875
established	-11.3877
ted	-11.3878
▁300	-11.3882
from	-11.3891
▁shot	-11.3894
▁followers	-11.3899
seq	-11.3901
▁prime	-11.3907
▁timely	-11.3912
▁buyers	-11.3916
ided	-11.3924
▁cue	-11.3926
▁merged	-11.3933
▁unlikely	-11.3938
▁ucf	-11.3951
▁nmf	-11.3952
▁susceptible	-11.3952
▁pull	-11.3952
plane	-11.3953
▁upsampling	-11.3962
chip	-11.3965
▁executions	-11.3965
▁explosion	-11.3966
▁lookup	-11.3966
suited	-11.3968
▁pressure	-11.3977
▁caus	-11.3981
▁fingerprinting	-11.3998
oblivious	-11.4001
▁secrecy	-11.4007
▁rendezvous	-11.4007
▁confusion	-11.4009
▁tiny	-11.4011
▁modest	-11.4013
▁2006	-11.4014
▁communicat	-11.4018
▁circular	-11.4026
▁bidders	-11.4031
phase	-11.4039
▁disadvantages	-11.4044
start	-11.4053
▁articulate	-11.4057
▁exclusively	-11.4071
▁compositions	-11.4076
▁manipulator	-11.4078
▁deadline	-11.4081
▁hull	-11.4094
▁stock	-11.4095
▁tuple	-11.4097
work	-11.41
▁campaigns	-11.4108
▁mm	-11.4109
▁retraining	-11.4111
▁enforces	-11.4115
▁looks	-11.4116
▁prolog	-11.4124
▁documentation	-11.4128
▁justification	-11.4135
▁pictures	-11.4137
▁backoff	-11.4137
▁attracte	-11.4139
▁fraud	-11.4142
▁bands	-11.4144
▁27	-11.415
▁passed	-11.4155
▁dark	-11.4155
▁stacking	-11.4156
▁fac	-11.4158
▁engineers	-11.4166
ance	-11.4176
▁erroneous	-11.418
▁unprecedented	-11.418
▁submitted	-11.4182
▁extrinsic	-11.4182
▁reasonably	-11.4183
▁imperative	-11.419
▁coordinator	-11.4192
▁qu	-11.4192
▁unweighted	-11.4193
▁signs	-11.4193
ia	-11.4197
▁osns	-11.4207
▁predictable	-11.4216
▁totally	-11.4235
▁convincing	-11.424
el	-11.424
▁dissimilarity	-11.4241
▁draws	-11.4243
▁extractive	-11.4243
▁lu	-11.4247
▁corruption	-11.425
▁chance	-11.4251
▁axioms	-11.4251
▁joins	-11.4252
▁superpixel	-11.4253
▁journal	-11.4256
▁traversal	-11.4257
▁sender	-11.4259
alone	-11.4265
▁think	-11.4267
▁trans	-11.4275
▁formalized	-11.4279
▁radial	-11.4282
▁router	-11.4283
▁4-	-11.4296
▁necessity	-11.4299
▁automaton	-11.4304
▁encompass	-11.4305
▁spite	-11.4305
▁exclusion	-11.4307
▁generalise	-11.431
▁money	-11.4311
▁formalization	-11.4312
▁pointnet	-11.4312
▁tutorial	-11.4314
ler	-11.4323
▁recovers	-11.4325
▁fire	-11.4334
resource	-11.4338
▁happens	-11.435
▁worlds	-11.4353
▁alter	-11.4356
ov	-11.4356
▁acceptance	-11.4357
▁compos	-11.4357
▁mdps	-11.4358
▁spent	-11.4358
▁fragmentation	-11.4363
▁charge	-11.4365
hand	-11.4368
▁discretization	-11.4368
labeled	-11.437
▁sounds	-11.4374
nal	-11.4391
▁bert	-11.4392
▁covariates	-11.4394
▁suffix	-11.4407
▁localiz	-11.4409
▁engage	-11.4414
▁kept	-11.4415
▁icp	-11.4419
neighbor	-11.442
▁laplace	-11.4422
▁unrelated	-11.4424
▁biclusters	-11.4424
▁inexact	-11.443
▁fi	-11.4432
▁replica	-11.4432
▁referring	-11.4435
▁concluded	-11.4436
▁insertion	-11.4442
▁sending	-11.4451
▁browser	-11.4454
▁provisioning	-11.4456
machine	-11.4456
commerce	-11.4459
▁splits	-11.446
▁mounted	-11.446
key	-11.446
▁superpixels	-11.4463
margin	-11.4473
▁instantaneous	-11.4473
▁mmwave	-11.4474
▁emergency	-11.4475
▁pp	-11.4476
gaussian	-11.4479
▁viral	-11.448
▁voronoi	-11.4481
▁extensible	-11.4481
▁seamlessly	-11.4481
▁forensic	-11.4486
▁analysts	-11.4491
▁capsule	-11.4491
▁clickbait	-11.4493
▁molecules	-11.4494
▁tolerant	-11.4495
-101	-11.4495
▁harness	-11.4495
▁bar	-11.4497
▁chip	-11.4497
▁harvesting	-11.45
▁idle	-11.4501
▁disclosure	-11.4504
modality	-11.4507
▁semina	-11.4513
▁plug	-11.4514
ds	-11.4515
came	-11.4519
▁injection	-11.452
▁relu	-11.4527
access	-11.4529
▁verb	-11.4539
▁brownian	-11.4539
um	-11.4543
▁sfm	-11.4547
▁travers	-11.4548
▁recommended	-11.4557
▁interviews	-11.456
▁rough	-11.4561
▁complements	-11.4563
▁degraded	-11.4563
▁educational	-11.4566
▁forums	-11.4566
▁judgments	-11.4567
▁accelerat	-11.457
fitting	-11.4574
pp	-11.459
▁legal	-11.4591
directed	-11.4591
▁yielded	-11.4593
▁decidable	-11.4597
▁behaviours	-11.4601
▁continues	-11.4604
▁rotations	-11.4613
▁gray	-11.4614
physical	-11.4616
▁stroke	-11.462
▁analys	-11.4623
▁replicated	-11.4623
▁facilitat	-11.4626
▁tackl	-11.4629
min	-11.4638
,	-11.4649
english	-11.4651
▁famous	-11.4656
▁interpolate	-11.4656
mp	-11.4658
board	-11.4663
▁multiclass	-11.4669
▁morph	-11.467
▁stance	-11.4671
▁mitigation	-11.4672
▁ilp	-11.4678
▁grounding	-11.4696
▁buy	-11.4706
▁2002	-11.4706
▁bus	-11.4708
▁sinr	-11.4728
▁conjectured	-11.4732
tune	-11.4739
enabled	-11.4739
▁marked	-11.474
▁fourth	-11.4741
▁contrastive	-11.4749
▁commit	-11.476
▁unavailable	-11.4778
ch	-11.4779
▁rgbd	-11.4782
▁tactile	-11.4783
edu	-11.4786
▁audience	-11.4792
trees	-11.4793
▁multipath	-11.4793
▁arrangement	-11.4794
▁criminal	-11.4796
▁my	-11.4802
▁sums	-11.4804
friendly	-11.4805
▁virtually	-11.4808
▁manipulated	-11.4817
▁dataflow	-11.4818
▁motifs	-11.4818
▁copyright	-11.4841
▁cuda	-11.4843
▁yahoo	-11.4843
semantic	-11.4844
▁initialized	-11.4845
▁pac	-11.4852
▁transmitting	-11.4858
▁analogue	-11.486
▁voter	-11.4865
▁hypergraphs	-11.4868
▁calibrated	-11.4873
▁regulator	-11.4874
labelled	-11.488
▁snippets	-11.4884
▁dramatic	-11.4896
▁2003	-11.4899
▁benign	-11.4901
▁leaving	-11.4904
▁compile	-11.4905
▁manufacturing	-11.4906
▁react	-11.4907
▁sought	-11.4907
▁collapse	-11.4908
▁hyperbolic	-11.4912
▁wifi	-11.4913
clustering	-11.4915
system	-11.4917
▁tolerate	-11.492
▁finer	-11.4922
▁fo	-11.4922
▁statically	-11.4927
generation	-11.4928
▁sparsely	-11.4932
▁maximized	-11.4933
▁maximally	-11.4938
▁containers	-11.4944
▁1990	-11.495
▁consume	-11.4953
▁gmm	-11.4962
▁fulfill	-11.4963
▁corollary	-11.4963
▁adaboost	-11.4967
ranking	-11.497
▁recurrence	-11.4972
▁gabor	-11.4973
measure	-11.4973
ct	-11.498
▁ingredient	-11.498
▁annotat	-11.4981
▁monotonicity	-11.4987
▁something	-11.4988
▁hashtags	-11.4991
▁allocat	-11.4999
▁motivations	-11.5001
▁avoided	-11.5007
▁pointer	-11.5014
-16	-11.5019
smooth	-11.502
ll	-11.5022
▁freebase	-11.5027
▁ram	-11.5028
▁kinematics	-11.5028
co	-11.5028
deterministic	-11.5029
▁yolo	-11.503
▁attached	-11.503
▁finger	-11.5033
▁rrt	-11.5038
▁bootstrap	-11.5041
sided	-11.5043
▁prioritized	-11.5043
▁displacement	-11.5044
▁triangulation	-11.5045
▁payment	-11.5045
▁imu	-11.5049
▁mcts	-11.505
▁reinforce	-11.5051
▁resonance	-11.5053
▁cloning	-11.5054
▁associative	-11.5062
▁drawings	-11.5071
ml	-11.5074
▁interconnected	-11.508
▁75	-11.508
▁densenet	-11.5081
▁genuine	-11.5089
▁legacy	-11.5089
▁semeval	-11.5089
▁admission	-11.5097
▁authority	-11.5098
▁expose	-11.5101
em	-11.5102
▁formulae	-11.5106
▁inexpensive	-11.5113
▁seamless	-11.5145
-100	-11.5147
▁replies	-11.5153
▁bow	-11.5157
▁served	-11.5158
▁rewrite	-11.5159
▁repeat	-11.516
▁eeg	-11.5163
▁arguabl	-11.5166
▁quantified	-11.5168
▁hit	-11.5173
am	-11.5176
our	-11.5177
▁matroid	-11.5186
▁adam	-11.5188
▁liquid	-11.5194
▁disentangle	-11.5194
▁observational	-11.5196
▁pointwise	-11.5201
nets	-11.5215
▁miss	-11.5223
▁setups	-11.5225
sampled	-11.5227
▁pin	-11.5232
▁exceptions	-11.5236
▁mistakes	-11.5242
db	-11.5242
▁parking	-11.5246
▁predominant	-11.5247
▁mot	-11.5248
▁logging	-11.5251
▁ridge	-11.5253
▁ray	-11.5253
approximate	-11.5263
▁roads	-11.5268
▁adjusted	-11.528
realistic	-11.528
▁perplexity	-11.5282
▁untrusted	-11.5282
▁dot	-11.5285
▁productivity	-11.5288
▁networked	-11.5288
▁embeds	-11.5289
▁eq	-11.5294
0,000	-11.5296
▁dc	-11.5297
▁tr	-11.5298
▁transferability	-11.5301
▁compensation	-11.5302
camera	-11.5303
▁wavelets	-11.5308
▁pilot	-11.5312
▁35	-11.5327
▁informal	-11.5336
▁government	-11.5339
▁vaes	-11.536
▁vo	-11.5366
▁probe	-11.5369
▁backup	-11.5373
speed	-11.5374
▁iterates	-11.5375
▁4.	-11.5388
▁kim	-11.5393
▁mse	-11.5399
▁sacrific	-11.5405
▁incurs	-11.541
centered	-11.5412
▁rfid	-11.5414
density	-11.5418
▁differentiation	-11.542
▁stakeholders	-11.5421
▁filling	-11.5424
▁23	-11.5427
▁pc	-11.5428
▁standardized	-11.5429
▁era	-11.5431
▁slight	-11.5432
▁atom	-11.5432
▁resp	-11.5433
▁subproblem	-11.5436
▁desktop	-11.5436
▁office	-11.5437
▁education	-11.5444
▁inversion	-11.5449
concept	-11.5457
cooperative	-11.5458
▁mf	-11.5461
▁delayed	-11.5462
▁journals	-11.5463
▁compound	-11.5466
cloud	-11.5469
complexity	-11.5474
▁violate	-11.5474
▁ids	-11.5479
bird	-11.5481
▁compilers	-11.5482
▁divid	-11.5484
▁beta	-11.5484
▁books	-11.5486
▁bulk	-11.5486
▁intrinsically	-11.549
▁approval	-11.5491
fly	-11.5492
▁versa	-11.5502
▁basically	-11.5504
▁mit	-11.5513
rl	-11.5513
▁definite	-11.5519
▁surveyed	-11.5543
▁kaczmar	-11.5544
▁plurality	-11.5544
▁annealing	-11.5546
▁causality	-11.5546
▁makespan	-11.5546
▁accumulation	-11.5547
▁coreference	-11.5548
▁heap	-11.5559
▁bernoulli	-11.5559
▁permit	-11.5562
▁negatively	-11.5567
▁procedural	-11.5567
▁european	-11.5569
rigid	-11.5572
going	-11.5578
▁tied	-11.5586
computer	-11.5586
▁os	-11.56
▁spectra	-11.5604
▁defend	-11.5606
▁cooperate	-11.5618
▁isometry	-11.5622
▁rejection	-11.5623
▁wind	-11.5628
▁regional	-11.5631
▁experimented	-11.5636
▁tangent	-11.5638
overlapping	-11.564
▁oracles	-11.5645
differentiable	-11.5646
▁knows	-11.5651
▁regulation	-11.5652
▁creative	-11.5653
▁ascent	-11.5657
▁competitions	-11.5662
▁typed	-11.5662
▁carri	-11.5662
▁repetitive	-11.5667
▁neglect	-11.5669
▁artificially	-11.5669
▁spontaneous	-11.5671
▁owl	-11.5673
▁gas	-11.5674
▁svhn	-11.5677
ordered	-11.5681
▁labor	-11.5682
standard	-11.5684
▁unary	-11.5686
▁frontal	-11.569
▁escape	-11.569
▁inserted	-11.5693
▁lm	-11.5697
▁salesm	-11.5701
▁collectively	-11.5705
▁ibm	-11.5705
▁reproduc	-11.5706
▁conflicting	-11.5706
▁gauge	-11.5708
▁evolves	-11.5709
▁generations	-11.5712
shaped	-11.5719
▁boosted	-11.5722
▁odd	-11.5729
▁cityscapes	-11.5745
▁terminology	-11.5746
▁catastrophic	-11.5747
▁incurred	-11.5748
▁bigger	-11.5749
▁coalitions	-11.5756
▁organizational	-11.5758
▁accumulated	-11.5758
▁decoupled	-11.576
▁constituent	-11.5767
▁transcription	-11.5767
▁biometrics	-11.5769
▁chunks	-11.5775
▁probing	-11.578
▁fixation	-11.5782
▁disks	-11.5786
owing	-11.579
▁cc	-11.5791
▁living	-11.5798
▁pitch	-11.5798
▁memoryless	-11.5799
▁recordings	-11.5805
▁technological	-11.5808
▁zeta	-11.5813
▁connectionist	-11.5814
16	-11.5815
▁mined	-11.5817
▁lossy	-11.5819
▁coin	-11.5824
▁suppression	-11.5825
▁rcnn	-11.5825
▁speeding	-11.5826
▁grade	-11.5838
▁automat	-11.5846
▁lifting	-11.5852
context	-11.5861
▁bid	-11.5868
▁tri	-11.5869
▁visit	-11.5872
▁relaying	-11.5877
▁essence	-11.5882
▁enter	-11.5882
▁morphology	-11.5883
▁functionalities	-11.5883
ty	-11.5884
rcnn	-11.5885
▁ch	-11.5891
▁plate	-11.5897
▁house	-11.5899
▁comprised	-11.5899
annotated	-11.5904
▁envy	-11.5906
▁yang	-11.5906
▁your	-11.5907
▁invert	-11.591
▁smoothed	-11.5911
▁progression	-11.5911
▁displayed	-11.5919
▁backgrounds	-11.5931
▁beat	-11.5932
▁portions	-11.5936
▁arrange	-11.5939
sentence	-11.594
▁bypass	-11.5946
▁campaign	-11.5948
▁progressive	-11.5948
width	-11.5949
▁bottlenecks	-11.5951
▁bioinformatics	-11.5953
▁viability	-11.5959
▁sup	-11.5964
▁victim	-11.5964
▁interfer	-11.5965
ci	-11.597
▁multilevel	-11.5971
▁infers	-11.5971
▁saddle	-11.5973
▁institutions	-11.5974
▁naming	-11.5974
▁lin	-11.5977
▁initiated	-11.5978
pt	-11.5979
▁compromised	-11.5993
▁flying	-11.6006
generating	-11.601
▁crash	-11.601
▁undesirable	-11.6021
▁unexplored	-11.6024
ti	-11.6031
▁hops	-11.6032
▁64	-11.6032
▁young	-11.6035
▁concatenated	-11.6035
▁helping	-11.6036
▁ctr	-11.6039
▁offloading	-11.6041
▁tumor	-11.6047
▁covariate	-11.6047
▁wsd	-11.6048
▁copying	-11.6049
▁stretch	-11.605
criteria	-11.6053
▁forced	-11.6055
▁shading	-11.6064
▁motif	-11.6064
▁loads	-11.6074
day	-11.6081
▁monitors	-11.609
▁qoe	-11.6093
▁discussing	-11.6096
▁spike	-11.61
▁flooding	-11.6104
▁obviously	-11.6105
▁tagged	-11.6107
▁physiological	-11.6108
▁0.5	-11.6109
▁scripts	-11.6121
ie	-11.6123
▁proceeds	-11.6126
▁diagnostic	-11.613
many	-11.6133
▁sta	-11.6134
▁crossover	-11.6136
▁child	-11.6137
▁resolved	-11.6141
▁ab	-11.6143
analysis	-11.6146
▁suppress	-11.6161
▁seemingly	-11.6161
▁tractability	-11.6161
▁conll	-11.6164
▁excessive	-11.6166
▁periodically	-11.6177
▁refin	-11.6185
▁submission	-11.6189
▁genome	-11.619
im	-11.6198
▁ideally	-11.6198
▁mere	-11.6201
▁routines	-11.6202
▁lets	-11.6203
▁unifie	-11.6211
conditioned	-11.6222
▁exceeding	-11.6231
▁archives	-11.6232
▁homotopy	-11.6233
▁vanil	-11.6233
▁turk	-11.6233
parametrized	-11.6234
tracking	-11.6236
▁lab	-11.6237
▁feeding	-11.6239
▁participate	-11.6248
▁disadvantage	-11.6255
vehicle	-11.6258
▁cps	-11.6262
▁american	-11.6263
▁advancements	-11.6264
▁claimed	-11.6268
▁paraphrase	-11.6269
▁cone	-11.6269
▁monitored	-11.627
maximization	-11.6275
calculus	-11.628
▁subclass	-11.6282
▁replicas	-11.6287
this	-11.6287
▁cup	-11.6288
▁jump	-11.6288
▁owner	-11.6289
go	-11.6289
▁extractors	-11.6296
▁degrades	-11.6297
▁ho	-11.63
▁fingerprints	-11.6302
▁velocities	-11.6303
▁continuum	-11.6303
▁deeply	-11.6304
▁obey	-11.6304
▁mahalanobis	-11.6305
▁compromis	-11.6309
▁advertisers	-11.6317
▁authorship	-11.6327
▁adequately	-11.6332
▁sim	-11.6335
▁polytope	-11.6346
▁hole	-11.6348
▁albe	-11.6349
driving	-11.6349
▁conjugate	-11.635
▁polyhedra	-11.6353
▁fly	-11.6361
▁ps	-11.6364
▁weakness	-11.6368
▁notice	-11.6373
▁ablation	-11.6376
▁propagated	-11.6377
▁notorious	-11.6377
▁symmetries	-11.638
▁shall	-11.6382
▁letter	-11.6383
istic	-11.6384
▁verifier	-11.6387
▁fc	-11.639
structure	-11.639
▁comment	-11.639
▁ptas	-11.6391
▁bc	-11.6395
▁posture	-11.6402
▁title	-11.6404
▁itemsets	-11.6404
▁residuals	-11.6405
▁believed	-11.6407
▁crossings	-11.641
▁incur	-11.6418
▁wiki	-11.6419
▁cam	-11.6421
prone	-11.6422
▁2001	-11.6425
▁deviate	-11.6425
▁instrument	-11.6427
▁inferences	-11.6432
▁eigen	-11.6445
▁remedy	-11.6447
▁pulse	-11.645
▁pomdp	-11.6452
▁abundant	-11.6455
▁lives	-11.6459
▁carrying	-11.6466
▁judge	-11.6471
play	-11.6474
▁teach	-11.6475
▁ago	-11.6478
▁moved	-11.6479
▁subtasks	-11.6482
▁du	-11.6488
written	-11.6492
▁manipulations	-11.6508
▁reed	-11.6508
interoperability	-11.6514
code	-11.6515
▁penalties	-11.652
▁auditory	-11.6521
▁intriguing	-11.6521
▁disparate	-11.6522
▁qualities	-11.6528
▁fabric	-11.653
▁gcn	-11.653
▁homomorphic	-11.653
▁dtw	-11.6532
▁anisotropic	-11.6534
▁stems	-11.6543
▁hiding	-11.6545
▁exchanged	-11.6547
▁gateway	-11.6548
▁instantiation	-11.655
▁exchanges	-11.6551
knowledge	-11.6555
▁ci	-11.6559
▁lip	-11.6559
▁1.5	-11.6564
▁highlighted	-11.6568
made	-11.6571
▁pu	-11.6572
▁irl	-11.6589
▁affective	-11.6591
▁securely	-11.6594
metric	-11.6594
▁abstractive	-11.6598
▁loosely	-11.6601
▁elicit	-11.6611
30	-11.6614
▁steer	-11.6617
▁renewable	-11.6626
ri	-11.6627
▁opponent	-11.6628
▁perceive	-11.6634
users	-11.6637
▁participant	-11.664
control	-11.664
bility	-11.664
▁healthy	-11.6641
▁pix	-11.6644
item	-11.6652
▁op	-11.6653
▁ann	-11.666
ities	-11.6664
▁filtered	-11.6665
▁humming	-11.6668
▁xeon	-11.6668
▁neuroscience	-11.6668
▁discontinuous	-11.667
▁federated	-11.667
▁lms	-11.6671
▁multitude	-11.6672
right	-11.6674
▁proactive	-11.6679
points	-11.6679
▁tensorflow	-11.668
▁dates	-11.668
▁combat	-11.6681
▁roi	-11.6681
▁valuation	-11.6685
▁poi	-11.669
ray	-11.6692
▁solar	-11.6693
▁mec	-11.6696
▁5.	-11.6703
▁regressor	-11.6704
na	-11.6704
▁snippet	-11.6706
▁land	-11.6716
distinguishable	-11.6723
▁listen	-11.6728
▁proposition	-11.6729
▁snapshots	-11.6733
▁foster	-11.6739
▁reddit	-11.6743
▁rouge	-11.6743
▁subtraction	-11.6745
▁ldpc	-11.6747
▁conversely	-11.6751
▁selectivity	-11.6751
▁longest	-11.6754
▁came	-11.676
▁motivating	-11.6768
▁checkpointing	-11.6769
▁spans	-11.6772
▁pretraining	-11.6779
▁neighbourhood	-11.6779
▁tagger	-11.678
▁fcns	-11.678
▁song	-11.6784
human	-11.679
▁shaping	-11.6796
▁blend	-11.6802
▁accessed	-11.6803
base	-11.6804
▁purchase	-11.6807
nc	-11.6807
▁observ	-11.6808
bounded	-11.6808
▁6-	-11.6809
▁fr	-11.6811
▁exhibited	-11.6811
▁mature	-11.6813
assisted	-11.6817
▁transductive	-11.6818
▁stoc	-11.6818
▁versatile	-11.6818
▁tandem	-11.6819
▁fp	-11.6823
▁academia	-11.6823
▁datalog	-11.6834
▁rings	-11.6838
▁curved	-11.6838
▁ac	-11.6838
▁wants	-11.6839
ated	-11.6841
matrix	-11.6846
▁authorization	-11.6849
▁shortcoming	-11.6849
▁converse	-11.685
cluster	-11.6853
▁modal	-11.6853
▁conv	-11.6856
▁continued	-11.6859
▁periodical	-11.6868
▁formalisms	-11.6872
▁0,1	-11.6874
▁appearances	-11.6885
▁sink	-11.6885
▁anatomical	-11.6888
▁spanish	-11.69
▁multiplications	-11.6903
▁multiobjective	-11.6904
▁sorted	-11.6905
▁nice	-11.6906
▁scheduled	-11.6906
▁resistant	-11.6914
▁showcase	-11.6915
▁merits	-11.6916
▁cl	-11.6916
▁roadmap	-11.6917
▁ecosystem	-11.6923
▁reordering	-11.6923
▁eigenvector	-11.6923
▁trick	-11.6924
▁500	-11.6925
▁artifact	-11.6926
▁waste	-11.6926
▁resistance	-11.6942
▁ssc	-11.6946
▁taxi	-11.6953
▁enforced	-11.6954
relational	-11.6956
grid	-11.6965
▁netflix	-11.697
▁autonomy	-11.697
▁verbs	-11.6971
▁prevalence	-11.6972
▁losing	-11.6976
▁decoupling	-11.6978
▁leak	-11.698
▁hitting	-11.6988
▁picking	-11.6989
▁parent	-11.6993
▁concave	-11.6995
▁wheel	-11.6999
▁artefacts	-11.6999
▁recursion	-11.7001
▁readings	-11.7002
▁hu	-11.7003
▁subsequence	-11.7006
▁executable	-11.7009
▁accelerators	-11.701
▁container	-11.701
pair	-11.7011
▁genes	-11.7017
▁transferable	-11.7018
▁clause	-11.7021
▁outlined	-11.7025
20	-11.7026
▁exp	-11.7027
▁regulariz	-11.7034
▁infrared	-11.7034
▁signaling	-11.7038
anonymity	-11.7044
▁tendency	-11.7047
▁unobserved	-11.7047
▁executes	-11.7052
▁bags	-11.7055
▁spotting	-11.7058
▁grant	-11.7061
▁associat	-11.7062
▁unrealistic	-11.7062
▁figures	-11.7064
▁timed	-11.7066
▁mouse	-11.7067
▁supplement	-11.7068
▁instantiate	-11.707
▁proteins	-11.7072
▁polarization	-11.7078
▁balls	-11.7082
▁dag	-11.7082
▁beacon	-11.7084
▁erd	-11.7084
▁critic	-11.7085
▁slowly	-11.7086
▁programmable	-11.7088
▁wsns	-11.7089
▁sentiments	-11.7092
effective	-11.7094
▁compliance	-11.7098
▁dbms	-11.7105
▁undergo	-11.7111
▁checked	-11.7121
▁estimations	-11.7125
▁inconsistencies	-11.7126
▁queried	-11.7128
▁instrumentation	-11.7129
▁bgp	-11.7142
▁saturation	-11.7143
▁factorized	-11.7145
▁mlp	-11.7147
▁permanent	-11.7148
dimension	-11.7155
▁dealt	-11.7157
▁violation	-11.7161
sense	-11.7165
polynomial	-11.7166
▁sh	-11.7167
▁massively	-11.7169
▁animal	-11.7169
▁crowded	-11.717
▁discusse	-11.7171
▁reversible	-11.7172
▁rectangles	-11.7173
location	-11.7177
▁submissions	-11.7178
aligned	-11.7178
▁el	-11.7182
▁backtracking	-11.7187
2015	-11.7188
validation	-11.7192
▁counters	-11.7193
▁uni	-11.7195
▁breadth	-11.7202
▁openflow	-11.7211
▁exclusive	-11.7212
▁afterwards	-11.7212
▁subsampling	-11.7213
▁te	-11.7223
▁attained	-11.7225
▁2.0	-11.7227
▁friction	-11.7233
▁simulators	-11.7237
▁hi	-11.7238
▁revision	-11.724
▁culture	-11.7242
▁blogs	-11.7246
▁cat	-11.7252
▁aging	-11.7253
▁facets	-11.7264
▁positively	-11.7265
▁border	-11.7273
slam	-11.7273
▁chi	-11.7278
▁uml	-11.728
determined	-11.7281
▁elicitation	-11.7282
▁fool	-11.7282
▁dissimilar	-11.7282
▁tomography	-11.7282
hardness	-11.7287
▁prevention	-11.7292
interference	-11.7295
▁struggle	-11.7302
▁aggressive	-11.7307
area	-11.7307
▁courses	-11.7309
▁abuse	-11.7313
▁mav	-11.7314
▁reception	-11.7316
▁polynomially	-11.7319
▁compressing	-11.7324
▁topical	-11.7324
▁delivered	-11.7325
▁joining	-11.7326
▁port	-11.7327
▁parallelize	-11.734
▁sell	-11.7343
▁validat	-11.7346
▁reid	-11.7352
▁desire	-11.7352
▁sleep	-11.7354
nondeterministic	-11.7354
▁kg	-11.7354
▁succinct	-11.7355
▁niching	-11.7362
▁unpredictable	-11.7364
▁fuel	-11.7364
▁portability	-11.7364
▁flux	-11.7367
most	-11.7372
cell	-11.7378
▁iterated	-11.7381
▁tighter	-11.7382
boost	-11.7383
▁earth	-11.7385
▁naturalness	-11.7388
▁multilinear	-11.739
▁quadrotor	-11.7394
▁writes	-11.7395
▁visualisation	-11.7395
▁decouple	-11.7399
▁identically	-11.7401
projection	-11.7403
▁universe	-11.7405
▁guard	-11.7405
▁assistant	-11.7406
▁amplitude	-11.7409
▁determinant	-11.7409
▁mapper	-11.7413
ora	-11.7417
▁photograph	-11.742
▁dpm	-11.7421
▁usable	-11.743
▁cardi	-11.7431
▁voxels	-11.7431
latency	-11.7432
▁dialogues	-11.7433
▁women	-11.744
▁credibility	-11.744
▁clarify	-11.7441
connectivity	-11.7441
▁microscopy	-11.7442
▁curse	-11.7444
place	-11.7445
check	-11.7457
▁originate	-11.7459
▁fitted	-11.747
▁advertisement	-11.7475
▁noiseless	-11.7477
14	-11.748
▁sybil	-11.7485
▁botnet	-11.7485
ding	-11.7488
▁drops	-11.7493
▁focal	-11.7493
▁instruments	-11.7495
organizing	-11.7503
part	-11.7504
▁manifest	-11.7505
▁door	-11.7512
ffects	-11.7516
▁proliferation	-11.7521
▁radiation	-11.7521
▁sir	-11.7526
▁men	-11.7527
▁designer	-11.753
▁rbms	-11.7532
▁influenc	-11.7533
▁provers	-11.7533
▁cqa	-11.7534
▁mip	-11.7535
▁discretized	-11.7537
▁scanned	-11.7541
▁assertions	-11.7542
▁cited	-11.7542
▁multihop	-11.755
▁narrative	-11.7558
▁45	-11.7566
▁dog	-11.7566
▁win	-11.7567
▁predictability	-11.757
▁scanner	-11.7579
▁pave	-11.7596
correcting	-11.7601
▁brute	-11.7603
▁infogan	-11.7603
▁isabelle	-11.7603
cy	-11.7604
▁transparency	-11.7606
▁minority	-11.7607
▁proceed	-11.7608
▁bilateral	-11.7608
▁icn	-11.761
▁forcing	-11.761
▁distribut	-11.7612
▁clues	-11.7615
▁interactively	-11.7616
train	-11.7619
stabilizing	-11.762
100	-11.7623
▁nominal	-11.7644
▁contraction	-11.7645
efficiency	-11.7648
▁corner	-11.7649
▁committee	-11.7654
▁hazard	-11.7655
▁disaster	-11.7655
variable	-11.7658
▁formulat	-11.7665
▁payments	-11.7666
query	-11.7669
▁ingredients	-11.767
▁asymptotics	-11.7672
▁smoothly	-11.7672
▁deduce	-11.7675
▁decreased	-11.7679
▁surely	-11.7688
▁restart	-11.7693
▁euler	-11.7696
▁reproduction	-11.7698
▁aloha	-11.7699
▁mark	-11.7701
▁initiate	-11.7702
▁epistemic	-11.7702
▁cr	-11.7711
▁dozen	-11.7717
group	-11.7717
▁schemas	-11.772
▁codebook	-11.7721
existing	-11.7722
▁publisher	-11.7727
best	-11.7735
▁animals	-11.7736
▁bisimulation	-11.7738
ai	-11.7743
▁navigat	-11.7756
▁impossibility	-11.7767
▁queuing	-11.777
▁sonar	-11.777
▁blood	-11.7773
▁arabic	-11.7774
▁broken	-11.7775
▁lyapunov	-11.7778
▁canada	-11.7782
▁dominance	-11.7786
▁reachable	-11.7787
▁locks	-11.7793
join	-11.7798
▁cm	-11.7799
lying	-11.7801
▁ruby	-11.7805
▁imputation	-11.7806
▁96	-11.7808
▁subgradient	-11.7808
ss	-11.7816
▁intentions	-11.7837
▁lose	-11.7841
▁cartesian	-11.785
▁unsuitable	-11.7851
▁multiplicity	-11.7854
▁98	-11.7855
▁degenerate	-11.7856
▁dfa	-11.7857
▁sdca	-11.7858
▁soundness	-11.7864
▁unfolding	-11.7864
▁meters	-11.7868
▁observability	-11.7868
▁soc	-11.7873
▁neglected	-11.7877
server	-11.7885
▁exciting	-11.7887
▁pruned	-11.789
ap	-11.7893
▁payload	-11.7893
▁resampling	-11.7898
▁coq	-11.7899
▁conformal	-11.7902
▁thin	-11.7905
▁grading	-11.791
▁stabilize	-11.7912
▁dilate	-11.7917
▁nouns	-11.7918
▁mpc	-11.7927
▁excess	-11.7929
▁painting	-11.7934
▁rip	-11.7935
▁cortex	-11.7935
▁denial	-11.7936
▁polylogarithmic	-11.7936
▁stacks	-11.7939
▁deepwalk	-11.7941
▁thereof	-11.7942
▁strongest	-11.7942
▁disconnected	-11.7942
▁integrality	-11.7943
▁ndn	-11.7945
▁ergodic	-11.7958
▁ke	-11.7961
▁sketching	-11.797
classification	-11.7973
▁illustrat	-11.7974
▁rolling	-11.7977
relevant	-11.7978
▁distill	-11.7984
▁subsequences	-11.7986
▁bear	-11.7992
▁pan	-11.7992
▁disambiguate	-11.7994
▁wsn	-11.7996
▁justify	-11.7997
▁encodings	-11.801
▁sl	-11.8016
▁discipline	-11.8017
▁neighbours	-11.8017
▁reusable	-11.8019
▁suitably	-11.802
▁petri	-11.8023
▁priorities	-11.8023
▁va	-11.8026
▁unpair	-11.8028
▁pso	-11.8028
▁sch	-11.8029
if	-11.8032
index	-11.8033
values	-11.8036
▁kd	-11.8045
▁country	-11.8046
▁olap	-11.8046
▁convergent	-11.8048
▁emulate	-11.805
▁summarizing	-11.8052
ically	-11.8055
▁marriage	-11.8057
▁frontier	-11.8058
distributed	-11.8059
▁horn	-11.8059
15	-11.8062
▁decoded	-11.8063
▁stratifi	-11.8065
▁trec	-11.8067
▁graduate	-11.8069
dmm	-11.8077
sm	-11.8078
▁wu	-11.808
▁ev	-11.8086
▁ec	-11.8088
normalized	-11.8092
▁forum	-11.8093
▁guides	-11.8097
▁deletions	-11.8105
▁suspicious	-11.8106
▁york	-11.8106
▁backhaul	-11.8109
▁unlimited	-11.8109
▁nesterov	-11.811
▁optimistic	-11.8113
▁shifted	-11.8115
▁vlad	-11.8121
▁explorat	-11.8127
▁consumed	-11.8134
▁propagat	-11.8142
▁stabilization	-11.8144
▁disturbances	-11.8145
▁epsilon	-11.8146
▁wrapper	-11.8146
▁repetition	-11.8148
▁hough	-11.8159
▁destinations	-11.816
▁feeds	-11.8167
▁logn	-11.8169
▁registered	-11.8169
▁qui	-11.817
▁inc	-11.817
▁exercise	-11.8172
▁isotropic	-11.8172
▁floor	-11.8178
▁paradox	-11.8185
▁inconsistency	-11.8185
▁expos	-11.8186
▁sca	-11.8187
▁zhou	-11.819
▁vocabularies	-11.8191
▁inevitably	-11.8191
▁abusive	-11.8192
▁compactly	-11.8193
▁combin	-11.8195
▁stride	-11.8197
▁pleth	-11.8199
carlo	-11.8209
▁chaotic	-11.8215
▁passengers	-11.8216
wild	-11.8217
▁evs	-11.8218
▁parallelized	-11.822
▁dispersion	-11.8221
plus	-11.8222
▁crawling	-11.8225
king	-11.8226
▁locking	-11.8229
▁corrections	-11.8232
▁dilation	-11.8233
▁accelerator	-11.824
▁swap	-11.8241
▁colorization	-11.8245
▁surge	-11.8249
▁nothing	-11.8254
▁provision	-11.8258
▁mst	-11.8259
choice	-11.8261
▁owners	-11.8264
▁resolv	-11.8271
▁ran	-11.8276
▁innovations	-11.8278
▁begun	-11.8279
▁kolmogorov	-11.8279
▁audit	-11.8282
▁surf	-11.829
▁installed	-11.8291
similarity	-11.8294
▁blurred	-11.8295
▁dead	-11.8296
▁penalize	-11.831
▁finitely	-11.8311
▁debate	-11.8313
▁tabular	-11.8313
▁subgroups	-11.8314
▁friend	-11.8319
▁dcf	-11.8321
▁multiprocessor	-11.8327
▁dating	-11.8327
▁botnets	-11.8327
▁tap	-11.8332
▁hair	-11.8334
▁visits	-11.8336
▁transitive	-11.8339
sed	-11.8341
divergence	-11.8344
sp	-11.8345
▁perceptions	-11.8345
▁mouth	-11.835
▁socio	-11.8352
▁opt	-11.8354
▁26	-11.8362
▁kullback	-11.8366
▁dangerous	-11.8366
ak	-11.8366
▁broadband	-11.8366
▁linkage	-11.8367
▁delaunay	-11.8367
▁commonsense	-11.8369
▁am	-11.8372
▁bridges	-11.8377
rc	-11.8379
▁subsume	-11.8383
▁homography	-11.8386
region	-11.8387
ism	-11.8387
▁brand	-11.8401
son	-11.8404
▁tf	-11.8405
▁tie	-11.8406
▁numeric	-11.8407
▁attitude	-11.8408
▁pertain	-11.8408
▁upload	-11.8413
ur	-11.8415
▁codeword	-11.8419
2017	-11.8421
▁opening	-11.8428
▁monotonic	-11.8428
ex	-11.843
▁talk	-11.8437
▁equivariant	-11.8437
▁publishing	-11.8438
▁attentive	-11.8439
▁arriv	-11.8443
▁manipulators	-11.8446
▁folding	-11.8452
ant	-11.8453
▁har	-11.8453
▁rayleigh	-11.8454
▁geometries	-11.8454
▁graphic	-11.8461
▁answered	-11.8463
▁john	-11.8464
▁teachers	-11.8468
▁advantageous	-11.8472
paths	-11.8473
▁comparatively	-11.8481
▁corrected	-11.8481
▁mitigat	-11.8507
window	-11.8514
▁ccn	-11.8519
▁ls	-11.8519
fcn	-11.852
▁amenab	-11.852
attribute	-11.8521
▁aesthetic	-11.8524
si	-11.8536
▁les	-11.8537
▁inherit	-11.8541
▁cumbersome	-11.8543
▁microscopic	-11.8545
▁illustrative	-11.8547
▁prototypical	-11.8547
▁clip	-11.8548
▁submodularity	-11.8554
▁accompany	-11.8554
▁dbscan	-11.8555
▁misleading	-11.8556
▁discarded	-11.8557
▁sustain	-11.8558
▁1999	-11.8564
▁los	-11.8565
▁maxima	-11.8568
vocabulary	-11.8569
▁meant	-11.8571
▁encounter	-11.8576
deep	-11.8578
▁affordances	-11.8582
▁preferential	-11.8586
▁synonym	-11.8587
▁turning	-11.8587
mm	-11.8598
▁tension	-11.8613
▁strokes	-11.8614
▁simd	-11.8614
random	-11.8614
▁closing	-11.8615
▁duplicate	-11.8623
looked	-11.8626
▁organizing	-11.8626
▁jaccard	-11.8633
▁ineffective	-11.8634
▁empower	-11.8635
▁duplication	-11.8638
▁everywhere	-11.8639
▁perimeter	-11.8639
▁brightness	-11.8639
▁sure	-11.8649
answer	-11.8653
▁pop	-11.8655
▁honest	-11.8655
▁smells	-11.8658
▁sgx	-11.8661
▁1995	-11.8661
▁whom	-11.8664
▁po	-11.8664
▁specificity	-11.8665
▁cascading	-11.8665
▁supposed	-11.8666
▁episodes	-11.8669
information	-11.867
▁polar	-11.8672
▁ros	-11.8672
▁catch	-11.8674
▁requested	-11.8676
▁jacobian	-11.8678
▁shapley	-11.8679
▁genomic	-11.8682
▁geometrically	-11.8684
▁arcs	-11.8684
▁talking	-11.8685
▁optimise	-11.8687
bi	-11.8687
io	-11.8688
▁regressors	-11.8689
▁surroundings	-11.8702
▁zone	-11.8705
▁von	-11.8707
capacity	-11.871
▁multiplexing	-11.8711
▁genre	-11.8713
▁achievement	-11.8716
▁abrupt	-11.8716
▁longitudinal	-11.8718
▁han	-11.8718
2014	-11.8718
▁opaque	-11.8724
▁decentralised	-11.8725
▁blurry	-11.8726
▁moduli	-11.8727
▁sides	-11.8729
▁ownership	-11.873
land	-11.8735
▁rc	-11.8738
▁lrr	-11.8743
▁qubits	-11.8744
▁triangular	-11.8751
▁privileged	-11.8754
▁emerges	-11.8756
▁6.	-11.8758
▁substitute	-11.8758
▁epochs	-11.8762
▁denot	-11.8763
▁torus	-11.8768
▁dilemma	-11.8769
▁intersect	-11.877
ard	-11.8778
▁carries	-11.8779
▁85	-11.8782
▁heads	-11.8784
▁fixations	-11.8787
▁gui	-11.8787
processor	-11.8793
▁accompanie	-11.8795
▁grades	-11.8796
▁pir	-11.88
▁registers	-11.8803
▁triangles	-11.8804
▁observers	-11.8807
ivariate	-11.8811
▁mas	-11.8813
are	-11.8818
turn	-11.8819
▁2600	-11.8821
▁csps	-11.8821
▁scattered	-11.8825
▁crowds	-11.8826
▁dbpedia	-11.8826
▁replicate	-11.8827
svm	-11.8827
▁competitors	-11.8827
dos	-11.8828
▁amp	-11.8829
▁sampler	-11.8829
rt	-11.883
▁tile	-11.8833
▁huang	-11.8834
▁begins	-11.8837
▁binding	-11.8839
▁methodological	-11.8839
wave	-11.884
▁worked	-11.8842
sh	-11.8845
▁exhaustively	-11.8846
ps	-11.8849
▁breaks	-11.885
▁generalised	-11.8852
▁safely	-11.8861
▁hub	-11.8867
▁hyperplane	-11.8867
cnns	-11.8869
▁averaged	-11.8872
▁wlan	-11.8874
mail	-11.8877
▁centroid	-11.8878
▁rights	-11.8896
▁128	-11.8896
fr	-11.8897
▁simplex	-11.8898
▁contributing	-11.8903
▁deform	-11.8906
ls	-11.8907
▁bluetooth	-11.8908
▁icdar	-11.8908
▁intensities	-11.8911
device	-11.8913
▁lfw	-11.8913
▁stimulus	-11.8915
▁inventory	-11.8915
ram	-11.8919
▁entails	-11.8929
ba	-11.8935
ended	-11.8944
▁99	-11.8948
▁glass	-11.8949
▁geolocation	-11.895
▁mn	-11.8951
▁recommending	-11.8954
curring	-11.8959
threaded	-11.8959
duplex	-11.8961
▁warehouse	-11.8962
▁universally	-11.8974
▁codewords	-11.8975
▁russian	-11.8975
np	-11.8983
▁pursue	-11.8986
▁functionals	-11.8987
▁departure	-11.8987
▁succeeds	-11.8992
▁attacking	-11.8995
▁finish	-11.8996
▁assessments	-11.8998
▁managers	-11.8998
▁workspace	-11.9001
▁cd	-11.9001
▁automotive	-11.9002
▁binarization	-11.9002
▁combinatorics	-11.9004
▁sarcasm	-11.9004
▁multinomial	-11.9004
▁tropical	-11.9006
▁entanglement	-11.9006
▁economy	-11.9006
▁preferable	-11.9008
▁johnson	-11.9009
▁gallery	-11.901
▁qr	-11.901
▁compliant	-11.9014
▁cake	-11.9015
▁minimally	-11.9018
▁nlg	-11.9019
▁thompson	-11.902
arts	-11.902
▁anticipate	-11.9022
▁multiplex	-11.9027
▁geographically	-11.903
▁400	-11.9035
▁discounted	-11.9038
▁penalized	-11.9041
proof	-11.9042
▁remark	-11.9043
▁cancellation	-11.9047
▁endow	-11.9049
▁portrait	-11.905
▁accelerometer	-11.905
french	-11.9052
▁silhouettes	-11.9052
▁silhouette	-11.9054
▁pyramids	-11.9055
▁rectangle	-11.9058
▁titles	-11.9063
▁attachment	-11.9069
▁optic	-11.9071
▁premise	-11.9073
▁33	-11.9078
▁walls	-11.9094
founded	-11.9094
▁burst	-11.9095
▁exit	-11.9095
▁churn	-11.9096
▁deceptive	-11.9098
▁traceability	-11.91
▁shop	-11.9101
▁rotational	-11.9105
▁overwhelming	-11.9113
▁realism	-11.9115
▁distorted	-11.9115
▁vectorization	-11.9116
▁clicks	-11.9123
▁headlines	-11.9125
2013	-11.9129
typed	-11.9129
▁discriminating	-11.913
▁memes	-11.9131
▁synthetically	-11.9131
▁chunking	-11.9132
▁yu	-11.9133
▁guess	-11.9135
▁month	-11.9136
▁mavs	-11.9138
dof	-11.9139
▁vc	-11.9139
▁branes	-11.9141
ling	-11.9141
▁exponents	-11.9141
▁edition	-11.9144
▁certificate	-11.9148
▁scanners	-11.9152
▁marker	-11.9152
▁fixes	-11.9159
▁multiply	-11.916
▁epipol	-11.9161
checking	-11.9164
▁minimizer	-11.9174
▁quantile	-11.9175
▁interpolat	-11.9176
▁parallelizable	-11.9192
▁matlab	-11.9193
▁discontinuities	-11.9194
▁crop	-11.9195
▁containment	-11.9195
▁proxies	-11.9196
▁doubly	-11.9196
▁indirectly	-11.9205
▁admissible	-11.9207
▁agile	-11.921
▁neuro	-11.9214
▁streaks	-11.9219
▁activated	-11.9219
▁unconditional	-11.9224
▁metaboli	-11.9226
▁biologically	-11.9233
▁trojan	-11.9236
▁weeks	-11.9238
▁reformulation	-11.9241
▁disorder	-11.925
▁cleaning	-11.9255
looking	-11.9265
▁approached	-11.928
establishes	-11.9285
▁invalid	-11.9287
▁medicine	-11.929
▁ultrasound	-11.9292
▁amortized	-11.9292
▁transliteration	-11.9292
▁ends	-11.9296
▁exchang	-11.9302
idf	-11.9306
▁keyboard	-11.9307
▁schedulers	-11.931
▁interview	-11.9311
▁caffe	-11.9312
▁sus	-11.9317
▁printed	-11.9319
▁overlaps	-11.9321
▁logo	-11.9327
▁31	-11.933
▁spanners	-11.9337
▁afford	-11.9337
▁superposition	-11.9338
▁regards	-11.9342
▁linguistics	-11.9348
▁optimised	-11.9349
▁aggregator	-11.9349
▁depths	-11.9352
▁anchors	-11.9358
newton	-11.9366
▁payoffs	-11.9372
short	-11.9372
▁script	-11.9373
▁suffice	-11.9375
chain	-11.9377
sa	-11.9377
▁interpreter	-11.9381
▁liveness	-11.939
▁chemistry	-11.9394
▁broadcasts	-11.9397
category	-11.9405
▁kbs	-11.9406
▁byte	-11.9409
with	-11.9413
▁xu	-11.9415
▁cv	-11.9417
▁dct	-11.942
▁dominate	-11.9422
▁lay	-11.9426
▁cons	-11.9427
▁propagates	-11.9428
force	-11.943
▁orchestration	-11.9431
▁tiles	-11.9433
▁adversarially	-11.9437
robust	-11.9443
concave	-11.9447
▁substitution	-11.9449
▁mentioning	-11.945
▁tube	-11.9458
▁osn	-11.9459
▁repairs	-11.9465
turned	-11.9468
▁forensics	-11.9469
▁feel	-11.9473
automatic	-11.9474
herefore	-11.9481
▁greedily	-11.9483
▁kronecker	-11.9483
▁evader	-11.9492
asymptotic	-11.9494
▁rectified	-11.95
▁1998	-11.95
▁dropping	-11.9502
▁syntactically	-11.9503
▁genus	-11.9506
▁measurable	-11.9507
problems	-11.9508
▁65	-11.9513
sc	-11.9519
▁pushed	-11.9521
▁ahead	-11.9529
▁inadequate	-11.9533
▁breakthroughs	-11.9534
▁metaheuristic	-11.9535
▁slotted	-11.9539
distortion	-11.9544
▁markovian	-11.9551
redundant	-11.9551
▁dht	-11.9551
social	-11.9554
▁marking	-11.9555
shift	-11.956
▁3.	-11.9561
security	-11.957
selection	-11.9571
▁operated	-11.958
▁soccer	-11.9581
▁shrinkage	-11.9582
▁conjunctive	-11.9582
▁brown	-11.9583
▁squad	-11.9585
▁imprecise	-11.9585
▁fmri	-11.9587
▁predetermined	-11.9587
▁precoding	-11.9587
▁phi	-11.9589
▁maintainability	-11.959
▁practicality	-11.9601
▁encrypt	-11.9601
▁gram	-11.9603
formed	-11.9604
▁tdma	-11.9607
▁prize	-11.9608
▁justified	-11.9615
▁vendors	-11.9616
▁meter	-11.962
▁pathways	-11.962
▁lateral	-11.9622
▁lora	-11.9624
▁nist	-11.9624
▁loose	-11.9629
▁prob	-11.9633
ii	-11.9633
▁infected	-11.9633
▁shearlet	-11.9635
▁fractal	-11.9638
▁haze	-11.9639
▁investment	-11.9644
▁positional	-11.965
▁commitment	-11.9651
▁html	-11.9651
faceted	-11.9654
▁strip	-11.9657
ist	-11.9663
▁cognition	-11.9667
▁infinitely	-11.967
▁unusual	-11.9674
▁forecasts	-11.9676
▁seldom	-11.9681
solving	-11.9682
▁unsatisfactory	-11.9682
▁featur	-11.9683
▁yolov	-11.9683
▁misclassify	-11.9684
▁plants	-11.9685
▁ter	-11.9685
▁sales	-11.9686
eye	-11.9686
▁opacity	-11.9688
▁underground	-11.9688
▁wsa	-11.9689
▁wealth	-11.9689
▁gravity	-11.969
▁china	-11.97
▁perceptrons	-11.9701
▁360	-11.9701
▁symplectic	-11.9705
inspire	-11.9707
▁fpgas	-11.9708
▁triggered	-11.9708
▁herein	-11.9716
mentioned	-11.9716
sourced	-11.9717
consistency	-11.9718
▁advocate	-11.9719
▁unbalance	-11.9721
▁hdr	-11.9722
▁authenticated	-11.9725
▁pen	-11.9727
▁cas	-11.973
▁permission	-11.973
▁attenuation	-11.9732
▁sg	-11.9736
▁spreadsheet	-11.9736
▁92	-11.9737
▁counterfactual	-11.9738
▁parametrization	-11.9738
▁stylization	-11.9739
▁printing	-11.974
▁disagreement	-11.974
▁fleet	-11.9741
▁judgment	-11.9741
▁isomorphism	-11.9743
▁disjuncti	-11.9745
▁97	-11.9748
normal	-11.9749
▁identifier	-11.9753
how	-11.9754
▁beca	-11.9761
▁hz	-11.9762
▁exceptional	-11.9769
mac	-11.9771
▁mail	-11.9774
▁minimise	-11.9777
▁harmful	-11.9783
▁occurred	-11.9784
▁bloom	-11.9786
low	-11.9786
lin	-11.9787
▁lifelong	-11.9788
price	-11.9788
per	-11.9798
▁moderately	-11.9802
2016	-11.9804
▁avenues	-11.9807
▁alarm	-11.9817
▁enumerate	-11.9822
▁partners	-11.9826
▁rationale	-11.9828
▁conform	-11.9829
▁pupil	-11.9829
▁occupied	-11.9829
▁twofold	-11.9831
pose	-11.9833
▁likewise	-11.9834
▁anonymization	-11.9835
▁retinal	-11.9835
▁downloading	-11.9836
encodes	-11.9837
▁breakthrough	-11.9839
▁infection	-11.9844
▁spik	-11.9845
▁eavesdropper	-11.9847
▁judges	-11.9847
function	-11.9848
▁cutoff	-11.985
▁routine	-11.9851
version	-11.9854
▁assets	-11.9854
▁averages	-11.9857
▁lift	-11.9859
▁disturbance	-11.9864
cycle	-11.9869
▁sellers	-11.9878
▁paragraphs	-11.988
▁quotient	-11.9885
▁philosophy	-11.9885
▁dof	-11.9886
▁adaption	-11.9887
▁polyphon	-11.9891
▁ekf	-11.9894
▁ghz	-11.9895
held	-11.9896
▁zhu	-11.9897
▁oscillator	-11.9898
▁shell	-11.9899
▁apparently	-11.9901
crf	-11.9901
▁injected	-11.9905
stable	-11.9907
▁respects	-11.9908
systems	-11.9914
▁colored	-11.9914
balancing	-11.9919
▁maximise	-11.9922
▁dcgan	-11.9922
▁keyframes	-11.9925
▁markings	-11.9932
▁linearization	-11.9933
▁stem	-11.9934
▁rumour	-11.9941
▁advancement	-11.9942
rf	-11.9949
▁ve	-11.9949
tic	-11.9957
▁noc	-11.9957
tagged	-11.9965
sky	-11.9966
run	-11.9971
▁latin	-11.9977
▁thinking	-11.9979
square	-11.9981
▁shake	-11.9985
▁debt	-11.9986
▁ethereum	-11.9988
▁deception	-11.9988
▁prioritization	-11.9988
▁firm	-11.999
mb	-11.9994
▁mod	-11.9998
▁blockchains	-11.9999
▁normative	-12.0002
▁releas	-12.0002
ran	-12.0003
▁controllable	-12.0006
branch	-12.0011
▁shadows	-12.0011
▁tactics	-12.0014
▁reply	-12.0021
▁ocean	-12.0021
▁progresses	-12.0022
▁cop	-12.0023
response	-12.0026
svd	-12.0028
▁translat	-12.0034
▁suffices	-12.0034
gpu	-12.0035
▁configured	-12.0037
▁certificates	-12.0038
▁attitudes	-12.0042
▁synonyms	-12.0046
▁strive	-12.0048
taking	-12.005
▁km	-12.005
▁impulse	-12.005
▁department	-12.0053
▁pursuer	-12.0053
characterisation	-12.0058
▁assert	-12.0062
▁discriminators	-12.0062
▁hosted	-12.0066
▁swarms	-12.0075
aiming	-12.0079
▁eliminated	-12.0089
▁inevitable	-12.0092
▁disentanglement	-12.0092
▁celeba	-12.0092
▁microblogging	-12.0093
▁convenience	-12.0095
▁worldwide	-12.0096
▁commutative	-12.0097
▁1.2	-12.0098
▁gradual	-12.0098
ends	-12.0098
▁stops	-12.01
▁compressible	-12.0101
▁contributors	-12.0101
▁grayscale	-12.0102
top	-12.0102
▁bursty	-12.0102
vs	-12.0102
▁interconnection	-12.0104
▁spammers	-12.0105
ter	-12.0106
▁sharper	-12.0107
▁biclustering	-12.0108
rm	-12.0109
ative	-12.0116
▁notifications	-12.0117
▁school	-12.0125
▁inhomogeneous	-12.0126
compiled	-12.013
sets	-12.0133
▁clocks	-12.0136
▁finance	-12.0136
▁insurance	-12.0138
▁permissions	-12.0141
▁paintings	-12.0149
▁crowdsource	-12.0149
▁corners	-12.015
▁restaurant	-12.015
▁wa	-12.0153
▁adverse	-12.0153
▁hashtag	-12.0154
▁hits	-12.0155
▁reservation	-12.0156
▁assistants	-12.0159
▁missions	-12.0172
▁warning	-12.0173
ni	-12.0176
▁subtask	-12.0177
reeb	-12.018
▁holding	-12.0181
mi	-12.0185
breaking	-12.0189
confined	-12.019
▁authenticate	-12.0192
▁rumors	-12.0192
▁skelet	-12.0193
▁3.5	-12.0195
▁couples	-12.0196
▁csr	-12.0196
▁exemplars	-12.0197
▁drives	-12.0197
theory	-12.0197
▁anticipation	-12.0198
▁irrespective	-12.0198
▁mood	-12.0198
▁enumerat	-12.0199
▁trustworthiness	-12.0199
▁immersive	-12.02
▁misinformation	-12.02
▁perturb	-12.0203
▁engaging	-12.0205
▁messaging	-12.0207
▁coordinating	-12.0209
▁binomial	-12.0214
▁fe	-12.0216
▁chromatic	-12.0218
▁rejected	-12.0221
▁stat	-12.0221
lda	-12.0226
▁atrous	-12.0227
▁spd	-12.0229
▁successively	-12.023
▁ide	-12.023
▁artists	-12.0236
tasks	-12.0238
▁gf	-12.0239
finding	-12.0242
table	-12.0248
minimization	-12.0254
▁continuation	-12.0257
gradient	-12.0257
▁truck	-12.0257
▁hour	-12.0258
▁valued	-12.0259
▁comprise	-12.0262
▁7.	-12.0264
▁affordance	-12.0264
▁overload	-12.0265
▁corroborate	-12.0269
▁traverse	-12.0272
energy	-12.0278
▁exposes	-12.0279
▁insertions	-12.028
86	-12.0281
▁nl	-12.0289
▁bird	-12.0295
▁oppos	-12.0295
▁powered	-12.0295
▁passages	-12.0296
▁rescue	-12.0296
▁striking	-12.0301
▁confidential	-12.0303
▁versatility	-12.0303
▁flexibly	-12.0304
▁elasticity	-12.0305
▁recipe	-12.0306
▁0.	-12.0306
answering	-12.0308
▁segnet	-12.0309
▁photography	-12.031
▁milliseconds	-12.0311
▁bibliographic	-12.0311
differential	-12.0311
▁slip	-12.0312
▁conductance	-12.0313
▁retargeting	-12.0316
static	-12.0319
▁reflections	-12.0319
▁vibration	-12.0336
▁violated	-12.0337
▁abstracts	-12.0342
functional	-12.0344
▁tier	-12.0346
2.	-12.0348
▁powers	-12.0351
▁minibatch	-12.0356
▁borrow	-12.0362
▁prerequisite	-12.0364
▁envelope	-12.0369
▁viewer	-12.0369
▁hospital	-12.0372
▁lg	-12.0376
▁arrivals	-12.0377
▁maker	-12.0377
▁evident	-12.0378
▁metaphor	-12.0381
▁cha	-12.0387
▁suggestion	-12.0391
▁512	-12.0392
▁imitate	-12.04
▁lights	-12.0404
experts	-12.0404
▁engineer	-12.041
▁inferior	-12.0411
▁ideology	-12.0411
▁bytecode	-12.0411
▁energies	-12.0413
▁manhattan	-12.0413
▁equivariance	-12.0413
▁bridging	-12.0414
▁professionals	-12.0414
▁suites	-12.0415
▁habits	-12.0415
▁fifth	-12.0416
▁willing	-12.0416
▁shadowing	-12.0417
▁clothes	-12.042
▁shoulder	-12.0422
▁nonlinearity	-12.0424
▁openmp	-12.0426
▁packed	-12.0429
▁congested	-12.043
▁immune	-12.043
▁prepared	-12.0442
▁modifie	-12.0444
▁microservices	-12.0446
▁adjustments	-12.0449
▁literals	-12.0452
▁sweeping	-12.0456
filling	-12.0458
▁logarithm	-12.046
▁interfere	-12.0461
▁isolate	-12.0463
▁tabu	-12.0467
▁exercises	-12.0472
▁intend	-12.0476
back	-12.0478
shape	-12.0482
▁screening	-12.0482
event	-12.0491
▁chr	-12.0494
▁prioritize	-12.0503
▁expansions	-12.0505
german	-12.051
▁prepare	-12.0515
▁unsolved	-12.052
▁gauss	-12.0523
▁faithful	-12.0524
pr	-12.0528
▁bundles	-12.0528
▁reproducible	-12.0529
▁bisimilarity	-12.0531
▁miml	-12.0532
▁haptic	-12.0532
▁cubes	-12.0533
▁1.1	-12.0533
▁downsampling	-12.0534
▁duty	-12.0539
▁incompatible	-12.0542
▁fan	-12.0542
gdbf	-12.0542
no	-12.0543
ro	-12.0544
▁1970	-12.0545
▁blog	-12.0545
▁tracklets	-12.0552
▁fbm	-12.0567
▁frank	-12.0569
▁ocr	-12.0571
▁remotely	-12.0571
▁entangled	-12.0573
▁bfs	-12.0574
long	-12.0575
▁giant	-12.0576
▁failing	-12.0576
ge	-12.0581
▁complemented	-12.0585
▁novice	-12.0586
touch	-12.0587
▁advanc	-12.0587
▁blob	-12.059
mean	-12.0596
▁partner	-12.06
▁chunk	-12.0601
ad	-12.0602
▁flip	-12.0606
can	-12.0608
▁official	-12.0608
▁collaborate	-12.061
once	-12.0615
op	-12.062
so	-12.0621
▁explanat	-12.0621
▁ri	-12.0626
▁abduction	-12.063
▁paramount	-12.063
▁untrimmed	-12.063
▁undesired	-12.0632
▁absent	-12.0633
▁salience	-12.0633
▁anarchy	-12.0638
▁1996	-12.0638
▁stylistic	-12.0642
▁discoveries	-12.0643
▁populate	-12.0644
▁nonsmooth	-12.0644
▁infrequent	-12.0646
▁crashes	-12.0646
▁regularly	-12.0648
▁searched	-12.0649
▁cyclegan	-12.0653
design	-12.0657
▁wire	-12.0661
▁orb	-12.0662
▁researched	-12.0664
▁enhancements	-12.0666
segmentation	-12.0674
▁sky	-12.0675
▁loaded	-12.0675
▁spreadsheets	-12.068
▁ea	-12.068
▁writer	-12.0681
▁firms	-12.0681
▁rumours	-12.0682
located	-12.0682
unit	-12.0682
▁phonetic	-12.0688
▁companion	-12.0698
▁articulation	-12.0704
▁transit	-12.0709
euclidean	-12.071
optimized	-12.0712
supervision	-12.0718
contained	-12.0724
disjoint	-12.0724
ground	-12.0728
▁collaboratively	-12.0728
tolerance	-12.073
▁acid	-12.073
▁pcg	-12.0737
▁macroscopic	-12.0739
▁16-	-12.0739
▁ethernet	-12.0741
▁abductive	-12.0741
▁diversification	-12.0741
▁evacuation	-12.0741
▁steganography	-12.0743
▁enlarge	-12.0744
▁summation	-12.0746
▁collusion	-12.0748
▁remember	-12.0749
▁unitary	-12.0753
▁demonstrator	-12.0753
▁nonuniform	-12.0753
▁gupta	-12.0753
▁poisoning	-12.0754
▁surgery	-12.0755
▁irreducible	-12.0757
▁1997	-12.0759
▁gamma	-12.0762
▁cached	-12.077
▁useless	-12.0775
▁masking	-12.0776
▁machinery	-12.0779
▁trivially	-12.0781
▁timestamps	-12.0786
▁planted	-12.079
▁hinge	-12.0794
▁alarms	-12.0794
coding	-12.0796
▁150	-12.08
▁week	-12.0807
▁mutations	-12.0808
▁congruence	-12.0811
▁subgroup	-12.0812
▁stochastically	-12.0812
▁indication	-12.0813
▁propositions	-12.0814
▁necessitate	-12.0816
▁8-	-12.0818
ever	-12.0818
peaked	-12.0822
▁overfit	-12.0822
▁svrg	-12.0823
▁capsules	-12.083
▁deadlines	-12.0831
▁font	-12.0833
▁gaussians	-12.0841
▁skeletons	-12.085
▁mpeg	-12.0853
▁playback	-12.0854
▁extrapolation	-12.0854
▁res	-12.0855
▁bregman	-12.0858
zed	-12.0859
sgd	-12.0866
▁generalizable	-12.0867
▁mv	-12.0868
▁omega	-12.087
process	-12.0873
▁prefetching	-12.0873
▁optimizers	-12.0873
▁checker	-12.0879
delay	-12.088
▁dft	-12.0883
▁standing	-12.0883
age	-12.0884
▁shutter	-12.0888
▁dec	-12.089
▁assisted	-12.0892
lberg	-12.0894
▁chairs	-12.0895
▁archived	-12.0898
▁sequencing	-12.0898
▁pl	-12.0901
rd	-12.0902
▁warm	-12.0902
increasing	-12.0903
volume	-12.0911
tailed	-12.0916
▁portfolio	-12.0919
▁birds	-12.0919
▁iterate	-12.092
▁landing	-12.0923
median	-12.0924
▁mor	-12.0932
▁loading	-12.0935
▁vein	-12.094
▁integrals	-12.0942
▁fa	-12.0947
▁sem	-12.095
▁variances	-12.0954
isation	-12.0954
▁incident	-12.0956
induced	-12.0956
▁dbn	-12.0959
▁envision	-12.0959
▁wake	-12.0962
▁spurious	-12.0967
▁latencies	-12.0967
▁stimulate	-12.0967
▁mir	-12.0969
▁condensation	-12.0969
▁twenty	-12.0969
▁regenerat	-12.0969
sign	-12.097
▁presidential	-12.097
▁circles	-12.0971
▁cohomology	-12.0972
▁dram	-12.0976
▁psnr	-12.0979
feature	-12.098
▁orthogonality	-12.0981
lab	-12.0986
▁existential	-12.0986
▁acm	-12.0988
▁constrains	-12.0995
▁tucker	-12.0999
▁md	-12.1006
▁derivations	-12.1007
▁pivot	-12.1007
dense	-12.1007
▁datacenter	-12.1008
▁gaming	-12.1014
om	-12.1017
▁postulate	-12.1018
▁depart	-12.1018
block	-12.1024
▁interacts	-12.1024
motor	-12.1026
▁sponsored	-12.1026
▁advertisements	-12.1032
▁stencil	-12.1034
▁beacons	-12.1034
▁jones	-12.1045
▁4.0	-12.1053
mode	-12.1056
▁bids	-12.1057
▁offsets	-12.1064
▁phoneme	-12.1067
▁quote	-12.1071
game	-12.1072
▁shi	-12.1074
▁lorawan	-12.1081
▁propensity	-12.1082
▁homophily	-12.1082
▁chat	-12.1082
▁involvement	-12.1085
real	-12.1085
▁ble	-12.1086
▁accessibility	-12.1088
▁taylor	-12.1089
▁matting	-12.109
▁apsp	-12.1092
▁lecture	-12.1092
▁cooking	-12.1094
▁treewidth	-12.1094
freeness	-12.1097
▁vsm	-12.1099
▁yes	-12.1104
▁barriers	-12.1104
▁reviewers	-12.1104
▁multiset	-12.1105
▁toolbox	-12.1105
▁bn	-12.1108
▁endpoints	-12.1115
▁onset	-12.1118
▁dubbe	-12.1123
▁dtn	-12.1124
ber	-12.1127
▁fd	-12.1132
▁byproduct	-12.1136
2012	-12.1136
▁genres	-12.1139
▁mle	-12.1153
▁harm	-12.1153
▁epoch	-12.1154
▁cipher	-12.1158
▁sur	-12.1158
12	-12.1159
▁crawl	-12.116
pa	-12.116
▁electron	-12.1163
▁fear	-12.1167
▁expresses	-12.117
▁adaptations	-12.1172
▁56	-12.1175
engineering	-12.1175
▁bends	-12.1183
ising	-12.1184
optimality	-12.1188
▁behavioural	-12.1191
parasplit	-12.1196
▁apparatus	-12.1198
▁abundance	-12.1198
▁controllability	-12.1198
▁intermittent	-12.1198
▁indispensable	-12.1198
▁axiomatization	-12.12
▁beforehand	-12.1201
▁resemblance	-12.1203
▁mab	-12.1208
25	-12.1208
▁listed	-12.1209
▁constancy	-12.1211
▁aliasing	-12.1215
▁stone	-12.1217
▁atlas	-12.1217
▁specialization	-12.1219
▁spline	-12.122
▁conjectures	-12.1224
sim	-12.1224
▁checkpoint	-12.1226
▁chose	-12.1231
labeling	-12.1232
▁denotation	-12.1237
▁death	-12.124
▁intensively	-12.1241
interaction	-12.1242
▁characterise	-12.1248
▁blobs	-12.1248
▁elliptic	-12.1251
▁pointing	-12.1255
▁av	-12.1263
▁centre	-12.1266
ible	-12.1268
▁diffuse	-12.1268
▁sweep	-12.1279
tracted	-12.1285
▁rp	-12.1285
▁subnetwork	-12.1287
▁commits	-12.1287
▁buyer	-12.1289
ot	-12.1291
▁spend	-12.1292
▁concatenat	-12.1293
controlled	-12.1294
vis	-12.1297
▁scholarly	-12.13
▁demographics	-12.1302
▁trip	-12.1308
antenna	-12.1311
▁vis	-12.1313
▁turkish	-12.1315
▁intricate	-12.1315
▁firmware	-12.1315
▁varieties	-12.1315
▁unchanged	-12.1316
▁yago	-12.1316
video	-12.1316
▁plausibility	-12.1318
▁supplementary	-12.1318
▁communicated	-12.1323
verbal	-12.1325
▁intentionally	-12.1326
▁textured	-12.1327
▁analyzer	-12.133
▁industries	-12.1331
▁colony	-12.1332
▁triggers	-12.1334
▁orderings	-12.1335
▁rts	-12.1336
▁succeeded	-12.1339
▁virus	-12.1341
▁frobenius	-12.1343
▁compactness	-12.1346
▁palm	-12.1347
▁uk	-12.1348
▁dos	-12.1349
ility	-12.135
▁linguistically	-12.135
sight	-12.136
▁neumann	-12.1365
▁rs	-12.1366
▁bm	-12.1366
▁br	-12.1366
▁axes	-12.1369
▁insensitive	-12.137
▁char	-12.1372
▁asymmetry	-12.1378
▁abc	-12.1379
▁spm	-12.1381
▁backdoor	-12.1386
▁banks	-12.1386
▁gripper	-12.1386
▁film	-12.1389
morphic	-12.139
▁watch	-12.139
intersecting	-12.1395
▁confuse	-12.1398
▁trail	-12.1405
▁defender	-12.1412
▁factual	-12.1414
▁specifie	-12.1415
▁lan	-12.1415
▁dan	-12.1427
▁themes	-12.1427
▁storm	-12.1432
mann	-12.1433
▁cap	-12.1434
▁teleoperation	-12.1435
▁sudden	-12.1435
▁unimportant	-12.1436
▁cropping	-12.1437
▁dehazing	-12.1439
▁literal	-12.1442
▁indicative	-12.1444
▁hill	-12.1447
▁accord	-12.145
▁credentials	-12.1452
▁peaks	-12.1452
▁ethical	-12.1454
▁onboard	-12.1455
▁altered	-12.146
▁alert	-12.1461
▁heuristically	-12.1466
▁34	-12.1474
▁decided	-12.1476
▁correspondingly	-12.148
variate	-12.1483
▁planned	-12.1498
▁srl	-12.1498
▁blending	-12.1499
▁nonlocal	-12.15
▁shuffle	-12.1502
▁panel	-12.1511
▁isomorphic	-12.1512
▁smes	-12.1515
ley	-12.1523
▁ce	-12.1526
▁cliques	-12.153
▁bucket	-12.1534
▁framing	-12.1535
▁evade	-12.154
led	-12.1542
▁workshop	-12.1545
▁park	-12.1545
▁holder	-12.1546
▁quantifie	-12.1548
▁fat	-12.1549
▁uneven	-12.1549
▁impression	-12.155
▁dblp	-12.1555
▁severity	-12.1555
▁lisp	-12.1561
inertial	-12.1561
▁materialized	-12.1561
▁rhetoric	-12.1563
▁emergen	-12.1563
▁routinely	-12.1564
sing	-12.1565
▁chest	-12.1567
▁pomdps	-12.1567
▁truthfulness	-12.1568
▁invertible	-12.1568
▁judgements	-12.1569
▁germany	-12.1569
▁opencl	-12.157
solomon	-12.1573
▁cbr	-12.1575
▁sfa	-12.1576
▁synsets	-12.1579
▁accumulate	-12.1583
squared	-12.1583
▁morphologically	-12.1589
▁economical	-12.1598
▁adaptable	-12.1599
▁impressions	-12.16
▁57	-12.1601
▁lately	-12.1602
▁ref	-12.1604
ons	-12.1605
segmented	-12.1613
▁readable	-12.1615
tan	-12.1619
provided	-12.162
▁wrappers	-12.162
▁pooled	-12.1623
▁releases	-12.1626
▁albedo	-12.1628
▁businesses	-12.163
▁artefact	-12.1633
▁establishment	-12.1633
ft	-12.1635
ec	-12.1642
▁refinements	-12.1645
▁ucb	-12.1647
sides	-12.1657
▁pathway	-12.1664
ka	-12.1669
▁zeros	-12.1674
▁fruit	-12.1676
▁probes	-12.1676
▁unveil	-12.1677
▁1980	-12.1677
▁uncontrolled	-12.1679
▁wisdom	-12.1679
▁singularities	-12.168
od	-12.1681
▁nonlinearities	-12.1682
▁digg	-12.1685
▁rmt	-12.1687
▁birth	-12.1688
▁casting	-12.1688
▁orthonormal	-12.1688
that	-12.1691
▁resist	-12.1697
▁reciprocal	-12.1698
▁nyu	-12.17
▁conceal	-12.1702
▁spots	-12.1704
▁began	-12.1705
▁embrace	-12.1711
▁valence	-12.1715
▁plugg	-12.1717
▁photorealistic	-12.1718
▁configure	-12.1723
▁successor	-12.1725
▁concatenate	-12.1728
bs	-12.1728
▁abeli	-12.1738
▁centroids	-12.1738
▁moral	-12.1743
ier	-12.1744
▁graded	-12.1752
media	-12.1753
▁para	-12.1753
generalizability	-12.1755
▁firewall	-12.1756
▁rbf	-12.1757
64	-12.1758
▁victims	-12.1759
▁realtime	-12.1761
▁vessel	-12.1762
▁29	-12.1762
▁technically	-12.1763
▁hci	-12.1763
▁subword	-12.1764
-50	-12.1764
▁triangulations	-12.1767
▁sci	-12.1777
▁keyframe	-12.1779
▁categoriz	-12.1785
▁shots	-12.1786
▁iso	-12.1793
▁merges	-12.18
▁disparities	-12.18
▁renewed	-12.1801
▁noteworthy	-12.1801
▁trustworthy	-12.1802
▁lovasz	-12.1803
▁readability	-12.1805
▁permitting	-12.1806
▁signalling	-12.1808
▁millimeter	-12.1809
▁groundtruth	-12.1811
▁skewed	-12.1811
▁adaptability	-12.1815
▁translational	-12.1815
▁xor	-12.1817
▁amplify	-12.1819
adaptation	-12.182
▁japanese	-12.1821
cover	-12.1826
▁pursued	-12.1828
hmm	-12.183
2007	-12.1832
18	-12.1834
▁splines	-12.1837
▁north	-12.1839
▁ef	-12.1839
▁oversampling	-12.1843
▁picked	-12.1848
▁recognizer	-12.1848
▁ppp	-12.1848
▁sq	-12.185
▁reused	-12.1858
▁searchers	-12.1864
▁catalog	-12.1864
▁amd	-12.1864
decomposition	-12.1866
▁terrains	-12.1867
▁kinetics	-12.1868
▁wo	-12.1869
▁akin	-12.1875
▁pragmatic	-12.1876
scaling	-12.1876
▁subroutine	-12.1878
▁episode	-12.1879
▁ro	-12.1881
cal	-12.1887
▁inefficiency	-12.1892
▁fu	-12.1894
▁chapters	-12.1898
▁alleviat	-12.1903
▁stacke	-12.1917
▁helmholtz	-12.1925
▁undecidable	-12.1925
▁exogenous	-12.1926
▁virality	-12.1926
▁censorship	-12.1928
consistent	-12.1928
existence	-12.193
▁sea	-12.1931
▁df	-12.1934
▁rationality	-12.1935
▁rectilinear	-12.1935
horizon	-12.1939
▁tunable	-12.1942
▁gi	-12.1942
▁convlstm	-12.1943
▁initiative	-12.1944
▁intellectu	-12.1948
▁cu	-12.1949
▁miners	-12.1951
▁male	-12.1952
▁hints	-12.1953
▁wood	-12.1953
▁matchers	-12.1959
crossing	-12.1962
▁evenly	-12.1966
▁haar	-12.1967
▁bell	-12.198
entity	-12.199
ent	-12.1999
▁competitively	-12.2008
▁constituents	-12.2011
beats	-12.2012
▁bigram	-12.2014
▁bisection	-12.2024
▁disc	-12.2026
▁nas	-12.203
▁blocked	-12.2031
▁contest	-12.2031
▁gear	-12.2037
▁firing	-12.2041
fac	-12.2041
▁wban	-12.2052
▁proprietary	-12.2052
▁television	-12.2052
▁electromagnetic	-12.2053
▁posit	-12.2054
mo	-12.2055
▁oxford	-12.2055
▁unannotated	-12.2055
▁reproducibility	-12.2057
▁mono	-12.2058
▁marginals	-12.2058
▁urgent	-12.2058
▁analyst	-12.2059
▁personalization	-12.206
▁fresh	-12.2064
res	-12.2064
▁ltd	-12.2064
▁representatives	-12.2066
il	-12.2067
▁bytes	-12.2068
cutting	-12.2071
▁blurring	-12.2072
▁roll	-12.2073
▁converging	-12.2075
▁responsive	-12.2076
▁grad	-12.2082
▁goodness	-12.2083
▁spheres	-12.2084
▁5-	-12.2093
▁landau	-12.2093
▁contiguous	-12.2097
▁hurt	-12.2097
▁sacrifice	-12.2103
que	-12.2103
▁mistake	-12.2107
▁wlans	-12.211
▁perceptually	-12.2111
▁94	-12.2115
▁pfa	-12.2121
▁il	-12.2127
▁resolves	-12.2131
▁pulses	-12.2132
▁stabilizes	-12.2135
▁classifications	-12.2136
conditional	-12.2138
▁contrasts	-12.2138
learn	-12.2138
▁adult	-12.214
▁lung	-12.2141
-4	-12.2142
occurrences	-12.2144
arm	-12.2154
ver	-12.2154
far	-12.2161
▁dispatch	-12.2175
▁skew	-12.2177
▁minute	-12.2178
▁che	-12.2178
▁exclude	-12.2179
▁myriad	-12.218
equilibrium	-12.218
▁agenda	-12.218
▁summarisation	-12.218
▁inheritance	-12.218
▁agreements	-12.2181
▁cauchy	-12.2183
▁stuck	-12.2183
▁thereafter	-12.2185
▁1992	-12.2186
▁verifiable	-12.2191
▁surprise	-12.2191
sourcing	-12.2191
▁anonymized	-12.2191
▁amino	-12.2193
▁bagging	-12.2193
▁regularizers	-12.2194
▁rn	-12.2194
▁ecg	-12.2196
mounted	-12.2198
▁makeup	-12.2199
▁timestamp	-12.2201
cl	-12.2205
▁corrupt	-12.2206
lies	-12.2206
▁buffers	-12.2211
▁fpt	-12.2211
learned	-12.2211
▁watermarking	-12.2219
▁cho	-12.2224
▁uc	-12.2231
▁incorrectly	-12.2232
▁artist	-12.2238
minal	-12.2239
tc	-12.2239
▁approximability	-12.2244
▁unimodal	-12.2249
▁roc	-12.2255
▁invisible	-12.2256
40	-12.2256
weighting	-12.226
▁au	-12.2261
▁optics	-12.2261
▁valve	-12.2265
▁preconditioner	-12.2266
▁41	-12.2267
▁waveform	-12.2272
▁ride	-12.2272
tory	-12.2272
▁crawler	-12.2273
▁precedence	-12.2273
▁opened	-12.2278
▁arrangements	-12.2278
linearity	-12.2281
▁9.	-12.2282
gets	-12.2283
▁emphasiz	-12.2284
▁wgan	-12.2284
▁internally	-12.2285
▁agglomerati	-12.2287
▁gcns	-12.2294
normalizing	-12.2295
▁privately	-12.2295
▁socially	-12.2296
spline	-12.2299
▁typ	-12.2302
road	-12.2305
bot	-12.2308
▁deductive	-12.2312
▁subscribe	-12.2312
▁certification	-12.2312
▁mallows	-12.2315
▁arxiv	-12.2316
▁cheaper	-12.2317
▁spoofing	-12.2318
▁mimicking	-12.2318
features	-12.232
fusion	-12.2322
▁vp	-12.2332
▁install	-12.2332
sne	-12.2333
des	-12.2335
▁bellman	-12.2338
▁reconfigurable	-12.2338
blind	-12.2339
▁sustainable	-12.234
▁sensibl	-12.2342
pearson	-12.2346
maps	-12.2348
▁edits	-12.2349
▁adequacy	-12.235
▁arrives	-12.2354
▁lpp	-12.2359
▁inappropriate	-12.236
▁-1	-12.2366
▁pv	-12.2367
▁complicate	-12.2367
▁complet	-12.2375
▁flops	-12.2377
vectors	-12.2385
▁sigmoid	-12.2387
▁college	-12.2391
▁standpoint	-12.2392
▁scatter	-12.2393
▁attraction	-12.2394
101	-12.2394
▁seeing	-12.2395
▁phd	-12.2396
write	-12.2397
▁taggers	-12.2399
▁vendor	-12.2401
▁48	-12.2401
algorithm	-12.2402
▁dsl	-12.2404
▁invention	-12.2405
patch	-12.2405
▁submit	-12.2412
▁instrumental	-12.2412
close	-12.2417
▁invest	-12.2425
▁singing	-12.2429
▁titan	-12.2429
▁pinpoint	-12.2432
▁illegal	-12.2433
▁header	-12.2436
▁gross	-12.2436
50	-12.2437
▁sha	-12.2439
▁haskell	-12.2441
▁entertainment	-12.2442
▁ellipsoid	-12.2442
▁episodic	-12.2442
▁politeness	-12.2442
biased	-12.2442
▁colleagues	-12.2442
▁256	-12.2442
▁consolidation	-12.2442
▁permitted	-12.2443
▁rkhs	-12.2444
ck	-12.2446
▁hd	-12.2446
▁fptas	-12.2447
▁relocalization	-12.2448
▁gen	-12.245
▁lifted	-12.2453
▁deleted	-12.2457
▁paxos	-12.2458
▁36	-12.2458
rnns	-12.246
its	-12.2461
▁quadratically	-12.2461
estimation	-12.2462
▁else	-12.2462
▁bas	-12.2462
▁cohesive	-12.2464
▁census	-12.2465
▁specifi	-12.2466
▁margins	-12.2466
monotonic	-12.2467
▁manets	-12.2467
cam	-12.2475
▁eventual	-12.2475
▁ln	-12.2477
▁substructures	-12.2477
▁stein	-12.2479
▁explainable	-12.2482
▁dots	-12.2485
▁chan	-12.2495
▁91	-12.2495
▁treatments	-12.2499
▁got	-12.2507
variance	-12.2507
▁indoors	-12.2512
divisible	-12.2516
▁batches	-12.252
accuracy	-12.252
▁yao	-12.2525
▁hubs	-12.2526
▁tournament	-12.2528
▁optimis	-12.2528
▁confront	-12.2529
▁microblog	-12.2529
▁breakdown	-12.2531
▁drastic	-12.2534
▁transduction	-12.2537
▁demo	-12.2538
▁kr	-12.2541
powered	-12.2541
▁ligand	-12.255
cm	-12.2555
▁winners	-12.2568
13	-12.2569
▁lexicographic	-12.2569
▁interrupt	-12.2575
▁immense	-12.2575
▁agencies	-12.2575
▁military	-12.2575
▁crisis	-12.2575
▁zhao	-12.2575
▁depression	-12.2575
▁8.	-12.2576
▁repeatability	-12.2576
▁bohm	-12.2578
reported	-12.2578
referenced	-12.2579
pposed	-12.258
▁pleasing	-12.2582
▁continually	-12.2583
▁100,000	-12.2583
▁eager	-12.2587
ke	-12.259
ine	-12.2591
▁hindsight	-12.2593
▁0.8	-12.2593
▁mln	-12.2594
cc	-12.2595
difference	-12.2597
▁sons	-12.2602
organized	-12.2606
▁recognizable	-12.2611
▁imperceptible	-12.2611
03	-12.2611
html	-12.2615
▁structurally	-12.2618
▁optional	-12.262
asks	-12.262
▁mal	-12.262
▁arq	-12.2626
▁pain	-12.2626
▁ica	-12.2627
walk	-12.2627
▁obfuscate	-12.2629
▁testbeds	-12.2635
ifying	-12.2638
▁songs	-12.2645
accurate	-12.2647
sql	-12.2648
▁fec	-12.2657
rule	-12.2659
▁000	-12.266
▁reset	-12.2662
▁incidence	-12.2665
▁emission	-12.2672
graphs	-12.2696
▁puzzle	-12.27
▁amr	-12.2701
▁curiosity	-12.271
▁cyberbullying	-12.271
▁taxonomies	-12.2711
▁decryption	-12.2711
▁altogether	-12.2712
greedy	-12.2712
diversity	-12.2713
▁volatility	-12.2713
▁unavoidable	-12.2714
▁contradictory	-12.2716
▁intense	-12.2718
▁pointers	-12.2721
symmetric	-12.2722
▁ready	-12.2722
completeness	-12.2723
▁identifiable	-12.2726
▁adaptivity	-12.2726
ell	-12.2726
▁attentions	-12.2726
▁ghost	-12.2728
▁interventions	-12.2728
▁appliances	-12.2731
▁tardos	-12.2732
▁bilstm	-12.2732
▁twisted	-12.2733
▁ta	-12.2735
▁organisms	-12.2735
▁unauthori	-12.2741
▁venues	-12.2742
conquer	-12.2745
▁kumar	-12.2745
▁appeal	-12.2747
▁misses	-12.2749
▁challenged	-12.2751
entered	-12.277
▁focs	-12.2773
▁flownet	-12.2776
priori	-12.2777
▁shen	-12.278
▁encounters	-12.2782
▁craft	-12.2783
▁asynchronously	-12.2784
▁wired	-12.2785
▁cdn	-12.2789
▁rois	-12.2797
▁female	-12.28
▁constellation	-12.2803
▁wiretap	-12.2804
▁east	-12.2807
▁plot	-12.2811
▁nu	-12.2812
study	-12.2814
▁87	-12.2816
▁eda	-12.2818
▁activate	-12.2826
▁eclipse	-12.2829
mining	-12.2834
planar	-12.2838
▁incoherent	-12.284
▁tls	-12.284
▁slope	-12.2842
utility	-12.2842
built	-12.2846
▁instagram	-12.2847
duces	-12.2849
▁sharpness	-12.2849
▁1986	-12.285
▁omitted	-12.2852
▁elsewhere	-12.2853
▁separability	-12.2853
▁dyna	-12.2855
▁bibliography	-12.2857
▁committed	-12.2862
▁aircraft	-12.2863
▁visualized	-12.2865
▁42	-12.2865
▁polling	-12.2869
▁constitut	-12.287
▁configurable	-12.2871
putting	-12.2873
▁comprehensively	-12.2874
▁lookahead	-12.2876
▁counterexamples	-12.2882
▁metropolis	-12.2883
pu	-12.2884
▁associates	-12.2888
▁legged	-12.2888
store	-12.289
ho	-12.2891
▁soda	-12.2892
▁resultant	-12.2893
▁launch	-12.2894
▁tiers	-12.2897
▁profits	-12.2898
▁watermark	-12.2899
▁gist	-12.2902
ins	-12.2902
▁postulates	-12.2903
▁rpl	-12.291
high	-12.291
▁86	-12.291
▁night	-12.2911
▁vocal	-12.2912
▁trojans	-12.2914
▁sensed	-12.292
▁terminate	-12.2927
▁38	-12.2931
▁viewers	-12.2931
▁pour	-12.2935
correlation	-12.2936
▁misalignment	-12.2938
▁manuscript	-12.2939
hat	-12.294
▁interleaving	-12.294
fa	-12.2942
▁lesion	-12.2945
▁spectrogram	-12.2949
▁organisation	-12.2952
li	-12.2953
500	-12.2959
tions	-12.2961
di	-12.2961
admm	-12.2963
▁retrain	-12.2964
algebraic	-12.2971
localization	-12.2973
▁thickness	-12.2976
▁grand	-12.2976
throughput	-12.298
ws	-12.2984
▁bigge	-12.2984
▁defensive	-12.2985
▁langevin	-12.2986
▁pollution	-12.2986
▁traceroute	-12.2986
▁unicast	-12.2986
gpp	-12.2989
▁fight	-12.2993
▁climate	-12.2993
▁adhere	-12.3001
▁parabolic	-12.3002
protein	-12.3003
▁sw	-12.3005
ups	-12.3005
▁stringent	-12.3006
▁siam	-12.3006
automated	-12.3009
▁10,000	-12.3009
▁une	-12.301
▁mcg	-12.3011
▁continuing	-12.3012
▁bandlimited	-12.3012
▁proceedings	-12.3014
▁lfd	-12.3014
▁planarity	-12.3016
▁dialect	-12.3025
▁mdl	-12.3027
▁articulat	-12.3028
▁monad	-12.3032
▁postings	-12.3035
winner	-12.3036
▁tour	-12.3046
▁domination	-12.3049
▁aperture	-12.305
▁cart	-12.3054
▁plots	-12.3058
layered	-12.3059
▁war	-12.3066
▁devot	-12.3072
▁verbal	-12.3075
▁substrate	-12.3078
▁lifecycle	-12.3079
▁penaliz	-12.3079
▁earthquake	-12.308
▁deadlock	-12.308
▁octree	-12.3086
▁quantifier	-12.3087
▁san	-12.3088
elecommunication	-12.3093
▁axiomatic	-12.3101
▁complexes	-12.3105
leib	-12.3107
▁kds	-12.3107
▁virtue	-12.3108
▁ensembling	-12.3116
▁disregard	-12.3118
▁rays	-12.3119
▁parses	-12.312
▁celebrate	-12.312
▁continual	-12.3124
logic	-12.3124
▁letters	-12.3126
▁jigsaw	-12.3126
▁violence	-12.3127
▁biochemical	-12.3127
▁precipitation	-12.3127
▁exploding	-12.313
2-	-12.3132
▁affordable	-12.3132
▁precomputed	-12.3133
▁dissipation	-12.3134
▁strategically	-12.3134
▁lanes	-12.3135
▁unification	-12.3135
▁hermitian	-12.314
compatible	-12.314
▁rotated	-12.3143
▁confident	-12.3146
▁scored	-12.3146
▁svr	-12.3146
▁jamming	-12.3148
▁asset	-12.315
▁parallelizing	-12.3151
pe	-12.3151
▁pathological	-12.316
▁84	-12.3161
▁250	-12.3161
▁reminiscen	-12.3162
▁comput	-12.3162
▁multiresolution	-12.3164
▁lagrange	-12.3164
wolfe	-12.3168
09	-12.317
▁sake	-12.318
-2012	-12.3181
▁scripting	-12.3182
embedding	-12.319
▁slide	-12.319
▁medial	-12.3192
ey	-12.3195
▁120	-12.3198
▁sport	-12.3199
approximability	-12.3199
▁decrypt	-12.3199
▁src	-12.32
▁saturated	-12.3201
▁saw	-12.3202
sensor	-12.3202
▁rel	-12.3206
▁compounds	-12.322
▁undergraduate	-12.3223
component	-12.3226
▁lend	-12.3226
▁dcs	-12.3227
▁radical	-12.3228
▁calibrate	-12.3235
ate	-12.3235
▁sd	-12.3235
▁participat	-12.3237
▁corruptions	-12.324
▁echo	-12.3242
▁consumes	-12.3247
▁preprocess	-12.3247
▁deliberate	-12.325
▁overcom	-12.3251
▁babi	-12.3253
▁1.0	-12.3254
▁initializations	-12.3267
▁atmospheric	-12.3269
▁dichotomy	-12.327
▁debug	-12.3271
▁histories	-12.3271
▁unrolled	-12.3272
▁sociology	-12.3272
▁elusive	-12.3272
▁kleinberg	-12.3273
▁speculative	-12.3273
▁gra	-12.3274
hi	-12.3276
▁century	-12.3279
▁cortical	-12.3287
▁strata	-12.3288
destination	-12.3288
▁colouring	-12.3289
▁disclosed	-12.3295
▁noticeable	-12.3297
▁diminishing	-12.3297
▁pouring	-12.3297
self	-12.3299
▁prefixes	-12.3304
▁hausdorff	-12.3306
▁magnitudes	-12.3308
disentangling	-12.3312
▁differentials	-12.3312
▁subsystems	-12.332
▁fft	-12.3324
separable	-12.3324
▁implementable	-12.3327
▁lossless	-12.3329
▁absolutely	-12.3332
▁depthwise	-12.3338
▁subnetworks	-12.3339
▁guards	-12.3344
▁differentiat	-12.3348
problem	-12.3348
▁minimizers	-12.3351
exponential	-12.3356
▁huffm	-12.336
▁misbehavior	-12.3365
▁iid	-12.3366
ach	-12.3366
▁documented	-12.3367
▁overcomplete	-12.3367
▁ctl	-12.3368
▁unigram	-12.3369
▁microservice	-12.3369
▁accident	-12.3369
▁ferroelectric	-12.337
▁hypercube	-12.3371
▁illustration	-12.3372
hash	-12.3374
▁implication	-12.3374
▁fiber	-12.3375
▁reserve	-12.3375
ial	-12.3376
▁posting	-12.3378
available	-12.3378
expert	-12.3381
positive	-12.3381
▁transformers	-12.3383
▁leaks	-12.3388
▁chips	-12.3388
▁forget	-12.339
▁enterprises	-12.3394
▁bidder	-12.3395
▁justifie	-12.3411
▁seg	-12.3412
▁constituency	-12.3414
▁discrepancies	-12.3414
▁intuitions	-12.3416
▁hourglass	-12.3418
▁sparsification	-12.3418
▁informativeness	-12.3419
▁ladder	-12.342
▁docker	-12.342
▁contaminated	-12.3421
▁1994	-12.3421
▁laborious	-12.3421
▁witness	-12.3423
▁ppi	-12.3424
▁curvelet	-12.3425
integer	-12.3425
▁launched	-12.3425
▁monetar	-12.3428
▁binning	-12.3428
▁memorize	-12.343
▁preface	-12.3432
▁phy	-12.3433
▁missed	-12.3439
▁parameterize	-12.344
▁subgoals	-12.344
▁assembled	-12.3442
▁transcripts	-12.3442
▁hmdb	-12.3445
▁surpasse	-12.3446
mind	-12.3452
▁noticed	-12.3453
▁currency	-12.3459
nary	-12.3461
▁ldp	-12.3462
freedom	-12.3464
▁him	-12.3464
pix	-12.3467
▁adults	-12.3467
▁warnings	-12.3469
un	-12.3472
omp	-12.3474
▁ciphers	-12.3476
shev	-12.3476
▁unequal	-12.3477
ified	-12.3481
▁32-	-12.3481
▁proportionally	-12.3484
▁filled	-12.3485
ha	-12.3486
▁jacobi	-12.3486
▁resnets	-12.3488
fit	-12.3491
▁downloads	-12.3498
▁coins	-12.3502
▁stepping	-12.3505
▁dice	-12.3507
▁delet	-12.3508
▁certainty	-12.351
▁flavor	-12.3515
▁institute	-12.3515
monotone	-12.3516
▁textbook	-12.3521
▁bubble	-12.3521
▁abstracted	-12.3522
▁lb	-12.3526
▁amodal	-12.3527
▁39	-12.3535
▁loses	-12.3536
▁remov	-12.3536
▁sag	-12.3544
▁recognise	-12.3546
▁erm	-12.3546
platform	-12.3551
do	-12.3556
two	-12.3557
▁univaria	-12.3559
▁ue	-12.356
▁pretrain	-12.3561
▁cornerstone	-12.3562
▁uncorrelated	-12.3563
▁hinton	-12.3565
▁foot	-12.3568
▁amplification	-12.3573
iot	-12.3578
residential	-12.358
▁strain	-12.3581
▁conferences	-12.3582
▁moore	-12.359
▁vlc	-12.3591
▁vectorized	-12.3594
▁timit	-12.3596
▁psrs	-12.3605
▁honeypots	-12.3607
▁retweet	-12.3608
▁editors	-12.3608
▁impacted	-12.361
▁microblogs	-12.3614
spatial	-12.3616
▁anytime	-12.3617
▁maneuver	-12.3622
▁pack	-12.3631
▁durations	-12.3639
▁dominates	-12.3651
▁shelf	-12.3654
▁bone	-12.3657
▁positioned	-12.3657
▁eps	-12.3657
▁88	-12.366
▁upsample	-12.3661
▁subdivision	-12.3664
▁intruder	-12.3667
smith	-12.3668
▁functor	-12.3672
▁clickbaits	-12.3676
▁ciphertext	-12.3681
▁discount	-12.3682
structures	-12.3683
▁duc	-12.3684
▁prepar	-12.3684
▁editor	-12.3691
▁heading	-12.3697
▁shaped	-12.3698
▁maze	-12.3702
▁societ	-12.3706
▁tiling	-12.3706
▁initializ	-12.3707
tag	-12.371
▁offload	-12.371
▁weaken	-12.3711
▁profound	-12.3711
▁transitivity	-12.3713
▁ofdm	-12.3714
▁synchrony	-12.3714
▁analogies	-12.3716
▁pregel	-12.3718
▁prevailing	-12.3719
▁synchronize	-12.3719
▁hyperlink	-12.372
▁1989	-12.3721
recognition	-12.3725
▁nicely	-12.3725
▁conditionally	-12.3728
colorable	-12.3728
▁markedly	-12.3729
▁rotating	-12.373
▁breast	-12.373
▁timeline	-12.3736
▁59	-12.3737
▁administrators	-12.3741
terminal	-12.3741
▁cfs	-12.3745
▁raindrops	-12.3749
▁mos	-12.3749
▁retweeting	-12.3754
▁portals	-12.3755
▁actuators	-12.3756
▁engaged	-12.376
▁terminates	-12.3761
modified	-12.3761
fps	-12.3766
▁alternation	-12.3767
▁fm	-12.3768
constraint	-12.3773
▁minus	-12.3774
▁traced	-12.3775
▁backwards	-12.3777
imated	-12.378
▁aps	-12.3781
▁surround	-12.3782
▁relieve	-12.3784
▁guessing	-12.3786
ahead	-12.379
▁reproduced	-12.3793
▁ph	-12.3794
▁disasters	-12.3796
▁ic	-12.3799
ight	-12.3801
site	-12.3803
▁alzheimer	-12.3812
bank	-12.3815
▁honeypot	-12.3816
▁nfv	-12.382
▁subsystem	-12.3825
repair	-12.3831
example	-12.3832
▁fv	-12.3842
▁researcher	-12.3846
paced	-12.3847
han	-12.3848
▁unfair	-12.3848
▁itemset	-12.385
▁streets	-12.3857
calibrated	-12.3861
▁vicinity	-12.3862
▁luminance	-12.3862
▁complementarity	-12.3863
▁subjectivity	-12.3863
▁decidability	-12.3865
▁scrum	-12.3865
▁discontinuity	-12.3866
▁expressivity	-12.3866
▁rigidity	-12.3866
pairs	-12.3868
▁administrative	-12.3869
▁marine	-12.3871
▁shopping	-12.3873
▁pitfalls	-12.3877
▁playout	-12.3881
▁conservation	-12.3882
▁mpii	-12.3882
▁deteriorate	-12.3883
▁jade	-12.3884
neural	-12.3886
▁mp	-12.3889
▁anywhere	-12.3892
▁harris	-12.3895
▁tails	-12.3898
▁deeplab	-12.3898
▁transparently	-12.3899
reduce	-12.3915
logarithmic	-12.3918
▁terminating	-12.3919
▁keyboards	-12.3936
head	-12.3937
▁89	-12.3937
▁rooms	-12.3938
▁realm	-12.394
▁debates	-12.3944
▁reside	-12.3957
topic	-12.3964
▁conclud	-12.3965
▁fixpoint	-12.3972
▁polytopes	-12.3973
▁merit	-12.3976
▁headline	-12.3977
▁contend	-12.3978
▁quaternion	-12.398
▁chair	-12.398
ring	-12.3982
▁season	-12.3985
list	-12.3986
▁actuator	-12.3987
▁sandbox	-12.3988
▁lookups	-12.3988
▁ob	-12.3988
▁portal	-12.3995
▁pools	-12.3996
▁expander	-12.3996
▁spa	-12.3997
▁disrupt	-12.4
sis	-12.4001
▁nli	-12.4003
▁surfing	-12.4007
▁viz	-12.4012
bow	-12.4012
▁regulate	-12.4016
▁steadily	-12.4016
▁offensive	-12.4016
▁grassmann	-12.4016
▁melody	-12.4016
▁glance	-12.402
dynamic	-12.402
▁iaas	-12.402
▁monolithic	-12.4021
▁zoom	-12.4021
▁hadamard	-12.4023
▁swapping	-12.4023
▁consolidate	-12.4026
▁applicants	-12.4027
▁competence	-12.4028
▁scholars	-12.4031
▁granted	-12.4033
▁revised	-12.4034
panoptic	-12.4038
▁overlapped	-12.4038
optimization	-12.4039
▁sparseness	-12.4042
▁stochasticity	-12.4045
▁suit	-12.4048
erely	-12.4051
▁specialize	-12.4051
▁stitching	-12.4055
▁wishes	-12.4056
▁heatmaps	-12.4056
2011	-12.4056
▁schur	-12.4057
▁recipes	-12.4058
▁epi	-12.4059
19	-12.4059
▁1024	-12.406
▁repairing	-12.4062
▁dd	-12.4065
05	-12.4067
▁wbans	-12.4075
▁originat	-12.4076
economic	-12.4078
pixels	-12.4079
11	-12.408
▁quantize	-12.4081
▁incidents	-12.4082
▁leaders	-12.4089
cp	-12.4089
monadic	-12.4098
▁closures	-12.4104
▁deem	-12.4115
ish	-12.4115
▁watershed	-12.4121
▁glove	-12.4123
▁marks	-12.4123
▁preparation	-12.4124
▁stl	-12.4125
ik	-12.4127
▁palmprint	-12.4128
▁gd	-12.4128
▁passenger	-12.4133
continuous	-12.4133
▁spelling	-12.4133
grain	-12.4137
▁classically	-12.4138
▁matroids	-12.4139
▁justifications	-12.4141
▁simplici	-12.4143
lated	-12.4144
rn	-12.4156
track	-12.4161
▁rated	-12.4172
▁cor	-12.4173
▁darpa	-12.4174
▁insecure	-12.4176
▁awgn	-12.4179
▁embodied	-12.4181
▁actuation	-12.4184
▁ep	-12.4185
▁subtitles	-12.4185
▁fuzzing	-12.4186
▁fpn	-12.4191
▁please	-12.4192
▁mmse	-12.4193
▁pdf	-12.4199
▁logarithmically	-12.42
▁cohen	-12.4202
▁ban	-12.4203
▁modulate	-12.4205
▁galois	-12.4205
coverage	-12.4208
▁reserved	-12.4211
ranked	-12.4211
intuitive	-12.4213
▁crawled	-12.4214
translation	-12.4214
mediated	-12.4217
▁informally	-12.4217
definite	-12.4218
▁foundational	-12.4219
developed	-12.422
▁49	-12.4222
▁worm	-12.4225
▁cdns	-12.4226
orthogonal	-12.4227
▁dm	-12.4228
growing	-12.4228
rhaps	-12.4229
▁quest	-12.4231
▁falling	-12.424
adversarial	-12.424
2018	-12.4241
▁600	-12.4244
▁coping	-12.4247
▁cw	-12.4248
tuple	-12.426
▁tubes	-12.426
▁secured	-12.426
programming	-12.4262
▁tactic	-12.4268
▁diagnose	-12.4271
▁issued	-12.4273
computing	-12.4273
lived	-12.4275
▁sram	-12.4279
▁visiting	-12.428
▁conjunctions	-12.4284
▁1,000	-12.4287
▁smell	-12.4297
tl	-12.4304
▁enclos	-12.4304
4.5	-12.4305
selected	-12.4306
constant	-12.4309
ode	-12.4312
theoretical	-12.4316
▁holograph	-12.4318
ami	-12.4322
▁functionally	-12.4328
▁memorability	-12.4331
▁negatives	-12.4332
rnet	-12.4332
▁rls	-12.4333
▁unsafe	-12.4335
▁fountain	-12.4338
▁retention	-12.4338
▁everything	-12.4339
▁credible	-12.4339
▁excitation	-12.434
▁zipf	-12.434
▁origins	-12.4342
▁isomap	-12.4343
▁outlets	-12.4345
▁cropped	-12.4347
ations	-12.4348
▁forth	-12.4353
▁flocking	-12.4355
▁collector	-12.4355
▁listing	-12.4356
▁dash	-12.4357
mc	-12.4359
dataset	-12.4362
▁hotspots	-12.4362
fixing	-12.4363
▁opposing	-12.4372
▁foreign	-12.4376
▁inspect	-12.4382
chosen	-12.4382
▁organisations	-12.4383
▁makers	-12.4385
column	-12.4387
▁countermeasure	-12.4387
▁equi	-12.4388
▁homes	-12.4388
ff	-12.4388
▁cones	-12.4388
▁info	-12.4389
▁overly	-12.4391
hot	-12.4397
finitary	-12.4398
▁supplied	-12.4399
dr	-12.44
▁sm	-12.4409
▁gb	-12.441
▁receding	-12.4417
ut	-12.4418
▁gnn	-12.442
occurring	-12.442
▁underlie	-12.4421
▁pf	-12.4424
resnet	-12.4424
▁devis	-12.4431
attack	-12.4432
▁flag	-12.4434
▁estimati	-12.4434
▁sorts	-12.4435
▁rescal	-12.4439
▁grassmannian	-12.4441
▁purchases	-12.4441
ef	-12.4441
▁supervise	-12.4442
▁essay	-12.4446
▁friendly	-12.4446
▁retransmission	-12.4448
▁displacements	-12.4449
▁skyline	-12.4452
▁guideline	-12.4453
▁excel	-12.4453
convergence	-12.4453
streams	-12.4453
empty	-12.4454
▁spec	-12.4455
▁suspect	-12.4458
readable	-12.4461
▁retrained	-12.4461
▁delegation	-12.4467
▁mario	-12.4469
▁cancel	-12.4471
stein	-12.4473
▁apple	-12.4473
▁normalize	-12.4476
▁incentivize	-12.4478
▁fluent	-12.4478
▁hawk	-12.4479
ep	-12.4479
▁prohibit	-12.4484
▁fruitful	-12.4488
▁realizations	-12.449
▁fragile	-12.4492
▁offspring	-12.4492
ctorial	-12.4492
▁synergy	-12.4492
▁grained	-12.4493
▁unrestricted	-12.4494
▁coexistence	-12.4496
▁repeatable	-12.4497
▁uplift	-12.4497
ue	-12.4498
▁davis	-12.4498
fl	-12.45
▁investigators	-12.4505
▁kan	-12.4507
▁pcfg	-12.4507
▁pros	-12.4508
▁skipp	-12.4508
planning	-12.4514
nce	-12.4514
▁overlooked	-12.4516
▁subclasses	-12.4517
▁walker	-12.4518
▁sector	-12.4525
▁emulation	-12.4527
▁43	-12.4528
▁ontological	-12.4532
▁factorize	-12.4536
▁mat	-12.4537
healing	-12.4538
▁62	-12.4542
▁accidents	-12.4545
▁1.3	-12.4546
▁follower	-12.4547
▁cooperating	-12.4551
▁waveforms	-12.4551
▁pq	-12.4553
coupled	-12.4555
▁buckets	-12.4557
▁hospitals	-12.4562
augmented	-12.4564
▁sfc	-12.4569
▁export	-12.4574
▁mars	-12.4577
pl	-12.4584
▁bearing	-12.4585
▁bu	-12.4589
▁spanner	-12.4593
▁pls	-12.4595
▁interconnect	-12.4596
▁actionable	-12.4599
▁sole	-12.46
▁isolat	-12.4603
▁facto	-12.4604
▁capitalize	-12.4605
▁peripheral	-12.4607
▁muscle	-12.4609
▁spikes	-12.461
▁plates	-12.4612
▁barycenter	-12.4613
▁penetration	-12.4618
▁patent	-12.4623
▁ju	-12.4627
▁streak	-12.4629
▁uris	-12.4631
▁multiuser	-12.4632
▁posteriors	-12.4634
star	-12.4636
▁banking	-12.4638
ything	-12.464
▁contrasting	-12.4641
▁simplifications	-12.4641
▁coinductive	-12.4649
▁print	-12.4651
reference	-12.4655
▁fluency	-12.4656
▁basketball	-12.4656
▁egomotion	-12.4657
▁misclassified	-12.4658
▁unidirectional	-12.4658
▁promot	-12.466
▁collaborators	-12.4661
▁harvested	-12.4663
▁llvm	-12.4663
▁ethnicity	-12.4664
ph	-12.4664
▁pathology	-12.4665
▁parsed	-12.4665
chi	-12.4667
interest	-12.4668
▁ltl	-12.4669
rec	-12.4669
markov	-12.4669
▁borrowed	-12.467
▁66	-12.467
behaved	-12.4676
▁elm	-12.4676
▁regularisation	-12.4676
▁dom	-12.4677
▁manag	-12.4678
computed	-12.4678
then	-12.4681
gb	-12.4683
▁extrapolate	-12.4684
▁adjectives	-12.4687
pm	-12.4688
▁stylize	-12.4691
ratio	-12.4707
▁soil	-12.4709
▁myopic	-12.4712
▁ye	-12.4712
▁retweets	-12.4714
▁pat	-12.4718
interdisciplinar	-12.4721
▁meme	-12.4725
par	-12.4726
regret	-12.4731
▁implie	-12.4733
ably	-12.4736
▁violat	-12.4736
▁lmp	-12.4736
▁encapsulate	-12.4738
▁isps	-12.4738
▁hint	-12.4739
gl	-12.4746
▁omni	-12.4751
▁commercially	-12.4753
▁gis	-12.4755
00	-12.4765
ql	-12.4768
08	-12.4771
▁0-1	-12.4774
degrees	-12.4777
▁slowdown	-12.4779
gs	-12.478
▁eu	-12.4787
▁repaired	-12.479
▁chaining	-12.4791
boxes	-12.4794
▁horizons	-12.4796
▁ric	-12.48
▁specialist	-12.4801
▁revolution	-12.4807
▁temporar	-12.4808
▁eas	-12.481
▁garbage	-12.4823
▁societies	-12.4823
▁metaprogramming	-12.4824
▁detrimental	-12.4826
▁exterior	-12.4827
▁nfrs	-12.4827
▁sin	-12.4828
▁binarized	-12.4829
▁docking	-12.4829
▁nano	-12.4831
▁underpinning	-12.4831
▁situated	-12.4832
▁likelihoods	-12.4837
expression	-12.484
▁busy	-12.484
▁vcg	-12.4842
▁maximi	-12.4843
▁whitening	-12.4846
▁manageable	-12.4847
▁slim	-12.4853
▁increments	-12.4857
root	-12.4857
▁cloth	-12.4861
ball	-12.4869
▁outfit	-12.4869
▁farms	-12.4872
▁homomorphisms	-12.4874
▁lf	-12.4875
▁compil	-12.4877
▁unigrams	-12.4877
▁aka	-12.4878
▁elaborated	-12.488
▁promotion	-12.4881
▁puzzles	-12.4882
▁lag	-12.4886
▁2.2	-12.4888
▁crops	-12.4892
▁arousal	-12.4893
▁tau	-12.4902
▁taint	-12.4903
▁dictate	-12.4904
▁aesthetics	-12.4919
representation	-12.492
▁tradition	-12.4922
▁substitutes	-12.4925
▁newman	-12.4931
▁1.4	-12.4933
▁2.3	-12.4935
▁postures	-12.4936
▁tunnel	-12.4938
▁productive	-12.4941
▁emphasized	-12.4945
▁multiplier	-12.4949
▁spn	-12.496
▁happening	-12.4963
▁molecule	-12.4967
chan	-12.4971
▁renyi	-12.4972
▁cheby	-12.4978
ars	-12.4984
▁downsample	-12.4985
17	-12.4986
▁divergences	-12.4987
▁objectively	-12.4988
▁0.7	-12.4989
▁twelve	-12.4992
▁banzhaf	-12.4992
▁heterogenous	-12.4992
▁preemptive	-12.4993
▁foursquare	-12.4995
▁cpr	-12.4996
▁clever	-12.4996
▁seasonal	-12.4996
▁hypothetical	-12.4996
▁remainder	-12.4997
▁algorithmically	-12.4997
▁occupy	-12.4998
▁hamper	-12.4998
▁tightness	-12.4999
▁trails	-12.5
▁creativity	-12.5
▁reconciliation	-12.5
▁attainable	-12.5
▁truncation	-12.5001
▁deduction	-12.5002
▁interleaved	-12.5003
▁radically	-12.5003
▁52	-12.5005
▁faithfully	-12.5008
▁regeneration	-12.5011
▁bargain	-12.5012
▁stm	-12.5014
▁pegs	-12.5017
▁82	-12.5017
▁glasses	-12.5018
▁censored	-12.5019
▁identifiability	-12.502
▁casual	-12.5023
▁mismatched	-12.5024
▁interruptions	-12.5024
▁uda	-12.5024
▁satisfiable	-12.5026
▁flaws	-12.5029
▁verifie	-12.5032
▁monotonically	-12.5033
▁attach	-12.5035
▁mem	-12.5036
▁incompleteness	-12.5037
▁44	-12.5039
▁assertion	-12.504
▁mixes	-12.5046
▁printer	-12.5047
▁smc	-12.5047
ld	-12.505
occur	-12.5051
▁append	-12.5052
▁tu	-12.5052
▁wins	-12.5053
▁crawlers	-12.5054
learner	-12.5056
▁invariances	-12.5058
lu	-12.5059
effect	-12.5061
▁gbs	-12.5063
▁mel	-12.5068
▁architects	-12.507
▁sac	-12.5072
▁bf	-12.5072
technical	-12.5073
year	-12.5074
ham	-12.5078
▁exclud	-12.5079
▁wearing	-12.5083
▁flips	-12.5085
water	-12.5085
affine	-12.5089
division	-12.5094
▁helper	-12.5095
▁panorami	-12.5096
▁masked	-12.5098
▁10.	-12.5103
▁disambiguat	-12.5103
▁der	-12.5104
▁ues	-12.5105
▁lemmas	-12.5105
authorship	-12.5107
▁usa	-12.5108
▁imagine	-12.5108
▁pace	-12.511
similar	-12.5115
▁nuisance	-12.5117
▁debugger	-12.5118
diagonal	-12.5118
▁bitmap	-12.512
▁collocation	-12.5121
▁outsourc	-12.5121
▁berkeley	-12.5124
▁jitter	-12.5129
▁dg	-12.513
toring	-12.5144
▁152	-12.5145
▁encompasse	-12.5146
▁ui	-12.5146
▁blstm	-12.5148
playing	-12.5156
page	-12.5163
▁gro	-12.5164
▁dynamism	-12.5165
▁redundancies	-12.5165
▁rehabilitation	-12.5165
▁smith	-12.5165
▁cohesion	-12.5165
▁binaries	-12.5165
▁omnidirectional	-12.5165
▁radiance	-12.5166
▁authorities	-12.5166
▁orthographic	-12.5167
512	-12.5167
▁criticism	-12.5168
▁collaborat	-12.5171
▁uct	-12.5173
▁controversial	-12.5174
▁avx	-12.5174
▁jain	-12.5176
▁vectorial	-12.5176
▁eigenfunctions	-12.518
▁interdependent	-12.5181
▁83	-12.5183
▁explosive	-12.5187
▁comparabl	-12.5187
subject	-12.5191
▁discern	-12.5192
▁tampering	-12.5201
▁sds	-12.5201
▁synaptic	-12.5202
▁calculi	-12.5203
ev	-12.5208
▁reranking	-12.5208
▁gyroscope	-12.521
▁isometric	-12.5216
▁plastic	-12.5216
▁linkedin	-12.522
scope	-12.5222
▁quantifiers	-12.5222
vi	-12.5232
sensing	-12.5234
ating	-12.5238
▁annotator	-12.5239
▁matters	-12.5241
running	-12.5244
▁iou	-12.5247
fm	-12.5247
capacitated	-12.5251
▁saves	-12.5259
▁delineate	-12.526
▁pspace	-12.5267
macher	-12.5268
▁xi	-12.5269
▁coarser	-12.527
ani	-12.5271
▁aco	-12.5273
▁joined	-12.5278
decay	-12.5278
▁37	-12.5281
▁prospective	-12.5282
▁2.4	-12.5283
nted	-12.5284
▁cub	-12.5285
▁regulations	-12.5285
nash	-12.5291
▁cuboid	-12.5293
▁impairment	-12.5293
▁dierent	-12.5296
▁predecessor	-12.5297
▁disjunction	-12.5301
▁throw	-12.5301
▁kinetic	-12.5302
▁utilis	-12.5303
cast	-12.5306
▁quantizer	-12.5307
▁shortcut	-12.5308
axis	-12.5308
▁er	-12.5309
vid	-12.5315
▁attractor	-12.5318
types	-12.5322
▁mrfs	-12.5323
▁defin	-12.5326
▁torque	-12.5333
iv	-12.5333
▁quadruped	-12.534
▁portuguese	-12.534
▁hydrophobic	-12.534
▁qaoa	-12.534
▁parsimonious	-12.534
▁forgery	-12.534
▁commonalities	-12.5341
▁ourselves	-12.5341
▁dropped	-12.5341
▁semin	-12.5342
strauss	-12.5343
▁mortality	-12.5343
▁pencil	-12.5344
▁politics	-12.5344
▁ppm	-12.5344
▁speculation	-12.5344
▁happiness	-12.5348
▁vanishes	-12.5349
▁sexual	-12.5351
▁france	-12.5352
ware	-12.5352
red	-12.5354
▁chords	-12.5355
▁ds	-12.5356
▁hp	-12.5365
▁ddpg	-12.5366
▁cavity	-12.5366
▁exert	-12.5369
▁subscribers	-12.537
▁inliers	-12.5379
▁reversal	-12.5381
97	-12.5384
▁pins	-12.5386
▁gc	-12.5386
▁rescaling	-12.5389
▁gameplay	-12.539
▁forwarded	-12.5393
▁maneuvers	-12.5395
▁lenet	-12.5395
▁referenced	-12.5398
▁1-1	-12.5399
▁fb	-12.5399
▁nc	-12.54
▁11.	-12.5405
▁secur	-12.5406
cfs	-12.5409
air	-12.541
▁dilat	-12.5411
▁fonts	-12.5412
▁monads	-12.5413
bandwidth	-12.5418
▁scarc	-12.5418
match	-12.5419
ification	-12.5423
▁datacenters	-12.5426
▁93	-12.5427
▁orient	-12.5429
▁auditing	-12.5431
▁parents	-12.5435
▁unknowns	-12.5437
▁promoted	-12.5441
▁narratives	-12.5441
▁delegate	-12.5451
derived	-12.5454
conversion	-12.5457
▁ag	-12.5457
drawn	-12.5458
fidelity	-12.5461
▁stateless	-12.5464
resistant	-12.5464
well	-12.5466
▁hsi	-12.5466
▁weigh	-12.5472
liance	-12.5472
▁ehr	-12.5472
▁dsr	-12.5473
▁denoiser	-12.5475
▁marketplace	-12.5477
▁substring	-12.5478
▁homomorphism	-12.548
fs	-12.5481
▁sdr	-12.5482
▁wearer	-12.5484
▁strategyproof	-12.5485
▁47	-12.5487
▁testable	-12.5493
▁dcn	-12.5493
represented	-12.5494
▁anticipated	-12.5504
▁unwa	-12.5504
▁hall	-12.5508
▁dempster	-12.5519
▁pessimistic	-12.5519
▁supergravity	-12.5519
▁specular	-12.5519
▁conformance	-12.5519
▁punctuation	-12.5519
▁1991	-12.5519
▁deduplication	-12.552
▁unavailability	-12.552
▁switched	-12.5522
▁rectify	-12.5522
▁trickle	-12.5523
▁arbitrage	-12.5523
cap	-12.5526
▁idiomatic	-12.5527
▁grey	-12.5527
hierarchical	-12.5529
▁conceived	-12.553
▁geospatial	-12.5531
▁richness	-12.5533
▁computability	-12.5533
▁nowcast	-12.5534
▁prototyping	-12.5536
▁intercept	-12.5536
▁organic	-12.5536
▁integrable	-12.5538
classical	-12.5539
▁prim	-12.554
▁impaired	-12.5544
▁nesting	-12.555
▁latch	-12.5555
▁landscapes	-12.5555
▁anns	-12.5556
hidden	-12.5558
aggregation	-12.5565
▁essays	-12.557
▁crowdsourc	-12.5573
▁retained	-12.5574
lly	-12.5575
▁3.6	-12.5576
▁flowers	-12.5582
▁pressing	-12.5588
times	-12.5598
▁paris	-12.5609
▁quantiles	-12.5613
▁simon	-12.5615
▁writers	-12.5616
▁pad	-12.5622
▁2.6	-12.5638
▁imitat	-12.5642
browsing	-12.5642
▁polyhedron	-12.5648
color	-12.5649
frontal	-12.565
▁crystal	-12.5652
▁contagion	-12.5653
▁raindrop	-12.5654
bm	-12.5654
▁morpheme	-12.5654
chromatic	-12.5659
rvfl	-12.566
▁poem	-12.5662
▁ledger	-12.5663
▁substructure	-12.5663
you	-12.5664
▁pol	-12.5665
▁trouble	-12.5667
▁mts	-12.5668
▁installation	-12.5671
▁sfs	-12.5671
▁vb	-12.5673
labels	-12.5673
▁abort	-12.5675
▁handover	-12.5676
▁grass	-12.5678
gp	-12.5682
▁redesign	-12.5689
▁trades	-12.5689
intended	-12.5692
▁ssim	-12.5692
▁unambiguous	-12.5693
▁pra	-12.5694
▁arcade	-12.57
▁stiffness	-12.57
val	-12.5701
▁fraudulent	-12.5701
▁viterbi	-12.5704
▁roughness	-12.5706
▁kth	-12.5708
▁vague	-12.5708
▁vantage	-12.5708
▁harmonics	-12.5708
▁diamond	-12.5708
▁undertaken	-12.571
▁interactivity	-12.571
▁sitting	-12.571
▁inaccuracies	-12.5711
▁wyner	-12.5713
▁pivotal	-12.5713
▁envisioned	-12.5714
▁clusterings	-12.5714
number	-12.5715
lp	-12.5716
▁hri	-12.572
▁respondents	-12.5721
▁rao	-12.5722
▁employees	-12.5723
▁coined	-12.5725
▁transh	-12.5726
▁recognised	-12.5726
▁proportions	-12.5727
▁iqa	-12.5727
facto	-12.5729
▁threefold	-12.5733
▁cyclists	-12.5737
▁deployable	-12.5738
▁shortly	-12.5739
▁mount	-12.5741
▁deduced	-12.5742
▁manga	-12.5743
▁attended	-12.5744
▁73	-12.5744
▁101	-12.5746
ning	-12.5748
▁producers	-12.575
▁captcha	-12.5751
▁dq	-12.5752
▁invented	-12.5756
▁silicon	-12.5758
▁hyperlinks	-12.5761
▁nell	-12.5762
▁criticality	-12.5767
loaded	-12.5767
▁incoherence	-12.5772
ol	-12.5772
▁institution	-12.5773
▁pde	-12.5778
decodable	-12.5785
packetization	-12.5798
▁publishers	-12.5803
▁extrem	-12.5804
homogeneous	-12.5805
rigorous	-12.5809
▁cultures	-12.5809
▁photographic	-12.5811
focused	-12.5814
▁martin	-12.5817
ire	-12.582
▁uri	-12.582
▁vol	-12.5829
ron	-12.5829
▁inflection	-12.583
negligible	-12.5835
▁likes	-12.5836
dm	-12.5837
▁tracklet	-12.5839
▁glimpse	-12.5839
▁contradiction	-12.5839
▁counterexample	-12.584
bp	-12.584
evasion	-12.5841
▁citizens	-12.5841
▁hypervisor	-12.5842
▁migrat	-12.5844
plan	-12.5845
citation	-12.5845
ists	-12.5845
things	-12.5846
▁unnatural	-12.5848
▁bond	-12.5849
▁steal	-12.5853
▁subtree	-12.5853
▁coexist	-12.5856
▁discretize	-12.5859
▁eg	-12.5862
▁digraph	-12.5862
ordering	-12.5863
▁disclose	-12.5867
▁bci	-12.587
▁copper	-12.587
colouring	-12.5874
▁toolkits	-12.5874
▁blame	-12.5875
▁anderson	-12.5878
droid	-12.5885
bfgs	-12.5885
▁omniglot	-12.5886
▁urllc	-12.5886
▁erlang	-12.5886
▁kinodynamic	-12.5886
▁pronounced	-12.5886
▁autonomic	-12.5886
▁hdfs	-12.5887
▁fascinating	-12.5888
▁vault	-12.589
▁mb	-12.5891
▁monoidal	-12.5893
▁ecological	-12.5894
layers	-12.5895
enable	-12.5896
▁recruitment	-12.5896
▁telephone	-12.5901
▁spmv	-12.5901
▁archiving	-12.5901
▁cfi	-12.5902
▁pgas	-12.5903
commutative	-12.5905
▁polarized	-12.5905
correlated	-12.5906
▁migrate	-12.5906
▁sigma	-12.5909
pattern	-12.5911
▁hoeffding	-12.5916
▁vggnet	-12.5916
bayesian	-12.5921
▁revisited	-12.5924
variant	-12.5926
discriminative	-12.5926
▁williams	-12.5927
▁structur	-12.593
▁uncovered	-12.5935
▁transversal	-12.5937
▁fork	-12.5941
uc	-12.5943
▁fund	-12.5945
▁2019	-12.5946
▁alerts	-12.5952
▁raters	-12.5954
regions	-12.5956
▁prop	-12.5956
ucb	-12.5957
▁emissions	-12.5957
▁pump	-12.5958
▁sight	-12.5963
closure	-12.5965
▁distilling	-12.5969
being	-12.5971
kin	-12.5973
▁scar	-12.5976
private	-12.5978
▁hyperplanes	-12.598
1.	-12.598
safety	-12.5987
confidence	-12.5988
▁capital	-12.599
▁trait	-12.5991
▁hazards	-12.5991
▁newer	-12.5997
▁customiz	-12.5997
ich	-12.6001
▁gnu	-12.6003
boolean	-12.6008
recall	-12.6015
understood	-12.6015
ize	-12.6015
enhanced	-12.6017
originated	-12.6018
ki	-12.6018
▁analogues	-12.6026
▁lsi	-12.6026
▁wrist	-12.6027
▁household	-12.603
branes	-12.603
▁decent	-12.6032
▁ru	-12.6037
▁qk	-12.6042
▁edited	-12.6044
▁viola	-12.6047
▁brane	-12.6048
▁residue	-12.6048
forms	-12.6052
06	-12.6053
▁evasion	-12.6058
▁tester	-12.6063
▁campus	-12.6065
▁ransomware	-12.6074
▁deficiencies	-12.6074
▁outdated	-12.6074
▁simplistic	-12.6074
▁eleven	-12.6074
▁residence	-12.6075
▁footage	-12.6075
▁squeezenet	-12.6075
▁modulus	-12.6075
▁fallback	-12.6076
▁strassen	-12.6078
▁surplus	-12.6078
▁potts	-12.608
-2010	-12.6081
▁yan	-12.6081
▁spring	-12.6082
▁crude	-12.6084
evolving	-12.6085
▁czech	-12.6087
▁67	-12.6087
▁hostile	-12.6088
▁meetings	-12.6088
▁annual	-12.6089
▁mines	-12.609
▁sticker	-12.609
▁eve	-12.6094
▁acknowledged	-12.6094
▁manufacturers	-12.6095
▁heisenberg	-12.6096
▁ser	-12.6097
▁dat	-12.6097
blocking	-12.6099
▁overloaded	-12.61
▁stemming	-12.6102
▁contingenc	-12.6102
▁insightful	-12.6104
▁nation	-12.6106
▁ricci	-12.6108
▁fgsm	-12.611
▁diversify	-12.6111
▁communicative	-12.6115
▁boundedness	-12.6115
▁survive	-12.6117
▁genprog	-12.6118
▁disseminate	-12.6122
▁resembl	-12.6125
project	-12.6125
encoding	-12.6126
magnitude	-12.6127
▁subtrees	-12.6128
▁rails	-12.6132
▁lesions	-12.6136
▁spr	-12.6136
▁mutants	-12.6136
▁organs	-12.6138
coordinate	-12.614
▁spectrograms	-12.6142
▁initiatives	-12.6144
▁sex	-12.6149
▁award	-12.6149
drop	-12.615
▁ka	-12.6155
▁intents	-12.6165
▁gone	-12.6168
iteration	-12.6168
▁mapf	-12.6174
pi	-12.6179
▁pyramidal	-12.6182
▁learnability	-12.6183
▁recommenders	-12.6184
▁mrc	-12.6186
decode	-12.6189
▁communicates	-12.6197
▁impede	-12.6198
▁overlays	-12.6198
▁unity	-12.6199
▁jumps	-12.6201
▁spp	-12.6202
▁odds	-12.6203
erefore	-12.6208
hour	-12.6208
lines	-12.6212
▁55	-12.6213
▁gmms	-12.6213
▁agreed	-12.6216
parameterized	-12.6218
calibration	-12.6219
▁metropoli	-12.6221
▁flood	-12.6222
▁rtt	-12.6226
▁las	-12.6227
▁unlock	-12.623
▁shock	-12.6233
hungry	-12.6233
▁outsource	-12.6234
scene	-12.6234
flight	-12.6235
▁mtc	-12.6237
▁favors	-12.6242
▁epidemics	-12.6243
▁synchroniz	-12.6245
▁impli	-12.6248
au	-12.626
cr	-12.6262
▁den	-12.6265
▁fet	-12.6265
▁1987	-12.6266
▁fifteen	-12.6266
▁batteries	-12.6267
▁multiferroic	-12.6267
▁valiant	-12.6267
▁administration	-12.6267
▁newswire	-12.6267
▁jordan	-12.6267
▁coherency	-12.6267
▁cybersecurity	-12.6267
▁lqr	-12.6269
▁gracefully	-12.6269
▁tangible	-12.627
▁comfortabl	-12.6271
▁responsibility	-12.6271
▁2.1	-12.6275
▁unfamiliar	-12.6276
▁sine	-12.6278
▁uep	-12.6279
▁commuting	-12.628
▁smile	-12.6284
▁bonus	-12.6284
▁unnecessarily	-12.6285
▁tpc	-12.6289
▁sla	-12.629
▁hetnets	-12.6293
▁suppressed	-12.6296
▁chart	-12.6296
▁assemble	-12.6297
▁divisors	-12.6302
▁approximators	-12.6302
▁shrinking	-12.6304
responding	-12.6305
▁sam	-12.6305
▁instrumented	-12.6308
▁prioritiz	-12.6308
▁distractions	-12.6308
▁attacked	-12.631
▁recipients	-12.6313
▁dmn	-12.6316
▁digraphs	-12.6316
▁mosaic	-12.6317
ology	-12.632
▁characterised	-12.6321
tail	-12.6323
▁peg	-12.6324
functions	-12.6333
▁reconcile	-12.6333
▁saved	-12.6339
dominated	-12.634
▁spns	-12.6345
▁dfs	-12.6345
▁reinforced	-12.6346
▁logically	-12.6346
▁nilpoten	-12.6347
▁unaware	-12.6349
▁rep	-12.6351
▁pois	-12.6351
▁recurr	-12.6353
active	-12.6355
▁iml	-12.6359
▁lett	-12.6365
balanced	-12.6366
▁cpd	-12.6368
▁someone	-12.6376
▁calling	-12.6379
▁htm	-12.638
▁duplicates	-12.6385
▁haz	-12.6402
encryption	-12.6403
partitioning	-12.6405
home	-12.6406
▁160	-12.6406
▁shear	-12.6413
▁touchscreen	-12.6413
nns	-12.6413
▁downward	-12.6414
▁tessellation	-12.6415
▁telescope	-12.6416
▁heatmap	-12.6417
▁rid	-12.6421
▁num	-12.6423
▁vanish	-12.6423
▁chamber	-12.6424
▁evidences	-12.643
ily	-12.6431
▁ensured	-12.6431
▁nir	-12.6432
▁placements	-12.6434
supported	-12.6434
▁clicked	-12.6438
▁crc	-12.6438
▁recipient	-12.6439
▁wavelength	-12.644
▁stationarity	-12.6454
effector	-12.6457
▁marl	-12.6459
▁logit	-12.6459
▁turbo	-12.646
▁august	-12.6462
▁pinyin	-12.6462
▁lactate	-12.6463
▁robocup	-12.6463
▁mscoco	-12.6463
▁zheng	-12.6463
▁hexagonal	-12.6463
▁authenticity	-12.6463
▁tts	-12.6464
▁familiarity	-12.6466
▁ramsey	-12.6467
▁resnext	-12.6467
▁rural	-12.6467
▁asynchrony	-12.6469
▁nondeterminism	-12.647
▁revolutionized	-12.647
linearly	-12.647
closed	-12.6471
▁ada	-12.6471
▁commonplace	-12.6471
tuples	-12.6475
▁budgets	-12.6475
tr	-12.6479
▁sobolev	-12.6481
▁synchronis	-12.6481
▁terrorist	-12.6484
▁profitable	-12.6484
▁klein	-12.6487
▁feelings	-12.6488
▁photon	-12.6488
▁elevation	-12.6489
▁exposition	-12.649
▁alternately	-12.6492
▁bookmark	-12.6492
▁resu	-12.6496
▁emd	-12.6501
▁rvfl	-12.6506
▁coral	-12.6508
▁tiled	-12.651
▁nms	-12.6512
▁substrings	-12.6514
▁linearity	-12.6516
termination	-12.6518
▁ips	-12.652
ip	-12.6522
▁78	-12.6524
▁fov	-12.6529
▁bugg	-12.653
▁underline	-12.6535
▁favourabl	-12.6537
▁tan	-12.6537
▁diverge	-12.6543
▁mar	-12.6546
▁assure	-12.6546
▁multipoint	-12.6549
▁cdma	-12.656
▁warehouses	-12.6561
▁bursts	-12.6565
▁ij	-12.6567
▁fractions	-12.6567
pca	-12.6568
▁td	-12.657
▁proto	-12.657
▁sparsify	-12.6575
su	-12.6576
grade	-12.6579
▁programmed	-12.658
quadratic	-12.6589
▁proc	-12.6589
▁instantiations	-12.6589
additive	-12.6593
situ	-12.6596
ou	-12.6597
global	-12.6598
▁ant	-12.6598
wa	-12.6599
▁heights	-12.6604
ria	-12.6605
▁browse	-12.6607
▁cn	-12.6609
▁tamper	-12.6612
▁elkin	-12.6612
84	-12.6614
▁reservoir	-12.6615
▁fluctuation	-12.6616
▁refactoring	-12.6618
elling	-12.662
backward	-12.6621
▁ben	-12.6622
suming	-12.6624
▁disco	-12.6625
closeness	-12.6626
▁sparsest	-12.6627
▁kn	-12.6632
▁prevented	-12.6634
mitting	-12.6634
▁plugin	-12.6635
▁alg	-12.6637
▁sale	-12.6637
▁prophet	-12.6641
▁raz	-12.6641
nmf	-12.6641
ghz	-12.6644
▁zi	-12.6646
▁chroma	-12.6649
2000	-12.665
▁auv	-12.665
▁hep	-12.6652
▁notification	-12.6653
nally	-12.6654
▁cg	-12.666
▁wrench	-12.6663
▁toeplitz	-12.6663
▁granularities	-12.6663
▁retrospective	-12.6665
▁cuhk	-12.6667
▁casia	-12.6667
▁summer	-12.6667
va	-12.6669
▁fds	-12.6669
▁winograd	-12.6672
▁trapping	-12.6672
▁fifo	-12.6672
images	-12.6672
▁degeneration	-12.668
prolog	-12.6681
▁staff	-12.6683
▁paging	-12.6685
▁snap	-12.6686
▁billing	-12.669
▁symptoms	-12.6691
xnet	-12.6692
adapt	-12.6693
cv	-12.6693
▁thumbnails	-12.6693
▁comprehensible	-12.6694
▁slack	-12.6694
▁conveyed	-12.6697
▁restor	-12.6698
▁fl	-12.6699
own	-12.67
▁seizure	-12.6702
▁dialogs	-12.6704
worthy	-12.6705
▁dt	-12.6707
▁vertically	-12.671
▁delete	-12.6711
▁substituted	-12.6712
ember	-12.6713
prediction	-12.6713
▁alphabets	-12.6715
▁anger	-12.6723
ors	-12.6723
▁orbits	-12.6728
▁flipping	-12.6729
▁fee	-12.6731
▁cur	-12.6735
modulated	-12.6735
▁mag	-12.6741
xml	-12.6749
▁ports	-12.6759
ide	-12.6759
▁inapplicable	-12.6762
iris	-12.6763
▁tc	-12.6764
restricted	-12.6765
interval	-12.6765
▁tw	-12.6772
synthesis	-12.6774
collision	-12.678
secure	-12.6783
raising	-12.6783
▁multiway	-12.6783
▁tech	-12.6786
▁cox	-12.6787
akis	-12.6787
▁sinks	-12.6789
▁gateways	-12.6791
▁omit	-12.6798
▁assisting	-12.6799
ini	-12.6807
element	-12.6811
▁phylogenetic	-12.6813
▁3.3	-12.6816
determinism	-12.6818
▁museum	-12.6822
▁voices	-12.6823
▁downside	-12.6827
microsoft	-12.6828
▁gale	-12.6828
▁bitrate	-12.6833
▁martingale	-12.6833
invasive	-12.6835
compliant	-12.6836
ions	-12.6837
dbscan	-12.6841
▁dnf	-12.6846
theoretically	-12.6847
colorings	-12.6849
▁ht	-12.6852
composable	-12.6853
personal	-12.6855
▁comp	-12.6858
maximiz	-12.6859
plp	-12.6859
▁historic	-12.6859
▁dans	-12.6859
ties	-12.6863
▁brittle	-12.6866
▁stolen	-12.6866
▁furniture	-12.6867
▁copied	-12.6867
▁typology	-12.6867
▁restful	-12.6867
▁nonmonotonic	-12.6868
▁deficiency	-12.687
▁plentiful	-12.6871
▁equip	-12.6871
▁starcraft	-12.6871
▁gl	-12.6872
▁bundling	-12.6872
▁leg	-12.6873
▁bernstein	-12.6876
▁maximis	-12.6878
▁ergodicity	-12.6883
▁fabrication	-12.6884
▁cray	-12.6885
▁destroy	-12.6885
▁lru	-12.6889
▁ndcg	-12.689
▁tone	-12.6891
▁alleviated	-12.6891
▁barcodes	-12.6898
▁mw	-12.6901
▁calendars	-12.6901
▁prospects	-12.6903
▁everyone	-12.6905
▁revenues	-12.6906
▁fragmented	-12.6907
▁guo	-12.6907
▁fade	-12.6908
centralised	-12.6908
▁0.2	-12.6909
binary	-12.691
▁groupings	-12.691
▁excluded	-12.6911
▁gbps	-12.6911
▁nlu	-12.6913
▁theme	-12.6915
western	-12.6917
▁1.8	-12.6919
▁replicating	-12.6919
models	-12.6921
▁lime	-12.6926
▁expanders	-12.6931
▁degrad	-12.6933
categories	-12.6934
▁theft	-12.6942
▁tilt	-12.6945
▁cgan	-12.6946
▁jit	-12.6946
vsky	-12.6947
▁login	-12.6957
▁struct	-12.696
exploration	-12.6961
▁conventionally	-12.6962
▁conve	-12.6963
not	-12.6963
▁degeneracy	-12.6964
▁portraits	-12.6968
▁ti	-12.6974
▁trips	-12.6979
▁mul	-12.6984
▁negotiate	-12.6986
ltering	-12.6987
▁jumping	-12.6994
enyi	-12.7001
▁stn	-12.7002
▁58	-12.7003
▁ko	-12.7007
▁kar	-12.7009
▁court	-12.7015
▁checkers	-12.7015
▁sld	-12.7018
▁axiom	-12.7023
▁danger	-12.7023
▁sandpile	-12.7026
▁subsection	-12.7027
▁supercomputer	-12.7032
▁hat	-12.7032
▁liar	-12.7035
bl	-12.7037
▁61	-12.7038
▁sync	-12.7041
▁spaced	-12.7045
▁gta	-12.7046
▁gm	-12.7047
▁karp	-12.7047
▁senders	-12.7048
editing	-12.705
house	-12.7062
▁rsa	-12.7065
▁12.	-12.7069
▁shapenet	-12.7071
▁mptcp	-12.7074
▁bovw	-12.7074
▁hallmark	-12.7075
▁eavesdropping	-12.7075
▁responsiveness	-12.7076
▁pinch	-12.7076
▁clarity	-12.7076
▁spreads	-12.7077
▁temporarily	-12.7077
▁erdos	-12.7078
▁radon	-12.708
▁1960	-12.708
▁nlos	-12.7083
▁breaches	-12.7084
decoders	-12.7084
▁clipping	-12.7085
atory	-12.7086
▁pinterest	-12.7087
▁invasive	-12.7088
▁ear	-12.7089
▁fiducial	-12.7089
▁tabling	-12.709
▁cms	-12.7092
▁directory	-12.7093
▁happy	-12.7094
▁erased	-12.7094
▁viruses	-12.7096
fast	-12.7096
cnf	-12.7099
reconstruction	-12.7099
▁therapy	-12.71
▁facet	-12.7101
session	-12.7107
▁als	-12.7107
▁fnn	-12.7109
▁smoother	-12.711
feat	-12.7111
▁lps	-12.7114
bnns	-12.7115
▁enabler	-12.7117
processed	-12.7119
▁dsls	-12.7121
▁enhancon	-12.7125
▁rotate	-12.7126
▁infectious	-12.7129
▁connectedness	-12.7129
▁buses	-12.7132
▁liver	-12.7134
▁traversed	-12.7135
bench	-12.7138
▁agricultural	-12.7143
▁congest	-12.7144
▁torques	-12.7144
▁transpose	-12.715
.57	-12.7153
web	-12.7153
▁eca	-12.7157
risk	-12.716
▁psm	-12.7161
▁lsa	-12.7164
▁duplex	-12.7165
dl	-12.7166
▁recognizers	-12.7167
▁rst	-12.7168
▁discriminatory	-12.7168
▁abac	-12.717
prover	-12.7174
▁traction	-12.7174
▁crafting	-12.7175
▁amen	-12.7176
▁accumulat	-12.7182
▁zones	-12.7183
terdependencies	-12.7186
▁detectable	-12.7188
▁frontiers	-12.719
motivated	-12.719
▁explorations	-12.7199
▁bb	-12.7202
▁ecc	-12.7203
isclassification	-12.7204
▁paraphrases	-12.7212
▁divisible	-12.7212
▁fsm	-12.7215
resolved	-12.7225
dqn	-12.7226
▁taxis	-12.7227
▁lake	-12.7232
▁revocation	-12.7232
taining	-12.7233
▁gu	-12.7235
▁elucidate	-12.724
▁filesystem	-12.7241
▁transceiver	-12.7245
▁distraction	-12.7247
▁singleton	-12.725
▁sensori	-12.7252
submodular	-12.7252
▁suprem	-12.726
▁factorizations	-12.726
commodity	-12.7261
ortex	-12.7262
awareness	-12.7265
climbing	-12.7271
den	-12.7274
▁noma	-12.7276
▁vnf	-12.7277
▁breach	-12.7278
association	-12.7279
01	-12.7284
▁gromov	-12.7287
▁veracity	-12.7287
▁chernoff	-12.7287
▁mizar	-12.7287
▁arbitration	-12.7287
▁ecology	-12.7287
▁cabinet	-12.7287
▁polysemy	-12.7288
▁wsj	-12.7288
▁folksonomy	-12.7288
▁affinities	-12.7288
▁stopped	-12.7288
▁excavation	-12.7288
anonymization	-12.7288
▁stealthy	-12.7288
▁dvfs	-12.7288
▁wikidata	-12.7288
fd	-12.7289
▁memorization	-12.7289
string	-12.7289
▁acceptability	-12.7291
▁nfc	-12.7291
▁wtf	-12.7293
▁codec	-12.7295
▁trapped	-12.7295
▁subadditive	-12.7296
dnn	-12.7297
▁entropic	-12.7298
32	-12.7299
ideal	-12.7301
▁distort	-12.7301
▁dga	-12.7301
▁ot	-12.7301
▁pursu	-12.7301
▁corr	-12.7302
▁hybridization	-12.7305
▁clearview	-12.7305
▁federal	-12.7306
▁geography	-12.7307
▁springer	-12.731
▁oscillations	-12.7311
▁exemplifie	-12.7312
▁ut	-12.7313
▁residents	-12.7317
▁police	-12.7321
▁timescales	-12.7322
▁theta	-12.7325
lt	-12.7326
▁advocated	-12.7327
-1.5	-12.7331
tv	-12.7336
▁enumerated	-12.7336
rays	-12.7337
▁quant	-12.7337
▁coresets	-12.7338
▁twist	-12.7338
beit	-12.7339
▁monograph	-12.7342
▁screens	-12.7342
▁icons	-12.7346
sen	-12.7347
▁erasures	-12.735
second	-12.7354
▁wan	-12.7355
▁indifference	-12.7355
▁rade	-12.7356
▁presentations	-12.7358
shell	-12.7361
▁intentional	-12.7362
cache	-12.7362
mographic	-12.7364
rmse	-12.7366
▁smpl	-12.7366
▁dsp	-12.7368
angle	-12.7371
▁700	-12.738
▁dbns	-12.738
▁metaphors	-12.7382
▁watching	-12.7383
▁south	-12.7383
▁bigrams	-12.7384
dd	-12.7386
methods	-12.7387
▁del	-12.739
lm	-12.7393
rman	-12.7401
▁purchas	-12.7402
▁analyzers	-12.7402
coco	-12.7403
uri	-12.7404
▁remarks	-12.7406
▁ul	-12.7407
dimensionality	-12.7409
▁ship	-12.7414
▁borders	-12.7414
▁1.7	-12.7418
▁decomposable	-12.7421
▁diagnos	-12.7422
▁retina	-12.7423
explored	-12.7423
▁foraging	-12.7426
character	-12.7426
hr	-12.7432
▁ped	-12.7433
▁qubit	-12.7441
▁plent	-12.7441
fortunately	-12.7443
dis	-12.7444
▁guild	-12.7444
perfect	-12.7445
▁entail	-12.7449
▁audiences	-12.745
adic	-12.7453
▁enrollment	-12.7456
▁browsers	-12.7456
▁handheld	-12.7457
98	-12.7457
▁classroom	-12.7459
atic	-12.7459
▁charges	-12.7461
▁seam	-12.7469
cultural	-12.7469
▁0.1	-12.747
▁shoot	-12.7471
ys	-12.7475
▁sv	-12.7478
cf	-12.7482
▁dy	-12.7484
▁pid	-12.7484
▁fs	-12.7485
bilinear	-12.7486
proxy	-12.7487
extremal	-12.749
faulty	-12.7491
▁cfn	-12.7491
▁inlier	-12.7491
versa	-12.7493
triggered	-12.7494
safe	-12.7495
▁silent	-12.7496
▁slave	-12.7498
entering	-12.7504
▁crisp	-12.7505
▁poker	-12.7505
▁mountain	-12.7505
▁corporate	-12.7507
▁bijective	-12.7507
▁adhd	-12.7507
▁occasionally	-12.7509
▁poetry	-12.751
▁runtimes	-12.751
▁bwt	-12.7511
▁transcribed	-12.7513
▁douglas	-12.7515
▁cuckoo	-12.7515
princeton	-12.7515
▁curation	-12.7515
ric	-12.7517
▁intact	-12.7517
▁accidental	-12.7519
▁borda	-12.752
mapping	-12.7525
community	-12.7526
▁climbing	-12.7527
▁factoid	-12.7527
▁discourage	-12.7528
▁trolls	-12.7528
▁quad	-12.7529
▁pml	-12.7529
▁raptor	-12.753
▁bright	-12.7531
simple	-12.7533
▁lcl	-12.7533
▁alon	-12.7537
stationarity	-12.7538
▁settles	-12.7539
▁confused	-12.7539
▁inherited	-12.7541
▁colliding	-12.7542
▁informatics	-12.7545
▁fold	-12.7549
nf	-12.755
pnp	-12.7553
▁dmt	-12.7554
▁activitynet	-12.7559
▁adapters	-12.756
▁favour	-12.7567
▁explor	-12.7567
▁forged	-12.7567
▁aids	-12.7568
▁retransmissions	-12.7569
▁var	-12.7572
▁polymer	-12.7574
▁charts	-12.7578
▁revise	-12.7579
80	-12.758
▁realistically	-12.7581
▁damaged	-12.7583
▁srcnn	-12.7584
der	-12.7587
▁bilevel	-12.7592
ses	-12.7592
▁disorders	-12.7603
▁twin	-12.7616
▁strips	-12.7617
▁prm	-12.7619
tp	-12.762
▁tang	-12.7623
regularization	-12.7627
ious	-12.7629
▁subjected	-12.763
textual	-12.7632
▁additively	-12.7638
shared	-12.7641
fix	-12.7642
▁perceiv	-12.7644
▁summ	-12.7648
▁kt	-12.7648
packet	-12.7654
▁judg	-12.7654
▁temperatures	-12.7656
hastings	-12.7658
▁ramp	-12.7659
▁spacing	-12.766
rp	-12.7664
brane	-12.7673
▁markup	-12.7675
▁occupation	-12.7676
▁reversed	-12.7676
▁harvest	-12.768
▁submanifold	-12.7682
▁polish	-12.7685
▁snake	-12.7694
▁rewiring	-12.7694
mf	-12.7695
51	-12.7697
constraints	-12.7699
conservative	-12.7699
▁rssi	-12.77
splitting	-12.7703
▁blockage	-12.7704
▁translator	-12.7707
▁stepsize	-12.7709
▁prompt	-12.7709
away	-12.7711
nes	-12.7711
▁meteor	-12.7712
▁dic	-12.7713
▁68	-12.7714
▁thwart	-12.7717
▁cond	-12.7718
▁pseudorandom	-12.7719
▁bicycle	-12.772
transfer	-12.7721
▁diff	-12.7722
▁nod	-12.7723
▁comfort	-12.7723
▁dijkstra	-12.7727
▁lebesgue	-12.7727
▁physarum	-12.7727
▁umbrella	-12.7727
▁vegetation	-12.7727
▁quadrature	-12.7727
▁intermediary	-12.7727
▁simulink	-12.7727
▁sophistication	-12.7727
▁frustration	-12.7727
▁schedulability	-12.7727
▁abnormalities	-12.7727
estimators	-12.7728
▁neuroimaging	-12.7729
robin	-12.7729
▁smalltalk	-12.773
▁economies	-12.773
▁1988	-12.7732
▁doubt	-12.7732
▁extensibility	-12.7732
▁cryptocurrency	-12.7732
▁mitigated	-12.7732
▁sisr	-12.7733
▁automl	-12.7733
▁customization	-12.7733
▁assortativity	-12.7734
▁submatrix	-12.7734
▁unspecified	-12.7735
▁sheer	-12.7737
▁disturb	-12.7737
▁thesaurus	-12.7741
▁abbreviations	-12.7742
▁distrust	-12.7742
▁rbac	-12.7743
hereditary	-12.7743
▁levy	-12.7745
▁graphlab	-12.7747
▁pus	-12.7747
▁rpca	-12.775
targeted	-12.775
▁popularized	-12.7752
av	-12.7754
qnet	-12.7757
▁tissues	-12.7757
▁memorized	-12.7758
▁reasoner	-12.7759
informed	-12.776
▁moser	-12.776
automatically	-12.7762
▁1993	-12.7765
operative	-12.7768
▁richly	-12.7769
▁constructors	-12.777
▁conventions	-12.7771
▁nb	-12.7772
▁electronics	-12.7774
rates	-12.7774
▁duplicated	-12.7775
▁iff	-12.7775
▁cheng	-12.7776
▁elect	-12.7776
▁horizontally	-12.7776
ui	-12.7777
ica	-12.7777
▁poselets	-12.7778
▁syntactical	-12.7779
▁preclude	-12.7781
▁recombine	-12.7788
▁matcher	-12.7791
▁mcc	-12.7793
▁realiz	-12.7796
▁obscure	-12.7799
▁charged	-12.7809
objects	-12.781
▁snn	-12.7811
▁knot	-12.7812
▁secrets	-12.7817
heuristic	-12.7818
▁bic	-12.7822
▁oscillators	-12.7829
ze	-12.7829
▁broaden	-12.7829
▁lra	-12.783
▁distinguishable	-12.7835
▁doc	-12.7835
reward	-12.7836
▁accelerometers	-12.7838
▁46	-12.7848
▁repetitions	-12.7848
▁interpreters	-12.7855
▁argu	-12.7856
▁sy	-12.7857
▁forbidd	-12.7857
science	-12.7864
linearities	-12.7866
▁cooperatively	-12.7866
▁defective	-12.7873
▁diagnostics	-12.7873
▁bach	-12.7873
doubling	-12.7876
-256	-12.7876
▁gsa	-12.7883
iming	-12.7887
▁conquer	-12.7893
▁es	-12.7897
▁fingers	-12.7898
▁cep	-12.7899
identified	-12.7902
▁spending	-12.7902
▁justice	-12.7902
▁homicide	-12.7905
reduced	-12.7908
ek	-12.7908
po	-12.7908
than	-12.7913
sketch	-12.7914
▁wrappe	-12.7914
▁iron	-12.7916
▁stars	-12.7919
expectation	-12.792
▁bts	-12.7921
▁cooccurrence	-12.7923
▁blas	-12.7927
▁robin	-12.7929
▁inhibit	-12.7931
▁neur	-12.7933
accelerated	-12.7937
ow	-12.794
convolution	-12.7942
▁approximator	-12.7944
poor	-12.7945
▁travell	-12.7946
packing	-12.7948
▁qp	-12.7948
▁panorama	-12.7949
▁rhythm	-12.795
3.6	-12.795
▁kend	-12.7951
▁comply	-12.7951
▁tableau	-12.7953
preemptive	-12.7953
▁mercury	-12.7954
▁trigonometr	-12.7954
▁trinket	-12.7954
▁qlsca	-12.7954
▁movielens	-12.7954
▁unattended	-12.7954
▁galton	-12.7954
▁cryptanalysis	-12.7954
▁hallucination	-12.7954
▁dutch	-12.7954
▁delicate	-12.7954
▁sadness	-12.7954
▁programmability	-12.7954
▁tsdf	-12.7955
▁unsuccessful	-12.7955
▁supplies	-12.7955
▁warps	-12.7957
▁pertinent	-12.7958
▁vlsi	-12.7959
▁segregation	-12.7959
▁adagrad	-12.7959
▁civil	-12.7959
▁repulsion	-12.796
▁accepting	-12.7961
▁centrally	-12.7964
▁resizing	-12.7964
▁lex	-12.7964
▁scribbles	-12.7966
▁ver	-12.7966
▁adversely	-12.7967
▁4.4	-12.7967
▁reciprocity	-12.797
▁ict	-12.7971
▁poa	-12.7973
▁attracts	-12.7973
▁correlator	-12.7974
▁ou	-12.7974
▁spawn	-12.7975
▁hunt	-12.7975
▁coarsening	-12.7977
▁instructional	-12.7979
▁integrators	-12.7986
▁oz	-12.7991
▁narrowing	-12.7992
▁microprocessors	-12.7993
▁absorbing	-12.7997
▁informational	-12.7998
▁fulfilled	-12.8003
route	-12.8005
maximum	-12.801
ig	-12.8011
▁modelnet	-12.8015
sk	-12.8016
dependencies	-12.8017
classes	-12.8017
▁sectors	-12.8019
▁fortran	-12.8022
▁dss	-12.8022
▁tolerated	-12.8023
▁dispatching	-12.8025
▁que	-12.8026
▁ios	-12.8028
▁pm	-12.8029
▁incomparable	-12.803
synchronized	-12.8033
▁blends	-12.8035
ave	-12.8036
▁wiring	-12.8039
▁restored	-12.8039
▁correlat	-12.8039
evolution	-12.8047
▁streamline	-12.8059
lte	-12.8064
quantum	-12.8075
computation	-12.8075
▁naively	-12.8077
coherent	-12.8077
▁nam	-12.8079
blast	-12.8083
▁dither	-12.8087
▁deceive	-12.8096
▁opponents	-12.8099
▁vq	-12.8101
▁amplitudes	-12.8104
▁maxim	-12.8105
scribed	-12.8107
2010	-12.8107
-6	-12.8111
▁dev	-12.8111
▁redirect	-12.8118
descent	-12.8122
lstms	-12.8126
▁crimes	-12.8131
▁topologically	-12.8135
▁comparab	-12.8138
▁administrator	-12.814
▁cyclist	-12.814
gene	-12.8141
▁synset	-12.8151
▁depot	-12.8151
averse	-12.8154
▁magic	-12.8156
▁hof	-12.8158
ix	-12.8162
wing	-12.8163
▁ld	-12.8163
▁indian	-12.8166
ren	-12.817
▁tele	-12.8171
digit	-12.8171
▁sdm	-12.8173
▁cpm	-12.8173
▁scala	-12.8174
▁phys	-12.8174
iness	-12.8175
ung	-12.8176
▁macros	-12.8178
▁avatar	-12.8182
▁domestic	-12.8186
▁repertoire	-12.8186
▁viscosity	-12.8186
▁kinship	-12.8186
▁isoperimetric	-12.8186
▁aldous	-12.8186
▁astronomy	-12.8187
▁interdiction	-12.8187
▁registry	-12.8187
▁extinction	-12.8187
▁ppad	-12.8188
▁breakup	-12.8189
▁rectification	-12.8192
▁middlebury	-12.8192
▁liberal	-12.8195
▁cider	-12.8195
▁idp	-12.8196
▁spiral	-12.8196
▁udp	-12.8197
▁behalf	-12.8197
▁marginalized	-12.8197
▁om	-12.82
▁idnc	-12.82
▁contamination	-12.8201
▁maturity	-12.8201
▁persuasive	-12.8203
▁geotagged	-12.8203
▁subpopulations	-12.8205
modeling	-12.8206
▁lesser	-12.8207
▁flatten	-12.8208
▁pickup	-12.821
▁ccg	-12.8211
▁nips	-12.8212
▁superlinear	-12.8212
▁lmn	-12.8215
logical	-12.8215
▁conception	-12.8217
▁sar	-12.8218
▁pendulum	-12.8219
▁obviate	-12.822
regressive	-12.822
▁stick	-12.8223
▁unforesee	-12.8224
▁ldr	-12.8227
▁hip	-12.8227
▁xiao	-12.8228
▁multigraph	-12.8229
▁racing	-12.8233
change	-12.8235
▁supercomputers	-12.8239
classifier	-12.8239
▁ski	-12.8251
▁shortcuts	-12.8251
prop	-12.8251
▁discounting	-12.8251
▁codecs	-12.8252
▁barycenters	-12.8253
script	-12.8254
▁generically	-12.8261
.17	-12.8266
tz	-12.827
where	-12.8271
▁constellations	-12.8272
discriminability	-12.8273
▁vessels	-12.8275
▁firewalls	-12.8275
▁lai	-12.8276
▁quic	-12.8277
▁borrowing	-12.8278
▁rw	-12.8279
▁corrective	-12.8282
arja	-12.8284
negativity	-12.8285
▁stepwise	-12.8285
▁bal	-12.8286
▁mer	-12.8288
▁196	-12.8291
▁restaurants	-12.8291
▁schools	-12.8291
compressed	-12.8294
proposed	-12.8295
▁shield	-12.8296
▁lsd	-12.8298
▁thi	-12.8309
▁undertake	-12.8309
▁calibrat	-12.8315
▁bnn	-12.8318
▁ed	-12.8322
▁reformulat	-12.8324
▁ode	-12.8326
▁oil	-12.833
▁beams	-12.8333
interactive	-12.8337
rack	-12.8338
▁hopping	-12.8347
▁dls	-12.8351
finite	-12.8351
▁thinne	-12.8352
▁selector	-12.8353
▁morphing	-12.8356
▁brands	-12.8359
ada	-12.8361
▁enriche	-12.8362
▁apriori	-12.8362
▁budgeted	-12.8364
▁iec	-12.8365
spectrum	-12.8368
spread	-12.8368
▁prefetch	-12.8368
▁league	-12.8369
discriminatively	-12.8372
▁72	-12.8372
▁smudge	-12.8373
rr	-12.8375
▁rationales	-12.8377
▁fiction	-12.8378
▁federation	-12.8378
▁hypersurface	-12.8378
▁obstruction	-12.8379
▁glyph	-12.8379
▁instructor	-12.8379
▁vid	-12.838
▁forwards	-12.838
▁march	-12.8381
▁04	-12.8381
▁webpage	-12.8381
▁quorum	-12.8381
▁advertiser	-12.8382
kov	-12.8383
▁surveying	-12.8384
▁shortage	-12.8384
▁est	-12.8389
▁allocator	-12.8391
▁cec	-12.8395
▁som	-12.8395
but	-12.8396
zier	-12.8399
adapted	-12.8401
berg	-12.8405
▁modulations	-12.8406
▁sharpen	-12.8406
▁buzz	-12.8408
▁quantiz	-12.8409
▁singer	-12.8413
▁plc	-12.8418
▁outdoors	-12.8418
▁octo	-12.842
▁rerank	-12.8421
▁aurora	-12.8425
▁polysemous	-12.8425
▁aleatoric	-12.8425
▁dissimilarities	-12.8425
▁lipreading	-12.8425
▁hateful	-12.8425
▁epidemiology	-12.8425
▁mobilenetv	-12.8426
▁recourse	-12.8426
month	-12.8427
▁misbehaving	-12.8427
▁externalities	-12.8428
▁chief	-12.8428
▁storytelling	-12.8428
▁plagiarism	-12.843
▁chung	-12.843
▁chorus	-12.8431
▁weibo	-12.8431
▁astronomical	-12.8432
▁timestep	-12.8432
▁litera	-12.8435
▁concentrat	-12.8435
tunes	-12.8436
▁carbon	-12.8436
nyquist	-12.8436
▁tenants	-12.8438
tu	-12.8439
▁explainability	-12.844
▁periodicity	-12.844
▁journalists	-12.8441
separated	-12.8441
▁cbow	-12.8442
▁traders	-12.8442
▁thumos	-12.8446
▁gcc	-12.8447
[...]
