<unk>	0
<s>	0
</s>	0
story_separator_special_tag	0
▁the	-3.08695
▁,	-3.32972
.	-3.52101
▁of	-3.56193
▁a	-3.79814
▁and	-3.84695
▁to	-3.89165
-	-3.93727
▁in	-4.05617
▁@	-4.22977
cite	-4.475
▁is	-4.48464
▁for	-4.56193
▁we	-4.60309
▁.	-4.70154
▁that	-4.70551
▁	-4.77854
▁on	-4.85655
▁)	-4.99455
▁this	-5.05745
▁(	-5.10269
▁with	-5.10876
▁as	-5.19441
▁are	-5.1977
ing	-5.21471
▁by	-5.25927
s	-5.29693
▁an	-5.36453
▁be	-5.51191
▁our	-5.55156
▁from	-5.59605
▁which	-5.6382
▁can	-5.65385
▁data	-5.73114
math	-5.75676
▁model	-5.78942
▁-	-5.84618
▁it	-5.93571
▁learning	-6.02131
▁network	-6.02492
▁or	-6.08208
▁using	-6.10204
▁have	-6.1151
▁problem	-6.13232
▁such	-6.14257
▁paper	-6.19131
▁these	-6.19372
▁has	-6.20785
▁approach	-6.24039
▁also	-6.25388
▁not	-6.25707
▁algorithm	-6.26784
▁method	-6.27339
▁based	-6.27614
▁methods	-6.30436
d	-6.31901
▁proposed	-6.33104
▁results	-6.34044
▁more	-6.3558
▁show	-6.36811
▁networks	-6.37377
▁'	-6.37768
▁work	-6.3808
▁models	-6.39722
▁been	-6.40519
▁used	-6.41351
▁image	-6.43615
▁at	-6.44207
▁two	-6.45331
▁information	-6.45911
▁performance	-6.46816
▁their	-6.4912
▁time	-6.49994
▁different	-6.52046
▁use	-6.53136
▁one	-6.57306
▁between	-6.58889
based	-6.62052
▁system	-6.63214
▁:	-6.65526
▁each	-6.65597
▁new	-6.65787
▁where	-6.66023
▁algorithms	-6.67597
▁propose	-6.67859
ly	-6.68876
▁they	-6.69682
▁neural	-6.71654
▁features	-6.7304
▁s	-6.734
▁number	-6.7397
▁however	-6.74024
▁both	-6.75254
▁state	-6.75368
▁large	-6.75618
▁other	-6.77792
▁set	-6.8038
▁training	-6.80471
▁into	-6.81381
▁present	-6.81746
▁but	-6.82653
▁only	-6.83979
▁all	-6.84315
▁than	-6.8501
▁over	-6.85393
▁deep	-6.86121
▁its	-6.87489
▁first	-6.8755
▁systems	-6.88457
▁images	-6.88702
▁when	-6.89138
▁analysis	-6.932
▁well	-6.93877
▁while	-6.95236
▁many	-6.98227
▁most	-6.99439
▁high	-6.99971
▁some	-7.00962
▁approaches	-7.01539
▁real	-7.02346
▁graph	-7.02662
▁task	-7.03537
e	-7.03842
▁framework	-7.05277
▁detection	-7.05647
of	-7.06498
▁object	-7.07504
▁multi	-7.07597
▁tasks	-7.08952
▁problems	-7.10151
▁several	-7.12787
the	-7.12976
▁given	-7.13405
▁"	-7.13901
▁study	-7.14172
▁how	-7.15175
▁space	-7.15767
▁applications	-7.15816
▁3	-7.16236
▁was	-7.16347
ed	-7.17924
▁techniques	-7.18592
▁there	-7.19543
▁then	-7.20306
▁classification	-7.20424
▁feature	-7.20924
▁non	-7.23507
▁i	-7.24946
▁multiple	-7.25104
▁provide	-7.25371
▁;	-7.2552
▁function	-7.26317
▁e	-7.2871
▁result	-7.29262
▁novel	-7.30539
▁any	-7.30981
▁user	-7.31031
art	-7.31255
▁single	-7.31745
▁recent	-7.3339
▁existing	-7.33736
▁dataset	-7.33995
▁input	-7.34885
▁structure	-7.35418
▁process	-7.35621
▁recognition	-7.3713
g	-7.37166
▁knowledge	-7.37316
▁human	-7.39767
▁random	-7.40563
▁users	-7.41402
▁general	-7.42824
▁representation	-7.42933
▁research	-7.43549
▁datasets	-7.44226
▁demonstrate	-7.44488
▁experiments	-7.4461
▁language	-7.44897
▁order	-7.45041
▁2	-7.45698
▁case	-7.46424
▁accuracy	-7.47081
▁search	-7.47363
▁optimization	-7.47689
▁learn	-7.47923
▁machine	-7.48254
▁n	-7.48383
▁same	-7.48569
▁particular	-7.49529
▁domain	-7.49634
▁design	-7.50176
▁may	-7.51471
▁if	-7.51498
▁low	-7.51547
▁through	-7.51839
▁local	-7.52983
▁visual	-7.53513
▁efficient	-7.54099
▁simple	-7.54547
▁semantic	-7.55011
▁convolutional	-7.55207
to	-7.5586
▁al	-7.55997
▁under	-7.56286
▁linear	-7.56823
▁very	-7.57156
▁1	-7.57819
▁similar	-7.58193
▁video	-7.58241
▁recently	-7.58856
▁text	-7.592
▁without	-7.59213
▁important	-7.59885
▁previous	-7.604
▁them	-7.60672
▁social	-7.61273
(	-7.61786
▁context	-7.62418
▁architecture	-7.63036
▁nodes	-7.63132
▁optimal	-7.63209
▁better	-7.63237
▁objects	-7.63919
▁includ	-7.64521
▁class	-7.65972
▁control	-7.66084
▁distribution	-7.66335
▁representations	-7.66505
▁about	-7.67062
▁so	-7.67298
▁various	-7.67488
▁consider	-7.67624
▁point	-7.6773
▁small	-7.6872
▁works	-7.68954
▁introduce	-7.69069
▁do	-7.69364
▁no	-7.69879
▁related	-7.70069
▁graphs	-7.70119
▁even	-7.70701
▁three	-7.70701
▁solution	-7.70775
level	-7.72002
▁were	-7.72269
▁uses	-7.72437
▁functions	-7.72677
▁segmentation	-7.73234
▁improve	-7.73464
▁matrix	-7.74409
▁best	-7.74477
▁distributed	-7.74587
▁applied	-7.74656
▁further	-7.74778
▁available	-7.7533
▁quality	-7.75569
▁find	-7.76221
▁trained	-7.76902
▁estimation	-7.77399
▁perform	-7.77431
▁size	-7.77493
▁possible	-7.776
▁word	-7.77661
▁known	-7.77702
▁complexity	-7.77818
▁example	-7.78021
▁prediction	-7.78245
▁complex	-7.79556
▁target	-7.79748
▁application	-7.79975
▁parameters	-7.80328
▁due	-7.80918
▁shown	-7.81133
▁technique	-7.81212
▁compared	-7.81881
▁achieve	-7.83222
▁outperform	-7.83518
▁online	-7.84021
▁often	-7.84356
▁attention	-7.84421
y	-7.84454
▁properties	-7.8455
▁terms	-7.84695
▁within	-7.85406
▁allows	-7.85629
▁does	-7.85868
▁memory	-7.86623
▁cost	-7.86652
▁will	-7.86713
▁rate	-7.87454
▁loss	-7.87779
▁thus	-7.87966
▁evaluation	-7.88296
▁source	-7.89071
▁standard	-7.89073
▁natural	-7.89615
▁provides	-7.89665
▁probability	-7.89735
▁way	-7.89999
▁key	-7.903
▁test	-7.90547
▁error	-7.90619
▁k	-7.91259
▁up	-7.91486
▁second	-7.91582
▁focus	-7.92056
▁dynamic	-7.92141
▁among	-7.92532
▁power	-7.92596
▁code	-7.92934
▁since	-7.93015
▁cnn	-7.93247
es	-7.93583
▁end	-7.93668
▁current	-7.9378
▁content	-7.93954
▁called	-7.94093
▁presented	-7.94314
▁scheme	-7.94369
▁computational	-7.947
time	-7.94999
▁points	-7.95219
▁able	-7.95586
2	-7.95936
▁level	-7.96271
▁communication	-7.96402
▁sequence	-7.9655
▁processing	-7.9704
▁significant	-7.98847
▁vector	-7.98875
▁query	-7.99548
▁matching	-7.99701
▁obtain	-7.99778
▁constraints	-8.00109
▁evaluate	-8.00232
▁generate	-8.00358
▁software	-8.00645
▁examples	-8.01255
▁distance	-8.01352
▁computing	-8.01355
▁clustering	-8.01419
▁significantly	-8.01449
▁experimental	-8.01527
▁give	-8.01577
▁motion	-8.01778
▁studied	-8.01884
▁theory	-8.02238
▁long	-8.02702
▁global	-8.03123
▁like	-8.03844
▁specific	-8.0406
scale	-8.04239
▁main	-8.04241
▁developed	-8.04306
▁sets	-8.04602
▁web	-8.04829
n	-8.04967
▁form	-8.05611
▁address	-8.05783
▁computer	-8.05843
▁modeling	-8.06538
▁need	-8.06806
▁much	-8.07338
▁studies	-8.0757
▁make	-8.07969
▁another	-8.08094
▁energy	-8.08769
▁directly	-8.0879
▁effective	-8.08792
▁those	-8.08873
▁node	-8.09007
▁face	-8.09119
▁common	-8.09173
▁field	-8.09175
▁during	-8.09229
▁temporal	-8.09533
▁include	-8.09613
▁action	-8.0973
▁hand	-8.09805
▁depth	-8.09902
▁part	-8.10236
▁support	-8.10355
▁authors	-8.10434
▁learned	-8.10484
▁final	-8.10572
▁spatial	-8.11042
▁addition	-8.11204
▁inference	-8.11205
▁additional	-8.11618
▁adversarial	-8.12215
▁describe	-8.12345
▁sparse	-8.12435
▁pose	-8.12495
▁require	-8.12544
▁layer	-8.12563
▁solutions	-8.12626
▁introduced	-8.12636
dimensional	-8.12812
▁approximation	-8.13145
▁layers	-8.13158
▁words	-8.13324
▁behavior	-8.13388
▁scale	-8.13619
▁r	-8.13633
▁obtained	-8.13664
▁considered	-8.13986
▁similarity	-8.14066
▁bound	-8.14252
▁out	-8.14316
▁]	-8.14475
▁via	-8.14699
▁computation	-8.15045
▁classes	-8.15097
▁setting	-8.15116
▁requires	-8.15554
▁map	-8.1556
▁generation	-8.15835
cause	-8.16133
▁lower	-8.16637
▁across	-8.16963
▁types	-8.17032
▁few	-8.17378
▁prior	-8.1798
▁o	-8.18187
▁d	-8.18328
▁range	-8.18568
▁output	-8.18643
▁vision	-8.18862
▁challenging	-8.18907
▁robust	-8.19199
▁mechanism	-8.19373
▁environment	-8.19546
▁t	-8.19597
▁patterns	-8.19678
▁tree	-8.203
▁translation	-8.20307
▁generated	-8.20502
▁samples	-8.20819
▁instead	-8.20954
▁p	-8.2101
▁apply	-8.21019
▁typical	-8.21165
▁found	-8.21355
▁access	-8.21796
▁literature	-8.2184
▁re	-8.22095
▁noise	-8.2214
▁good	-8.22269
▁traditional	-8.22484
▁extend	-8.22612
▁gradient	-8.23029
▁open	-8.23206
▁limited	-8.23254
▁c	-8.23274
▁prove	-8.23562
▁represent	-8.2389
▁type	-8.24217
over	-8.24353
▁strategy	-8.24429
▁train	-8.24462
▁decision	-8.24665
▁still	-8.24759
▁scene	-8.24833
▁fully	-8.25504
▁programming	-8.25556
▁being	-8.26074
▁designed	-8.26257
▁f	-8.26273
▁goal	-8.2637
▁value	-8.26823
▁mobile	-8.27082
world	-8.27114
▁transfer	-8.27536
▁implementation	-8.2784
▁sampling	-8.27883
▁develop	-8.28067
▁latent	-8.28164
▁tracking	-8.2927
▁higher	-8.29818
▁statistical	-8.30296
▁cases	-8.30406
▁pre	-8.30459
▁achieves	-8.30734
▁bounds	-8.3136
▁parallel	-8.31455
▁fixed	-8.31663
▁identify	-8.31667
▁here	-8.31708
▁selection	-8.31966
▁agents	-8.32069
▁certain	-8.32121
▁labels	-8.32196
▁m	-8.3241
▁conditions	-8.32566
▁us	-8.32672
▁measure	-8.32866
▁question	-8.33155
▁contrast	-8.33245
▁robot	-8.33721
t	-8.33786
▁policy	-8.34019
▁stochastic	-8.34125
▁path	-8.3447
▁objective	-8.34505
▁allow	-8.34809
▁achieved	-8.34882
▁popular	-8.35053
▁solve	-8.35448
▁reduce	-8.35567
▁either	-8.35804
▁fast	-8.35808
▁individual	-8.3582
▁step	-8.35942
▁per	-8.36248
▁generative	-8.36382
▁efficiency	-8.36534
▁furthermore	-8.36748
▁interest	-8.36828
▁automatically	-8.36864
▁community	-8.36899
▁presents	-8.37032
▁supervised	-8.37244
▁security	-8.37333
▁program	-8.37726
▁flow	-8.37782
▁could	-8.37936
▁domains	-8.3797
▁embedding	-8.38501
▁instance	-8.38562
▁signal	-8.38659
▁original	-8.38724
▁shape	-8.38875
▁exploit	-8.38884
▁estimate	-8.38915
▁combine	-8.38982
▁potential	-8.39216
▁values	-8.39232
▁privacy	-8.39664
▁channel	-8.39989
▁queries	-8.40462
▁less	-8.40515
though	-8.40545
▁future	-8.40981
▁compare	-8.41143
▁predict	-8.41185
▁recurrent	-8.41209
▁convergence	-8.41402
▁variety	-8.41467
▁metric	-8.41764
▁efficiently	-8.41828
end	-8.41922
▁regression	-8.42015
▁database	-8.4212
▁retrieval	-8.42185
▁discuss	-8.42484
▁unsupervised	-8.42806
▁who	-8.42951
▁years	-8.4311
▁architectures	-8.43214
▁structures	-8.43251
▁investigate	-8.434
▁accurate	-8.43435
▁classifier	-8.43549
▁specifically	-8.44102
▁cloud	-8.442
▁probabilistic	-8.44209
▁average	-8.44365
▁sensor	-8.4463
▁sample	-8.44639
▁defined	-8.44809
▁maximum	-8.44941
▁finding	-8.45412
▁difficult	-8.45424
▁location	-8.45543
▁capture	-8.45828
▁traffic	-8.45912
▁shows	-8.45927
▁regions	-8.46013
▁game	-8.46041
▁camera	-8.46046
▁required	-8.46088
▁improved	-8.46095
▁highly	-8.46369
▁useful	-8.46524
▁benchmark	-8.46535
▁understanding	-8.46574
▁practical	-8.46674
▁idea	-8.4682
▁explore	-8.47231
▁b	-8.47359
▁against	-8.4745
▁log	-8.47621
▁self	-8.47682
▁effectiveness	-8.47731
▁edge	-8.48819
▁development	-8.4904
▁theoretical	-8.49044
▁group	-8.4917
▁strategies	-8.49202
▁provided	-8.496
▁analyze	-8.49645
▁variables	-8.49749
▁continuous	-8.498
▁detect	-8.49802
▁maps	-8.50436
▁compute	-8.50769
▁challenge	-8.50776
al	-8.51392
▁environments	-8.51588
▁independent	-8.51736
▁protocol	-8.51975
▁corresponding	-8.5198
▁approximate	-8.52125
▁attacks	-8.52427
▁constant	-8.52496
▁should	-8.52578
▁polynomial	-8.52702
▁service	-8.52823
▁construct	-8.53008
a	-8.53192
▁view	-8.53357
▁components	-8.53603
▁resources	-8.53819
▁videos	-8.53831
er	-8.53895
▁reinforcement	-8.54095
▁mapping	-8.54134
▁agent	-8.54136
▁cannot	-8.54193
▁full	-8.54424
▁binary	-8.54495
▁makes	-8.54875
▁programs	-8.55041
▁region	-8.55159
▁usually	-8.55318
▁extensive	-8.55329
▁ability	-8.5545
▁scenarios	-8.55528
▁amount	-8.55674
▁area	-8.55794
▁after	-8.558
▁relevant	-8.55868
▁sequences	-8.55929
▁every	-8.56057
▁relations	-8.56313
▁codes	-8.5645
▁parameter	-8.5665
▁finite	-8.56773
▁simulation	-8.56929
▁made	-8.57131
▁what	-8.57282
▁rely	-8.57333
▁distributions	-8.57464
▁devices	-8.58143
▁changes	-8.58193
▁challenges	-8.58675
▁degree	-8.58745
▁tools	-8.59084
▁mean	-8.59122
▁abstract	-8.5916
▁making	-8.59308
▁arbitrary	-8.59423
▁wide	-8.59439
▁processes	-8.59458
▁x	-8.59473
▁least	-8.59494
▁see	-8.59501
▁reconstruction	-8.59501
▁planning	-8.59971
▁actions	-8.60215
▁short	-8.60293
▁version	-8.60486
▁joint	-8.60703
▁speed	-8.60734
▁wireless	-8.60745
▁dynamics	-8.61122
▁whether	-8.61194
▁factor	-8.61741
▁strong	-8.61779
▁vectors	-8.61805
▁automatic	-8.62733
▁empirical	-8.62737
▁following	-8.63245
▁respect	-8.63344
▁widely	-8.6336
▁suggest	-8.6339
▁associated	-8.63494
▁combination	-8.63578
▁kernel	-8.63664
▁convex	-8.63754
▁select	-8.63772
▁weights	-8.64029
▁pairs	-8.6405
▁cnns	-8.64099
▁logic	-8.64123
▁g	-8.64183
▁top	-8.64188
▁rules	-8.64208
▁minimum	-8.6435
▁hierarchical	-8.64409
▁schemes	-8.64845
▁underlying	-8.6489
▁world	-8.65207
▁tool	-8.65279
▁sub	-8.654
▁take	-8.65506
▁languages	-8.65524
▁fine	-8.65584
▁label	-8.65606
refore	-8.65634
▁learns	-8.65917
▁capacity	-8.65958
▁solving	-8.66065
▁classical	-8.66142
▁build	-8.66235
▁sentence	-8.66318
▁cross	-8.66684
▁extraction	-8.66784
▁speech	-8.66928
1	-8.67219
▁faster	-8.67268
▁along	-8.67274
▁procedure	-8.67396
▁complete	-8.67421
▁concept	-8.67626
▁extended	-8.67629
▁link	-8.67652
▁gaussian	-8.67661
▁measures	-8.67785
▁topic	-8.67889
▁produce	-8.67917
▁resource	-8.68071
▁edges	-8.68348
▁interaction	-8.68348
▁semantics	-8.6851
▁semi	-8.68521
r	-8.68625
▁must	-8.68658
▁instances	-8.68908
▁people	-8.68925
▁constraint	-8.69049
▁times	-8.69072
▁previously	-8.69156
▁metrics	-8.69386
▁shared	-8.69486
▁help	-8.70245
▁embeddings	-8.7035
▁would	-8.7035
▁improvement	-8.70809
▁attributes	-8.71
▁enables	-8.71164
▁frame	-8.71406
▁researchers	-8.71409
▁routing	-8.71642
▁operations	-8.71726
▁parts	-8.71732
▁testing	-8.7208
▁performed	-8.72089
▁account	-8.72432
▁deal	-8.72519
▁impact	-8.72721
▁especially	-8.72798
▁comparison	-8.72812
▁discrete	-8.72903
▁component	-8.72929
▁internet	-8.73051
▁states	-8.73187
▁observed	-8.7322
▁localization	-8.73262
▁determine	-8.73358
▁document	-8.73513
▁active	-8.73553
▁series	-8.73783
▁implemented	-8.73792
▁according	-8.7383
▁evaluated	-8.73923
▁special	-8.73991
▁hard	-8.73993
▁bayesian	-8.74278
▁change	-8.74933
▁improves	-8.75138
▁generalization	-8.7522
▁frames	-8.75459
▁requirements	-8.75554
▁games	-8.75576
▁issues	-8.75587
▁generating	-8.75697
▁l	-8.75753
▁co	-8.7593
▁means	-8.76208
▁storage	-8.76305
▁yet	-8.76312
▁execution	-8.76505
▁physical	-8.76768
▁implement	-8.76888
▁initial	-8.76947
▁increase	-8.76959
▁relative	-8.77256
▁above	-8.77555
▁fact	-8.77558
▁relation	-8.7778
▁simultaneously	-8.77981
▁interactions	-8.78104
▁building	-8.78231
▁markov	-8.78346
m	-8.78488
▁scheduling	-8.78765
▁labeled	-8.79104
▁basic	-8.79297
▁connected	-8.7945
▁services	-8.79472
▁matrices	-8.79543
▁reduction	-8.79583
▁density	-8.80136
▁aim	-8.80508
▁static	-8.80528
▁pattern	-8.80556
▁increasing	-8.80645
▁expected	-8.80659
▁effect	-8.80762
▁positive	-8.80788
▁total	-8.8098
▁events	-8.81192
▁extract	-8.81747
▁categories	-8.8182
▁define	-8.81833
▁interesting	-8.81883
▁mechanisms	-8.82004
▁ranking	-8.82092
▁derive	-8.82182
▁issue	-8.82198
▁--	-8.82251
▁suitable	-8.82253
▁derived	-8.82681
▁lstm	-8.82732
;	-8.82823
▁trees	-8.82974
▁adaptation	-8.83226
▁hidden	-8.83272
▁major	-8.83349
▁manner	-8.83538
▁geometric	-8.83561
▁un	-8.83785
▁property	-8.83841
▁combined	-8.83845
▁length	-8.83909
▁synthetic	-8.83926
▁term	-8.84146
▁become	-8.84216
▁line	-8.84273
▁extracted	-8.8429
▁four	-8.84311
▁consists	-8.84466
▁success	-8.84959
▁signals	-8.85172
▁coding	-8.85322
▁resolution	-8.85413
▁errors	-8.8567
▁role	-8.8598
▁employ	-8.86015
▁alternative	-8.86107
specific	-8.86129
▁characteristics	-8.86361
▁dense	-8.86408
k	-8.86427
▁answer	-8.86516
▁management	-8.86531
▁classifiers	-8.86544
▁discriminative	-8.86557
▁critical	-8.86689
▁focused	-8.86828
▁predictions	-8.87024
free	-8.87128
▁adaptive	-8.87249
▁documents	-8.87304
▁vertices	-8.874
▁proof	-8.87479
▁factors	-8.87515
▁measurements	-8.87551
▁unlike	-8.87686
▁described	-8.87788
▁competitive	-8.8788
▁sense	-8.88093
▁de	-8.883
▁settings	-8.88347
▁hence	-8.88566
▁policies	-8.8859
▁mining	-8.88611
▁showed	-8.88696
▁relationships	-8.88745
▁explicit	-8.88813
in	-8.88922
▁attack	-8.89111
▁media	-8.89185
▁levels	-8.89402
▁assumption	-8.89476
▁weight	-8.89509
▁unknown	-8.89645
▁handle	-8.89691
▁together	-8.89798
▁providing	-8.89874
▁demonstrated	-8.89884
▁pixel	-8.9
▁rank	-8.90039
▁questions	-8.90062
▁advantage	-8.90068
▁subset	-8.90108
▁feedback	-8.90142
▁art	-8.90214
i	-8.90283
▁effectively	-8.90297
▁protocols	-8.90518
▁collection	-8.90606
▁robots	-8.90623
▁uncertainty	-8.90951
▁survey	-8.91105
▁inputs	-8.91125
▁event	-8.91147
▁notion	-8.91211
▁sensors	-8.91225
▁ground	-8.91265
▁far	-8.91317
▁easily	-8.9132
▁create	-8.91321
▁structured	-8.91404
▁robustness	-8.91409
▁quantum	-8.91542
▁rates	-8.91561
▁leads	-8.91596
▁towards	-8.9162
▁weighted	-8.9162
▁conditional	-8.91671
▁phase	-8.9171
▁cluster	-8.91737
▁takes	-8.91761
▁variable	-8.919
▁proposes	-8.92103
▁explicitly	-8.92148
▁aspects	-8.92203
▁sources	-8.92294
▁importance	-8.92316
▁hardware	-8.92421
▁basis	-8.92522
▁style	-8.92566
▁body	-8.92613
▁paths	-8.92895
▁sequential	-8.92904
▁exact	-8.93031
▁fundamental	-8.93056
▁entities	-8.93069
▁last	-8.93217
▁base	-8.93443
▁successfully	-8.9365
▁public	-8.94137
▁next	-8.94161
supervised	-8.94308
▁estimates	-8.94387
▁promising	-8.94423
▁deterministic	-8.94572
▁score	-8.94675
▁activity	-8.94705
▁practice	-8.94779
▁improvements	-8.94789
▁direct	-8.94876
▁construction	-8.94914
▁groups	-8.95107
▁extension	-8.95559
▁larger	-8.95588
▁virtual	-8.95614
▁baseline	-8.95867
▁necessary	-8.96042
▁w	-8.96091
net	-8.96131
▁powerful	-8.96153
▁corpus	-8.96312
▁jointly	-8.96447
▁overall	-8.9653
▁utilize	-8.967
▁color	-8.96939
▁influence	-8.97122
▁numerical	-8.97196
order	-8.97259
▁review	-8.97475
▁product	-8.97835
▁leverage	-8.97969
▁clusters	-8.97987
▁incorporate	-8.98035
▁past	-8.98151
▁respectively	-8.98231
▁entity	-8.98244
▁upper	-8.98321
▁nature	-8.98412
▁appearance	-8.98572
term	-8.98666
▁combining	-8.9874
▁zero	-8.98884
less	-8.98889
▁twitter	-8.98964
▁early	-8.98993
▁encoder	-8.99042
▁locations	-8.99049
▁minimize	-8.99123
▁noisy	-8.99177
▁correlation	-8.99278
▁4	-8.99376
▁frequency	-8.99478
p	-8.99691
▁aims	-8.9988
▁presence	-8.99932
▁computed	-8.99992
▁transform	-9.00082
▁essential	-9.00153
x	-9.00487
▁sharing	-9.00734
▁concepts	-9.00778
▁sentences	-9.00783
▁background	-9.00826
▁elements	-9.00898
▁run	-9.01102
▁assumptions	-9.01314
▁running	-9.01464
▁partial	-9.01492
▁bounded	-9.01546
▁discussed	-9.01742
▁before	-9.0184
▁theorem	-9.02094
▁ratio	-9.0214
▁sentiment	-9.02144
3	-9.02218
▁avoid	-9.02536
o	-9.02566
▁sensing	-9.02578
▁close	-9.02803
▁unit	-9.02822
▁dimension	-9.02824
▁lack	-9.02945
▁depend	-9.02998
▁exploration	-9.03072
▁conventional	-9.03075
▁formulation	-9.03095
▁done	-9.03168
▁article	-9.0326
▁share	-9.03362
▁fields	-9.03587
▁surface	-9.0396
▁generally	-9.04136
▁areas	-9.04232
▁links	-9.04282
▁light	-9.04378
▁category	-9.04806
▁autonomous	-9.04827
▁person	-9.0488
▁optimize	-9.05137
▁compression	-9.05176
able	-9.05474
▁rule	-9.05505
▁machines	-9.05532
▁predicting	-9.05627
▁recovery	-9.05715
▁observations	-9.05752
▁guarantees	-9.0591
▁iterative	-9.06112
▁establish	-9.06122
▁block	-9.06143
▁successful	-9.06158
▁relationship	-9.06206
▁allocation	-9.06228
▁steps	-9.06362
▁effects	-9.06578
▁automated	-9.06637
as	-9.068
capable	-9.07108
▁---	-9.072
▁employed	-9.07405
▁pair	-9.0745
▁built	-9.07806
▁connections	-9.07827
▁assume	-9.07978
▁generic	-9.08345
▁enable	-9.08538
▁contains	-9.08661
▁condition	-9.08759
▁spectral	-9.08819
▁position	-9.08837
▁considering	-9.09086
▁risk	-9.09105
▁filter	-9.09173
▁hybrid	-9.09282
▁correct	-9.09362
▁computationally	-9.09452
wise	-9.09504
▁items	-9.09632
▁upon	-9.09684
te	-9.09766
▁detecting	-9.10019
▁benchmarks	-9.1016
▁seen	-9.10204
▁etc	-9.10349
▁difference	-9.10418
▁investigated	-9.10532
▁alignment	-9.10604
▁scenes	-9.10699
▁evidence	-9.10732
▁reasoning	-9.10837
▁ones	-9.10846
▁needed	-9.11006
▁spaces	-9.1126
▁represented	-9.1135
c	-9.11747
▁v	-9.11802
▁transformation	-9.11925
▁appropriate	-9.11926
▁exist	-9.1202
▁regularization	-9.12105
▁actual	-9.12336
▁lead	-9.12385
▁transmission	-9.12512
▁description	-9.12645
▁operation	-9.12648
▁sufficient	-9.12784
▁start	-9.12844
▁realistic	-9.12927
▁describes	-9.12974
▁geometry	-9.13042
▁needs	-9.13066
▁improving	-9.13069
▁topology	-9.13217
▁showing	-9.13224
▁regard	-9.13248
▁generalized	-9.1339
▁namely	-9.13467
▁negative	-9.13475
▁introduces	-9.13562
▁classify	-9.1357
▁annotations	-9.13574
▁report	-9.13606
▁extreme	-9.13721
▁statistics	-9.13858
▁verification	-9.13981
▁performing	-9.13984
▁almost	-9.14217
▁grid	-9.14275
▁whole	-9.14287
▁rich	-9.14337
▁throughput	-9.14374
▁rnn	-9.14537
▁response	-9.14542
l	-9.14824
▁subject	-9.14928
▁easy	-9.15252
▁consistency	-9.15359
▁stable	-9.1538
▁perspective	-9.156
▁scenario	-9.15661
▁utility	-9.15802
▁structural	-9.15836
▁platform	-9.15886
▁decomposition	-9.15897
▁rgb	-9.1613
▁np	-9.16251
▁recommendation	-9.16284
▁communities	-9.16329
▁adapt	-9.16533
▁advantages	-9.16628
▁just	-9.16728
▁diverse	-9.16813
▁message	-9.16905
▁units	-9.17064
▁scales	-9.17072
▁stage	-9.17084
▁delay	-9.17112
▁illustrate	-9.17218
▁simulations	-9.1734
▁discover	-9.17393
▁q	-9.17549
▁motivated	-9.17559
▁named	-9.17589
resolution	-9.18192
▁detailed	-9.18193
▁call	-9.18311
▁expensive	-9.18389
▁own	-9.18468
▁near	-9.18501
▁convolution	-9.18564
▁saliency	-9.18632
▁maximize	-9.18798
▁consistent	-9.18902
▁unique	-9.19168
▁optical	-9.19199
▁update	-9.19243
▁others	-9.19257
▁guarantee	-9.19337
▁direction	-9.19489
▁index	-9.19514
▁threshold	-9.19639
▁entire	-9.20078
▁measurement	-9.20145
▁principle	-9.20157
▁heuristic	-9.20203
▁always	-9.20414
▁reduced	-9.207
▁variational	-9.20707
▁little	-9.20722
▁focuses	-9.2076
▁identification	-9.20885
▁trajectory	-9.21101
▁ways	-9.21167
▁imagenet	-9.21203
▁inspire	-9.21526
▁comprehensive	-9.21587
▁around	-9.21614
▁gap	-9.21632
▁estimat	-9.21723
▁interference	-9.21741
▁vehicle	-9.21873
▁modern	-9.21915
▁mainly	-9.21962
▁understand	-9.22038
▁smaller	-9.22108
▁precision	-9.22132
trained	-9.22304
▁tensor	-9.22435
▁h	-9.22441
▁differences	-9.22502
▁visualization	-9.22555
▁explored	-9.22586
▁ii	-9.22662
▁audio	-9.22724
▁core	-9.22728
▁proved	-9.22894
▁choice	-9.2293
▁usage	-9.22935
might	-9.23046
▁interactive	-9.23165
▁differ	-9.23197
▁vertex	-9.232
▁propagation	-9.23485
▁sum	-9.23735
▁views	-9.23925
▁adopt	-9.24122
▁selected	-9.24173
▁minimal	-9.24241
▁collected	-9.24315
▁conducted	-9.24349
▁proposal	-9.24448
▁contribution	-9.24469
▁relatively	-9.24539
▁channels	-9.24602
▁annotation	-9.24636
▁synthesis	-9.24666
▁5	-9.24733
▁scalable	-9.24756
▁encoding	-9.24769
▁attribute	-9.2485
▁family	-9.25073
▁tested	-9.25115
▁separate	-9.25311
▁comparable	-9.25471
▁filters	-9.2574
▁vehicles	-9.25866
▁get	-9.25963
▁solved	-9.25989
▁free	-9.26028
▁yields	-9.26114
▁ensure	-9.2612
▁descriptors	-9.26124
▁purpose	-9.26402
▁consumption	-9.26419
▁server	-9.26455
▁stream	-9.26485
▁news	-9.2654
▁limitations	-9.26563
▁though	-9.26567
▁trajectories	-9.26645
ally	-9.26684
▁methodology	-9.26715
▁gain	-9.26769
▁facial	-9.26782
▁relie	-9.26854
▁reported	-9.26969
▁filtering	-9.26977
▁definition	-9.2698
▁heterogeneous	-9.26983
▁benefits	-9.27264
▁messages	-9.27419
▁variations	-9.27582
▁identifying	-9.27583
se	-9.27653
▁neighbor	-9.27706
▁restricted	-9.27799
▁commonly	-9.27821
▁paradigm	-9.27883
▁variant	-9.27945
▁gan	-9.28062
▁ensemble	-9.28095
▁regular	-9.28243
▁reference	-9.28511
▁later	-9.28804
▁equivalent	-9.28811
on	-9.28862
▁match	-9.28918
▁great	-9.28951
▁technology	-9.29003
▁generates	-9.29151
▁proposals	-9.29399
▁labeling	-9.29452
▁sparsity	-9.29499
▁contain	-9.29519
▁already	-9.29534
▁engineering	-9.29693
▁evolution	-9.29709
▁scores	-9.29738
▁inter	-9.2979
▁true	-9.2982
▁formal	-9.29829
known	-9.29858
▁device	-9.29886
▁functional	-9.29906
▁attempt	-9.29994
▁supervision	-9.30003
▁outputs	-9.30037
▁subspace	-9.30066
▁external	-9.30074
▁capabilities	-9.30078
▁experience	-9.30328
▁variants	-9.30486
linear	-9.30594
▁nonlinear	-9.30734
▁exists	-9.30741
▁section	-9.30748
▁taking	-9.30777
▁costs	-9.30839
▁coverage	-9.30919
▁currently	-9.31143
▁candidate	-9.31219
▁load	-9.31264
▁effort	-9.31292
▁dimensions	-9.31343
▁activities	-9.31343
▁randomized	-9.31357
▁residual	-9.31444
▁generalize	-9.31474
▁analyzed	-9.31682
▁scalability	-9.31819
like	-9.31898
▁topics	-9.32143
▁transition	-9.32235
▁reward	-9.32264
▁crucial	-9.32419
▁remains	-9.32482
▁papers	-9.3249
▁closely	-9.32547
▁benefit	-9.32594
▁observation	-9.32872
▁despi	-9.32898
▁taken	-9.32951
▁missing	-9.32979
▁analyzing	-9.3303
▁back	-9.33167
▁existence	-9.33174
▁decisions	-9.33232
▁side	-9.3341
▁progress	-9.33487
▁interface	-9.33539
▁10	-9.34015
▁boundary	-9.34166
▁compact	-9.34468
▁detector	-9.34487
▁third	-9.3458
▁moving	-9.34645
▁received	-9.3465
▁overhead	-9.34735
▁predictive	-9.34884
▁gpu	-9.35166
▁parsing	-9.35184
▁details	-9.35222
▁latter	-9.35293
▁desired	-9.35307
▁embedded	-9.3532
▁character	-9.35402
▁containing	-9.35524
▁flexible	-9.35594
▁greedy	-9.35678
▁reduces	-9.35685
▁descent	-9.35783
▁fusion	-9.35805
▁dual	-9.35924
▁reduc	-9.35949
▁scaling	-9.36031
view	-9.36037
▁differential	-9.36054
▁rl	-9.3629
aware	-9.36372
st	-9.36462
▁patches	-9.36465
▁itself	-9.3647
▁segment	-9.36739
f	-9.36762
▁applicable	-9.36772
▁encode	-9.36795
▁super	-9.36824
▁annotated	-9.36924
driven	-9.36952
▁packet	-9.37082
▁limit	-9.3719
grained	-9.373
▁svm	-9.37378
▁navigation	-9.3738
▁exponential	-9.37423
▁beyond	-9.37486
▁inverse	-9.37521
▁constrained	-9.37555
▁tackle	-9.37572
▁databases	-9.37724
▁efforts	-9.3775
▁central	-9.37759
▁consist	-9.37793
▁normal	-9.379
▁operator	-9.37962
▁discovery	-9.38224
▁considers	-9.38369
rank	-9.38527
▁combinatorial	-9.3853
▁examine	-9.38588
▁entropy	-9.38703
▁increases	-9.38717
▁secure	-9.3878
▁detectors	-9.38852
▁likelihood	-9.38904
▁english	-9.3905
▁facilitate	-9.39128
▁validate	-9.39271
▁constructed	-9.39429
▁likely	-9.39499
▁empirically	-9.39588
▁becomes	-9.39614
▁humans	-9.39849
learning	-9.39968
▁generator	-9.39976
up	-9.39986
▁variation	-9.40017
▁addresses	-9.40028
▁superior	-9.40312
▁configuration	-9.4037
▁faces	-9.40378
▁indicate	-9.40421
▁advances	-9.40466
▁factorization	-9.40695
▁mixture	-9.40795
▁minimizing	-9.40805
▁fashion	-9.40861
▁dependencies	-9.40875
▁estimated	-9.40944
124	-9.40957
▁manipulation	-9.41258
▁module	-9.41289
▁connection	-9.41472
▁comparing	-9.41475
▁correspond	-9.41663
▁characterize	-9.41686
▁enough	-9.41796
▁science	-9.42162
▁fault	-9.42184
▁trade	-9.42235
▁affect	-9.42251
▁decoder	-9.42342
▁minimization	-9.42472
▁note	-9.42547
▁variance	-9.42547
▁bias	-9.42577
▁experiment	-9.42725
▁identified	-9.42855
hard	-9.42975
▁safety	-9.4298
▁produces	-9.43408
▁never	-9.4343
▁operators	-9.43443
▁integrated	-9.43467
▁cameras	-9.43477
▁project	-9.43525
▁optimized	-9.43575
▁bounding	-9.43646
▁consensus	-9.43711
ic	-9.43814
▁ad	-9.4389
▁driving	-9.43948
▁independently	-9.44014
▁participants	-9.44107
▁manually	-9.44185
▁stereo	-9.44229
▁expression	-9.44311
▁accurately	-9.44345
▁texture	-9.44365
▁pixels	-9.44387
▁diversity	-9.44476
▁forward	-9.44537
▁updates	-9.44576
and	-9.4463
▁depends	-9.44632
▁weak	-9.44636
▁post	-9.44779
▁population	-9.44786
▁refer	-9.44882
▁rath	-9.45342
▁meta	-9.45429
▁adopted	-9.4544
▁modeled	-9.45516
▁relational	-9.45672
▁behaviors	-9.4568
▁publicly	-9.45685
▁answering	-9.45722
▁ideas	-9.45745
▁decoding	-9.45767
▁contextual	-9.45913
▁uniform	-9.45923
▁mathematical	-9.45965
▁hashing	-9.46035
▁transformations	-9.46043
▁collect	-9.46085
▁follow	-9.46203
▁off	-9.46262
having	-9.46354
an	-9.46361
▁u	-9.46399
▁pipeline	-9.4653
▁individuals	-9.46535
▁overcome	-9.46733
▁blocks	-9.46744
▁simulated	-9.46767
▁infer	-9.47073
▁manifold	-9.47097
▁quantitative	-9.47103
▁norm	-9.47144
▁conduct	-9.47387
▁smart	-9.47454
▁dictionary	-9.47593
▁unified	-9.47603
▁intermediate	-9.47667
▁sensitive	-9.47671
▁expert	-9.47709
▁place	-9.47743
▁projection	-9.47786
▁spectrum	-9.47806
▁addressed	-9.47814
▁offer	-9.47815
▁platforms	-9.47815
▁digital	-9.47842
▁assess	-9.47988
▁observe	-9.47999
▁streaming	-9.48113
ather	-9.48278
▁increasingly	-9.4839
▁unlabeled	-9.48414
▁reconstruct	-9.48532
▁infrastructure	-9.48555
▁established	-9.48659
▁preferences	-9.48813
▁developing	-9.48974
▁integration	-9.49029
▁stability	-9.49039
▁bandwidth	-9.49114
▁hash	-9.49146
▁cover	-9.4947
▁similarly	-9.4967
▁chain	-9.49884
▁requiring	-9.49926
▁randomly	-9.50014
▁dimensionality	-9.50058
▁naturally	-9.50114
▁add	-9.50173
▁monitoring	-9.50225
▁formulate	-9.50293
▁potentially	-9.50381
▁nearest	-9.50491
▁demand	-9.50505
▁invariant	-9.50571
▁collaborative	-9.50671
▁artificial	-9.50671
▁directed	-9.50923
▁enhance	-9.5106
▁chosen	-9.51261
▁leading	-9.51262
▁magnitude	-9.51291
▁integer	-9.5135
▁failure	-9.51408
▁optimiz	-9.51478
▁reliable	-9.5148
▁pooling	-9.51655
▁auto	-9.51667
▁involves	-9.5181
▁pairwise	-9.51859
▁findings	-9.51918
▁gans	-9.52033
▁identity	-9.52035
▁million	-9.52433
▁verify	-9.52488
▁implementations	-9.52506
▁distinct	-9.52512
▁extracting	-9.52778
▁list	-9.52801
▁insights	-9.52869
▁connectivity	-9.52995
▁iot	-9.53026
▁private	-9.53055
▁criteria	-9.53092
▁situations	-9.53133
▁black	-9.534
▁recover	-9.53447
▁offers	-9.53465
▁shapes	-9.53467
▁probabilities	-9.53477
▁worst	-9.53512
▁iteration	-9.53616
▁represents	-9.53886
cnn	-9.5391
▁equal	-9.53996
▁trust	-9.54011
▁cell	-9.54041
▁sizes	-9.54085
▁deployment	-9.5425
▁distinguish	-9.54269
▁earlier	-9.54341
▁aggregation	-9.5459
▁now	-9.5461
▁integrate	-9.54654
▁raw	-9.54698
▁box	-9.55174
achieving	-9.5521
▁try	-9.55331
▁runtime	-9.55355
▁dependency	-9.55688
▁latency	-9.55779
▁partition	-9.558
▁maintain	-9.55822
▁argue	-9.55887
▁symmetric	-9.5592
▁closed	-9.55993
▁beside	-9.56037
▁explain	-9.56188
▁smooth	-9.56213
▁cues	-9.5646
▁designing	-9.56471
▁kernels	-9.56595
▁created	-9.56627
▁tend	-9.56747
▁preserve	-9.56985
▁prevent	-9.57
▁introducing	-9.57246
class	-9.57265
task	-9.57332
▁play	-9.57342
▁yield	-9.57498
▁syntactic	-9.57739
▁attempts	-9.57777
▁batch	-9.57894
▁relevance	-9.5811
▁players	-9.58201
▁distances	-9.58209
▁track	-9.58237
▁composition	-9.58282
▁contributions	-9.58286
▁availability	-9.58401
▁forms	-9.5842
▁increased	-9.58496
shot	-9.58792
▁quit	-9.58828
▁0	-9.58851
▁let	-9.58896
▁bits	-9.59119
applying	-9.59276
▁detected	-9.59293
by	-9.59331
▁truth	-9.59381
▁expressions	-9.59402
▁predicted	-9.59438
▁equilibrium	-9.59676
▁popularity	-9.59753
▁numbers	-9.59833
▁plane	-9.59838
▁followed	-9.59842
amp	-9.59871
▁volume	-9.5989
▁algorithmic	-9.59946
▁directions	-9.59975
▁hypothesis	-9.60063
▁assumed	-9.60115
▁captured	-9.60132
▁feasible	-9.60166
▁cache	-9.60224
▁answers	-9.60269
▁fail	-9.60303
off	-9.60307
▁meaningful	-9.60328
▁textual	-9.60395
▁appear	-9.60495
▁streams	-9.60593
▁shortest	-9.60599
▁tests	-9.60632
▁item	-9.60739
▁asymptotic	-9.60872
▁precise	-9.61154
▁mostly	-9.61231
▁produced	-9.61267
▁turn	-9.61415
▁infinite	-9.61626
▁published	-9.61679
▁detail	-9.61897
▁dynamically	-9.61915
▁growing	-9.61986
▁max	-9.6199
▁projects	-9.62077
▁surprising	-9.62105
▁simply	-9.62172
▁heuristics	-9.62242
▁equation	-9.62392
▁supports	-9.62474
▁extensively	-9.62479
optimal	-9.62529
▁varying	-9.62763
▁leverag	-9.62934
▁perception	-9.62943
layer	-9.62972
▁patch	-9.62982
▁clear	-9.63025
▁exhibit	-9.63062
▁interpretation	-9.63079
line	-9.63104
▁estimator	-9.63112
▁unseen	-9.63114
▁equations	-9.63186
▁evaluating	-9.63212
▁cause	-9.63261
▁locally	-9.63277
▁reach	-9.63413
▁failures	-9.63434
▁reason	-9.63456
▁too	-9.6346
▁poses	-9.63563
▁music	-9.63689
▁extensions	-9.63737
▁once	-9.63771
▁five	-9.63822
▁dimensional	-9.63963
▁market	-9.64009
▁soft	-9.64167
▁topological	-9.64202
▁completely	-9.64281
▁numerous	-9.64357
▁implicit	-9.64417
▁corpora	-9.64445
▁summarization	-9.64496
▁operating	-9.64502
▁linguistic	-9.64544
▁engine	-9.64839
▁descriptions	-9.64851
▁completion	-9.65124
▁association	-9.65159
▁applies	-9.65166
▁assign	-9.65209
▁window	-9.65281
▁overview	-9.65316
▁technologies	-9.65344
▁hierarchy	-9.65455
▁false	-9.65662
▁strongly	-9.65702
▁confidence	-9.65757
▁follows	-9.66008
▁incorporat	-9.6615
▁measured	-9.66298
▁aspect	-9.66429
▁difficulty	-9.66475
▁utilized	-9.66479
▁capability	-9.66541
▁pruning	-9.66566
▁emotion	-9.66576
▁bit	-9.66596
▁kind	-9.66647
▁versions	-9.66651
▁controller	-9.66802
▁weakly	-9.66807
▁robotic	-9.66949
▁segments	-9.67265
▁diffusion	-9.67387
crafted	-9.67647
▁suffer	-9.67754
▁choose	-9.67758
▁servers	-9.6778
▁lines	-9.67811
▁crowd	-9.67822
▁partitioning	-9.67905
▁medical	-9.6792
▁utiliz	-9.67975
▁introduction	-9.68013
▁internal	-9.6802
▁big	-9.6803
▁euclidean	-9.68067
▁modified	-9.6814
▁exploited	-9.6833
box	-9.68406
▁history	-9.68414
stage	-9.68708
▁contribute	-9.68732
▁exploits	-9.68765
▁unfortunately	-9.68811
▁captures	-9.68876
▁contexts	-9.68986
▁quickly	-9.6903
▁graphical	-9.69072
inally	-9.69261
oriented	-9.695
▁criterion	-9.69521
▁modules	-9.69655
▁counting	-9.69779
quality	-9.70264
▁et	-9.7033
▁imaging	-9.70397
▁loop	-9.70551
▁exactly	-9.70602
▁nlp	-9.70667
▁mentioned	-9.70679
▁manual	-9.70723
▁rnns	-9.70921
▁tags	-9.71158
▁6	-9.71164
▁partially	-9.71231
▁evaluations	-9.71244
▁tweets	-9.7133
▁articles	-9.71572
▁analytical	-9.71627
▁demonstrates	-9.71629
▁neighbors	-9.71681
▁representative	-9.71687
▁road	-9.7169
▁tight	-9.71709
▁file	-9.71988
▁table	-9.72076
▁dnn	-9.72209
▁broad	-9.72301
▁mobility	-9.72414
▁positions	-9.72458
▁planar	-9.72614
▁computations	-9.73067
▁deployed	-9.73115
▁scientific	-9.73148
▁developers	-9.73186
▁frameworks	-9.73239
▁enabling	-9.73263
▁coefficients	-9.73489
▁coarse	-9.73528
▁complementary	-9.73571
▁baselines	-9.73614
▁universal	-9.73719
▁2-	-9.73755
▁meaning	-9.73796
ng	-9.73834
▁recognize	-9.7384
▁runs	-9.73999
▁configurations	-9.74024
is	-9.74219
▁qualitative	-9.74233
llowing	-9.74276
characterization	-9.74314
temporal	-9.74388
▁proven	-9.74418
▁price	-9.74468
dependent	-9.74476
▁composed	-9.74506
▁recall	-9.7463
▁eye	-9.74846
▁j	-9.74885
▁reflect	-9.74953
h	-9.7528
point	-9.75303
▁fraction	-9.75356
modal	-9.75378
▁orientation	-9.75386
v	-9.75394
▁voting	-9.75564
▁majority	-9.75686
▁gradients	-9.75777
▁substantially	-9.75781
▁formulated	-9.75835
▁simpler	-9.75959
▁radio	-9.7596
▁prototype	-9.76045
▁down	-9.76194
▁limits	-9.76209
▁reliability	-9.76286
▁behaviour	-9.76455
▁determin	-9.76475
▁remove	-9.76478
▁bag	-9.76508
▁collision	-9.76651
▁amounts	-9.76709
▁peer	-9.76757
▁abstraction	-9.76819
ness	-9.76876
▁intrinsic	-9.77319
▁situation	-9.77497
▁involved	-9.77608
▁dropout	-9.77623
▁reviews	-9.77737
▁ra	-9.77848
▁suggested	-9.7785
▁experts	-9.77924
▁packets	-9.77927
▁technical	-9.77941
▁descriptor	-9.78111
approximation	-9.78162
▁margin	-9.78168
▁bi	-9.78221
▁gains	-9.78251
▁fit	-9.78369
▁concern	-9.78423
▁goals	-9.78571
▁handling	-9.7863
▁quadratic	-9.78659
▁http	-9.7866
▁decentralized	-9.78695
▁fairness	-9.78729
▁requirement	-9.78778
▁cpu	-9.7907
▁offline	-9.7915
▁discussion	-9.79251
▁coordinate	-9.79277
▁primary	-9.79351
▁auxiliary	-9.79355
▁approximations	-9.79463
▁belief	-9.79474
▁mixed	-9.79519
▁quantization	-9.79704
▁malicious	-9.79743
▁mutual	-9.79835
▁assignment	-9.79953
▁classic	-9.80087
▁had	-9.8011
▁orthogonal	-9.8034
▁added	-9.80361
▁cellular	-9.8043
▁communications	-9.8045
▁robotics	-9.80453
▁mode	-9.80707
▁salient	-9.8073
▁employs	-9.8088
▁8	-9.80962
▁specified	-9.81032
▁today	-9.81095
▁multimodal	-9.81121
▁maximiz	-9.81127
▁advanced	-9.81208
▁lexical	-9.81286
▁extra	-9.81294
▁satisfy	-9.81324
▁modalities	-9.81521
▁broadcast	-9.81525
▁capturing	-9.81527
▁experimentally	-9.81538
▁posterior	-9.81553
▁maintaining	-9.81583
▁controlled	-9.81949
▁authentication	-9.81987
▁substantial	-9.82006
▁author	-9.82193
▁largest	-9.8233
▁assessment	-9.82356
▁lot	-9.82488
▁element	-9.82519
▁assum	-9.82594
▁boundaries	-9.82777
▁monte	-9.82813
▁adapted	-9.82925
case	-9.82966
▁phrases	-9.82995
▁incremental	-9.82999
▁specify	-9.83038
▁insight	-9.83075
▁flexibility	-9.83139
▁boxes	-9.83166
▁preserving	-9.8321
▁cascade	-9.83418
▁pages	-9.83471
▁dialogue	-9.83497
▁movement	-9.83522
▁creat	-9.83623
▁slam	-9.8366
▁shift	-9.83742
▁center	-9.83816
▁right	-9.83853
▁look	-9.83905
4	-9.83929
▁go	-9.8396
▁come	-9.84007
▁growth	-9.84229
▁finall	-9.84351
▁greatly	-9.84426
▁determined	-9.84583
▁modify	-9.8462
▁occur	-9.84667
▁plan	-9.84704
▁processors	-9.84766
▁texts	-9.84867
▁modelling	-9.84896
▁y	-9.84993
▁aggregate	-9.85418
▁normalization	-9.85422
▁repair	-9.85437
▁dependent	-9.855
▁nearly	-9.85544
▁approximately	-9.85548
▁reveal	-9.85596
step	-9.8572
▁20	-9.86181
▁computes	-9.86251
▁changing	-9.86255
▁procedures	-9.86277
▁analyses	-9.86343
▁inherent	-9.86388
▁specification	-9.864
▁applicability	-9.8645
▁correlations	-9.86478
▁store	-9.86523
▁recursive	-9.8658
called	-9.86582
▁name	-9.86601
▁similarities	-9.86833
▁head	-9.86911
▁candidates	-9.87018
▁reasonable	-9.87076
▁matches	-9.87119
▁cooperative	-9.87131
▁operate	-9.87147
▁remain	-9.87211
▁limitation	-9.87216
▁augmentation	-9.87367
decoder	-9.87406
▁clouds	-9.87489
▁discriminator	-9.87653
▁library	-9.87797
▁regret	-9.87838
▁logical	-9.87884
▁comparisons	-9.87892
▁traces	-9.8792
▁java	-9.87932
▁neighborhood	-9.87975
agent	-9.88052
▁systematic	-9.88252
▁targets	-9.88271
theoretic	-9.8829
▁pascal	-9.88408
▁cifar	-9.88524
▁checking	-9.88721
▁products	-9.88949
▁viewpoint	-9.8897
▁focusing	-9.89066
space	-9.89104
▁validation	-9.89217
▁guide	-9.89256
▁personal	-9.89368
▁allowed	-9.89407
▁searching	-9.89473
▁his	-9.8954
▁did	-9.89615
▁google	-9.89633
▁express	-9.89649
▁involve	-9.8971
▁possibly	-9.89761
▁contact	-9.89766
▁quantify	-9.89783
defined	-9.89805
image	-9.89825
▁hold	-9.8995
forward	-9.90125
label	-9.90277
▁bring	-9.90316
▁anomaly	-9.90329
▁spatio	-9.90506
▁subsequent	-9.90698
▁indoor	-9.90724
▁viewed	-9.90768
▁genetic	-9.90779
▁fewer	-9.90788
▁production	-9.90804
▁correlated	-9.91074
▁denoising	-9.91137
▁keep	-9.91153
▁phrase	-9.9123
▁correspondence	-9.91306
▁emerging	-9.91318
▁cognitive	-9.91332
▁page	-9.91339
▁intelligence	-9.91398
b	-9.9142
▁recommender	-9.91445
▁considerable	-9.91525
▁additive	-9.91694
▁written	-9.91835
ity	-9.9193
▁frequently	-9.91978
reby	-9.92086
▁none	-9.92102
▁believe	-9.9214
▁urban	-9.9215
▁extent	-9.92169
▁stored	-9.92243
▁nets	-9.92332
▁seem	-9.92521
source	-9.92637
▁interested	-9.9266
▁evolutionary	-9.92731
▁separation	-9.92819
▁sophisticated	-9.92926
▁helps	-9.92944
▁tuning	-9.93007
ability	-9.93092
▁rapidly	-9.93105
▁responses	-9.93157
▁flows	-9.93267
▁builds	-9.93297
▁commercial	-9.93408
▁separately	-9.93451
▁finds	-9.93497
▁layout	-9.9353
▁treat	-9.93534
▁subjects	-9.93688
▁easier	-9.93821
▁hyper	-9.93877
▁interval	-9.93886
▁inside	-9.93919
▁compressed	-9.93964
▁know	-9.94007
▁ontology	-9.94106
▁preliminar	-9.94166
▁sampled	-9.94184
▁feasibility	-9.94348
▁illumination	-9.94417
▁asymptotically	-9.94503
▁autoencoder	-9.9458
▁algebraic	-9.94641
▁characters	-9.94642
▁massive	-9.9466
▁kinds	-9.94686
▁proofs	-9.94713
▁micro	-9.9476
▁conclude	-9.94777
▁confirm	-9.94777
▁strength	-9.94837
▁stages	-9.94857
▁adversary	-9.94878
▁lattice	-9.94885
▁slow	-9.94922
▁greater	-9.94925
▁longer	-9.9493
▁entries	-9.95002
▁balance	-9.95053
▁drawn	-9.95183
▁iteratively	-9.95187
▁interfaces	-9.95201
▁seek	-9.95357
▁treatment	-9.95362
▁principal	-9.95389
▁combinations	-9.95396
▁dnns	-9.95465
▁denote	-9.9569
▁frequent	-9.95722
▁delivery	-9.9573
▁largely	-9.95817
▁huge	-9.95927
▁maximal	-9.96185
▁summary	-9.9622
▁centralized	-9.96236
▁causal	-9.96289
▁interact	-9.96488
▁string	-9.96598
▁wikipedia	-9.96617
▁recommendations	-9.96685
▁walk	-9.96768
▁expressive	-9.96918
▁generalizes	-9.97128
▁relay	-9.97164
▁augmented	-9.97238
▁measur	-9.9737
▁spann	-9.97382
▁possibility	-9.97392
domain	-9.974
▁100	-9.97808
▁processor	-9.98184
▁millions	-9.98249
▁rotation	-9.98252
▁covariance	-9.98355
until	-9.98378
▁objectives	-9.98405
▁rounds	-9.98436
▁maximization	-9.98438
▁7	-9.98446
▁translate	-9.98456
▁highlight	-9.98481
▁implies	-9.98503
▁thousands	-9.98513
▁poor	-9.98581
▁characterized	-9.98604
▁occlusion	-9.98653
▁centrality	-9.98679
▁convert	-9.98849
▁orders	-9.98851
▁desirable	-9.98885
▁sound	-9.98982
▁exploring	-9.99092
▁semantically	-9.99215
▁cycle	-9.99241
▁tagging	-9.99244
▁client	-9.99282
▁he	-9.99361
▁modification	-9.99385
▁life	-9.99448
▁feed	-9.995
▁working	-9.99536
▁expressed	-9.99542
▁ours	-9.99572
▁complicated	-9.99596
▁mesh	-9.99826
▁students	-9.99866
▁exchange	-9.99931
▁describing	-10.0002
▁consequently	-10.0012
▁why	-10.0014
▁template	-10.0014
▁chinese	-10.0015
volving	-10.0019
re	-10.0023
▁degrees	-10.0036
▁brain	-10.0036
▁concurrent	-10.0048
▁carlo	-10.0056
▁holds	-10.0063
▁interpretable	-10.0075
▁https	-10.0084
▁captioning	-10.0091
▁voc	-10.0102
deed	-10.011
▁perturbations	-10.0111
▁intersection	-10.0124
▁formula	-10.013
▁encoded	-10.0133
▁period	-10.0135
▁providers	-10.0136
▁six	-10.014
▁simultaneous	-10.0146
valued	-10.0153
▁photo	-10.0174
▁curves	-10.0195
▁iterations	-10.0197
▁collections	-10.0211
▁neurons	-10.0218
▁cells	-10.0231
▁intra	-10.0247
▁budget	-10.0262
▁monocular	-10.0263
▁read	-10.0264
▁conjecture	-10.0271
▁move	-10.0273
▁profile	-10.028
▁url	-10.0307
▁carefully	-10.031
▁correctly	-10.0312
or	-10.0323
▁perfect	-10.0327
▁fair	-10.0327
necessarily	-10.0332
▁deeper	-10.0347
▁sites	-10.0353
▁sufficiently	-10.0354
▁designs	-10.0356
▁proper	-10.037
▁principles	-10.0371
▁student	-10.0396
▁receiver	-10.0404
▁spread	-10.0405
way	-10.0411
▁malware	-10.0413
▁theoretically	-10.0415
▁precisely	-10.0419
▁convolutions	-10.0429
ther	-10.043
▁decide	-10.0442
▁book	-10.0447
▁left	-10.0456
▁asynchronous	-10.0456
▁predicts	-10.0466
▁physics	-10.0467
▁consistently	-10.0468
▁priors	-10.0473
▁team	-10.0479
▁law	-10.0491
▁behind	-10.0493
▁intelligent	-10.0495
▁...	-10.0504
▁forest	-10.0514
▁converge	-10.0518
processing	-10.0519
▁half	-10.0523
▁augment	-10.0525
▁speaker	-10.0529
▁concerns	-10.054
gan	-10.0545
▁assumes	-10.0556
▁iii	-10.057
▁addressing	-10.0589
▁player	-10.0598
▁modular	-10.0611
▁transport	-10.0612
related	-10.0618
▁bottom	-10.0641
▁net	-10.065
▁trace	-10.0651
▁pedestrian	-10.0653
▁coordination	-10.0657
referred	-10.0658
▁producing	-10.066
▁perturbation	-10.0668
▁blockchain	-10.0669
▁expectation	-10.0679
▁landmarks	-10.0682
▁recogniz	-10.0683
▁vocabulary	-10.0685
▁relaxation	-10.0689
▁intensity	-10.0689
▁coupled	-10.0691
▁pseudo	-10.0695
▁arise	-10.0702
▁references	-10.0705
▁below	-10.072
▁correspondences	-10.0722
▁overlapping	-10.0725
▁setup	-10.0733
▁return	-10.0741
core	-10.0741
▁congestion	-10.0747
▁agreement	-10.0748
▁redundancy	-10.0749
▁curve	-10.0755
▁gps	-10.0756
performs	-10.0758
▁arguments	-10.0769
▁bottleneck	-10.0774
▁defining	-10.08
▁guaranteed	-10.0803
▁mnist	-10.0811
means	-10.0816
▁parametric	-10.0816
▁requests	-10.0822
hose	-10.0827
▁qa	-10.0828
▁accounts	-10.086
▁plays	-10.0875
▁canonical	-10.0877
▁transmit	-10.0882
▁supporting	-10.0888
▁classified	-10.0906
▁align	-10.0908
▁encourage	-10.0921
▁activation	-10.0927
preserving	-10.0931
▁consideration	-10.0934
▁transactions	-10.0941
▁z	-10.0945
▁supported	-10.0948
▁business	-10.0949
▁initialization	-10.0956
▁performances	-10.0959
▁stationary	-10.0961
training	-10.0967
▁workload	-10.0969
▁check	-10.0999
▁min	-10.1002
▁induced	-10.1014
▁phenomenon	-10.1015
▁xml	-10.1023
▁obstacles	-10.103
▁3-	-10.1064
▁symmetry	-10.1065
▁skeleton	-10.1073
▁optimality	-10.1075
▁choices	-10.108
▁count	-10.1082
▁remote	-10.1083
▁grammar	-10.1092
▁hypotheses	-10.1092
▁themselves	-10.1106
▁closest	-10.1112
▁informative	-10.1112
▁nor	-10.1114
▁fitting	-10.1128
▁rendering	-10.1141
▁coco	-10.1181
▁gpus	-10.1192
▁uniformly	-10.1195
▁sometimes	-10.1201
▁ranging	-10.121
▁primari	-10.1215
▁route	-10.1219
▁nmt	-10.1222
▁fourier	-10.123
▁integrat	-10.1241
tuning	-10.1245
▁boost	-10.1247
▁opinion	-10.1251
▁cut	-10.1267
▁implications	-10.1282
▁deploy	-10.1285
▁rewards	-10.1286
▁crf	-10.1314
independent	-10.1329
▁square	-10.1336
▁serve	-10.1364
▁intuitive	-10.1367
▁encryption	-10.1373
▁assigned	-10.1381
▁landmark	-10.1385
▁outliers	-10.1385
▁preference	-10.139
▁calculate	-10.1395
▁expansion	-10.1401
▁coordinates	-10.1408
▁age	-10.1409
▁array	-10.1412
▁demonstrating	-10.1414
▁pure	-10.1418
▁health	-10.144
▁ml	-10.1444
▁root	-10.1451
▁speedup	-10.1458
▁reasons	-10.1467
▁pca	-10.1467
▁subsets	-10.1471
▁industry	-10.1483
▁synchronization	-10.1489
▁stack	-10.1489
▁carrie	-10.1507
▁blur	-10.1514
▁valuable	-10.1526
▁subgraph	-10.153
▁perceptual	-10.154
▁integral	-10.1547
▁proximity	-10.1551
▁2015	-10.1559
▁solver	-10.1563
▁caching	-10.1568
-1	-10.1576
▁deliver	-10.1581
▁safe	-10.1588
▁facebook	-10.1596
▁surfaces	-10.1611
▁movements	-10.1611
▁material	-10.1615
▁toward	-10.1615
convex	-10.162
▁meet	-10.1622
▁medium	-10.163
▁tractable	-10.1632
ose	-10.1644
▁appears	-10.1645
complete	-10.1646
▁solves	-10.1658
▁divided	-10.1659
at	-10.1661
▁slightly	-10.1663
▁api	-10.1668
▁ordering	-10.1673
▁straightforward	-10.1678
▁skip	-10.1679
▁correctness	-10.1681
▁registration	-10.1683
▁placement	-10.1684
▁arm	-10.1688
ve	-10.1693
▁50	-10.1696
▁profiles	-10.1698
▁behavioral	-10.1707
▁former	-10.1708
▁led	-10.1719
▁scoring	-10.1725
▁distortion	-10.1728
▁job	-10.1732
▁2012	-10.1736
centric	-10.1747
▁boolean	-10.1753
▁spatially	-10.1755
▁shallow	-10.1767
▁refinement	-10.1768
▁locality	-10.1789
sensitive	-10.1792
▁surveillance	-10.1794
▁guided	-10.1798
▁records	-10.1812
▁particle	-10.1819
▁attacker	-10.1824
▁excellent	-10.1825
▁onto	-10.1828
▁round	-10.183
▁calibration	-10.1841
regularized	-10.1841
▁activations	-10.1843
▁automata	-10.1849
▁valid	-10.186
▁acquisition	-10.1883
th	-10.1883
▁alleviate	-10.1899
▁nash	-10.1909
▁optimum	-10.1912
▁queue	-10.1915
▁gaze	-10.1918
▁remaining	-10.1929
▁tradeoff	-10.1931
▁15	-10.1935
▁date	-10.1946
▁coherence	-10.1948
▁artifacts	-10.1953
▁bases	-10.1957
▁industrial	-10.1967
▁bleu	-10.1976
▁purposes	-10.1981
▁city	-10.1984
▁utilization	-10.1986
▁her	-10.1992
▁acoustic	-10.1993
▁theories	-10.1995
▁competition	-10.2018
▁em	-10.202
▁linearly	-10.2031
▁characteristic	-10.2032
▁modifications	-10.2032
▁singular	-10.2047
0	-10.2049
connected	-10.2057
▁operational	-10.2058
▁definitions	-10.2059
one	-10.206
▁undirected	-10.206
▁refine	-10.2066
▁syntax	-10.2067
▁iris	-10.2079
▁converges	-10.2083
▁phone	-10.2088
▁relate	-10.2095
▁alone	-10.2095
▁analytics	-10.2096
▁personalized	-10.2099
▁proving	-10.2103
▁naive	-10.2106
▁vast	-10.2108
▁synthesize	-10.2157
▁hoc	-10.2159
▁therefor	-10.2173
▁30	-10.2175
▁validated	-10.2175
state	-10.2176
▁sketch	-10.218
▁limiting	-10.2186
▁protection	-10.2189
▁wh	-10.2191
▁notions	-10.2194
▁contents	-10.2198
▁linked	-10.2212
▁phenomena	-10.2215
▁drawing	-10.222
▁destination	-10.2224
▁reality	-10.2231
▁car	-10.2232
▁outcome	-10.224
▁rapid	-10.2241
▁argument	-10.2246
▁subspaces	-10.2246
▁heavily	-10.2248
▁display	-10.225
▁driven	-10.2253
▁architectural	-10.2264
hop	-10.2265
▁purely	-10.2273
▁things	-10.2273
▁examined	-10.2277
▁fake	-10.2284
▁normalized	-10.2289
▁incomplete	-10.229
▁biological	-10.2292
▁split	-10.2293
▁concerned	-10.2295
▁differentiable	-10.2297
▁symbols	-10.2297
▁grasp	-10.2305
▁dynamical	-10.2317
▁adoption	-10.2325
▁absolute	-10.2327
▁keeping	-10.2329
▁balancing	-10.2335
▁specialized	-10.2342
▁boosting	-10.2347
▁solely	-10.2353
▁gender	-10.2356
▁poisson	-10.2357
▁reports	-10.2357
▁motivation	-10.236
▁arbitrarily	-10.237
▁faults	-10.2386
▁included	-10.2403
▁ideal	-10.2411
▁disease	-10.2413
▁dependence	-10.2414
▁identical	-10.2421
▁absence	-10.2423
▁choosing	-10.2423
▁protect	-10.2425
▁visually	-10.2432
▁enhanced	-10.2442
▁branch	-10.2447
▁graphics	-10.2454
▁advance	-10.2468
▁mask	-10.2475
▁pricing	-10.2478
▁creation	-10.2494
▁pyramid	-10.2495
▁receive	-10.2509
▁symbolic	-10.251
▁exponentially	-10.2514
▁hundreds	-10.2527
▁rise	-10.254
▁adjust	-10.2541
▁jobs	-10.2543
▁windows	-10.2547
it	-10.2551
en	-10.2554
▁ai	-10.2558
▁clearly	-10.256
▁chains	-10.2592
▁put	-10.2593
▁connect	-10.2597
▁reveals	-10.2616
▁solvers	-10.2622
▁resnet	-10.263
▁aimed	-10.2639
▁affine	-10.2639
▁names	-10.2641
▁gained	-10.2641
▁manage	-10.2654
▁considerably	-10.2655
▁schema	-10.2658
▁restrict	-10.2662
▁simulator	-10.2663
▁oracle	-10.2668
▁members	-10.2676
▁subsequently	-10.2683
▁android	-10.2686
▁variability	-10.2692
▁2014	-10.2692
▁bipartite	-10.2701
▁qos	-10.2705
▁incorporated	-10.2731
▁16	-10.2732
▁want	-10.2747
-10	-10.2747
▁tag	-10.276
▁force	-10.2761
▁lighting	-10.2769
▁laplacian	-10.277
▁circuit	-10.2776
▁redundant	-10.2777
▁foreground	-10.2781
▁covering	-10.2787
▁satisfying	-10.2794
▁files	-10.2809
▁plans	-10.2811
▁suited	-10.2817
▁decades	-10.2825
▁treated	-10.283
▁targeted	-10.2832
▁coherent	-10.2834
▁unstructured	-10.2837
▁sift	-10.2845
▁environmental	-10.2859
▁act	-10.2862
▁bugs	-10.2871
▁uncertain	-10.2872
▁metadata	-10.2891
▁difficulties	-10.2894
▁avoiding	-10.2896
com	-10.2901
▁autoencoders	-10.2902
▁localize	-10.2905
gram	-10.2912
▁cryptographic	-10.2912
▁overfitting	-10.2913
▁site	-10.2914
▁doing	-10.2916
▁scope	-10.2917
▁disk	-10.292
▁costly	-10.2921
▁discovered	-10.2924
▁mitigate	-10.2929
▁predefined	-10.2932
▁release	-10.2947
▁dedicated	-10.2947
▁indexing	-10.2961
▁multivariate	-10.2966
▁lists	-10.2969
▁historical	-10.2973
▁secret	-10.2973
▁collective	-10.2979
▁carry	-10.2984
▁host	-10.2985
▁replace	-10.2994
▁hav	-10.2997
▁achievable	-10.3008
▁roles	-10.302
▁daily	-10.3022
ian	-10.3033
▁correction	-10.3048
▁actor	-10.3051
▁reuse	-10.3059
▁retain	-10.3068
▁lie	-10.307
▁estimators	-10.3088
▁aforementioned	-10.3096
▁logs	-10.31
▁complement	-10.31
efficient	-10.3105
▁visible	-10.3106
▁join	-10.3107
▁proportional	-10.3108
▁stations	-10.3109
▁satisfies	-10.3115
▁highest	-10.3123
▁optimisation	-10.3125
length	-10.3127
▁acquired	-10.3131
▁multimedia	-10.3135
▁functionality	-10.3137
▁conditioned	-10.3137
▁demonstrations	-10.3153
▁pass	-10.3155
▁reading	-10.3157
▁aware	-10.3162
▁implicitly	-10.3167
▁losses	-10.3168
trivial	-10.3179
▁impressive	-10.3182
▁equivalence	-10.3184
▁sgd	-10.3188
▁instructions	-10.3191
▁arithmetic	-10.3206
▁stronger	-10.3207
▁enhancement	-10.3208
dding	-10.321
▁decade	-10.3221
▁bayes	-10.3222
down	-10.3236
▁alternatives	-10.3236
▁decrease	-10.3241
us	-10.3245
▁late	-10.3252
▁emerged	-10.3259
▁consequence	-10.326
▁otherwise	-10.3263
▁mixing	-10.3263
▁ip	-10.3268
▁parameterized	-10.3271
▁again	-10.3281
▁occurs	-10.3284
▁aerial	-10.3284
▁investigation	-10.3297
we	-10.3303
▁sliding	-10.3306
▁centers	-10.3307
▁course	-10.3318
id	-10.3318
▁live	-10.3334
▁cope	-10.3343
▁inferred	-10.3344
▁accelerate	-10.3345
▁constructs	-10.335
▁double	-10.338
▁penalty	-10.3383
▁updated	-10.3383
▁bidirectional	-10.3383
▁tables	-10.3385
le	-10.3386
equipped	-10.3392
▁schedule	-10.3411
▁transitions	-10.3414
▁planner	-10.3416
▁lidar	-10.3417
▁compositional	-10.3435
▁simplicity	-10.3441
▁forwarding	-10.3452
▁mac	-10.3462
▁outcomes	-10.3474
▁histogram	-10.3474
▁click	-10.3476
▁communicate	-10.348
▁cooperation	-10.35
▁discrepancy	-10.3502
▁vary	-10.3502
▁concrete	-10.3505
caused	-10.3516
▁defines	-10.3526
▁submodular	-10.3535
▁engines	-10.3535
▁formation	-10.3536
▁bandit	-10.3539
▁crowdsourcing	-10.3546
▁station	-10.3551
▁divergence	-10.3553
▁write	-10.3553
▁regime	-10.3557
▁squares	-10.3566
▁formulas	-10.3573
▁transforms	-10.3584
▁request	-10.3591
▁overlap	-10.3592
▁decay	-10.3599
▁identifies	-10.36
▁invariance	-10.3602
▁grows	-10.3602
▁admit	-10.3605
▁workers	-10.3613
▁attractive	-10.3613
▁curvature	-10.3615
▁efficacy	-10.3621
▁calculated	-10.3627
▁day	-10.363
▁protein	-10.3637
▁vgg	-10.3637
▁motions	-10.3642
▁partitions	-10.3646
▁heavy	-10.3646
▁originally	-10.3654
▁format	-10.367
▁attract	-10.3676
▁traditionally	-10.3683
▁se	-10.3689
▁sensitivity	-10.3689
ting	-10.3689
channel	-10.3714
invariant	-10.3715
▁teacher	-10.3716
▁maintenance	-10.3718
▁9	-10.3725
▁divide	-10.3734
▁wavelet	-10.3736
▁demands	-10.3746
▁passing	-10.3748
▁intended	-10.375
bit	-10.3751
▁backpropagation	-10.3758
▁networking	-10.3763
▁12	-10.377
▁quasi	-10.3772
▁adaptively	-10.3773
size	-10.3796
▁globally	-10.3798
▁obtains	-10.3809
▁preprocessing	-10.3827
▁places	-10.3837
▁buffer	-10.3841
▁emotions	-10.3852
▁rigid	-10.3853
▁political	-10.3855
▁ca	-10.3857
structured	-10.386
network	-10.3865
▁interpret	-10.3867
▁promise	-10.387
▁reader	-10.3876
▁parser	-10.3879
▁trend	-10.3887
▁clinical	-10.3895
▁patient	-10.3899
▁explanations	-10.39
▁closer	-10.3903
▁lda	-10.3903
▁modes	-10.3905
▁captions	-10.3913
▁width	-10.3914
▁oriented	-10.3917
▁taxonomy	-10.3919
▁families	-10.3922
set	-10.393
form	-10.3941
▁alternating	-10.3948
ite	-10.3952
▁calculus	-10.3952
▁eliminate	-10.3956
▁figure	-10.3957
▁transformed	-10.3958
▁summaries	-10.3961
▁usefulness	-10.3962
▁roughly	-10.3963
▁firstly	-10.3971
▁ignore	-10.3979
▁aligned	-10.3979
▁diameter	-10.3986
peer	-10.3989
▁th	-10.3991
spite	-10.3993
▁priori	-10.4003
▁placed	-10.4008
▁rdf	-10.4013
▁revenue	-10.4017
▁initially	-10.4019
▁logarithmic	-10.4024
▁averaging	-10.4043
▁contained	-10.4045
▁inner	-10.4047
▁approximated	-10.4053
▁grow	-10.4055
▁softmax	-10.4057
▁independence	-10.4059
▁modality	-10.4065
▁repeated	-10.408
▁signature	-10.4082
▁surveys	-10.4082
▁walks	-10.4084
▁causes	-10.4086
▁posts	-10.4087
▁sharp	-10.4091
▁ms	-10.4091
▁verified	-10.4095
▁customers	-10.4096
user	-10.4097
▁ratings	-10.4097
▁wordnet	-10.4099
▁la	-10.4109
▁writing	-10.4113
▁constructions	-10.4117
▁grasping	-10.412
▁email	-10.4123
▁fuzzy	-10.4129
▁usability	-10.4134
▁primitives	-10.4137
▁tailor	-10.4139
▁lies	-10.4162
side	-10.4162
▁lightweight	-10.4173
▁clients	-10.4174
▁processed	-10.4198
▁homogeneous	-10.4201
▁neither	-10.421
▁bridge	-10.4211
▁inequality	-10.4213
▁indicates	-10.4216
▁electronic	-10.4225
▁splitting	-10.4229
▁quantitatively	-10.425
▁learner	-10.4252
▁reconstructed	-10.4254
▁simplified	-10.4263
identification	-10.4264
▁outside	-10.427
▁satisfaction	-10.4275
▁ordered	-10.4277
▁workloads	-10.4295
▁multiplication	-10.4312
▁cyber	-10.4325
▁switch	-10.4325
▁properly	-10.4326
▁styles	-10.4332
▁distributional	-10.4336
▁fails	-10.4336
▁belong	-10.434
▁trends	-10.4342
▁templates	-10.4344
range	-10.4347
▁affected	-10.4348
▁recorded	-10.4352
▁recovering	-10.4354
▁transmissions	-10.4359
▁transaction	-10.4365
▁optimizations	-10.4366
▁grids	-10.4372
▁tries	-10.4374
ization	-10.4377
▁algebra	-10.4378
▁equilibria	-10.4385
▁retrieve	-10.4402
▁trusted	-10.4411
▁respective	-10.4416
▁coefficient	-10.4422
w	-10.4428
▁simplify	-10.4434
▁approximat	-10.4438
▁intervals	-10.4439
▁interpolation	-10.4439
▁grouping	-10.4445
while	-10.4458
▁dialog	-10.4458
▁discourse	-10.4462
▁opportunities	-10.4464
▁anomalies	-10.4465
▁1-	-10.4467
▁interpreted	-10.4477
▁becom	-10.4479
▁executed	-10.4484
▁covers	-10.4486
truth	-10.4487
type	-10.4488
hoc	-10.4496
▁parallelism	-10.4497
▁statistically	-10.451
▁inferring	-10.4512
▁formally	-10.453
▁adjacent	-10.4534
▁learnt	-10.4555
▁freedom	-10.4557
▁bitcoin	-10.4574
▁remarkable	-10.4574
▁removal	-10.4576
▁evolving	-10.4578
▁interacting	-10.4583
▁decompose	-10.4583
▁rigorous	-10.4587
▁specifications	-10.4594
removing	-10.4601
▁projections	-10.4612
▁auction	-10.4612
▁dominant	-10.4627
▁controllers	-10.4634
▁packing	-10.4642
▁propos	-10.4647
▁forecasting	-10.4658
▁record	-10.4663
▁occlusions	-10.4678
▁experiences	-10.468
▁vs	-10.4683
▁summarize	-10.4689
▁apps	-10.4691
▁rare	-10.4692
▁extracts	-10.4697
▁intensive	-10.47
▁fragments	-10.4708
rising	-10.4708
▁simulate	-10.471
▁velocity	-10.4711
▁impose	-10.4715
▁continuously	-10.4716
▁termination	-10.4747
▁marginal	-10.4749
▁arises	-10.4759
▁strings	-10.4762
▁smoothing	-10.4771
▁street	-10.4772
▁convnet	-10.4775
▁polynomials	-10.4784
▁polygon	-10.4787
▁stacked	-10.479
▁analogous	-10.4795
▁lasso	-10.4801
ory	-10.4814
▁except	-10.4814
▁demonstration	-10.482
▁membership	-10.482
▁compiler	-10.482
ive	-10.4831
cost	-10.4832
▁operates	-10.4834
▁motivate	-10.4834
▁intuition	-10.4836
▁impossible	-10.4838
▁coupling	-10.4852
▁thorough	-10.4853
▁fuse	-10.4853
▁briefly	-10.4866
vec	-10.4868
▁outdoor	-10.4882
▁lp	-10.4908
▁yielding	-10.492
▁friends	-10.4929
▁serious	-10.493
▁instruction	-10.4931
▁mappings	-10.4935
▁ease	-10.494
▁explanation	-10.495
▁aggregated	-10.495
▁ieee	-10.495
▁understood	-10.4951
▁unconstrained	-10.4956
▁throughout	-10.4956
stream	-10.4961
▁white	-10.4963
▁beneficial	-10.4973
▁turns	-10.4977
5	-10.4985
▁matched	-10.499
▁visualizations	-10.5002
▁inspir	-10.5004
▁exhibits	-10.5014
▁companies	-10.502
▁automation	-10.5022
▁cycles	-10.5023
▁competing	-10.5027
▁skills	-10.5041
▁seed	-10.505
norm	-10.5058
▁notably	-10.5068
▁synchronous	-10.5074
▁perceived	-10.5079
▁updating	-10.5092
ar	-10.5097
▁organization	-10.5099
memory	-10.5102
purpose	-10.5105
ized	-10.5107
▁topologies	-10.5111
▁transportation	-10.5115
▁14	-10.5128
▁contrary	-10.5135
▁keyword	-10.5142
words	-10.5149
▁logistic	-10.5152
▁gp	-10.5154
flow	-10.5174
▁asp	-10.518
▁deformable	-10.5182
▁keywords	-10.5186
▁predictor	-10.5212
▁tracks	-10.5214
sized	-10.5222
▁collaboration	-10.5226
▁dramatically	-10.5227
▁ever	-10.5236
▁execute	-10.5242
▁involv	-10.5259
▁row	-10.5261
▁labelled	-10.5268
▁analyse	-10.5269
▁contour	-10.5273
▁vulnerable	-10.5297
▁strictly	-10.5307
▁away	-10.5307
person	-10.531
▁induce	-10.5339
▁clean	-10.5341
▁computers	-10.5344
▁obstacle	-10.5348
▁enabled	-10.5353
▁biased	-10.5359
▁priority	-10.5361
▁claim	-10.5362
▁prominent	-10.5367
▁peers	-10.5369
▁ordinary	-10.5373
▁circuits	-10.5381
▁scans	-10.5386
▁column	-10.5388
▁kitti	-10.5392
▁provably	-10.5393
▁categorization	-10.5393
▁theoretic	-10.5395
▁guidance	-10.5397
▁restrictions	-10.5399
▁front	-10.54
▁triplet	-10.5402
▁keys	-10.5406
tree	-10.5414
▁minimax	-10.5417
▁recovered	-10.5423
▁li	-10.5429
ms	-10.544
▁deals	-10.5446
▁draw	-10.5446
▁forests	-10.5449
▁2016	-10.545
▁lstms	-10.5451
z	-10.5456
▁academic	-10.5465
▁cardinality	-10.547
▁facts	-10.5471
▁timing	-10.5474
▁moment	-10.5474
▁analytic	-10.5491
▁looking	-10.5497
▁hours	-10.5499
▁fog	-10.5506
▁sorting	-10.5508
▁calls	-10.5508
▁vae	-10.5512
▁monitor	-10.5512
▁selective	-10.5515
▁scan	-10.5519
▁formed	-10.5525
▁periodic	-10.5532
▁chapter	-10.5538
▁novelty	-10.5539
▁union	-10.5548
▁mimo	-10.5549
▁scratch	-10.5554
▁developments	-10.5559
▁smt	-10.5559
▁validity	-10.556
▁transferring	-10.5562
▁smoothness	-10.5564
▁counter	-10.5565
text	-10.5577
▁suite	-10.5584
▁replaced	-10.5588
object	-10.5596
▁whenever	-10.5609
▁economic	-10.5616
▁interests	-10.5621
▁multiplicative	-10.5623
▁workflow	-10.5627
▁tcp	-10.5634
▁linking	-10.5642
man	-10.5646
rate	-10.5651
▁formulations	-10.5653
▁methodologies	-10.5655
▁primal	-10.5656
life	-10.567
▁tracker	-10.5672
▁university	-10.5679
▁lexicon	-10.5683
▁fix	-10.5685
▁options	-10.5688
out	-10.5689
frame	-10.569
value	-10.5691
▁consecutive	-10.5698
▁inductive	-10.5706
▁characteriz	-10.5707
▁swarm	-10.5708
▁entirely	-10.571
▁merging	-10.5712
▁usual	-10.5721
▁ask	-10.5727
▁vulnerabilities	-10.5728
▁distillation	-10.5729
▁foundation	-10.5732
▁biases	-10.5733
speech	-10.5734
▁projected	-10.5742
▁comments	-10.5744
▁disambiguation	-10.5754
▁systematically	-10.5757
constrained	-10.5764
▁imagery	-10.5773
▁avoidance	-10.5783
▁successive	-10.5796
▁accelerated	-10.5798
▁smallest	-10.5809
▁portion	-10.5809
▁comparative	-10.5819
gave	-10.5821
▁send	-10.5821
▁exhaustive	-10.5826
▁deconvolution	-10.5827
▁mention	-10.5829
▁patients	-10.5833
▁entry	-10.5839
making	-10.5858
▁replac	-10.5859
▁refined	-10.5861
▁devise	-10.5871
▁dictionaries	-10.5879
▁apart	-10.5882
▁40	-10.5886
▁trainable	-10.5896
izing	-10.59
▁columns	-10.5902
▁horizon	-10.5914
u	-10.592
▁invariants	-10.5924
▁eigenvalue	-10.5933
▁parse	-10.5934
▁imitation	-10.5947
▁bug	-10.5949
▁voxel	-10.5952
▁outline	-10.5957
▁lengths	-10.5976
▁switching	-10.5994
▁opinions	-10.6
▁pursuit	-10.6007
▁dirichlet	-10.6008
varying	-10.6012
consuming	-10.6014
▁connecting	-10.6015
▁cores	-10.6024
▁enforce	-10.6025
▁odometry	-10.6028
▁rain	-10.6031
▁deformation	-10.6033
▁optimally	-10.6036
▁colors	-10.6036
▁encrypted	-10.6042
▁60	-10.607
▁kalman	-10.6076
▁libraries	-10.6077
▁drawback	-10.6081
▁newly	-10.6087
▁poorly	-10.6089
▁touch	-10.6099
▁reliably	-10.6102
▁pay	-10.6111
▁push	-10.6114
▁lane	-10.6121
▁visibility	-10.6132
▁travel	-10.6133
frequency	-10.6135
▁controlling	-10.6136
▁radius	-10.6137
▁wave	-10.614
▁ten	-10.6143
▁mapped	-10.6146
▁illustrated	-10.6154
▁rest	-10.6161
▁intel	-10.6166
▁voice	-10.6167
▁eigenvalues	-10.6174
▁gestures	-10.6175
▁geographic	-10.6175
▁cf	-10.6176
▁disparity	-10.6179
▁cars	-10.6183
▁regarded	-10.6193
▁qualitatively	-10.6197
▁inherently	-10.6198
▁phases	-10.62
▁expertise	-10.6205
▁wild	-10.6211
▁nested	-10.6212
▁drone	-10.6218
▁visualize	-10.6229
▁inequalities	-10.6233
▁detects	-10.6234
▁11	-10.6242
▁90	-10.6243
▁scalar	-10.6245
▁subjective	-10.625
▁sensory	-10.6254
▁readily	-10.6256
▁boltzmann	-10.6264
▁surrounding	-10.6269
▁status	-10.6272
▁drive	-10.628
▁conceptual	-10.6284
▁signatures	-10.6289
▁incrementally	-10.6299
▁ubiquitous	-10.6299
▁symbol	-10.63
▁da	-10.6305
▁biomedical	-10.6307
▁angle	-10.6314
▁passive	-10.6327
▁citation	-10.6334
▁drift	-10.6336
▁com	-10.6338
▁neuron	-10.6338
▁mass	-10.634
▁versus	-10.6341
▁fall	-10.6347
▁assist	-10.6357
▁intractable	-10.6367
▁statements	-10.6367
▁parties	-10.6371
▁disjoint	-10.6377
▁cs	-10.6378
▁cast	-10.6378
▁tolerance	-10.6381
▁routes	-10.6382
▁app	-10.6383
interpretability	-10.6388
▁spl	-10.6391
▁attain	-10.64
▁careful	-10.6404
encoder	-10.6404
▁blind	-10.6411
▁norms	-10.6421
▁rating	-10.6422
▁strict	-10.6423
▁embed	-10.6424
▁emotional	-10.6432
▁reverse	-10.6436
▁piecewise	-10.6441
▁integrity	-10.6442
▁hope	-10.6444
▁readers	-10.6445
▁rational	-10.6452
▁air	-10.6452
▁replication	-10.6453
▁gesture	-10.6457
▁home	-10.6463
▁sign	-10.6469
▁notable	-10.6478
▁proxy	-10.6487
▁balanced	-10.6488
▁ontologies	-10.6491
▁replay	-10.6494
▁conjunction	-10.6497
▁github	-10.6499
▁calculation	-10.6506
▁constitute	-10.6525
▁movie	-10.6529
▁eight	-10.6537
▁moments	-10.6542
▁conversation	-10.6542
▁plausible	-10.655
depth	-10.6551
performance	-10.6552
▁consumer	-10.6558
▁2017	-10.6563
▁morphological	-10.6563
▁spam	-10.6572
▁released	-10.6572
▁monotone	-10.6573
sequence	-10.6578
▁acceleration	-10.6579
▁overlay	-10.6583
▁editing	-10.6594
▁802.11	-10.6596
▁fisher	-10.6601
▁incentive	-10.6605
▁food	-10.6608
▁expect	-10.6614
▁generators	-10.6625
▁bin	-10.6626
▁aggregates	-10.6628
▁convnets	-10.6628
▁molecular	-10.6631
lingual	-10.6631
▁span	-10.6644
▁pos	-10.6648
▁water	-10.6651
▁welfare	-10.6652
▁formalism	-10.6658
▁pagerank	-10.666
▁transformer	-10.6675
▁youtube	-10.6679
▁alexnet	-10.6681
▁ranked	-10.6683
▁outlier	-10.6688
parametric	-10.669
▁temperature	-10.6696
▁uav	-10.6698
▁multilingual	-10.6703
▁trivial	-10.6704
▁arrival	-10.6705
▁practices	-10.6722
▁materials	-10.6728
▁goes	-10.6731
▁2007	-10.6733
▁practitioners	-10.6735
▁detections	-10.6735
▁sr	-10.674
▁say	-10.6741
▁mid	-10.6741
▁recognized	-10.6742
▁reli	-10.6744
▁granularity	-10.6751
▁localized	-10.6752
ts	-10.676
▁joints	-10.6779
▁byzantine	-10.6787
▁weather	-10.68
▁permutation	-10.6805
▁pool	-10.6807
▁height	-10.6815
▁located	-10.6821
▁download	-10.6832
▁observable	-10.6833
▁forces	-10.6838
▁mapreduce	-10.6841
▁weighting	-10.6848
▁giv	-10.6848
▁randomness	-10.6851
▁revealed	-10.6861
▁subgraphs	-10.6864
▁old	-10.6864
▁highlights	-10.6873
▁strengths	-10.6882
ers	-10.6889
▁story	-10.6892
▁di	-10.6894
▁significance	-10.6895
▁hog	-10.6905
▁websites	-10.6908
▁branches	-10.691
▁pieces	-10.691
robot	-10.6919
▁ensur	-10.692
▁token	-10.6925
▁synthesized	-10.6925
▁handled	-10.6927
▁siamese	-10.6928
▁lemma	-10.6932
▁regress	-10.6942
▁diagnosis	-10.6953
▁truthful	-10.6954
comes	-10.6956
▁riemann	-10.6974
▁tv	-10.6982
▁accessible	-10.6989
▁inpainting	-10.6991
▁mini	-10.7
▁drawbacks	-10.7
generated	-10.7008
▁seconds	-10.7015
field	-10.7018
shelf	-10.7019
▁mpi	-10.7021
▁paired	-10.7022
▁sequentially	-10.7024
▁star	-10.703
▁enjoy	-10.7035
▁geo	-10.7038
▁custom	-10.7046
▁squared	-10.7052
▁financial	-10.7055
▁degradation	-10.7071
▁diagrams	-10.7071
▁wang	-10.7078
▁aid	-10.7084
▁compress	-10.7085
▁25	-10.7086
▁ambiguity	-10.7091
▁transmitted	-10.7092
▁volumes	-10.7095
▁expand	-10.7099
▁robustly	-10.7101
▁customer	-10.7104
▁laser	-10.7125
▁suffers	-10.7131
occurrence	-10.7132
▁hmm	-10.7136
▁drop	-10.7139
▁quantities	-10.7146
▁ensembles	-10.7147
▁severe	-10.7157
▁protected	-10.7171
attention	-10.7179
▁compatible	-10.7183
▁atomic	-10.7184
▁searches	-10.7196
adaptive	-10.7199
▁fed	-10.7217
▁13	-10.7218
▁caption	-10.7226
▁manifolds	-10.723
▁flickr	-10.7235
▁anchor	-10.7251
▁widespread	-10.726
▁distant	-10.726
▁amazon	-10.726
▁equally	-10.7262
▁transferred	-10.7263
▁photos	-10.7265
▁hyperparameter	-10.727
▁organizations	-10.7288
▁translations	-10.7294
▁imply	-10.7295
▁par	-10.7302
▁fitness	-10.7318
▁isolated	-10.7325
▁2010	-10.733
▁implements	-10.7345
▁sdn	-10.7346
▁mutation	-10.735
est	-10.7354
▁stor	-10.7355
▁hardness	-10.7358
▁minimized	-10.7358
▁proximal	-10.7376
▁manipulate	-10.7383
▁decreases	-10.7386
▁achiev	-10.7391
▁year	-10.7392
▁preferred	-10.7392
▁bilinear	-10.74
▁temporally	-10.7403
▁recommend	-10.7411
▁composite	-10.7419
▁locate	-10.7425
▁analytically	-10.743
▁teams	-10.7435
▁tuned	-10.7444
▁threads	-10.7448
▁delays	-10.7453
▁stand	-10.746
▁skill	-10.7464
▁encountered	-10.7465
▁battery	-10.7466
▁anonymous	-10.7471
▁you	-10.7471
▁mimic	-10.7474
use	-10.748
▁lifetime	-10.748
▁superiority	-10.7492
▁laws	-10.7492
▁wherea	-10.7494
▁unless	-10.7496
▁corrupted	-10.7501
▁sp	-10.7501
▁formalize	-10.7502
▁cluttered	-10.7503
▁threat	-10.7506
▁emergence	-10.752
▁comprehension	-10.7522
▁tokens	-10.7526
▁mine	-10.7542
▁textures	-10.7546
▁advertising	-10.755
▁ma	-10.7553
▁nonparametric	-10.7553
▁room	-10.7554
▁conclusions	-10.7565
▁ambiguous	-10.7566
▁coloring	-10.7572
▁markets	-10.7572
▁identities	-10.7578
▁inde	-10.758
▁resolve	-10.758
j	-10.7588
▁prices	-10.7589
▁sketches	-10.7595
▁emphasis	-10.7599
▁masks	-10.76
▁asymmetric	-10.7601
▁mechanical	-10.7608
▁adds	-10.7618
▁positioning	-10.7622
▁weaker	-10.7624
▁render	-10.7629
vector	-10.7637
▁adjacency	-10.7638
▁terrain	-10.7639
▁rewriting	-10.7642
▁ir	-10.7642
▁exploitation	-10.7643
la	-10.7644
▁abstractions	-10.7646
style	-10.7648
▁sat	-10.766
data	-10.7661
▁returns	-10.7668
▁quantity	-10.7669
▁eventually	-10.767
▁discrimination	-10.7673
▁2013	-10.7675
▁80	-10.7682
▁viewpoints	-10.769
▁frequencies	-10.7697
haps	-10.7698
▁tail	-10.7701
▁attempted	-10.7706
▁counterpart	-10.7711
▁straight	-10.7714
▁ultimate	-10.7714
▁decreasing	-10.7716
▁potentials	-10.7719
▁svms	-10.772
▁duration	-10.7721
▁dl	-10.7728
▁constrain	-10.7728
▁atari	-10.773
▁secondary	-10.7732
▁modularity	-10.7733
▁fin	-10.7733
▁conversational	-10.7737
▁bots	-10.7747
▁starts	-10.7749
tolerant	-10.7752
▁defense	-10.7752
▁imposed	-10.7756
▁sent	-10.7763
▁consequences	-10.7768
▁smartphone	-10.7771
▁trains	-10.7779
▁occurrence	-10.7783
▁arrays	-10.7784
party	-10.7786
▁affinity	-10.7788
▁persistent	-10.7791
▁fcn	-10.7796
▁handcrafted	-10.7797
▁pioneer	-10.7816
▁debugging	-10.7817
▁18	-10.7833
▁hyperparameters	-10.7835
studied	-10.7837
▁driver	-10.7842
▁ball	-10.7842
▁copy	-10.7845
▁conflict	-10.7852
▁started	-10.7857
▁consumers	-10.7868
▁satisfied	-10.7878
▁handles	-10.7882
▁inefficient	-10.7886
▁helpful	-10.7909
▁piece	-10.7909
▁querying	-10.7911
▁inception	-10.7912
sum	-10.7912
▁predicate	-10.7915
ns	-10.7917
ary	-10.7922
▁opportunistic	-10.7929
negative	-10.7932
▁devote	-10.7935
▁merge	-10.7938
word	-10.7939
▁unbounded	-10.7939
▁option	-10.7939
▁tried	-10.7944
▁posed	-10.7947
▁intrusion	-10.7953
▁primitive	-10.7957
▁acquire	-10.7959
▁enrich	-10.7966
▁rows	-10.7971
▁zhang	-10.7972
parameter	-10.7972
▁secondly	-10.7984
▁targeting	-10.7994
▁individually	-10.7995
▁microsoft	-10.7998
▁resilience	-10.8002
path	-10.8019
adding	-10.8019
▁actively	-10.8031
-3	-10.8032
model	-10.8042
▁harder	-10.8054
▁accordingly	-10.806
▁www	-10.806
▁care	-10.8062
▁viewing	-10.8074
▁behave	-10.8074
▁matter	-10.8079
▁antennas	-10.8091
▁pareto	-10.8093
▁ilsvrc	-10.8094
▁pedestrians	-10.8095
▁sort	-10.8118
▁prone	-10.812
▁belonging	-10.8121
▁isolation	-10.8123
▁tweet	-10.813
▁ill	-10.8131
▁beam	-10.8132
▁histograms	-10.8133
▁backward	-10.8136
▁conclusion	-10.8137
▁counts	-10.814
▁organized	-10.815
▁fractional	-10.8153
▁appeared	-10.8154
▁volumetric	-10.8154
▁densities	-10.8155
▁convenient	-10.8157
▁party	-10.8158
▁worse	-10.8167
▁days	-10.8174
▁1.	-10.8188
▁negation	-10.8189
▁guidelines	-10.8194
fold	-10.8196
▁responsibl	-10.8206
8	-10.8207
output	-10.8217
▁feedforward	-10.8217
ned	-10.8221
▁bs	-10.8225
▁uncover	-10.8231
▁smartphones	-10.8233
▁testbed	-10.8234
▁practically	-10.8235
▁removed	-10.8239
▁emphasize	-10.8239
▁commodity	-10.8244
q	-10.8247
▁wider	-10.825
▁evolve	-10.8252
▁induction	-10.8266
▁wish	-10.8276
nd	-10.8278
▁hierarchies	-10.8281
▁spatiotemporal	-10.8281
▁analog	-10.8283
▁wi	-10.8285
▁insufficient	-10.8285
▁cities	-10.8286
▁ssd	-10.8287
▁paradigms	-10.8305
▁opportunity	-10.8311
▁freely	-10.8317
▁executing	-10.8322
▁incorrect	-10.8323
▁anonymity	-10.8324
▁completeness	-10.8326
▁generality	-10.8326
critical	-10.8332
▁awareness	-10.8339
▁dns	-10.8341
cut	-10.8343
▁warping	-10.8344
▁fused	-10.8349
▁beginning	-10.8362
▁origin	-10.8367
▁multicast	-10.8369
▁raise	-10.8371
▁suboptimal	-10.8373
visual	-10.8374
▁somewhat	-10.8376
▁promote	-10.8376
▁photometric	-10.8377
▁receptive	-10.8379
▁transparent	-10.8379
▁floating	-10.8381
▁categorized	-10.8389
▁separated	-10.8395
▁perspectives	-10.8398
▁clock	-10.8407
▁categorical	-10.8414
▁rarely	-10.8416
▁prohibitive	-10.8419
▁default	-10.8424
▁restoration	-10.8425
▁coded	-10.8426
pixel	-10.8431
▁realized	-10.8439
only	-10.8449
▁leveraged	-10.8449
▁reachability	-10.845
▁lost	-10.8452
▁17	-10.8455
▁worth	-10.8455
▁election	-10.8459
▁thought	-10.8461
▁seven	-10.8467
▁strategic	-10.8475
▁supply	-10.8484
▁analyzes	-10.8486
▁deviation	-10.8491
▁replacement	-10.8493
▁investigating	-10.85
▁fill	-10.8504
▁axis	-10.8504
▁explained	-10.8504
▁nn	-10.8507
▁trackers	-10.8534
▁clutter	-10.8541
max	-10.8547
▁closure	-10.8555
▁vertical	-10.8562
▁geographical	-10.8563
▁subtle	-10.8566
▁pr	-10.8567
▁flat	-10.857
▁elegant	-10.8571
▁sql	-10.8578
▁counterparts	-10.8586
▁cosine	-10.8587
▁speeds	-10.8594
▁theorems	-10.8597
body	-10.8612
▁realize	-10.8617
▁switches	-10.8617
▁st	-10.8621
▁offering	-10.8621
▁controls	-10.8626
▁indices	-10.8636
▁clustered	-10.8639
▁le	-10.8643
▁uavs	-10.8658
▁brief	-10.8661
▁thread	-10.8664
▁profit	-10.8678
▁relax	-10.8687
▁gated	-10.8692
▁leave	-10.8692
▁particles	-10.8698
▁elastic	-10.8705
▁compressive	-10.8708
▁master	-10.8709
▁consuming	-10.8712
▁irrelevant	-10.8714
▁minima	-10.8721
▁transmitter	-10.8722
▁teaching	-10.8724
▁keypoint	-10.873
▁copies	-10.8734
▁vqa	-10.874
▁ring	-10.8744
▁stress	-10.8745
▁aggregat	-10.8746
▁perturbed	-10.8747
noise	-10.875
▁sa	-10.8752
▁randomization	-10.8752
▁fairly	-10.8755
▁receives	-10.8758
▁clique	-10.877
▁agree	-10.8772
▁separable	-10.8774
▁gate	-10.8778
▁pi	-10.8778
▁branching	-10.8781
▁inertial	-10.8783
▁ner	-10.8784
▁website	-10.8785
▁standards	-10.8796
▁stories	-10.8804
node	-10.8816
propagation	-10.8825
▁retrieved	-10.8826
▁arms	-10.883
▁deblurring	-10.8832
▁met	-10.8833
graph	-10.8835
critic	-10.8836
▁offered	-10.8838
▁auctions	-10.8839
▁partitioned	-10.8839
▁analogy	-10.8841
▁fading	-10.8846
local	-10.8848
▁wasserstein	-10.8848
▁erasure	-10.8853
▁ratios	-10.8858
▁turing	-10.8862
▁nearby	-10.8872
▁persistence	-10.8873
▁lambda	-10.8883
▁adjustment	-10.889
▁heterogeneity	-10.8898
▁gene	-10.8899
▁society	-10.89
▁children	-10.8901
▁checks	-10.8903
▁collisions	-10.8907
▁median	-10.8909
▁predicates	-10.8913
ion	-10.8915
▁exponent	-10.8917
▁biometric	-10.8923
▁grammars	-10.8932
▁handwritten	-10.8933
▁beliefs	-10.8935
▁programmers	-10.8936
▁possess	-10.8939
▁periods	-10.8946
▁adapts	-10.8962
▁accuracies	-10.8967
▁burden	-10.8968
target	-10.8984
▁multilayer	-10.8987
▁diagram	-10.8994
▁sc	-10.8998
▁repository	-10.9
▁indicators	-10.9001
▁acceptable	-10.9004
▁regularity	-10.9004
▁accommodate	-10.9007
▁semidefinite	-10.9011
▁cp	-10.9016
▁vanishing	-10.9023
▁declarative	-10.9028
▁break	-10.9034
▁holistic	-10.9034
▁defects	-10.9037
▁narrow	-10.9051
▁pipelines	-10.9056
▁hypergraph	-10.9057
series	-10.906
▁atoms	-10.9061
▁cuts	-10.9063
▁horizontal	-10.9063
▁mi	-10.9064
▁savings	-10.9066
▁predictors	-10.9067
▁occupancy	-10.9068
▁acts	-10.9075
▁correlate	-10.9081
▁chen	-10.9082
▁develops	-10.9095
▁fig	-10.9096
degree	-10.9098
▁clones	-10.9099
▁svd	-10.9102
▁obvious	-10.9106
▁faced	-10.9119
▁2009	-10.9123
▁mis	-10.9126
▁restriction	-10.9127
▁impractical	-10.9129
regular	-10.9131
player	-10.9135
▁indicat	-10.9135
▁python	-10.914
▁reactive	-10.9142
▁anti	-10.9153
▁encouraging	-10.9154
▁password	-10.9159
▁serves	-10.9161
▁transfers	-10.9163
▁musical	-10.9171
▁gradually	-10.9173
▁slot	-10.9176
▁ar	-10.9187
▁calculat	-10.9196
▁concurrency	-10.9208
▁gathered	-10.9213
▁me	-10.9216
ry	-10.9219
▁chemical	-10.9228
broader	-10.9236
▁playing	-10.9238
▁presentation	-10.9238
▁decid	-10.9243
▁seeks	-10.9251
▁alphabet	-10.9251
▁concentrate	-10.9258
▁reached	-10.9268
▁adequate	-10.9269
▁reputation	-10.9271
nn	-10.9272
▁dissemination	-10.9275
designed	-10.929
▁deriving	-10.9291
▁keypoints	-10.9295
▁contention	-10.9308
▁2011	-10.931
parameterization	-10.9315
▁belongs	-10.9316
▁assignments	-10.9318
▁covered	-10.9326
▁oppose	-10.9331
▁migration	-10.9336
▁browsing	-10.9347
▁si	-10.9351
▁utterances	-10.9351
▁segmentations	-10.9351
▁occurring	-10.9352
▁intent	-10.9353
▁exposure	-10.9354
▁getting	-10.9356
▁conflicts	-10.9364
▁conditioning	-10.9372
▁calculations	-10.9372
▁claims	-10.9378
▁foundations	-10.9382
uniform	-10.9383
weight	-10.9386
▁hop	-10.939
likelihood	-10.9397
▁minor	-10.9398
@	-10.9408
▁screen	-10.9414
sampling	-10.9414
▁desp	-10.9422
▁charging	-10.9424
▁lte	-10.9424
tuned	-10.9428
▁lr	-10.9431
▁neighborhoods	-10.9444
▁trading	-10.9446
▁pick	-10.9449
▁parsers	-10.946
▁unable	-10.9465
▁relat	-10.9468
▁spirit	-10.9475
link	-10.9476
▁treebank	-10.9477
loop	-10.9483
▁vulnerability	-10.9487
pplying	-10.9489
▁ads	-10.9492
▁synthesizing	-10.9493
▁ga	-10.9495
▁bad	-10.9496
▁tens	-10.9501
▁inconsistent	-10.9503
ce	-10.951
▁evolved	-10.951
rs	-10.9511
▁indexes	-10.9515
▁angles	-10.9517
▁accepted	-10.9539
▁occluded	-10.954
▁actors	-10.9543
▁allocate	-10.9549
▁broadly	-10.9552
giving	-10.9567
▁attribution	-10.9592
▁alternate	-10.9593
▁unclear	-10.9594
▁derivation	-10.9596
▁nuclear	-10.9598
▁walking	-10.9598
▁rf	-10.9601
▁differentiate	-10.9602
▁dqn	-10.9616
nearest	-10.9618
▁associations	-10.9622
▁resort	-10.9629
▁accomplish	-10.9643
▁minutes	-10.9645
▁appropriately	-10.9645
rnn	-10.965
▁broadcasting	-10.9652
▁lipschitz	-10.9653
▁meshes	-10.9656
▁reproduce	-10.9663
▁billion	-10.9663
▁hot	-10.9665
▁preserved	-10.9666
▁designers	-10.9669
▁scientists	-10.9672
▁green	-10.9682
▁infeasible	-10.9696
▁irregular	-10.9696
▁changed	-10.97
▁egocentric	-10.9703
ducing	-10.9707
▁compromise	-10.9715
▁hinder	-10.9716
▁arrive	-10.9728
▁conversations	-10.973
enforcing	-10.974
▁parallelization	-10.9745
▁solvable	-10.9752
▁mdp	-10.9753
▁mri	-10.9754
▁tensors	-10.9755
▁fundamentally	-10.9762
▁loops	-10.9763
▁dna	-10.9765
intensive	-10.9772
▁reviewed	-10.9775
▁spreading	-10.9777
▁hamming	-10.9778
lstm	-10.9784
▁provider	-10.9791
▁begin	-10.9796
engineered	-10.9804
▁decomposed	-10.9811
▁beamforming	-10.9814
▁bilingual	-10.9815
▁peak	-10.9818
▁multitask	-10.9818
7	-10.9828
▁moves	-10.9836
ation	-10.9839
▁assembly	-10.984
▁thousand	-10.9843
▁incoming	-10.9845
▁attackers	-10.9845
offs	-10.9851
▁bp	-10.9854
▁compilation	-10.9858
▁tuples	-10.9877
▁poly	-10.9881
▁drones	-10.9882
▁fpga	-10.9884
▁favorably	-10.9888
▁mathematics	-10.9888
▁stores	-10.9898
▁ignor	-10.9898
▁nonconvex	-10.9903
▁concise	-10.9916
▁directional	-10.9919
▁holes	-10.9923
▁coming	-10.9929
▁clothing	-10.9933
▁exception	-10.994
▁mt	-10.994
▁annotate	-10.9944
▁asked	-10.9948
▁geodesic	-10.9955
sparse	-10.996
▁underwater	-10.9962
▁mtl	-10.9965
▁newton	-10.9966
▁scheduler	-10.9967
▁scattering	-10.9977
▁ties	-10.9979
▁threats	-10.9981
▁generalizations	-10.9986
▁perceptron	-10.999
▁labelling	-10.9999
▁moderate	-11.0004
▁winning	-11.0008
▁conversion	-11.0026
▁19	-11.0027
▁surrogate	-11.0028
▁waiting	-11.0029
▁immediate	-11.003
▁division	-11.003
▁ongoing	-11.0038
chieving	-11.0045
▁slots	-11.0057
▁1000	-11.006
▁emerge	-11.0063
▁diagonal	-11.0064
▁trigger	-11.0065
▁phones	-11.0066
▁en	-11.0072
▁repositories	-11.0074
▁drastically	-11.0074
▁kinect	-11.0076
▁heart	-11.0078
▁varies	-11.0083
▁band	-11.0093
▁hate	-11.0094
▁segmented	-11.0098
▁32	-11.0098
▁admm	-11.0099
▁landscape	-11.0104
▁ap	-11.0105
▁cyclic	-11.0109
▁influential	-11.0112
▁entailment	-11.0114
▁receiving	-11.0115
▁virtualization	-11.0116
▁mix	-11.0117
▁hilbert	-11.0121
▁pa	-11.0122
▁pro	-11.0124
▁comprises	-11.0132
▁native	-11.0135
▁alternatively	-11.0141
▁problematic	-11.0147
▁gathering	-11.0152
▁discriminant	-11.0153
▁cancer	-11.0159
▁goods	-11.0166
▁perfectly	-11.0173
fi	-11.0173
▁shortcomings	-11.0174
▁deformations	-11.018
▁negotiation	-11.0181
▁distinction	-11.0183
▁stay	-11.0185
▁kb	-11.0188
▁electricity	-11.0189
▁vm	-11.019
▁compatibility	-11.0193
▁derivatives	-11.0193
▁considerations	-11.0198
▁imbalance	-11.021
▁voters	-11.0218
▁motor	-11.0226
specified	-11.023
▁thesis	-11.0239
▁mds	-11.0243
▁expressiveness	-11.0244
▁numerically	-11.0249
▁rankings	-11.0256
▁thank	-11.0259
▁barrier	-11.0263
▁downstream	-11.0266
▁sublinear	-11.0267
▁developer	-11.0269
▁card	-11.0284
▁magnetic	-11.0287
▁commands	-11.0288
de	-11.0289
▁relaxed	-11.0294
▁enhancing	-11.0297
▁coalition	-11.0297
ta	-11.0297
▁kl	-11.0301
▁publications	-11.0305
▁elementary	-11.031
▁credit	-11.0317
-2	-11.0318
▁null	-11.0332
▁hessian	-11.0336
▁intervention	-11.0339
▁nowadays	-11.0342
▁remarkably	-11.0342
all	-11.0344
▁failed	-11.0344
▁vital	-11.0344
▁personality	-11.0346
▁weaknesses	-11.0347
nvidia	-11.0354
▁thresholds	-11.0359
▁continue	-11.0361
▁permits	-11.037
me	-11.037
▁2000	-11.0376
▁biology	-11.0382
▁percolation	-11.0382
▁encoders	-11.04
▁spherical	-11.0402
▁decompositions	-11.0417
▁differently	-11.0417
▁hpc	-11.0417
▁vr	-11.0418
▁heat	-11.0419
et	-11.0435
▁examining	-11.0437
▁fps	-11.0454
zero	-11.0458
law	-11.0458
▁capacities	-11.0459
▁unreliable	-11.046
▁discriminate	-11.0461
▁interior	-11.0461
▁said	-11.0466
▁spark	-11.0466
▁reject	-11.0467
▁repeatedly	-11.0474
used	-11.0481
▁advice	-11.049
▁sections	-11.0497
▁utterance	-11.0498
coming	-11.0498
▁assessed	-11.0504
▁planners	-11.0513
▁therein	-11.0528
▁su	-11.0532
▁picture	-11.0534
▁plus	-11.0535
▁shadow	-11.0537
▁caches	-11.0539
edge	-11.0551
▁accept	-11.0553
▁outer	-11.057
▁ignored	-11.058
▁con	-11.0582
▁deployments	-11.0589
▁gold	-11.0591
▁appealing	-11.0596
▁explaining	-11.0598
▁tune	-11.0605
▁hands	-11.0605
▁decode	-11.0613
▁german	-11.0617
ful	-11.062
▁id	-11.0621
▁license	-11.0624
▁unify	-11.0627
▁dominating	-11.0632
▁ordinal	-11.0633
▁intuitively	-11.0648
▁impacts	-11.0648
▁concentration	-11.0652
▁inspection	-11.0652
▁physically	-11.0656
▁chord	-11.0659
▁complexities	-11.0661
▁reaction	-11.0666
▁reactions	-11.0666
▁liu	-11.0668
▁experimentation	-11.067
▁resilient	-11.0672
▁shed	-11.0677
▁package	-11.0678
▁sphere	-11.0681
▁cpus	-11.0698
▁learners	-11.0699
▁edit	-11.0699
▁mechanics	-11.07
▁regularize	-11.0701
ies	-11.0701
▁db	-11.0703
▁govern	-11.0705
▁hosts	-11.0706
▁sports	-11.0718
▁allocations	-11.0725
▁valuations	-11.073
▁prune	-11.0731
▁crossing	-11.0731
▁conference	-11.0735
ous	-11.0751
▁geometrical	-11.0755
posed	-11.0766
armed	-11.0769
▁wmt	-11.078
▁alpha	-11.0787
▁severely	-11.0788
da	-11.0789
▁leader	-11.0804
▁densely	-11.0807
score	-11.0808
▁devised	-11.081
▁workflows	-11.082
▁facility	-11.0821
▁spin	-11.0824
▁bins	-11.0829
▁convey	-11.0833
▁optima	-11.0834
▁simplest	-11.0838
▁computable	-11.0839
▁grasps	-11.0847
▁mentions	-11.0859
▁grammatical	-11.0859
▁sec	-11.0861
▁momentum	-11.0863
▁regularizer	-11.0867
▁preservation	-11.087
▁descriptive	-11.087
▁crime	-11.0873
▁snr	-11.0873
grams	-11.0883
▁red	-11.0892
▁unexpected	-11.0893
▁outage	-11.09
▁occurrences	-11.0903
▁angular	-11.0918
▁spot	-11.0927
▁session	-11.0928
▁reaches	-11.0938
▁propagate	-11.0942
▁contours	-11.0944
directional	-11.0952
▁nonnegative	-11.0955
▁leaves	-11.0957
▁manipulating	-11.0957
▁participation	-11.0969
▁middle	-11.0974
▁pointed	-11.0981
▁mixtures	-11.0987
▁receivers	-11.0992
▁sun	-11.0999
▁speaking	-11.1001
▁going	-11.1002
▁revealing	-11.1012
▁pervasive	-11.1015
he	-11.102
squares	-11.1022
▁elimination	-11.1023
▁programmer	-11.1023
▁flight	-11.1024
▁negligible	-11.1025
▁agnostic	-11.1028
▁she	-11.1036
▁matchings	-11.1042
▁compose	-11.1043
▁integers	-11.1043
▁constants	-11.1044
ks	-11.1052
▁ransac	-11.1053
▁percentage	-11.1062
▁electrical	-11.1063
▁spoken	-11.1069
▁engagement	-11.107
▁contemporar	-11.107
▁positives	-11.1073
▁defect	-11.1076
▁modelled	-11.1076
▁reductions	-11.1078
▁infinity	-11.1078
▁race	-11.1081
▁tackled	-11.1088
▁drivers	-11.1091
▁summarized	-11.1099
▁exceeds	-11.1104
▁sciences	-11.1106
▁countries	-11.1109
▁man	-11.111
▁ambient	-11.1113
▁reflection	-11.1113
▁held	-11.1119
▁participating	-11.112
6	-11.1121
▁orientations	-11.1125
action	-11.1126
▁defenses	-11.1131
instance	-11.1133
map	-11.1142
9	-11.1154
coloring	-11.1155
▁prover	-11.1156
▁uniqueness	-11.1157
▁parity	-11.1158
▁statement	-11.1159
▁lsh	-11.116
▁played	-11.1163
▁disentangled	-11.1164
▁organize	-11.1169
▁exemplar	-11.117
▁multicore	-11.118
▁backbone	-11.1189
▁inclusion	-11.1191
her	-11.1192
▁possibilities	-11.1193
▁influences	-11.1203
bound	-11.1207
▁wall	-11.1218
be	-11.1221
▁dp	-11.1223
▁macro	-11.1224
▁shorter	-11.1231
▁mathematically	-11.1234
pass	-11.1238
▁unman	-11.1241
ical	-11.1242
▁alignments	-11.1245
▁navigate	-11.1247
▁fluid	-11.1248
▁constructive	-11.1249
▁satisfiability	-11.1252
managing	-11.1254
▁duality	-11.1264
▁locomotion	-11.1271
▁solid	-11.1274
▁revisit	-11.1281
▁grouped	-11.1282
▁scanning	-11.1282
▁progressively	-11.1283
product	-11.1285
▁derivative	-11.1288
pooling	-11.1292
▁optimizer	-11.13
▁inaccurate	-11.131
▁queues	-11.1311
▁innovative	-11.1315
▁approximates	-11.1316
▁indirect	-11.1317
▁automate	-11.1324
▁meeting	-11.1325
▁reporting	-11.1326
▁fastest	-11.1326
▁downlink	-11.1328
▁immediately	-11.1329
batch	-11.133
▁stanford	-11.1331
▁ex	-11.1334
▁viable	-11.1337
▁knn	-11.134
▁translating	-11.1341
▁respond	-11.1342
▁proportion	-11.1349
▁sdp	-11.1362
▁imperfect	-11.1364
▁satisfactory	-11.1365
▁drug	-11.1366
▁rbm	-11.1368
▁packages	-11.137
▁thermal	-11.1383
sharing	-11.1383
nt	-11.1385
▁stop	-11.1397
▁polarity	-11.1407
▁experienced	-11.1409
▁gossip	-11.1411
▁cubic	-11.1416
▁marketing	-11.1419
org	-11.142
▁learnable	-11.1426
▁na	-11.1431
▁locating	-11.1433
▁tradeoffs	-11.144
▁radar	-11.1441
weighted	-11.1444
▁enumeration	-11.1446
▁utilities	-11.1451
▁assurance	-11.1452
▁propositional	-11.1452
▁generaliz	-11.1456
▁save	-11.1459
tion	-11.1468
▁confirmed	-11.1481
▁enormous	-11.1487
▁unbiased	-11.1487
ised	-11.1488
▁handwriting	-11.1494
tends	-11.1495
▁csma	-11.1496
▁favorable	-11.1499
▁bundle	-11.1499
▁mil	-11.1502
▁populations	-11.1504
▁senses	-11.1518
▁lock	-11.1526
▁professional	-11.1534
▁mc	-11.1537
▁fits	-11.1538
▁bodies	-11.1542
▁harmonic	-11.1551
▁blocking	-11.156
▁ne	-11.1571
parallel	-11.1578
▁tracked	-11.1589
▁gather	-11.1591
▁knapsack	-11.1591
▁company	-11.1598
▁nontrivial	-11.1604
10	-11.1604
▁typing	-11.1617
▁mirror	-11.1619
dual	-11.162
▁csp	-11.1625
▁truly	-11.1627
▁votes	-11.163
,000	-11.1636
▁slower	-11.1638
▁rendered	-11.1639
▁2.	-11.1644
▁cold	-11.1645
▁forming	-11.1646
▁ranges	-11.1654
▁coincide	-11.1654
▁traveling	-11.1654
▁dis	-11.1659
sample	-11.1662
▁kinematic	-11.1665
▁leakage	-11.1666
▁persons	-11.1668
▁uplink	-11.1672
policy	-11.1673
▁slice	-11.1682
▁quantized	-11.169
▁reconfiguration	-11.1692
▁eliminat	-11.1692
▁200	-11.1692
▁appendix	-11.1705
▁cumulative	-11.1705
▁drl	-11.1705
▁wrong	-11.1705
▁routers	-11.1707
▁transient	-11.1708
▁legitimate	-11.1719
▁transmitters	-11.1731
ir	-11.1741
▁photographs	-11.1741
▁falls	-11.1743
▁incentives	-11.1747
▁specially	-11.1748
▁phishing	-11.1749
▁distinctive	-11.1758
▁satellite	-11.176
▁provenance	-11.1761
▁national	-11.1764
▁cutting	-11.1779
▁infrastructures	-11.1785
▁mission	-11.1785
▁posted	-11.1802
▁abnormal	-11.1803
▁abilities	-11.1807
▁treats	-11.1808
▁slices	-11.1808
▁gaps	-11.1809
▁bss	-11.181
▁compris	-11.1815
▁stated	-11.1825
▁dr	-11.1827
▁simulat	-11.1827
▁gates	-11.1841
▁noted	-11.1842
document	-11.1845
▁soon	-11.1846
▁compelling	-11.1848
▁regularities	-11.1849
▁wearable	-11.1854
▁differentially	-11.1854
▁anomalous	-11.1855
▁successes	-11.186
truncated	-11.1864
rought	-11.1867
▁mrf	-11.1867
encoders	-11.1871
▁mental	-11.1873
▁attentional	-11.1886
▁tracing	-11.1887
▁surpass	-11.1892
language	-11.1901
▁retrieving	-11.1905
▁terminals	-11.1911
▁realization	-11.1911
▁meanings	-11.1918
▁months	-11.1918
▁clips	-11.1921
▁2018	-11.1922
▁archive	-11.1927
▁monolingual	-11.1931
▁interpretations	-11.1942
▁argumentation	-11.1943
▁circle	-11.1947
▁resemble	-11.1956
▁chooses	-11.1964
▁reconstructions	-11.1969
▁layered	-11.1971
▁colour	-11.1976
▁memories	-11.1984
▁innovation	-11.1985
▁bio	-11.1988
▁dcnn	-11.1988
multidimensional	-11.1995
▁attributed	-11.1999
▁2005	-11.2001
▁insert	-11.2001
▁rpn	-11.2003
▁compensate	-11.2008
▁transactional	-11.2015
▁centered	-11.2016
▁plant	-11.2019
standing	-11.2026
▁uncertainties	-11.203
▁neutral	-11.2031
▁triples	-11.2031
▁mo	-11.2034
▁fingerprint	-11.2037
fine	-11.2039
▁24	-11.2045
▁autonomously	-11.2051
▁faulty	-11.2054
▁digit	-11.2062
▁mr	-11.2064
▁depict	-11.2065
▁laboratory	-11.2076
▁deletion	-11.2084
▁mcmc	-11.2088
objective	-11.2096
▁completed	-11.2103
ne	-11.2103
▁multiagent	-11.2107
▁hadoop	-11.2123
▁analysed	-11.2124
error	-11.213
▁risks	-11.2135
▁ha	-11.2139
▁visualiz	-11.2142
▁clauses	-11.2156
▁wiley	-11.2169
▁international	-11.2169
▁speakers	-11.2177
▁gibbs	-11.2178
▁tissue	-11.2179
▁publication	-11.2179
▁projective	-11.2179
▁msr	-11.2184
▁investigations	-11.2188
motion	-11.2196
▁fusing	-11.2202
▁arc	-11.2212
▁leaf	-11.2216
▁equipment	-11.2216
▁unstable	-11.2218
▁lagrangian	-11.222
▁indicator	-11.222
agnostic	-11.2222
▁thresholding	-11.2222
▁zsl	-11.223
▁passwords	-11.2232
networks	-11.2238
▁markers	-11.224
▁resolutions	-11.2255
▁inform	-11.2256
guided	-11.2262
▁warp	-11.2266
▁profiling	-11.2274
▁jpeg	-11.2275
▁gru	-11.2277
▁selectively	-11.2278
▁thoroughly	-11.2279
log	-11.2297
▁recursively	-11.2297
wide	-11.2299
▁allocated	-11.2301
▁logics	-11.2307
first	-11.2307
▁skin	-11.2313
convolutional	-11.2315
▁tsp	-11.2316
▁obfuscation	-11.2318
▁ego	-11.232
▁interpreting	-11.2322
▁van	-11.2322
▁restrictive	-11.2325
▁conceptually	-11.2325
▁overheads	-11.2328
▁constantly	-11.2331
▁acting	-11.2332
▁objectness	-11.2334
▁grounded	-11.2342
▁scaled	-11.2349
▁fragment	-11.2352
▁cad	-11.2354
▁circumvent	-11.2355
▁highlighting	-11.2359
▁localisation	-11.236
▁took	-11.2361
▁delta	-11.2362
▁rat	-11.2367
▁digits	-11.2368
▁lazy	-11.2368
▁prototypes	-11.2371
▁seq	-11.2373
1-	-11.238
▁ctc	-11.238
▁schedules	-11.2381
▁twice	-11.2407
▁won	-11.2414
▁bank	-11.2419
▁sparql	-11.2419
▁winner	-11.2425
▁trial	-11.2432
▁2.5	-11.244
▁apparent	-11.2445
▁distribute	-11.2455
▁toolkit	-11.2457
▁outstanding	-11.2458
▁bidding	-11.2459
▁hmms	-11.2461
▁2004	-11.2465
ac	-11.2465
▁discovers	-11.2466
▁accomplished	-11.2468
▁visited	-11.2471
▁diseases	-11.2482
▁blue	-11.2486
▁familiar	-11.2487
▁percent	-11.2501
▁categorize	-11.2503
▁fidelity	-11.2503
▁continuity	-11.2507
▁sessions	-11.2508
▁fluctuations	-11.2516
▁plain	-11.252
▁prefix	-11.2525
▁intersections	-11.2525
▁contracts	-11.2537
-5	-11.2541
▁triple	-11.2543
vertex	-11.2543
▁des	-11.2544
▁acyclic	-11.2544
▁advent	-11.2548
▁ba	-11.2551
▁healthcare	-11.2553
▁maintained	-11.2553
▁member	-11.2555
▁determination	-11.2561
▁relatedness	-11.2564
▁violations	-11.2579
▁trials	-11.2592
▁knowing	-11.2593
▁facilities	-11.2598
▁happen	-11.2598
▁survival	-11.2598
▁french	-11.26
▁steady	-11.2606
using	-11.2622
ment	-11.2624
▁identifiers	-11.2628
▁tightly	-11.2633
▁instability	-11.2636
▁selfish	-11.264
test	-11.264
spectral	-11.2643
▁middleware	-11.2647
▁everyday	-11.2648
▁mind	-11.2649
▁humanoid	-11.2649
▁paragraph	-11.2653
▁varied	-11.2656
▁seller	-11.2659
performing	-11.2659
▁bandits	-11.2664
▁normals	-11.2667
▁separat	-11.2677
ner	-11.268
▁researches	-11.2683
▁22	-11.2686
▁clone	-11.2687
▁nine	-11.2689
precision	-11.2692
▁quick	-11.2695
▁adversaries	-11.2696
▁register	-11.2699
▁guiding	-11.2699
▁steiner	-11.2701
▁contract	-11.2702
▁pe	-11.2703
▁accesses	-11.2703
▁paid	-11.2708
▁passage	-11.2709
▁antenna	-11.2727
▁mismatch	-11.273
▁indicated	-11.2731
▁gait	-11.2731
▁highway	-11.2732
▁prevalent	-11.2736
▁distortions	-11.2736
▁mutually	-11.2739
▁lens	-11.2744
▁21	-11.2746
▁expense	-11.2746
▁argued	-11.2748
▁equality	-11.2748
▁simplification	-11.2749
▁autoregressive	-11.2749
▁prefer	-11.2752
▁scarce	-11.2756
▁annotators	-11.2758
▁roots	-11.2769
▁slicing	-11.2772
▁lo	-11.2778
▁gating	-11.2785
▁opposite	-11.2787
▁tremendous	-11.2787
▁closeness	-11.2794
▁witnessed	-11.2797
▁ssl	-11.2797
▁rectangular	-11.2799
▁traits	-11.2803
▁discussions	-11.2804
cs	-11.2806
▁forecast	-11.2806
service	-11.281
▁benchmarking	-11.2813
▁terminal	-11.2813
▁customize	-11.2814
▁convexity	-11.2833
▁reflectance	-11.2846
▁whil	-11.2847
▁friendship	-11.2847
▁flash	-11.2848
▁vehicular	-11.2851
▁im	-11.2853
demand	-11.2856
▁bob	-11.2868
factor	-11.2878
▁associate	-11.2879
▁hide	-11.288
▁suppose	-11.288
▁partly	-11.2891
observing	-11.2892
▁shifts	-11.2895
▁probably	-11.2898
▁stopping	-11.2904
▁vice	-11.2905
▁ge	-11.2907
▁acquir	-11.2911
▁modulation	-11.2915
▁nonzero	-11.2916
▁suggestions	-11.292
▁eigenvectors	-11.2925
▁impos	-11.2928
▁auc	-11.2936
▁speedups	-11.2939
provable	-11.2942
▁informed	-11.2944
▁breaking	-11.2945
▁restore	-11.2945
▁vi	-11.2946
▁mmd	-11.2946
os	-11.2948
▁succeed	-11.2949
date	-11.2952
rich	-11.2958
▁vms	-11.2967
▁imbalanced	-11.2978
▁attend	-11.298
▁passes	-11.2986
ma	-11.2993
▁earliest	-11.2995
▁javascript	-11.2995
▁bootstrapping	-11.2996
▁demanding	-11.2996
▁enforcement	-11.2997
▁citations	-11.2999
▁hundred	-11.2999
▁generalisation	-11.3
▁distinguished	-11.3001
loss	-11.3001
▁enterprise	-11.3002
▁ultra	-11.3005
▁serving	-11.3007
▁publish	-11.3017
▁disciplines	-11.3022
▁lattices	-11.3024
▁raised	-11.3024
▁cultural	-11.3024
▁exposed	-11.3032
▁movies	-11.3036
▁lexicons	-11.304
▁statistic	-11.3042
▁betweenness	-11.3043
▁linux	-11.3049
▁portable	-11.305
▁hamiltonian	-11.3052
▁payoff	-11.3054
▁95	-11.3055
▁voltage	-11.3055
▁decompos	-11.3058
▁inspiration	-11.306
▁triangle	-11.306
▁countermeasures	-11.3061
▁inverted	-11.3064
▁expanded	-11.3069
▁eyes	-11.3071
▁concurrently	-11.3074
▁pnc	-11.3083
▁preced	-11.3089
▁crfs	-11.3093
▁cryptography	-11.3101
▁cube	-11.3101
▁artistic	-11.3105
▁expanding	-11.312
▁cascades	-11.3133
▁layouts	-11.3135
▁couple	-11.3143
competitive	-11.3144
▁rumor	-11.3155
parameters	-11.3158
▁planes	-11.316
coded	-11.3163
▁supervisor	-11.3169
band	-11.3174
▁concentrated	-11.3177
▁initialize	-11.3178
▁nns	-11.3178
▁seeds	-11.3184
▁70	-11.3188
▁degrade	-11.3191
▁empty	-11.3192
▁overcomes	-11.3195
▁polygons	-11.32
▁recording	-11.3203
▁forgetting	-11.3204
▁epidemic	-11.3206
▁googlenet	-11.3206
qa	-11.3209
input	-11.3216
▁relays	-11.322
▁ranks	-11.3222
▁deviations	-11.3224
▁28	-11.3226
▁notes	-11.3226
▁displays	-11.3234
▁saving	-11.3248
▁extractor	-11.3248
▁curriculum	-11.3251
▁ambiguities	-11.3251
▁suitability	-11.3252
▁interplay	-11.3252
▁stimuli	-11.3252
for	-11.3253
▁bot	-11.3253
▁expectations	-11.3258
▁snapshot	-11.3259
ra	-11.3265
▁billions	-11.3266
▁lowest	-11.3271
vae	-11.3273
tier	-11.3281
▁strengthen	-11.3282
▁2008	-11.3285
▁formats	-11.3293
▁penn	-11.3296
▁mu	-11.3297
▁tedious	-11.3303
▁dominated	-11.3311
▁emails	-11.3314
▁gr	-11.3318
power	-11.332
▁lacking	-11.3325
▁transe	-11.3332
▁ct	-11.3333
light	-11.334
▁hr	-11.3341
▁fingerprinting	-11.3351
▁decoders	-11.3355
▁oblivious	-11.3355
stationary	-11.3366
▁apache	-11.3367
▁communicat	-11.3368
ble	-11.3372
▁csi	-11.3377
▁cheap	-11.3378
▁steering	-11.3379
▁compete	-11.3389
▁pairing	-11.3391
▁overflow	-11.3391
▁reformulate	-11.34
▁discard	-11.3403
▁instant	-11.3404
▁quantification	-11.3408
▁asr	-11.3412
▁footprint	-11.3416
▁psychology	-11.3417
face	-11.3417
▁older	-11.3419
▁homology	-11.3422
▁examination	-11.3423
▁normally	-11.3425
▁elections	-11.3427
▁classifies	-11.3428
▁iv	-11.3432
▁demographic	-11.3432
▁placing	-11.3436
▁hol	-11.3439
▁bo	-11.3449
▁vote	-11.3449
▁noun	-11.345
▁opens	-11.3455
▁omp	-11.3455
▁exceed	-11.3457
▁indexed	-11.3457
▁triplets	-11.3459
distribution	-11.346
▁command	-11.3464
▁hierarchically	-11.3471
▁relaxations	-11.3473
entropy	-11.3475
▁board	-11.3478
▁lee	-11.3481
▁species	-11.3487
▁rss	-11.3498
▁shot	-11.3505
▁neighbour	-11.3508
▁voronoi	-11.3519
▁worker	-11.3519
▁dcnns	-11.3523
▁tell	-11.3525
ted	-11.3526
▁mainstream	-11.3526
▁observer	-11.3528
▁assistance	-11.353
▁regimes	-11.3532
▁cca	-11.3535
limited	-11.3548
▁pushing	-11.3549
passing	-11.3551
▁permutations	-11.3552
▁wait	-11.356
▁notation	-11.3566
▁electric	-11.357
▁mild	-11.3571
▁caltech	-11.3571
through	-11.3577
▁uniquely	-11.3581
▁compositions	-11.3586
▁extremal	-11.3596
search	-11.3601
sat	-11.3604
▁nmf	-11.361
▁lots	-11.3614
▁signed	-11.3614
detection	-11.3615
▁synchronized	-11.3616
▁rounding	-11.3622
▁confidentiality	-11.3623
▁coordinated	-11.3626
▁concatenation	-11.3626
▁modulo	-11.3629
▁mm	-11.3647
▁shifting	-11.3655
▁managed	-11.3661
▁timely	-11.3664
▁noises	-11.3666
▁suffix	-11.3668
▁apis	-11.3671
▁carrier	-11.3674
▁prescribed	-11.3679
▁circumstances	-11.3681
▁utilise	-11.3691
▁alice	-11.3691
▁hypothesize	-11.3697
▁articulate	-11.3697
▁don	-11.3699
▁damage	-11.3716
▁subproblems	-11.3716
▁manager	-11.3724
▁favor	-11.3724
▁economics	-11.3724
▁waves	-11.373
▁offset	-11.3736
▁lessons	-11.3738
▁cards	-11.3743
▁buildings	-11.3744
▁conservative	-11.3746
▁pressure	-11.3751
▁stacking	-11.3762
▁returned	-11.3766
▁covert	-11.377
▁susceptible	-11.3786
▁explosion	-11.3796
▁incorporation	-11.3796
▁urls	-11.3797
center	-11.3797
distance	-11.3804
▁shannon	-11.3804
ca	-11.381
matching	-11.3821
▁reads	-11.3821
▁lbp	-11.3827
▁looks	-11.3836
▁psychological	-11.3836
▁bittorrent	-11.384
▁unnecessary	-11.384
▁simplifie	-11.3843
▁intention	-11.3844
▁animation	-11.3854
▁multipliers	-11.3855
▁sender	-11.3857
▁serial	-11.3861
established	-11.3864
▁stock	-11.3865
▁rigorously	-11.3866
▁contacts	-11.3875
▁unlikely	-11.3885
▁elaborate	-11.3892
▁exclusively	-11.3901
▁manipulator	-11.3906
▁caus	-11.3911
▁algebras	-11.3919
▁cue	-11.3923
▁provisioning	-11.3931
plane	-11.3936
▁300	-11.394
▁mdps	-11.3946
suited	-11.3948
▁ucf	-11.3951
ance	-11.3951
▁documentation	-11.3955
▁modest	-11.3957
round	-11.3965
compositionality	-11.3971
ided	-11.3993
▁deadline	-11.402
▁pointnet	-11.4021
▁fac	-11.4023
▁gray	-11.4024
▁bands	-11.4027
▁buyers	-11.4029
▁hull	-11.4031
▁executions	-11.4031
▁think	-11.4033
▁forums	-11.4037
▁disadvantages	-11.4043
▁lu	-11.4043
▁recovers	-11.4045
▁merged	-11.4045
start	-11.405
▁campaigns	-11.4051
▁retraining	-11.4052
▁localiz	-11.4057
▁rendezvous	-11.4062
▁acceptance	-11.4064
▁followers	-11.4068
▁corruption	-11.4073
▁justification	-11.4074
▁upsampling	-11.4074
▁prime	-11.4075
▁lookup	-11.4078
▁27	-11.4079
▁pp	-11.4094
▁compos	-11.4104
▁alter	-11.4108
chip	-11.4112
seq	-11.4112
▁enforces	-11.4115
▁pull	-11.4116
▁2006	-11.4118
▁confusion	-11.4121
▁convincing	-11.4121
▁extrinsic	-11.4121
▁necessity	-11.4121
▁reasonably	-11.4122
▁tiny	-11.4122
▁extractive	-11.4125
▁circular	-11.4134
▁pictures	-11.4135
phase	-11.4139
▁spite	-11.4145
integrates	-11.4146
▁browser	-11.415
oblivious	-11.4155
▁secrecy	-11.4176
▁erroneous	-11.4176
▁submitted	-11.4178
▁charge	-11.4179
▁draws	-11.4184
▁pac	-11.4184
▁journal	-11.4187
▁bidders	-11.4198
▁generalise	-11.42
▁covariates	-11.4214
▁attracte	-11.4215
▁engineers	-11.4221
from	-11.4226
▁unprecedented	-11.4233
▁trans	-11.4235
▁viral	-11.4238
▁chance	-11.4245
▁backoff	-11.4248
▁tutorial	-11.4248
work	-11.4249
▁tuple	-11.4251
▁fraud	-11.4251
▁dark	-11.4264
▁passed	-11.4266
▁predictable	-11.4269
▁legal	-11.4273
▁prolog	-11.4282
▁4-	-11.4283
▁happens	-11.4287
▁instantaneous	-11.4288
ler	-11.4291
▁dissimilarity	-11.4293
termed	-11.4293
▁imperative	-11.43
▁unweighted	-11.4301
▁coordinator	-11.4303
▁fourth	-11.4315
▁osns	-11.4318
▁encompass	-11.4324
machine	-11.4328
▁qu	-11.4333
▁chip	-11.4333
▁router	-11.4334
nal	-11.4334
neighbor	-11.4336
▁harness	-11.4338
▁engage	-11.4347
▁totally	-11.4348
▁kept	-11.4349
▁emergency	-11.4349
▁spent	-11.4351
▁seamlessly	-11.4355
▁fragmentation	-11.4355
▁automaton	-11.4356
▁signs	-11.4359
▁worlds	-11.4361
▁axioms	-11.4362
▁superpixel	-11.4363
▁traversal	-11.4366
ov	-11.4373
▁interviews	-11.4375
margin	-11.4385
▁formalized	-11.439
▁radial	-11.4392
alone	-11.4397
▁tolerant	-11.4413
▁exclusion	-11.4415
▁money	-11.4418
▁joins	-11.4419
▁behaviours	-11.4419
▁formalization	-11.4421
▁inexact	-11.4422
▁ilp	-11.4429
-101	-11.443
▁concluded	-11.443
▁insertion	-11.4431
el	-11.4433
▁fi	-11.4439
▁sending	-11.4443
▁superpixels	-11.4454
gaussian	-11.4456
▁splits	-11.4456
▁mmwave	-11.4465
▁brownian	-11.4469
labeled	-11.447
▁laplace	-11.4471
▁unrelated	-11.4474
▁discretization	-11.4477
▁sounds	-11.4487
▁bert	-11.4496
▁verb	-11.4499
▁fire	-11.4501
▁injection	-11.4504
▁facilitat	-11.4525
▁icp	-11.4527
▁extensible	-11.4529
▁interpolate	-11.4537
▁tackl	-11.4543
▁harvesting	-11.4548
▁accelerat	-11.4548
▁disclosure	-11.455
▁mounted	-11.4552
▁educational	-11.4556
▁judgments	-11.4556
resource	-11.4558
▁relu	-11.4578
▁grounding	-11.4578
▁replica	-11.4581
▁yielded	-11.4584
hand	-11.4585
came	-11.4586
▁bar	-11.4588
▁travers	-11.4591
▁biclusters	-11.4592
▁forensic	-11.4593
▁continues	-11.4595
▁mitigation	-11.4598
▁multiclass	-11.4598
modality	-11.4599
▁capsule	-11.4599
▁analysts	-11.46
▁referring	-11.4602
▁molecules	-11.4602
▁hypergraphs	-11.4608
▁idle	-11.4609
commerce	-11.4609
▁semina	-11.4609
▁rotations	-11.4611
▁contrastive	-11.4612
▁degraded	-11.4612
▁sums	-11.4618
english	-11.4621
▁2002	-11.4626
edu	-11.4635
friendly	-11.4643
▁copyright	-11.4645
physical	-11.4646
▁clickbait	-11.465
▁sinr	-11.4656
▁triangulation	-11.4657
▁stance	-11.4661
▁marked	-11.4663
▁recommended	-11.4666
fitting	-11.4667
▁replicated	-11.4669
▁annotat	-11.4673
ds	-11.4674
▁analys	-11.4675
▁complements	-11.4675
key	-11.4681
▁plug	-11.4682
um	-11.4686
board	-11.4688
access	-11.4691
▁compile	-11.47
▁rough	-11.4703
▁famous	-11.4703
▁decidable	-11.4705
▁sfm	-11.4713
▁react	-11.4714
▁rgbd	-11.4717
▁multipath	-11.4719
▁stroke	-11.4725
mp	-11.4731
▁projecting	-11.4734
▁tolerate	-11.4736
nets	-11.4752
▁dramatic	-11.4757
▁buy	-11.4757
tune	-11.4759
▁fulfill	-11.4761
▁benign	-11.4763
directed	-11.4763
▁fo	-11.4763
▁unavailable	-11.4764
▁collapse	-11.4766
▁cuda	-11.4766
enabled	-11.4766
▁tactile	-11.4767
▁transmitting	-11.478
▁conjectured	-11.4781
▁calibrated	-11.4782
▁mcts	-11.4786
ch	-11.4792
▁manipulated	-11.4802
▁bus	-11.4803
▁motifs	-11.4803
▁replies	-11.4823
▁initialized	-11.4824
▁leaving	-11.4826
▁expose	-11.4832
labelled	-11.4832
▁arrangement	-11.4839
▁commit	-11.4841
▁criminal	-11.4841
▁finer	-11.4847
min	-11.4856
▁dc	-11.4857
▁virtually	-11.4859
▁dataflow	-11.4863
▁served	-11.4874
▁roads	-11.4878
▁semeval	-11.4884
▁perplexity	-11.4884
▁annealing	-11.4886
▁yolo	-11.4887
▁yahoo	-11.4888
deterministic	-11.4894
▁audience	-11.4899
generation	-11.49
▁monotonicity	-11.4903
▁analogue	-11.4904
▁voter	-11.491
▁matroid	-11.4911
▁maximized	-11.4923
▁regulator	-11.4927
▁snippets	-11.4928
▁avoided	-11.4929
▁interconnected	-11.4936
▁2003	-11.4936
▁legacy	-11.4945
-100	-11.4946
semantic	-11.4951
▁hyperbolic	-11.4954
▁recurrence	-11.4954
pp	-11.4964
▁my	-11.4974
▁disentangle	-11.4979
▁maximally	-11.4984
▁75	-11.4988
▁imu	-11.4992
▁consume	-11.4996
ml	-11.4998
▁tr	-11.4999
▁definite	-11.5
db	-11.5002
▁gmm	-11.5003
measure	-11.5003
▁repeat	-11.5008
▁adaboost	-11.5011
▁attached	-11.5011
co	-11.5011
trees	-11.5012
▁kinematics	-11.5012
▁sought	-11.5013
▁hit	-11.5015
▁ram	-11.5017
▁bootstrap	-11.5024
▁something	-11.5027
▁backup	-11.503
▁inexpensive	-11.5031
▁mistakes	-11.5032
▁statically	-11.5034
▁logging	-11.5034
▁associative	-11.5036
0,000	-11.5061
▁corollary	-11.5069
▁freebase	-11.507
▁manufacturing	-11.5074
▁admission	-11.5076
▁gabor	-11.5077
ia	-11.5078
▁wifi	-11.508
▁prioritized	-11.5086
▁ingredient	-11.5086
▁payment	-11.5087
▁reinforce	-11.509
▁resonance	-11.5093
▁allocat	-11.5097
▁inversion	-11.5103
▁sparsely	-11.5107
▁motivations	-11.5108
▁containers	-11.5113
▁eeg	-11.5115
▁compound	-11.5116
▁pointwise	-11.5117
▁1990	-11.5119
▁morph	-11.5122
▁seamless	-11.5124
ranking	-11.5133
▁bulk	-11.5138
▁escape	-11.5138
▁lossy	-11.514
▁approval	-11.5142
clustering	-11.5143
sided	-11.5146
▁displacement	-11.515
am	-11.5151
▁hashtags	-11.5159
▁ridge	-11.5162
smooth	-11.517
▁35	-11.5173
▁drawings	-11.5177
▁delayed	-11.5178
system	-11.5181
▁informal	-11.5183
▁pointer	-11.5184
▁government	-11.5184
▁densenet	-11.5188
sampled	-11.5191
-16	-11.5191
▁finger	-11.5191
▁genuine	-11.5194
▁untrusted	-11.5195
▁house	-11.5197
▁pin	-11.5198
▁authority	-11.5202
▁rrt	-11.5204
▁setups	-11.5206
▁vaes	-11.5213
▁european	-11.5214
concept	-11.5214
▁formulae	-11.5214
▁cloning	-11.5217
▁vo	-11.5228
centered	-11.5229
▁gas	-11.5234
realistic	-11.5236
▁observational	-11.5239
▁inject	-11.5239
density	-11.5241
▁incurs	-11.5258
▁productivity	-11.5263
▁rewrite	-11.5266
▁embeds	-11.5269
▁bernoulli	-11.527
▁quantified	-11.5272
▁arguabl	-11.5272
▁parking	-11.5284
approximate	-11.5285
▁education	-11.5289
▁ctr	-11.5289
▁era	-11.529
▁liquid	-11.5294
▁pc	-11.5308
▁mit	-11.5309
▁bow	-11.531
▁adjusted	-11.5314
fly	-11.5316
▁catastrophic	-11.5322
generating	-11.5327
▁miss	-11.5327
speed	-11.5329
▁homomorphic	-11.5329
em	-11.5333
▁violate	-11.5336
▁probe	-11.5337
ll	-11.5338
▁mot	-11.534
▁ray	-11.5343
▁dot	-11.5344
▁23	-11.535
▁adam	-11.5355
▁ascent	-11.5366
▁sacrific	-11.5367
▁filling	-11.5374
camera	-11.5379
▁4.	-11.5384
▁morphology	-11.5386
▁makespan	-11.5388
▁accumulation	-11.5388
▁sup	-11.5394
▁stakeholders	-11.5394
▁books	-11.5399
▁decoupled	-11.54
▁exceptions	-11.5405
▁resp	-11.5407
▁office	-11.5407
▁iterates	-11.5414
▁predominant	-11.5416
▁speeding	-11.5417
▁kim	-11.5436
▁eq	-11.5448
▁divid	-11.5451
▁organizational	-11.5452
▁differentiation	-11.5457
▁standardized	-11.5468
▁mf	-11.5469
▁transferability	-11.5469
▁slight	-11.547
▁compensation	-11.547
▁constituent	-11.547
our	-11.5474
▁wavelets	-11.5477
▁pilot	-11.5478
▁lm	-11.5478
,	-11.5481
ct	-11.5484
▁knows	-11.5498
▁repetitive	-11.5502
▁enter	-11.5503
▁campaign	-11.5506
▁spontaneous	-11.5508
▁xeon	-11.5515
rigid	-11.5516
overlapping	-11.5516
▁networked	-11.5517
▁rfid	-11.5517
▁cooperate	-11.5521
▁cl	-11.5523
▁isometry	-11.5527
▁generations	-11.5527
▁intrinsically	-11.5527
▁permit	-11.5532
▁desktop	-11.5538
▁subproblem	-11.5539
computer	-11.5542
▁basically	-11.5542
▁tied	-11.5557
▁observ	-11.5559
▁odd	-11.5562
▁journals	-11.5567
▁ids	-11.557
▁neglect	-11.5571
▁technological	-11.5575
▁mse	-11.5575
▁labor	-11.558
▁versa	-11.5581
▁surveyed	-11.5581
▁functionalities	-11.5582
cooperative	-11.559
▁rejection	-11.5592
▁beta	-11.5593
▁procedural	-11.5598
▁atom	-11.56
▁regional	-11.5601
▁os	-11.5605
▁conflicting	-11.5608
▁experimented	-11.5608
context	-11.5614
▁evolves	-11.5614
▁regulation	-11.5616
▁bid	-11.5616
▁beat	-11.5621
▁reproduc	-11.5621
▁living	-11.5628
▁visit	-11.563
complexity	-11.5637
▁artificially	-11.5641
▁carri	-11.5644
▁defend	-11.5644
▁svhn	-11.5646
▁connectionist	-11.5647
▁incurred	-11.5649
▁coreference	-11.565
going	-11.5651
▁compilers	-11.5652
▁suppression	-11.5655
▁inserted	-11.5661
▁transcription	-11.5666
▁your	-11.5669
▁negatively	-11.567
▁ab	-11.5684
cloud	-11.5687
tracking	-11.5689
bird	-11.5691
rl	-11.5693
▁memoryless	-11.5698
▁competitions	-11.5699
▁spectra	-11.5703
▁portions	-11.5703
▁kaczmar	-11.5712
▁plurality	-11.5712
▁terminology	-11.5713
▁causality	-11.5715
▁symmetries	-11.5716
owing	-11.5718
▁viability	-11.5721
▁heap	-11.5724
differentiable	-11.5724
▁wind	-11.5728
▁ibm	-11.5739
▁collectively	-11.574
▁infers	-11.5742
▁typed	-11.5751
▁instrument	-11.5752
▁automat	-11.5752
▁creative	-11.5753
▁tagged	-11.5769
▁recordings	-11.5773
▁mined	-11.5779
▁frontal	-11.5779
▁bottlenecks	-11.5785
▁unary	-11.5786
▁accumulated	-11.5792
▁advertisers	-11.5794
ti	-11.5796
▁comprised	-11.5797
▁saddle	-11.5799
shaped	-11.5799
▁naming	-11.5801
▁tangent	-11.5804
▁owl	-11.581
▁gauge	-11.5811
▁balls	-11.5811
▁proceeds	-11.5814
▁forced	-11.5814
▁probing	-11.5816
▁oracles	-11.5818
▁rcnn	-11.582
▁boosted	-11.5823
▁backgrounds	-11.5841
annotated	-11.5842
standard	-11.5843
▁cityscapes	-11.5847
▁bioinformatics	-11.5848
▁instrumentation	-11.585
16	-11.5857
▁cc	-11.5859
▁salesm	-11.5871
▁biometrics	-11.5871
▁helping	-11.5874
▁chunks	-11.5876
▁lifting	-11.5882
▁displayed	-11.5884
ordered	-11.5895
▁crash	-11.5901
▁0.5	-11.5905
▁young	-11.5916
▁bigger	-11.5917
▁victim	-11.5922
▁coalitions	-11.5926
▁unifie	-11.5927
▁initiated	-11.594
▁copying	-11.5941
▁inferences	-11.5945
▁fixation	-11.5948
▁ch	-11.595
▁lin	-11.5955
▁disks	-11.5957
▁arrange	-11.5965
▁zeta	-11.5982
▁coin	-11.5983
▁unexplored	-11.5985
ty	-11.5988
▁grade	-11.5991
▁physiological	-11.5996
▁concatenated	-11.5997
▁obviously	-11.5997
▁envy	-11.6001
▁institutions	-11.6004
▁smoothed	-11.6007
▁interfer	-11.6009
▁lets	-11.6019
▁spike	-11.6019
▁diagnostic	-11.602
▁routines	-11.6022
▁crossover	-11.6027
rcnn	-11.6033
▁flying	-11.6037
vehicle	-11.6046
▁progressive	-11.6048
▁letter	-11.6048
▁relaying	-11.6048
▁essence	-11.605
▁undesirable	-11.6051
▁tractability	-11.6051
▁turk	-11.6051
▁proactive	-11.6052
▁monitors	-11.6053
▁plate	-11.6054
▁bypass	-11.6055
▁hops	-11.606
▁feeding	-11.606
maximization	-11.606
▁flooding	-11.6062
▁vanil	-11.6063
▁periodically	-11.6066
▁yang	-11.607
▁ann	-11.6071
▁tri	-11.6075
▁submission	-11.6076
▁covariate	-11.6076
day	-11.6078
▁checkpointing	-11.6078
▁progression	-11.608
▁multilevel	-11.608
▁invert	-11.6082
sentence	-11.6089
▁motif	-11.609
▁64	-11.6096
▁jump	-11.6099
▁loads	-11.6112
▁homotopy	-11.6121
▁mahalanobis	-11.6121
▁archives	-11.6122
▁conll	-11.6123
▁excessive	-11.6124
▁shall	-11.6125
▁participate	-11.6134
▁stretch	-11.6143
im	-11.6146
▁adequately	-11.6146
▁discussing	-11.615
▁paraphrase	-11.6155
ie	-11.6156
▁resolved	-11.6159
▁child	-11.6161
▁2001	-11.6161
▁compromised	-11.6162
▁polyhedra	-11.6164
width	-11.6167
▁lab	-11.617
▁refin	-11.6192
▁fingerprints	-11.6192
criteria	-11.6197
calculus	-11.6206
▁offloading	-11.6209
▁deeply	-11.6214
▁tumor	-11.6215
▁wsd	-11.6216
▁mere	-11.6218
▁scripts	-11.622
▁moved	-11.6221
▁believed	-11.6222
▁monitored	-11.6225
▁shading	-11.6227
▁conjugate	-11.6229
▁ps	-11.623
pt	-11.6231
ci	-11.625
▁sta	-11.6251
▁weakness	-11.6252
▁degrades	-11.6255
▁continuum	-11.6259
▁seemingly	-11.6259
▁exceeding	-11.626
▁abstractive	-11.6262
▁steer	-11.6264
▁comment	-11.6267
▁albe	-11.6275
driving	-11.6275
parametrized	-11.6278
▁disadvantage	-11.628
▁teach	-11.628
▁polarization	-11.6282
▁genome	-11.6287
▁suppress	-11.6289
▁subclass	-11.6308
▁qoe	-11.632
▁du	-11.6322
▁extractors	-11.6323
▁ci	-11.6323
▁propagated	-11.6325
▁rouge	-11.633
▁ablation	-11.6331
▁obey	-11.6331
go	-11.6331
▁notorious	-11.6332
conditioned	-11.6334
▁combat	-11.6341
▁judge	-11.635
istic	-11.635
▁title	-11.6356
▁wiki	-11.6356
▁itemsets	-11.6357
▁lip	-11.6357
▁cone	-11.6357
▁bc	-11.6359
▁eigen	-11.636
▁fly	-11.6363
▁ideally	-11.6368
▁incur	-11.637
▁shaping	-11.6375
▁ago	-11.6377
▁replicas	-11.6384
many	-11.6385
▁cup	-11.6385
▁owner	-11.6386
▁ho	-11.6392
▁foster	-11.6395
▁penalties	-11.64
▁velocities	-11.64
▁autonomy	-11.64
▁intriguing	-11.6401
analysis	-11.6403
▁ldpc	-11.6404
play	-11.6409
▁lives	-11.6413
▁ptas	-11.6414
structure	-11.6415
made	-11.6419
▁carrying	-11.6421
▁sim	-11.6423
▁cps	-11.6424
▁instantiation	-11.6427
▁american	-11.6432
▁hole	-11.6434
▁advancements	-11.6434
▁claimed	-11.6435
▁modal	-11.6443
▁deviate	-11.6447
▁pomdp	-11.6465
▁notice	-11.6467
▁affective	-11.6468
▁remedy	-11.6471
▁securely	-11.6473
▁manipulations	-11.6474
▁gcn	-11.6477
▁authorship	-11.6478
▁abundant	-11.6478
▁anisotropic	-11.6484
▁1.5	-11.6486
▁compromis	-11.6487
prone	-11.649
▁posture	-11.6498
▁exchanged	-11.65
▁subtasks	-11.6507
▁participant	-11.6511
▁polytope	-11.6512
▁residuals	-11.6513
ities	-11.6515
metric	-11.6519
▁neuroscience	-11.6543
▁discontinuous	-11.6545
ated	-11.6545
▁multitude	-11.6547
▁verifier	-11.6555
written	-11.6557
▁wants	-11.6569
▁gateway	-11.657
control	-11.6575
▁crossings	-11.6577
▁exchanges	-11.6579
▁fc	-11.6581
▁perceive	-11.6581
▁5.	-11.659
▁mature	-11.6608
▁op	-11.661
▁filtered	-11.6612
▁exhibited	-11.6612
▁pulse	-11.6616
▁auditory	-11.6617
▁pitch	-11.6617
this	-11.6617
▁disparate	-11.6617
▁spanish	-11.6621
▁loosely	-11.6622
▁qualities	-11.6623
▁decoupling	-11.6624
matrix	-11.6624
▁nice	-11.6625
30	-11.6627
slam	-11.6628
▁poi	-11.663
▁reed	-11.663
▁hiding	-11.6639
connectivity	-11.6642
▁revision	-11.6648
knowledge	-11.6649
▁elicit	-11.6651
▁crowded	-11.6655
users	-11.6656
▁healthy	-11.6658
▁pix	-11.6658
▁highlighted	-11.6665
▁stems	-11.6666
▁500	-11.6677
▁accessed	-11.6681
▁critic	-11.6681
code	-11.6681
▁came	-11.6684
▁instantiate	-11.6686
▁stoc	-11.6688
▁verbs	-11.6691
▁fabric	-11.6697
▁conversely	-11.6697
▁roi	-11.6699
▁multiobjective	-11.6699
▁dates	-11.67
▁dtw	-11.67
▁longest	-11.6701
▁6-	-11.6702
interoperability	-11.6704
bility	-11.6714
▁motivating	-11.6715
▁dog	-11.6716
▁land	-11.6718
▁curved	-11.6719
▁opponent	-11.6721
bounded	-11.6724
▁0,1	-11.6729
▁facets	-11.6746
▁irl	-11.675
ri	-11.676
▁transductive	-11.6762
▁versatile	-11.6762
▁losing	-11.6767
▁selectivity	-11.6769
▁openflow	-11.6771
▁tensorflow	-11.6772
▁ac	-11.678
item	-11.6787
▁showcase	-11.6787
▁waste	-11.6791
▁renewable	-11.6793
▁tagger	-11.6797
▁regressor	-11.6798
▁pu	-11.6798
assisted	-11.6799
human	-11.68
▁fcns	-11.6801
▁continued	-11.6803
▁song	-11.6808
right	-11.6814
▁sh	-11.6815
▁listen	-11.6819
▁purchase	-11.682
ray	-11.6828
▁lms	-11.6833
distinguishable	-11.6833
points	-11.6835
▁humming	-11.6836
▁tandem	-11.6838
▁federated	-11.6838
▁resistant	-11.6842
▁valuation	-11.6844
▁regulariz	-11.6845
▁signaling	-11.6849
▁mec	-11.6854
▁exp	-11.6862
▁solar	-11.6862
▁artefacts	-11.6865
▁shortcoming	-11.6867
▁artifact	-11.6867
▁spans	-11.6868
▁blogs	-11.6871
na	-11.6872
▁fr	-11.6872
▁snippet	-11.6873
▁pretraining	-11.6873
▁dag	-11.6877
▁periodical	-11.6888
▁outlined	-11.6891
▁cam	-11.6892
▁proposition	-11.6898
▁snapshots	-11.6902
▁rings	-11.6908
▁netflix	-11.6911
▁reddit	-11.6911
▁unobserved	-11.6912
▁subtraction	-11.6913
▁academia	-11.6915
▁appearances	-11.6923
▁hitting	-11.6926
▁multiplications	-11.6927
▁trick	-11.6933
▁roadmap	-11.6934
▁container	-11.6939
▁ecosystem	-11.6939
relational	-11.694
▁converse	-11.6944
▁readings	-11.6946
▁neighbourhood	-11.6948
▁clause	-11.6955
▁instruments	-11.6966
▁formalisms	-11.6969
▁blend	-11.6971
▁enforced	-11.6972
▁anatomical	-11.698
▁2.0	-11.6983
sense	-11.6984
▁tendency	-11.6986
▁te	-11.6993
▁executes	-11.6994
▁leak	-11.6996
▁scheduled	-11.6997
▁grant	-11.7
effective	-11.7002
▁datalog	-11.7004
▁parent	-11.7006
▁fp	-11.7006
▁associat	-11.701
▁reordering	-11.7013
▁proteins	-11.7013
▁conv	-11.7015
▁authorization	-11.7016
▁cat	-11.702
▁port	-11.7025
▁accelerators	-11.7028
▁wsns	-11.7029
▁resistance	-11.703
▁compliance	-11.7031
▁animals	-11.7033
▁hu	-11.7035
▁submissions	-11.7039
base	-11.704
▁sell	-11.7051
▁sink	-11.7052
▁concave	-11.7059
▁validat	-11.7063
▁broken	-11.7068
▁sorted	-11.7068
cluster	-11.7071
▁subsampling	-11.7072
▁mlp	-11.7081
▁figures	-11.7082
▁mouse	-11.7082
▁aggressive	-11.7082
▁permanent	-11.7084
▁merits	-11.7085
▁attained	-11.7085
▁wheel	-11.7085
▁struggle	-11.7085
▁erd	-11.7091
▁recursion	-11.7092
▁eigenvector	-11.7092
▁programmable	-11.7095
▁hi	-11.7096
▁subsequence	-11.7098
▁reversible	-11.71
▁polynomially	-11.7101
▁ssc	-11.7116
▁taxi	-11.7122
▁succinct	-11.7133
20	-11.7138
▁prevalence	-11.714
▁inconsistencies	-11.714
dimension	-11.714
▁portability	-11.7142
▁queried	-11.7142
▁discusse	-11.7144
pair	-11.7151
▁picking	-11.7156
ora	-11.7164
▁mav	-11.7167
validation	-11.7169
▁timed	-11.7169
▁visualisation	-11.717
▁violation	-11.7173
▁beacon	-11.7174
▁uni	-11.7174
cell	-11.7174
▁executable	-11.7176
▁simulators	-11.718
grid	-11.7181
▁disaster	-11.7182
▁compressing	-11.7182
▁massively	-11.7184
▁transferable	-11.7187
▁infrared	-11.719
interference	-11.7193
projection	-11.7193
▁genes	-11.7196
▁estimations	-11.7198
▁icn	-11.7201
▁undergo	-11.7204
▁originate	-11.7209
▁el	-11.7211
▁tomography	-11.7217
▁bags	-11.7222
▁afterwards	-11.7225
▁spotting	-11.7225
▁prevention	-11.7226
aligned	-11.7229
▁unrealistic	-11.7231
▁factorized	-11.7235
▁supplement	-11.7239
nc	-11.7243
▁aging	-11.7249
▁identically	-11.7254
▁slowly	-11.7255
anonymity	-11.7257
▁animal	-11.7259
▁dbms	-11.7271
▁sentiments	-11.7276
▁mpc	-11.7277
▁positively	-11.728
▁chi	-11.7281
▁desire	-11.7282
▁rc	-11.7284
▁checked	-11.7285
▁counters	-11.7286
▁fool	-11.7292
▁dialogues	-11.7292
▁breadth	-11.7293
▁curse	-11.7296
▁integrality	-11.7299
organizing	-11.7307
▁initiate	-11.7308
▁bgp	-11.7308
▁saturation	-11.7308
▁advertisement	-11.7324
part	-11.7325
▁dealt	-11.7331
▁decouple	-11.7333
determined	-11.7335
▁determinant	-11.7337
hardness	-11.7339
▁rectangles	-11.734
check	-11.7345
▁backtracking	-11.7345
▁dpm	-11.7347
▁cited	-11.7358
▁usable	-11.7359
▁border	-11.7361
area	-11.7366
▁fuel	-11.7369
▁uml	-11.7369
▁dissimilar	-11.7372
▁guard	-11.7377
▁sdca	-11.7377
▁exclusive	-11.7378
▁designer	-11.7382
polynomial	-11.7383
14	-11.7391
▁tighter	-11.7392
▁naturalness	-11.7396
▁courses	-11.7401
2015	-11.7401
▁friction	-11.7402
latency	-11.7404
location	-11.7408
▁nominal	-11.7409
▁publisher	-11.7409
▁culture	-11.741
ding	-11.741
▁universe	-11.7413
▁topical	-11.7413
▁joining	-11.7415
▁drops	-11.7424
▁thin	-11.7434
▁parallelize	-11.7436
▁reid	-11.7441
▁decreased	-11.7447
▁voxels	-11.7448
▁elicitation	-11.745
▁microscopy	-11.7451
▁unpredictable	-11.7453
▁bilateral	-11.7454
▁rbms	-11.7462
▁interactively	-11.7466
▁scanned	-11.7466
▁distribut	-11.7469
▁hough	-11.747
▁iterated	-11.747
▁earth	-11.7472
▁fitted	-11.7474
▁45	-11.7476
▁quadrotor	-11.7482
▁abuse	-11.7482
▁reception	-11.7484
most	-11.7489
▁sybil	-11.749
▁assistant	-11.7492
▁amplitude	-11.7494
▁delivered	-11.7495
▁committee	-11.7495
▁bisimulation	-11.7501
▁pave	-11.7502
▁sleep	-11.7509
▁manifest	-11.7512
▁euler	-11.7516
train	-11.7525
▁kg	-11.7529
▁credibility	-11.7529
▁proliferation	-11.7529
▁clarify	-11.7529
▁niching	-11.753
▁transparency	-11.7532
▁flux	-11.7533
▁photograph	-11.7533
cy	-11.7541
best	-11.7553
▁multihop	-11.7558
▁multilinear	-11.7558
▁writes	-11.7564
▁noiseless	-11.7566
▁corner	-11.7572
▁resampling	-11.7572
▁mapper	-11.7579
ffects	-11.7581
place	-11.7581
▁scanner	-11.7581
nondeterministic	-11.7583
▁ingredients	-11.7594
boost	-11.7595
▁door	-11.7596
▁cardi	-11.7604
stabilizing	-11.7604
▁forcing	-11.7607
▁women	-11.7609
▁queuing	-11.7612
▁provers	-11.7622
▁navigat	-11.7622
▁reproduction	-11.7622
▁discretized	-11.7624
variable	-11.7627
▁win	-11.7631
▁sl	-11.7635
▁men	-11.7636
▁narrative	-11.7644
▁subgradient	-11.7647
▁illustrat	-11.7649
▁contraction	-11.765
▁botnet	-11.7652
▁focal	-11.7652
▁rip	-11.7663
▁98	-11.7669
▁logn	-11.7673
▁deduce	-11.768
▁influenc	-11.7684
▁impossibility	-11.769
▁brute	-11.769
▁radiation	-11.769
▁cortex	-11.7691
▁sonar	-11.7693
▁surely	-11.7693
100	-11.7694
▁proceed	-11.7694
▁ec	-11.7696
▁strongest	-11.7697
▁sir	-11.7699
▁mip	-11.7701
▁cqa	-11.7702
▁clues	-11.7703
choice	-11.7704
▁assertions	-11.7711
existing	-11.7717
lying	-11.7723
▁dozen	-11.7723
▁schemas	-11.773
▁predictability	-11.7733
ss	-11.7736
▁hazard	-11.7738
▁meters	-11.7746
▁payments	-11.7753
▁nouns	-11.7756
ai	-11.7757
server	-11.7758
▁smoothly	-11.776
▁backhaul	-11.7769
▁infogan	-11.7771
▁isabelle	-11.7771
▁polylogarithmic	-11.7773
▁restart	-11.7773
▁asymptotics	-11.7774
▁minority	-11.7775
▁96	-11.7777
▁mark	-11.7778
▁disconnected	-11.7779
▁lyapunov	-11.778
▁cr	-11.7782
efficiency	-11.7785
▁observability	-11.7785
▁dominance	-11.7787
▁ergodic	-11.779
▁formulat	-11.7793
▁neglected	-11.7794
▁exciting	-11.7801
▁ran	-11.7807
▁codebook	-11.7807
query	-11.7815
▁hair	-11.7818
▁wsn	-11.7825
▁lose	-11.7827
▁stabilize	-11.7827
▁justify	-11.783
king	-11.7832
▁intentions	-11.7841
▁excess	-11.7848
▁guides	-11.7852
▁cartesian	-11.7853
▁unsuitable	-11.7853
▁pso	-11.7853
▁suitably	-11.7854
group	-11.7856
▁arabic	-11.7859
▁aloha	-11.7865
▁epistemic	-11.7868
▁dilate	-11.7869
▁inc	-11.7875
▁convergent	-11.7877
▁soc	-11.7886
▁sketching	-11.7888
▁repetition	-11.7892
▁corrections	-11.7896
▁pan	-11.7897
▁graduate	-11.7898
▁distill	-11.7901
▁transitive	-11.7901
carlo	-11.7904
▁degenerate	-11.7927
join	-11.7927
▁vocabularies	-11.7935
▁reusable	-11.7936
▁inevitably	-11.7936
▁kolmogorov	-11.7937
▁petri	-11.7939
▁explorat	-11.794
▁blood	-11.794
▁pleth	-11.7942
▁deepwalk	-11.7942
▁unfolding	-11.795
▁canada	-11.7951
▁reachable	-11.7954
▁locks	-11.7954
▁specificity	-11.7964
▁ruby	-11.7967
▁thereof	-11.7967
▁imputation	-11.7975
15	-11.7976
▁trec	-11.7981
▁propagat	-11.7987
▁kd	-11.7988
▁unpair	-11.7998
information	-11.7999
ap	-11.8005
▁painting	-11.8014
▁discipline	-11.8014
▁debt	-11.8018
▁denial	-11.802
▁multiplicity	-11.8022
▁encodings	-11.8023
▁dfa	-11.8023
▁unlimited	-11.8023
▁soundness	-11.803
▁cm	-11.8043
ically	-11.8046
▁summarizing	-11.8051
▁ke	-11.8057
▁dilation	-11.8057
▁pruned	-11.806
▁payload	-11.8061
▁multiprocessor	-11.8064
▁accelerator	-11.8064
▁colorization	-11.8068
▁coq	-11.8068
▁conformal	-11.8068
▁nothing	-11.807
▁subsequences	-11.8071
▁emulate	-11.8073
▁surge	-11.8074
▁grading	-11.8077
▁disambiguate	-11.808
▁exercise	-11.8087
▁neighbours	-11.81
▁clip	-11.81
▁va	-11.8101
▁broadband	-11.8104
▁york	-11.8104
▁illustrative	-11.8106
▁priorities	-11.8107
▁stacks	-11.8109
▁combin	-11.8109
▁optimistic	-11.8109
▁ndn	-11.8113
▁sustain	-11.8116
▁blurred	-11.8117
distributed	-11.8124
▁country	-11.8125
▁tabular	-11.8131
▁consumed	-11.8132
▁trojan	-11.8135
▁preferential	-11.814
▁rolling	-11.8142
▁wrapper	-11.8143
▁paradox	-11.8147
▁decoded	-11.8147
▁sch	-11.8147
▁ev	-11.8147
▁stratifi	-11.815
▁isotropic	-11.8159
▁bear	-11.8162
index	-11.8164
▁wu	-11.8167
wild	-11.8167
▁floor	-11.8169
values	-11.8178
▁qui	-11.8178
▁aesthetic	-11.8181
classification	-11.8184
▁kullback	-11.8188
▁folding	-11.8188
▁delaunay	-11.8189
▁precoding	-11.8192
▁shifted	-11.8194
▁john	-11.8195
▁1995	-11.82
▁vlad	-11.8201
relevant	-11.8202
▁bridges	-11.8206
2014	-11.8209
▁privileged	-11.8211
▁passengers	-11.8213
▁olap	-11.8215
▁parallelized	-11.8216
normalized	-11.8217
▁stabilization	-11.8219
▁monotonic	-11.822
▁crawling	-11.8221
▁epsilon	-11.8222
mm	-11.8224
▁horn	-11.8224
▁marriage	-11.8225
▁frontier	-11.8227
▁dcf	-11.8227
▁warehouse	-11.8232
sm	-11.8234
▁tap	-11.8237
▁attachment	-11.824
▁penalize	-11.8241
▁mouth	-11.8245
▁registered	-11.8245
▁closing	-11.8246
▁visits	-11.8247
▁destinations	-11.8247
▁phi	-11.825
▁provision	-11.8254
▁feeds	-11.8254
▁publishing	-11.8259
▁forum	-11.8267
▁inconsistency	-11.827
▁expos	-11.8272
▁dangerous	-11.8274
▁geometries	-11.8274
▁suspicious	-11.8274
▁begun	-11.8274
▁abusive	-11.8274
▁deletions	-11.8275
correcting	-11.8275
▁stride	-11.8277
▁nesterov	-11.8278
▁perimeter	-11.8278
▁compactly	-11.8278
▁ineffective	-11.8282
▁1999	-11.8289
dmm	-11.8296
▁evs	-11.8305
▁chunking	-11.8305
▁sca	-11.8307
▁shapley	-11.8308
▁finitely	-11.8309
▁subgroups	-11.831
▁attitude	-11.8314
▁disturbances	-11.8314
▁les	-11.8322
plus	-11.8328
▁dating	-11.8332
▁tf	-11.8335
▁opt	-11.8337
▁heads	-11.8337
▁surroundings	-11.8342
▁owners	-11.8344
similarity	-11.8348
▁perceptions	-11.8349
▁resolv	-11.8349
▁am	-11.8352
▁zhou	-11.8359
▁innovations	-11.836
▁prototypical	-11.8362
▁2600	-11.8364
▁surf	-11.8367
▁po	-11.8368
▁answered	-11.837
▁installed	-11.8371
attribute	-11.8376
▁chaotic	-11.8382
▁socio	-11.8382
▁brand	-11.8383
▁dispersion	-11.8384
▁mn	-11.8384
▁subsume	-11.8386
▁locking	-11.8389
▁friend	-11.8391
▁numeric	-11.8392
▁debate	-11.8393
▁swap	-11.8401
wave	-11.8409
▁geometrically	-11.8409
sed	-11.8415
▁talk	-11.8415
▁amp	-11.8419
vocabulary	-11.8423
▁pertain	-11.8424
▁neuro	-11.8427
▁26	-11.8427
▁arriv	-11.8437
▁linkage	-11.8438
▁observers	-11.8439
▁managers	-11.8444
▁audit	-11.8444
▁mst	-11.8445
▁blurry	-11.8448
▁tie	-11.8448
▁graphic	-11.8449
2017	-11.8449
▁rotational	-11.8454
▁discarded	-11.846
▁sampler	-11.846
▁homography	-11.8463
▁advantageous	-11.8464
▁dead	-11.8465
▁sus	-11.8472
▁comparatively	-11.8473
▁encounter	-11.8477
▁upload	-11.8488
▁organizing	-11.849
▁turning	-11.8492
si	-11.8496
▁botnets	-11.8496
if	-11.85
▁amenab	-11.85
answer	-11.8507
sp	-11.8508
▁attentive	-11.8509
paths	-11.851
region	-11.8518
▁arcs	-11.8519
ak	-11.8523
▁triangles	-11.8526
▁manipulators	-11.8527
▁cumbersome	-11.8534
▁opening	-11.8536
▁empower	-11.8537
▁commonsense	-11.8538
▁tile	-11.8539
▁brightness	-11.8539
▁stimulus	-11.854
▁dbpedia	-11.8542
▁tension	-11.8545
▁misleading	-11.8547
▁corrected	-11.8551
▁maxima	-11.8555
divergence	-11.8558
ur	-11.8563
▁substitute	-11.8564
▁supposed	-11.8568
▁breaks	-11.8569
▁geolocation	-11.857
▁strip	-11.8572
son	-11.8573
▁meant	-11.8574
▁dilemma	-11.8576
▁synonym	-11.8576
▁safely	-11.8578
sh	-11.8579
▁accompanie	-11.8582
land	-11.8584
ex	-11.8586
▁codeword	-11.8588
▁128	-11.8589
▁equivariant	-11.8592
▁mas	-11.8602
▁multiplexing	-11.8602
▁sure	-11.8603
▁sides	-11.8607
▁ros	-11.8618
▁inherit	-11.862
▁opaque	-11.8622
▁rayleigh	-11.8622
▁decentralised	-11.8623
▁intersect	-11.8624
▁microscopic	-11.8626
▁replicate	-11.8626
rc	-11.8627
▁everywhere	-11.8628
▁accompany	-11.8634
window	-11.8637
▁optimise	-11.8639
ant	-11.864
▁har	-11.8643
▁85	-11.8646
▁mitigat	-11.865
▁teachers	-11.8651
▁whom	-11.8655
▁affordances	-11.8661
random	-11.8678
▁ccn	-11.8687
▁simd	-11.8692
▁strokes	-11.8693
▁genre	-11.8695
▁dbscan	-11.8704
▁von	-11.8705
▁rights	-11.8708
▁jaccard	-11.8712
▁workspace	-11.8712
▁multinomial	-11.8714
▁lfw	-11.8715
▁preferable	-11.8718
▁submodularity	-11.8721
▁los	-11.8722
▁ls	-11.8722
▁deform	-11.8722
▁admissible	-11.8723
▁thompson	-11.8725
cnns	-11.8727
fcn	-11.8733
ps	-11.8734
bi	-11.8736
▁smells	-11.8737
▁polar	-11.874
▁cascading	-11.8744
▁emerges	-11.8745
▁catch	-11.8747
▁episodes	-11.8748
capacity	-11.8748
▁epochs	-11.8749
▁33	-11.8754
▁requested	-11.8755
deep	-11.8757
▁genomic	-11.8759
rt	-11.8762
▁regressors	-11.8767
▁centroid	-11.8769
▁carries	-11.8773
▁zone	-11.8778
▁departure	-11.878
ivariate	-11.8784
▁duplicate	-11.8786
▁simplex	-11.879
french	-11.8793
▁byte	-11.8793
▁duplication	-11.8796
duplex	-11.8797
curring	-11.8798
▁honest	-11.8799
▁99	-11.88
▁walls	-11.8802
▁han	-11.8804
▁pop	-11.8811
▁3.	-11.8811
▁competitors	-11.8814
mail	-11.882
▁triangular	-11.8824
▁sgx	-11.8826
ard	-11.8826
▁denot	-11.883
▁synthetically	-11.8837
▁generalised	-11.8838
▁torus	-11.8841
▁accelerometer	-11.8846
▁jacobian	-11.8846
▁gui	-11.8852
▁talking	-11.8852
▁optic	-11.8857
threaded	-11.8861
dof	-11.8861
▁fixations	-11.8864
▁worked	-11.8865
▁minimizer	-11.8875
▁pursue	-11.8876
▁succeeds	-11.8884
▁firm	-11.8884
▁abrupt	-11.8885
▁longitudinal	-11.8886
▁icdar	-11.8893
▁intensities	-11.8895
▁csps	-11.8895
▁moduli	-11.8895
▁6.	-11.8896
▁keyboard	-11.8897
▁ownership	-11.8898
▁inventory	-11.8898
▁achievement	-11.8898
dos	-11.89
▁scattered	-11.8901
▁endow	-11.8904
▁huang	-11.8908
▁400	-11.8908
▁lrr	-11.8911
▁qubits	-11.8913
processor	-11.8914
io	-11.8921
▁exhaustively	-11.8923
▁discounted	-11.8923
np	-11.8925
▁clicks	-11.8926
▁keyframes	-11.8932
▁methodological	-11.8932
▁mavs	-11.8934
▁certificate	-11.894
device	-11.8941
▁investment	-11.8944
▁pir	-11.8947
▁approached	-11.895
▁averaged	-11.896
▁grades	-11.8964
▁registers	-11.8972
▁burst	-11.8973
proof	-11.8976
fr	-11.8978
▁finish	-11.8978
▁contributing	-11.8979
ended	-11.8981
▁multiply	-11.8982
▁functionals	-11.8983
▁automotive	-11.8984
▁deceptive	-11.8986
▁matlab	-11.8986
▁combinatorics	-11.8986
▁economy	-11.8988
▁doubly	-11.8988
▁qr	-11.8988
crf	-11.8996
▁binding	-11.8999
▁crowds	-11.9003
▁minimally	-11.9004
▁cd	-11.9005
▁entails	-11.9005
▁begins	-11.9009
▁lay	-11.9009
▁glass	-11.9018
▁hub	-11.9024
▁superposition	-11.903
turn	-11.9032
▁recommending	-11.9032
▁silhouette	-11.9034
▁hyperplane	-11.9034
svm	-11.9037
looking	-11.9041
▁wlan	-11.9041
▁russian	-11.9045
2013	-11.9049
▁codewords	-11.905
▁cleaning	-11.905
ling	-11.9055
ism	-11.9069
▁bluetooth	-11.9077
▁binarization	-11.9077
▁interview	-11.9077
▁tropical	-11.908
▁attacking	-11.9081
▁entanglement	-11.9081
▁johnson	-11.9083
▁chemistry	-11.9084
arts	-11.9087
▁dropping	-11.9092
▁overwhelming	-11.9094
▁anticipate	-11.9096
▁depths	-11.9097
ls	-11.91
▁headlines	-11.9108
▁penalized	-11.9114
▁vc	-11.9119
▁cancellation	-11.9122
▁edition	-11.9123
▁exponents	-11.9124
▁pyramids	-11.9134
▁disorder	-11.9134
▁titles	-11.9139
mac	-11.9141
▁interpolat	-11.9141
▁premise	-11.9143
▁universally	-11.9144
▁ends	-11.9145
▁quantile	-11.9148
▁exit	-11.9153
▁payoffs	-11.9162
▁compliant	-11.9163
distortion	-11.9167
▁crop	-11.9171
normal	-11.9171
▁churn	-11.9171
▁sarcasm	-11.9172
▁discontinuities	-11.9172
▁proxies	-11.9174
▁assessments	-11.9174
▁containment	-11.9174
▁polyphon	-11.9176
▁gallery	-11.9177
▁cake	-11.9183
▁multiplex	-11.9184
▁indirectly	-11.9186
▁realism	-11.9187
▁nlg	-11.9188
▁schedulers	-11.9193
▁activated	-11.9195
ba	-11.9197
▁month	-11.9197
▁geographically	-11.9199
selection	-11.92
▁lora	-11.9205
▁guess	-11.9206
founded	-11.9209
▁remark	-11.9212
▁biologically	-11.9213
▁reformulation	-11.9218
▁portrait	-11.9218
▁regenerat	-11.9219
▁silhouettes	-11.9221
▁rectangle	-11.9225
▁marker	-11.9225
idf	-11.9226
▁substitution	-11.9228
typed	-11.9232
▁fixes	-11.9232
▁script	-11.9244
▁epipol	-11.9251
▁interpreter	-11.9255
ram	-11.9258
▁ve	-11.9262
concave	-11.9266
▁medicine	-11.9267
▁shop	-11.9268
▁traceability	-11.9268
▁predetermined	-11.927
▁maintainability	-11.9273
▁exchang	-11.9279
▁distorted	-11.9281
▁agile	-11.9281
▁vectorization	-11.9284
▁encrypt	-11.9285
▁kbs	-11.9287
▁branes	-11.9288
▁unconditional	-11.9296
▁discriminating	-11.9298
▁memes	-11.93
▁yu	-11.9302
▁31	-11.9305
▁weeks	-11.931
▁wa	-11.9314
▁scanners	-11.9321
▁marking	-11.9322
category	-11.9329
▁linguistics	-11.9339
▁feel	-11.935
sa	-11.9357
are	-11.9357
▁quotient	-11.936
▁parallelizable	-11.9361
▁misclassify	-11.9362
▁invalid	-11.9363
▁dof	-11.9363
▁transliteration	-11.9364
▁amortized	-11.9364
robust	-11.9373
▁rectified	-11.9374
▁caffe	-11.938
▁syntactically	-11.9381
checking	-11.9382
▁metaboli	-11.9385
▁printed	-11.9386
▁streaks	-11.9387
chain	-11.9392
▁ter	-11.9393
looked	-11.9399
▁propagates	-11.9403
▁linearization	-11.9405
▁afford	-11.9409
▁counterfactual	-11.941
asymptotic	-11.9415
▁aggregator	-11.942
▁respects	-11.9421
▁anchors	-11.943
▁regards	-11.9432
sky	-11.9438
▁suffice	-11.9447
▁repairs	-11.945
▁ultrasound	-11.946
▁underground	-11.9463
▁gram	-11.9463
▁normative	-11.9468
herefore	-11.9468
▁1998	-11.9472
▁genus	-11.9475
▁measurable	-11.9478
▁cons	-11.948
▁advocate	-11.9489
▁overlaps	-11.9494
short	-11.9495
▁conform	-11.95
▁orchestration	-11.9501
▁spanners	-11.9502
▁inadequate	-11.9502
▁breakthroughs	-11.9506
▁logo	-11.9506
▁advancement	-11.9508
▁optimised	-11.9509
functional	-11.9516
▁adversarially	-11.9519
▁tube	-11.9525
▁osn	-11.9529
▁65	-11.9548
▁seldom	-11.9553
▁shrinkage	-11.9553
force	-11.9555
▁yolov	-11.9555
▁imprecise	-11.9556
▁liveness	-11.9559
▁parametrization	-11.9561
▁nist	-11.9564
▁lights	-11.9565
▁broadcasts	-11.9568
▁colored	-11.9576
▁avenues	-11.9578
newton	-11.9578
▁ahead	-11.9578
▁tracklets	-11.9582
▁justified	-11.9584
▁herein	-11.9587
▁xu	-11.9589
▁exceptional	-11.9589
▁dominate	-11.959
▁pushed	-11.9592
held	-11.9593
▁dct	-11.9593
▁loose	-11.9595
▁tiles	-11.9602
▁certificates	-11.9603
▁fleet	-11.9608
▁markovian	-11.9611
▁positional	-11.9612
▁routine	-11.9614
sourced	-11.9617
▁commitment	-11.9617
▁mentioning	-11.9619
▁hz	-11.9622
▁hosted	-11.9624
mentioned	-11.963
▁forensics	-11.9637
▁unusual	-11.9643
▁forecasts	-11.9646
▁chromatic	-11.965
▁operated	-11.9651
▁kronecker	-11.9651
▁greedily	-11.9651
▁unsatisfactory	-11.9651
▁trustworthiness	-11.9653
▁sales	-11.9655
▁exemplars	-11.9655
▁plants	-11.9656
▁evader	-11.966
inspire	-11.9661
▁releas	-11.9663
redundant	-11.9663
▁averages	-11.9665
▁china	-11.9666
▁mail	-11.9669
▁practicality	-11.967
▁tdma	-11.9672
▁perceptrons	-11.9674
problems	-11.9675
▁prize	-11.9676
▁fpgas	-11.9678
▁vendors	-11.9686
▁cognition	-11.9688
▁metaphor	-11.9689
▁prob	-11.969
▁pathways	-11.969
▁partners	-11.9694
▁rationale	-11.9695
security	-11.9696
▁permission	-11.9697
automatic	-11.9698
▁beca	-11.9699
▁twofold	-11.9699
▁attenuation	-11.9699
▁metaheuristic	-11.9703
▁slotted	-11.9706
▁judgment	-11.9708
▁isomorphism	-11.9709
▁department	-11.971
lin	-11.971
▁judges	-11.9716
▁dht	-11.9718
▁92	-11.9727
▁translat	-11.9733
▁meter	-11.9737
ii	-11.9737
▁thinking	-11.9741
▁pen	-11.9741
▁infinitely	-11.9742
▁sg	-11.9743
▁featur	-11.9748
eye	-11.975
▁soccer	-11.975
▁conjunctive	-11.975
▁harmful	-11.9751
▁brown	-11.9752
▁occurred	-11.9752
▁bloom	-11.9753
▁squad	-11.9753
▁fmri	-11.9755
▁gravity	-11.9757
▁compressible	-11.9757
▁wealth	-11.9758
formed	-11.9758
▁controllable	-11.9764
▁interconnection	-11.9768
▁97	-11.977
ist	-11.9775
shift	-11.9776
▁spd	-11.9777
taking	-11.9783
▁occupied	-11.9784
▁enumerate	-11.9786
▁lateral	-11.9786
▁html	-11.9788
▁authenticated	-11.979
▁infected	-11.9792
▁unbalance	-11.9796
social	-11.9798
▁printing	-11.9802
▁haze	-11.9803
▁shearlet	-11.9803
▁attitudes	-11.9804
▁fractal	-11.9804
▁stylization	-11.9805
▁assets	-11.9825
solving	-11.9828
consistency	-11.9833
▁minimise	-11.9841
▁shell	-11.9843
with	-11.9845
▁versatility	-11.985
▁philosophy	-11.985
▁disentanglement	-11.9851
▁perturb	-11.9853
▁lifelong	-11.9855
▁opacity	-11.9855
▁wsa	-11.9858
▁triggered	-11.9858
▁stat	-11.9859
▁haptic	-11.986
tic	-11.986
▁sharper	-11.9865
▁injected	-11.9869
▁symplectic	-11.987
▁360	-11.9877
▁anonymization	-11.9883
▁cas	-11.9887
low	-11.989
▁hdr	-11.9891
▁markings	-11.9898
▁permissions	-11.9898
function	-11.9899
▁maximise	-11.9901
▁likewise	-11.9902
▁downloading	-11.9905
▁spreadsheet	-11.9905
▁breakthrough	-11.9905
▁novice	-11.9907
▁disagreement	-11.9908
▁reservation	-11.9908
▁disjuncti	-11.991
▁lift	-11.9912
sc	-11.9916
▁identifier	-11.9919
balancing	-11.9926
▁ea	-11.9932
▁swarms	-11.9939
▁shake	-11.9942
▁sellers	-11.9946
▁corroborate	-11.9947
▁confidential	-11.9951
▁flexibly	-11.9952
▁microblogging	-11.9952
▁fifth	-11.9955
▁shadowing	-11.9958
▁ekf	-11.9959
▁binomial	-11.9965
run	-11.9971
▁moderately	-11.9971
▁spik	-11.9972
▁imitate	-11.9976
▁blog	-11.9976
cycle	-11.9979
▁inhomogeneous	-11.9981
▁alarm	-11.9982
systems	-11.9986
▁dcgan	-11.999
▁pupil	-11.9997
▁retinal	-12.0001
price	-12.0001
▁adverse	-12.0006
▁restaurant	-12.0007
▁prerequisite	-12.0007
▁mod	-12.001
▁infection	-12.0011
▁eavesdropper	-12.0014
▁cutoff	-12.0016
2016	-12.0017
▁mor	-12.0018
▁gf	-12.0024
▁disturbance	-12.0028
▁discriminators	-12.003
▁subtask	-12.0032
response	-12.0035
mb	-12.0039
▁ghz	-12.0042
▁1.2	-12.0043
▁csr	-12.0044
▁cv	-12.0046
▁stem	-12.0049
▁paragraphs	-12.005
▁eliminated	-12.0053
▁teleoperation	-12.0053
▁irrespective	-12.0054
▁prioritization	-12.0054
▁adaption	-12.0057
▁worldwide	-12.0057
mi	-12.0061
▁bursty	-12.0062
lda	-12.0062
▁zhu	-12.0064
▁cubes	-12.0065
per	-12.0068
▁apparently	-12.007
tagged	-12.0073
german	-12.0074
▁oscillator	-12.0075
how	-12.0075
ative	-12.0076
▁shadows	-12.0076
▁tactics	-12.0079
version	-12.008
breaking	-12.0082
experts	-12.0083
▁ocean	-12.0086
faceted	-12.0091
▁artists	-12.0092
▁progresses	-12.0092
▁suffices	-12.01
▁ide	-12.0102
▁phonetic	-12.0104
▁fd	-12.0105
ends	-12.0107
▁film	-12.0109
▁backdoor	-12.0109
▁rumour	-12.011
▁synonyms	-12.0111
▁3.5	-12.0115
▁overload	-12.0118
▁missions	-12.0119
▁valued	-12.0119
branch	-12.0119
▁assert	-12.0122
ter	-12.0127
stable	-12.0128
sets	-12.013
▁latin	-12.0131
characterisation	-12.0136
gpu	-12.0145
▁holding	-12.0147
▁rumors	-12.0151
▁skelet	-12.0151
▁noc	-12.0153
▁striking	-12.0154
▁mood	-12.0155
▁tier	-12.0155
▁ethereum	-12.0156
▁deception	-12.0157
▁anticipation	-12.0157
▁immersive	-12.0159
▁convenience	-12.0159
svd	-12.0161
▁suites	-12.0163
gradient	-12.0165
▁grayscale	-12.0166
▁contributors	-12.0166
▁opencl	-12.0168
▁blockchains	-12.0169
contained	-12.017
▁checkpoint	-12.017
▁notifications	-12.0181
▁loaded	-12.0183
▁school	-12.0184
▁bird	-12.0186
confined	-12.0188
▁reply	-12.0189
▁orb	-12.019
▁cop	-12.0196
square	-12.0197
▁insurance	-12.0197
▁frank	-12.0199
▁configured	-12.02
▁enhancements	-12.0202
▁populate	-12.021
▁continuation	-12.0214
▁truck	-12.0214
▁corners	-12.0215
▁strive	-12.0216
▁impulse	-12.0217
▁viewer	-12.0219
▁comprise	-12.022
▁pursuer	-12.0222
▁evident	-12.0228
▁engineer	-12.0229
▁km	-12.0236
top	-12.0237
▁abstracts	-12.0239
▁commutative	-12.0245
▁authenticate	-12.0254
▁passages	-12.0255
▁powers	-12.0256
minimization	-12.0257
vs	-12.0258
▁inevitable	-12.0261
▁unsolved	-12.0261
▁celeba	-12.0261
pr	-12.0264
▁enumerat	-12.0264
▁drives	-12.0265
▁7.	-12.0265
▁gradual	-12.0267
▁engaging	-12.0267
▁photography	-12.0267
▁stops	-12.0267
▁fe	-12.0268
optimized	-12.0269
▁messaging	-12.027
▁spammers	-12.0273
▁interfere	-12.0274
▁biclustering	-12.0277
▁violated	-12.0294
▁successively	-12.0295
2.	-12.0295
ran	-12.0295
▁sponsored	-12.0304
▁finance	-12.0305
▁clocks	-12.0305
▁minibatch	-12.0311
▁oppos	-12.0313
▁paintings	-12.0318
static	-12.032
▁hashtag	-12.0322
rm	-12.0322
theory	-12.0325
▁hits	-12.0325
▁assistants	-12.0327
▁0.	-12.0327
finding	-12.0333
▁arrivals	-12.0335
▁modifie	-12.0337
▁warning	-12.0341
reeb	-12.0341
▁powered	-12.0341
turned	-12.0342
▁exposes	-12.0345
▁crowdsource	-12.0351
▁rescue	-12.0355
back	-12.0357
▁expansions	-12.0358
▁couples	-12.0367
▁energies	-12.0368
▁misinformation	-12.0368
▁milliseconds	-12.0373
▁professionals	-12.0373
▁bibliographic	-12.0373
engineering	-12.0374
▁existential	-12.0375
▁conductance	-12.0375
▁stylistic	-12.0377
▁coordinating	-12.0378
▁1997	-12.038
▁nonsmooth	-12.038
▁prioritize	-12.038
▁reflections	-12.0382
▁crashes	-12.0382
▁rejected	-12.0389
tailed	-12.0391
▁atrous	-12.0392
tasks	-12.04
table	-12.0402
energy	-12.0404
▁hour	-12.0411
▁logarithm	-12.0411
▁ocr	-12.0411
▁tabu	-12.042
differential	-12.042
▁affordance	-12.0432
▁traverse	-12.0441
▁lg	-12.0447
▁md	-12.0448
ni	-12.045
▁insertions	-12.0451
▁dbn	-12.0461
▁collaboratively	-12.0463
▁1.1	-12.0465
▁slip	-12.0471
▁recipe	-12.0471
▁homophily	-12.0472
▁bytecode	-12.0473
▁faithful	-12.0474
▁elasticity	-12.0474
▁manhattan	-12.0474
▁equivariance	-12.0474
▁undesired	-12.0474
▁gauss	-12.0475
▁bridging	-12.0475
▁prepare	-12.0476
▁habits	-12.0477
▁segnet	-12.0477
long	-12.0477
▁1996	-12.0479
▁bisimilarity	-12.0483
▁demonstrator	-12.0484
▁retargeting	-12.0484
▁omega	-12.0485
▁nonlinearity	-12.0486
▁ri	-12.0487
▁immune	-12.0487
▁packed	-12.0489
▁openmp	-12.0491
shape	-12.0491
▁cyclegan	-12.0491
▁cha	-12.0492
▁onboard	-12.0493
▁1970	-12.0496
event	-12.0497
▁prepared	-12.0502
verbal	-12.0504
▁fan	-12.0505
▁vibration	-12.0506
▁microservices	-12.0507
ground	-12.0509
▁enlarge	-12.0511
▁nl	-12.0511
▁literals	-12.0512
86	-12.0513
▁adjustments	-12.0515
no	-12.0522
▁isolate	-12.0523
▁giant	-12.0526
▁remotely	-12.0526
answering	-12.0528
▁borrow	-12.0531
▁512	-12.0531
▁envelope	-12.0537
▁intend	-12.0537
▁trip	-12.0538
▁hospital	-12.0539
▁maker	-12.0547
▁suggestion	-12.056
▁assisted	-12.0564
▁pcg	-12.0568
zed	-12.0572
▁macroscopic	-12.0578
▁inferior	-12.058
▁ideology	-12.058
▁paramount	-12.058
▁salience	-12.0583
▁collusion	-12.0586
▁clothes	-12.0588
▁shoulder	-12.059
▁reproducible	-12.059
▁unitary	-12.059
▁surgery	-12.0591
▁poisoning	-12.0591
▁downsampling	-12.0594
▁congested	-12.0596
▁infrequent	-12.0596
mean	-12.0596
supervision	-12.06
▁regularly	-12.0601
▁triggers	-12.0604
▁res	-12.0609
▁writer	-12.0617
▁sweeping	-12.0624
▁postulate	-12.0625
▁bfs	-12.0629
▁150	-12.063
ge	-12.0641
▁exercises	-12.0642
▁complemented	-12.0644
▁svrg	-12.0645
▁advanc	-12.0645
▁official	-12.0645
▁stochastically	-12.0651
▁screening	-12.0652
▁16-	-12.0654
▁partner	-12.0658
motor	-12.0658
▁subnetwork	-12.0659
▁flip	-12.066
▁overfit	-12.0661
filling	-12.067
▁explanat	-12.0671
▁chr	-12.0671
▁sky	-12.0676
▁willing	-12.0678
▁variances	-12.0691
▁absent	-12.0691
▁remember	-12.0693
▁bundles	-12.0697
▁miml	-12.0699
▁orthogonality	-12.0701
▁generalizable	-12.0701
▁srl	-12.0704
▁8-	-12.0705
▁duty	-12.0706
▁peaks	-12.071
gdbf	-12.0712
▁standing	-12.0712
disjoint	-12.0713
▁incompatible	-12.0713
induced	-12.0715
▁machinery	-12.0724
▁searched	-12.0726
▁chairs	-12.0729
▁entangled	-12.0732
establishes	-12.0732
rd	-12.0736
▁fbm	-12.0738
▁hinge	-12.0738
▁firms	-12.0744
▁birds	-12.0751
▁advertisements	-12.0754
▁failing	-12.0754
▁companion	-12.0755
compiled	-12.0756
▁blob	-12.0758
▁smes	-12.0761
▁transit	-12.0766
▁chunk	-12.0766
dense	-12.0766
ro	-12.0767
op	-12.0772
▁expresses	-12.0775
▁font	-12.0778
▁integrals	-12.0781
located	-12.0782
▁offsets	-12.0783
increasing	-12.0784
volume	-12.0784
▁collaborate	-12.0785
segmentation	-12.0787
▁acid	-12.0788
design	-12.0796
▁fruit	-12.0797
▁spurious	-12.0798
▁abduction	-12.0798
▁untrimmed	-12.0799
▁playback	-12.0799
▁skeletons	-12.0799
▁extrapolation	-12.0799
▁mv	-12.0799
touch	-12.0802
▁anarchy	-12.0805
▁psnr	-12.0808
▁discoveries	-12.0812
euclidean	-12.0813
▁gamma	-12.0815
▁wire	-12.082
▁cached	-12.0825
so	-12.0829
tolerance	-12.083
▁useless	-12.0838
▁archived	-12.0844
once	-12.0847
▁researched	-12.0847
▁spreadsheets	-12.0849
▁rumours	-12.085
▁alarms	-12.0851
ad	-12.0859
▁interacts	-12.0865
▁landing	-12.0867
▁subgroup	-12.0868
▁indication	-12.0869
▁articulation	-12.0871
lab	-12.0875
▁ble	-12.0878
pose	-12.0889
▁storm	-12.0899
▁envision	-12.0902
parasplit	-12.0908
▁lorawan	-12.0909
▁ethernet	-12.0909
▁latencies	-12.0909
▁propensity	-12.0909
▁abductive	-12.0909
▁diversification	-12.0909
▁evacuation	-12.0909
▁mpeg	-12.091
▁sur	-12.0911
▁twenty	-12.0911
▁axiomatization	-12.0911
▁steganography	-12.0911
▁pl	-12.0913
▁summation	-12.0914
ber	-12.0914
▁stone	-12.0915
▁materialized	-12.0915
rf	-12.0917
▁gupta	-12.092
om	-12.092
coding	-12.092
▁irreducible	-12.0922
▁nonuniform	-12.0923
controlled	-12.0924
▁blurring	-12.0925
▁acm	-12.0931
▁optimizers	-12.0933
▁gaussians	-12.0934
▁constrains	-12.0941
▁vis	-12.0944
▁masking	-12.0947
▁trivially	-12.0949
isation	-12.095
game	-12.0952
▁planted	-12.0955
▁timestamps	-12.0956
▁week	-12.0962
▁iterate	-12.0975
▁fear	-12.0976
▁mutations	-12.0978
▁congruence	-12.0979
▁propositions	-12.0983
▁sci	-12.0983
sgd	-12.0983
delay	-12.0984
mode	-12.0987
labeling	-12.0988
▁mle	-12.0989
▁loading	-12.099
▁capsules	-12.0999
▁necessitate	-12.1
▁phoneme	-12.1002
▁deadlines	-12.1002
peaked	-12.1003
▁incident	-12.1003
▁dubbe	-12.1004
▁fa	-12.1006
block	-12.1007
▁stimulate	-12.1012
▁wake	-12.1012
▁apparatus	-12.1022
▁turkish	-12.1022
▁indispensable	-12.1022
▁mir	-12.1022
▁presidential	-12.1025
▁bregman	-12.1026
▁accessibility	-12.1027
▁indicative	-12.103
▁circles	-12.1031
▁treewidth	-12.1032
▁industries	-12.1036
▁listed	-12.1037
▁checker	-12.1038
ever	-12.1039
▁spm	-12.1041
▁prefetching	-12.1042
▁toolbox	-12.1042
▁banks	-12.1044
▁cap	-12.1049
▁shutter	-12.105
▁dec	-12.105
▁valence	-12.1051
▁dft	-12.1051
▁linguistically	-12.1053
▁pivot	-12.1057
▁datacenter	-12.1059
▁derivations	-12.1063
lberg	-12.1064
▁sequencing	-12.1065
ising	-12.1066
▁warm	-12.1068
▁elliptic	-12.1074
can	-12.1087
▁portfolio	-12.1088
▁stencil	-12.1088
▁ferroelectric	-12.1091
▁shi	-12.1096
▁ce	-12.1098
▁bn	-12.1098
▁characterise	-12.1101
▁vein	-12.1106
2012	-12.1109
▁keyframe	-12.1111
▁realtime	-12.1115
▁sem	-12.1116
real	-12.112
▁demographics	-12.1125
▁bends	-12.1126
▁behavioural	-12.1129
process	-12.1136
median	-12.1136
▁condensation	-12.1137
▁chat	-12.1137
▁plausibility	-12.1137
▁cohomology	-12.114
▁dram	-12.1143
▁routinely	-12.1144
▁lecture	-12.1146
age	-12.1147
▁cooking	-12.1147
▁communicated	-12.1148
▁rmt	-12.1148
▁atlas	-12.1151
pa	-12.1152
▁tucker	-12.1162
12	-12.1162
▁orderings	-12.1166
▁endpoints	-12.1167
optimality	-12.1167
▁rts	-12.117
▁adaptable	-12.1175
▁av	-12.1175
▁dtn	-12.1177
▁intensively	-12.1178
▁gaming	-12.1184
▁onset	-12.1186
ible	-12.1187
▁correspondingly	-12.1187
▁depart	-12.1191
ility	-12.1191
tracted	-12.1194
sign	-12.1196
▁byproduct	-12.1196
▁jones	-12.1198
▁beacons	-12.1204
▁insensitive	-12.1205
▁diffuse	-12.1208
▁electron	-12.1212
▁4.0	-12.1214
▁centre	-12.1221
sim	-12.1222
▁triangulations	-12.1224
▁accord	-12.1226
▁bids	-12.1229
interaction	-12.1229
▁scholarly	-12.1231
▁impression	-12.124
▁adaptations	-12.1242
▁quote	-12.1245
feature	-12.1246
▁intermittent	-12.1249
▁controllability	-12.125
▁mln	-12.1252
▁abundance	-12.1252
▁yes	-12.1252
▁singularities	-12.1253
▁involvement	-12.1254
▁millimeter	-12.1256
▁taylor	-12.1257
▁matting	-12.1258
▁intentionally	-12.126
▁textured	-12.1261
▁constancy	-12.1261
▁apsp	-12.1261
▁judgements	-12.1264
▁synsets	-12.1273
▁reviewers	-12.1273
▁multiset	-12.1275
▁vsm	-12.1275
▁altered	-12.1275
▁barriers	-12.1275
25	-12.1281
▁rs	-12.1282
▁chose	-12.1284
antenna	-12.1284
▁concatenat	-12.1285
▁death	-12.1287
▁themes	-12.129
▁neumann	-12.129
▁lan	-12.1293
▁rp	-12.1295
▁axes	-12.1303
freeness	-12.1306
▁genres	-12.1308
▁specifie	-12.1316
▁albedo	-12.1317
▁harm	-12.1317
▁epoch	-12.1322
▁cipher	-12.1325
▁crawl	-12.1325
▁confuse	-12.1328
▁sweep	-12.1329
▁ef	-12.1339
▁defender	-12.1339
▁spend	-12.1341
▁56	-12.1347
▁spline	-12.1351
▁fat	-12.1361
▁economical	-12.1365
▁intricate	-12.1366
▁firmware	-12.1366
▁varieties	-12.1366
▁unchanged	-12.1367
▁probes	-12.1367
▁supplementary	-12.1369
▁unannotated	-12.1369
▁beforehand	-12.1369
▁resemblance	-12.1371
▁personalization	-12.1373
▁mimicking	-12.1374
▁accumulate	-12.1378
▁ethical	-12.1382
▁analyzer	-12.1382
vis	-12.1383
▁aliasing	-12.1383
▁specialization	-12.1387
▁succeeded	-12.1389
▁hints	-12.1392
▁quantifie	-12.1395
▁mab	-12.1397
▁readable	-12.1398
▁heuristically	-12.1398
▁emergen	-12.1402
▁conjectures	-12.1402
▁configure	-12.1403
▁plugg	-12.1406
▁arq	-12.1408
▁blobs	-12.1416
▁shuffle	-12.142
▁denotation	-12.142
▁pooled	-12.1428
▁graded	-12.1435
▁gripper	-12.1436
▁isomorphic	-12.1438
▁cliques	-12.1452
▁buyer	-12.1455
▁commits	-12.1457
▁framing	-12.1462
▁workshop	-12.1471
▁holder	-12.1473
encodes	-12.1474
unit	-12.1482
▁uk	-12.1483
▁char	-12.1484
▁1980	-12.1484
▁yago	-12.1484
▁sudden	-12.1484
▁virality	-12.1485
▁wisdom	-12.1486
▁orthonormal	-12.1494
▁fresh	-12.1494
▁invertible	-12.1494
sight	-12.1496
▁pointing	-12.1497
▁colony	-12.1498
▁germany	-12.1498
▁virus	-12.1503
▁frobenius	-12.1506
▁bellman	-12.1507
▁bm	-12.1509
▁compactness	-12.151
▁palm	-12.1512
morphic	-12.1514
inertial	-12.153
ot	-12.1533
▁planned	-12.1536
hmm	-12.1539
▁blending	-12.1547
decomposition	-12.1548
▁asymmetry	-12.1548
▁abc	-12.1549
▁watch	-12.1552
▁panel	-12.1558
▁establishment	-12.1559
▁vessel	-12.1563
sing	-12.1563
video	-12.1566
▁constituents	-12.1569
▁trail	-12.1576
segmented	-12.1576
▁refinements	-12.158
▁categoriz	-12.1586
▁factual	-12.1586
▁evade	-12.1588
cal	-12.1593
▁uneven	-12.1597
▁dan	-12.1598
▁dos	-12.1598
▁casting	-12.1601
provided	-12.1602
▁wood	-12.1604
▁unimportant	-12.1605
▁cropping	-12.1605
▁pomdps	-12.1606
▁dehazing	-12.1608
▁lisp	-12.1609
▁literal	-12.161
▁skewed	-12.1613
▁chest	-12.1614
▁zeros	-12.1615
▁cbr	-12.162
▁credentials	-12.162
▁34	-12.1625
▁resist	-12.1629
▁alert	-12.163
▁br	-12.1637
▁hill	-12.1641
▁decided	-12.1649
▁impressions	-12.165
▁57	-12.1653
solomon	-12.1659
▁reused	-12.1662
▁para	-12.1663
▁29	-12.1665
▁centroids	-12.1665
▁wrappers	-12.1669
▁nonlocal	-12.167
squared	-12.1674
ons	-12.1674
▁ucb	-12.1677
▁episode	-12.1678
▁releases	-12.1681
▁subword	-12.1686
cover	-12.1689
▁bucket	-12.17
▁park	-12.1707
▁pathway	-12.1708
▁sons	-12.172
▁unveil	-12.1724
▁disparities	-12.1724
▁dblp	-12.1724
▁severity	-12.1724
conditional	-12.1725
▁uncontrolled	-12.1725
▁oxford	-12.1726
▁lovasz	-12.1726
▁nonlinearities	-12.1729
▁merges	-12.1729
sides	-12.173
▁rhetoric	-12.173
▁truthfulness	-12.1734
▁sfa	-12.1739
variate	-12.1739
▁translational	-12.1741
▁male	-12.1745
▁embrace	-12.1746
▁sq	-12.1753
▁approximability	-12.1756
▁north	-12.1757
▁photorealistic	-12.1759
▁morphologically	-12.1759
▁mono	-12.176
▁41	-12.1767
existence	-12.1771
▁lately	-12.1772
▁successor	-12.1772
▁recognizer	-12.1774
▁akin	-12.1782
▁ref	-12.1784
▁ro	-12.1784
ley	-12.1785
aiming	-12.1785
▁amd	-12.1787
▁moral	-12.1787
▁5-	-12.1792
adaptation	-12.1792
2007	-12.1793
▁breakdown	-12.1801
▁businesses	-12.1801
▁artefact	-12.1801
▁94	-12.1801
▁alleviat	-12.1802
▁victims	-12.1807
▁hci	-12.1807
-50	-12.1812
▁wgan	-12.1818
▁inefficiency	-12.1818
▁-1	-12.182
ec	-12.1826
res	-12.1827
▁minute	-12.1833
▁proprietary	-12.1846
▁noteworthy	-12.1846
▁trustworthy	-12.1847
▁volatility	-12.1848
▁reproducibility	-12.1849
▁readability	-12.1851
▁wo	-12.1851
led	-12.1852
▁urgent	-12.1854
▁digg	-12.1854
▁birth	-12.1854
▁ltd	-12.1857
▁tunable	-12.1859
▁adaptability	-12.1859
media	-12.186
▁splines	-12.1861
▁nyu	-12.1861
▁japanese	-12.1862
▁reciprocal	-12.1862
▁remov	-12.1863
▁amplify	-12.1864
▁iso	-12.1866
▁conceal	-12.187
▁spots	-12.1871
▁representatives	-12.1872
▁began	-12.1876
▁spheres	-12.1878
▁contiguous	-12.1881
▁watermark	-12.1889
▁picked	-12.189
▁abeli	-12.1891
ka	-12.1892
scaling	-12.1893
ent	-12.1895
▁flops	-12.1898
ier	-12.1901
▁concatenate	-12.1908
mann	-12.1912
od	-12.1917
▁pragmatic	-12.1918
▁subroutine	-12.1922
▁firewall	-12.1924
▁rbf	-12.1925
▁lung	-12.1929
▁precedence	-12.1929
▁technically	-12.1934
mo	-12.1943
▁contest	-12.1947
▁blocked	-12.1949
▁shots	-12.1952
tan	-12.1954
▁chapters	-12.1961
▁hd	-12.1962
▁nas	-12.1964
64	-12.1965
▁langevin	-12.1969
▁episodic	-12.1969
▁renewed	-12.1969
▁exogenous	-12.1969
▁permitting	-12.1975
▁initiative	-12.1975
▁signalling	-12.1977
fac	-12.1977
▁groundtruth	-12.1979
generalizability	-12.1979
▁xor	-12.1984
▁df	-12.1985
▁regularizers	-12.1987
▁pursued	-12.1997
▁watermarking	-12.2011
consistent	-12.2012
▁oversampling	-12.2012
▁hurt	-12.2014
▁searchers	-12.2019
▁catalog	-12.202
▁ppp	-12.202
▁mistake	-12.2021
▁bell	-12.2024
horizon	-12.2025
intersecting	-12.2025
organized	-12.2026
▁fu	-12.2026
▁evenly	-12.2028
▁perceptually	-12.2029
▁roll	-12.203
▁kinetics	-12.2032
▁disc	-12.2035
18	-12.2036
▁pfa	-12.2037
▁terrains	-12.2038
sql	-12.204
▁timestamp	-12.2044
▁substrate	-12.2045
▁sea	-12.2045
▁constellation	-12.205
▁che	-12.2051
variance	-12.2059
bs	-12.2064
▁256	-12.2067
▁gi	-12.2068
▁craft	-12.2074
▁gcns	-12.2075
▁gross	-12.2085
▁contrasts	-12.2088
▁stacke	-12.2089
entity	-12.209
▁cu	-12.209
▁winners	-12.2091
▁91	-12.2093
▁helmholtz	-12.2094
▁undecidable	-12.2094
▁agenda	-12.2094
▁colleagues	-12.2094
▁decryption	-12.2096
▁permitted	-12.2096
▁censorship	-12.2096
▁1992	-12.2099
▁relocalization	-12.21
▁analyst	-12.2101
▁rectilinear	-12.2102
▁rationality	-12.2102
-4	-12.2103
▁anonymized	-12.2104
▁bagging	-12.2105
▁convlstm	-12.2109
▁ecg	-12.2109
▁bytes	-12.2111
▁erm	-12.2115
▁reconfigurable	-12.2116
▁intellectu	-12.2117
▁miners	-12.212
▁goodness	-12.2125
▁matchers	-12.2128
▁buffers	-12.2129
▁lfd	-12.2129
▁haar	-12.2135
▁structurally	-12.2139
▁incorrectly	-12.2145
mounted	-12.2149
▁typ	-12.2165
▁sigmoid	-12.2166
priori	-12.2168
▁scatter	-12.2171
▁il	-12.2173
crossing	-12.2174
▁resolves	-12.2175
cl	-12.2176
▁adult	-12.2179
▁bigram	-12.2182
▁sacrifice	-12.2182
▁emphasiz	-12.2184
▁competitively	-12.2184
40	-12.2186
▁bisection	-12.2188
▁firing	-12.2204
▁8.	-12.2209
▁wban	-12.2212
▁uc	-12.2213
▁au	-12.2214
▁posit	-12.2214
far	-12.2216
weighting	-12.222
▁gear	-12.222
▁television	-12.2221
▁inheritance	-12.2221
▁complexes	-12.2221
▁electromagnetic	-12.2222
▁cauchy	-12.2223
▁inappropriate	-12.2224
linearity	-12.2226
▁socially	-12.2227
occurrences	-12.223
▁grad	-12.2234
▁agreements	-12.2234
▁marginals	-12.2234
▁makeup	-12.2236
▁responsive	-12.2238
▁tardos	-12.224
▁48	-12.2241
▁converging	-12.2242
▁dispatch	-12.2244
▁corrupt	-12.2248
ft	-12.2251
▁fpt	-12.2252
▁adequacy	-12.2252
▁landau	-12.2254
▁edits	-12.2259
diversity	-12.2259
learn	-12.2266
pearson	-12.2267
▁artist	-12.2272
▁wlans	-12.2279
▁rn	-12.2282
cutting	-12.2283
▁kr	-12.2288
▁unimodal	-12.2288
blind	-12.2289
▁invisible	-12.2296
colorable	-12.2296
▁college	-12.2298
▁attraction	-12.23
▁pulses	-12.2301
▁optics	-12.2302
▁microblog	-12.2303
ver	-12.2303
▁stabilizes	-12.2304
▁ride	-12.2304
▁indoors	-12.2304
▁preconditioner	-12.2305
▁taggers	-12.2307
▁plot	-12.2311
▁ln	-12.2312
learned	-12.2317
biased	-12.2321
que	-12.2321
▁classifications	-12.2322
▁invest	-12.2329
il	-12.2331
▁illegal	-12.234
▁skew	-12.2345
▁86	-12.2346
▁exclude	-12.2347
▁myriad	-12.2349
▁entertainment	-12.2349
▁summarisation	-12.2349
▁repeatability	-12.235
▁certification	-12.2351
powered	-12.2351
vectors	-12.2351
▁stuck	-12.2352
▁roc	-12.2352
▁arxiv	-12.2353
▁thereafter	-12.2354
lies	-12.2354
101	-12.2356
▁cheaper	-12.2356
▁mdl	-12.2357
▁verifiable	-12.2358
▁amino	-12.2361
▁aircraft	-12.2361
▁surprise	-12.2361
▁adaptivity	-12.2361
▁9.	-12.2363
▁deleted	-12.2364
▁quadratically	-12.2368
features	-12.2369
spline	-12.2377
arm	-12.238
▁unauthori	-12.238
▁substructures	-12.2384
reported	-12.2394
▁dots	-12.2396
▁gen	-12.2396
equilibrium	-12.2399
ke	-12.24
▁complicate	-12.24
tory	-12.2403
▁specifi	-12.2404
minal	-12.2408
fusion	-12.2413
▁batches	-12.2415
▁songs	-12.2417
▁complet	-12.2421
▁dyna	-12.2422
▁standpoint	-12.2429
▁valve	-12.2433
▁dsl	-12.2438
▁waveform	-12.2439
▁crawler	-12.244
▁invention	-12.2441
▁decrypt	-12.2443
▁submit	-12.2443
▁arrangements	-12.2448
▁instrumental	-12.2455
▁internally	-12.2457
▁cho	-12.2457
▁opened	-12.2459
ine	-12.2461
▁agglomerati	-12.2462
▁bas	-12.2463
▁subscribe	-12.2464
▁spoofing	-12.2464
ifying	-12.2466
▁titan	-12.2467
▁privately	-12.2469
▁header	-12.2473
▁36	-12.2478
▁military	-12.2479
▁ellipsoid	-12.2479
▁deductive	-12.248
▁omitted	-12.2483
▁mallows	-12.2484
▁stein	-12.2486
▁continually	-12.2487
▁ica	-12.2487
tc	-12.2487
03	-12.2491
▁playout	-12.2494
▁else	-12.2496
▁install	-12.2496
▁pv	-12.2497
▁sustainable	-12.2504
algorithm	-12.2507
throughput	-12.2512
▁legged	-12.2512
referenced	-12.2517
bot	-12.2518
▁margins	-12.2518
des	-12.2522
▁arrives	-12.2525
▁sha	-12.2526
▁lpp	-12.2528
▁lossless	-12.2532
road	-12.2534
▁sensibl	-12.2535
ight	-12.2537
rnns	-12.2537
difference	-12.2541
▁vp	-12.2544
winner	-12.2555
▁phd	-12.2557
13	-12.256
▁lifecycle	-12.2562
▁confront	-12.2564
▁interleaving	-12.2564
▁sensed	-12.2565
normalizing	-12.2568
▁seeing	-12.2568
▁vendor	-12.2568
divisible	-12.2569
▁drastic	-12.2569
that	-12.2572
estimation	-12.2574
maps	-12.2577
50	-12.2583
pposed	-12.2587
▁shen	-12.2597
▁singing	-12.2598
accurate	-12.2599
▁pinpoint	-12.26
▁ready	-12.2606
▁haskell	-12.261
▁agencies	-12.261
▁crisis	-12.261
▁biochemical	-12.261
▁politeness	-12.261
▁pollution	-12.261
▁zhao	-12.2611
▁consolidation	-12.2611
▁rkhs	-12.2612
pu	-12.2613
write	-12.2614
▁1994	-12.2615
▁fptas	-12.2615
▁contradictory	-12.2615
▁pleasing	-12.2616
▁separability	-12.2618
▁0.8	-12.2618
its	-12.2619
▁hermitian	-12.262
sne	-12.2621
patch	-12.2622
▁lifted	-12.2622
▁paxos	-12.2623
▁identifiable	-12.2625
▁hindsight	-12.2625
▁census	-12.2628
▁lexicographic	-12.2629
▁appliances	-12.263
▁chan	-12.2632
▁cohesive	-12.2632
symmetric	-12.2633
▁interventions	-12.2634
▁manets	-12.2634
gpp	-12.2635
▁optional	-12.2638
close	-12.2638
▁obfuscate	-12.2639
▁recognizable	-12.2641
▁ta	-12.2643
▁imperceptible	-12.2645
▁appeal	-12.2647
▁explainable	-12.2647
▁eventual	-12.265
▁resultant	-12.2653
built	-12.2653
▁fight	-12.2653
wolfe	-12.2654
▁000	-12.2656
greedy	-12.2657
▁domination	-12.2659
▁bigge	-12.2661
▁focs	-12.2669
▁testbeds	-12.2672
▁treatments	-12.2676
▁wired	-12.2678
▁yao	-12.2678
monotonic	-12.2679
▁got	-12.2682
conquer	-12.2682
▁encounters	-12.2683
▁terminate	-12.2683
▁challenged	-12.2685
▁demo	-12.269
▁hubs	-12.2691
▁attentions	-12.2693
▁strain	-12.2694
cam	-12.2695
▁tournament	-12.2696
▁rois	-12.2697
▁compounds	-12.2702
▁transduction	-12.2703
▁emission	-12.2705
500	-12.2711
▁ligand	-12.2714
ck	-12.2718
▁rel	-12.2719
exponential	-12.272
▁consumes	-12.2724
▁puzzle	-12.2729
▁slope	-12.2732
▁thickness	-12.2733
▁disregard	-12.2735
▁incoherent	-12.2738
cm	-12.2739
▁42	-12.2742
rule	-12.2743
▁fec	-12.2743
▁immense	-12.2743
▁violence	-12.2743
▁depression	-12.2744
2-	-12.2745
▁interrupt	-12.2745
▁1986	-12.2746
▁bohm	-12.2746
▁unavoidable	-12.2748
▁elsewhere	-12.2749
▁intense	-12.2751
▁bibliography	-12.2751
▁100,000	-12.2753
▁eager	-12.2753
▁pointers	-12.2756
▁rotated	-12.2759
▁87	-12.276
▁overcom	-12.2762
▁organisms	-12.2768
ell	-12.2769
▁pain	-12.2772
▁comprehensively	-12.2774
accuracy	-12.2775
ups	-12.2775
▁metropolis	-12.2778
localization	-12.2781
▁comput	-12.2781
duces	-12.2782
▁soda	-12.2789
▁aperture	-12.2794
▁tiers	-12.2794
▁penaliz	-12.2796
completeness	-12.2801
▁postulates	-12.2802
▁38	-12.2806
graphs	-12.2819
beats	-12.282
▁articulat	-12.2823
▁minimizers	-12.2823
▁cart	-12.2825
▁viewers	-12.2827
html	-12.2827
▁incidence	-12.2833
▁female	-12.2834
▁reset	-12.2837
walk	-12.2844
leib	-12.2851
▁nu	-12.2851
▁surpasse	-12.2858
ho	-12.2859
▁eclipse	-12.2859
▁mal	-12.2864
▁amr	-12.2873
▁letters	-12.2873
▁constitut	-12.2873
▁grand	-12.2877
▁curiosity	-12.2879
▁cyberbullying	-12.2879
▁taxonomies	-12.288
▁altogether	-12.288
▁committed	-12.2891
▁ghost	-12.2897
▁configurable	-12.2898
▁twisted	-12.2899
▁bilstm	-12.29
▁lookahead	-12.2902
▁kumar	-12.2907
▁venues	-12.291
▁war	-12.2913
di	-12.2913
▁misses	-12.2915
planar	-12.2915
ins	-12.2917
▁associates	-12.2923
utility	-12.2924
▁babi	-12.293
▁magnitudes	-12.2938
▁lend	-12.294
▁flownet	-12.2945
▁depthwise	-12.2945
cc	-12.2946
▁plots	-12.2947
automated	-12.2948
▁subnetworks	-12.2949
study	-12.2952
▁lb	-12.2953
▁cdn	-12.2954
▁asynchronously	-12.2955
▁east	-12.2956
▁eda	-12.2965
▁manuscript	-12.2968
▁undergraduate	-12.2969
▁earthquake	-12.2969
▁hypercube	-12.2972
▁wiretap	-12.2973
entered	-12.2975
▁lesion	-12.2975
▁sw	-12.2976
mining	-12.2978
approximability	-12.2979
▁organisation	-12.298
layered	-12.2991
sourcing	-12.2991
▁retrain	-12.2993
embedding	-12.2994
▁virtue	-12.2996
fit	-12.2996
▁activate	-12.3001
fa	-12.3003
▁tls	-12.3009
▁instagram	-12.3016
▁grassmann	-12.3016
▁unicast	-12.3016
▁elusive	-12.3018
▁preprocess	-12.3018
▁sharpness	-12.3018
▁affordable	-12.3021
▁binning	-12.3028
▁parabolic	-12.3029
▁rotating	-12.3032
▁stringent	-12.3035
▁siam	-12.3035
▁polling	-12.3035
▁10,000	-12.3037
▁visualized	-12.3038
▁planarity	-12.3041
▁monad	-12.3043
▁proceedings	-12.3045
algebraic	-12.3047
high	-12.3048
logic	-12.3049
putting	-12.3049
▁dialect	-12.305
▁counterexamples	-12.3051
▁multiresolution	-12.3058
▁launch	-12.3062
▁gist	-12.3062
▁fft	-12.3063
terminal	-12.3064
▁maneuver	-12.3065
▁postings	-12.3067
protein	-12.3067
-2012	-12.3069
▁profits	-12.307
▁verbal	-12.307
▁rpl	-12.3076
▁night	-12.3078
▁vocal	-12.3081
tions	-12.3089
▁trojans	-12.3092
▁duc	-12.3093
store	-12.3103
▁pour	-12.3103
li	-12.3105
▁misalignment	-12.3107
▁deadlock	-12.3108
▁documented	-12.311
▁sag	-12.3113
▁spectrogram	-12.3116
▁rays	-12.312
▁250	-12.3123
▁ciphertext	-12.3124
▁san	-12.3127
▁calibrate	-12.3136
▁enterprises	-12.3143
▁84	-12.3149
▁defensive	-12.3154
▁discrepancies	-12.3155
▁traceroute	-12.3155
▁unrolled	-12.3157
▁hinton	-12.3158
▁rigidity	-12.3158
▁precomputed	-12.316
expert	-12.3161
▁climate	-12.3161
correlation	-12.3161
▁svr	-12.3162
▁strategically	-12.3162
▁century	-12.3162
▁confident	-12.3168
▁conservation	-12.3169
▁preface	-12.317
▁bandlimited	-12.3176
admm	-12.3177
problem	-12.3178
▁parallelizing	-12.3179
▁mcg	-12.3179
▁continuing	-12.3181
▁manag	-12.3185
▁prefixes	-12.3187
▁sd	-12.3192
integer	-12.3205
▁microblogs	-12.3206
compatible	-12.3207
▁ue	-12.321
▁une	-12.3212
elecommunication	-12.3213
▁ciphers	-12.3213
▁alternation	-12.3215
▁medial	-12.3221
nary	-12.3221
▁guards	-12.3227
▁saw	-12.3228
▁devot	-12.3231
▁disasters	-12.3239
▁overcomplete	-12.3244
▁illustration	-12.3252
▁octree	-12.3253
▁quantifier	-12.3256
▁headline	-12.3256
▁ensembling	-12.3262
▁forget	-12.3268
▁axiomatic	-12.3269
▁transformers	-12.3269
▁celebrate	-12.3271
▁ic	-12.3277
▁simplici	-12.3277
▁gra	-12.3277
▁kds	-12.3279
▁tour	-12.3279
ate	-12.3288
▁societ	-12.3291
▁continual	-12.3292
▁jigsaw	-12.3295
ey	-12.3295
▁precipitation	-12.3295
▁parses	-12.3296
▁sociology	-12.3297
▁sparsification	-12.3298
▁exploding	-12.3298
▁pregel	-12.3301
▁dissipation	-12.3301
▁unification	-12.3302
▁amplification	-12.3305
▁curvelet	-12.3305
▁intuitions	-12.3305
▁lanes	-12.3308
▁cortical	-12.3312
▁jamming	-12.3313
▁parameterize	-12.3318
▁hmdb	-12.332
▁subgoals	-12.3321
▁pouring	-12.3323
▁diminishing	-12.3323
▁lagrange	-12.3325
▁scored	-12.3326
▁pathological	-12.3327
09	-12.3327
▁reminiscen	-12.333
▁asset	-12.3332
pe	-12.3332
▁noticed	-12.3334
▁justifie	-12.3337
▁terminates	-12.3345
▁subsystems	-12.3345
▁sake	-12.3349
▁slide	-12.3349
▁scripting	-12.3351
▁implementable	-12.3352
▁participat	-12.3353
paced	-12.3355
destination	-12.3357
▁saturated	-12.3358
▁relieve	-12.3359
ws	-12.336
▁src	-12.3363
▁sport	-12.3364
▁anytime	-12.3364
ach	-12.3366
▁120	-12.3367
▁resnets	-12.3372
▁rooms	-12.3372
mind	-12.3377
ations	-12.3378
▁32-	-12.3382
▁downloads	-12.3384
pix	-12.3384
separable	-12.3391
▁accident	-12.3392
fl	-12.3395
▁dcs	-12.3396
▁textbook	-12.3397
▁implication	-12.3397
▁fiber	-12.3398
▁radical	-12.3403
▁discount	-12.3406
▁echo	-12.3409
▁abstracted	-12.341
▁chips	-12.3413
▁corruptions	-12.3413
hi	-12.3413
▁iid	-12.3416
▁deliberate	-12.3425
sensor	-12.3435
▁debug	-12.3436
▁1.0	-12.3436
▁atmospheric	-12.3438
▁cornerstone	-12.3438
repair	-12.3439
▁dichotomy	-12.3439
▁histories	-12.344
▁kleinberg	-12.3441
▁speculative	-12.3441
▁witness	-12.3442
▁informativeness	-12.3442
▁docker	-12.3443
▁initializations	-12.3445
hat	-12.3445
▁laborious	-12.3446
▁1989	-12.3446
▁launched	-12.3449
component	-12.3451
▁contaminated	-12.3452
▁strata	-12.3457
positive	-12.3459
▁noticeable	-12.3463
▁missed	-12.3463
▁disclosed	-12.3463
do	-12.3464
ified	-12.3465
▁transcripts	-12.3465
▁assembled	-12.3467
▁hausdorff	-12.3468
▁timit	-12.347
▁currency	-12.3473
▁ctl	-12.3477
disentangling	-12.3478
▁retweet	-12.3478
ial	-12.3483
available	-12.3485
▁impacted	-12.3493
▁ph	-12.3493
▁differentials	-12.3496
▁filled	-12.3502
▁absolutely	-12.3503
▁shelf	-12.3505
▁unequal	-12.3509
▁dominates	-12.3522
▁huffm	-12.3525
▁conclud	-12.3525
freedom	-12.353
self	-12.3534
▁misbehavior	-12.3534
▁flavor	-12.3537
▁institute	-12.3537
▁unigram	-12.3538
▁microservice	-12.3538
▁reserve	-12.3539
▁differentiat	-12.354
▁nfv	-12.3542
▁bubble	-12.3543
▁chair	-12.3546
▁leaks	-12.3551
▁loses	-12.3555
spatial	-12.3557
▁posting	-12.3558
▁bidder	-12.3558
▁harris	-12.3559
▁editor	-12.356
▁phy	-12.3561
▁recognise	-12.3565
▁mos	-12.3569
▁ppi	-12.3571
▁seg	-12.3571
▁tiling	-12.3572
▁cfs	-12.3583
▁constituency	-12.3583
▁steadily	-12.3583
▁melody	-12.3583
▁complementarity	-12.3583
▁49	-12.3584
▁uncorrelated	-12.3584
▁scrum	-12.3586
▁hourglass	-12.3586
▁discontinuity	-12.3586
▁ladder	-12.3587
▁dice	-12.3591
hash	-12.3592
▁nicely	-12.3598
▁univaria	-12.3598
▁breast	-12.3598
▁memorize	-12.3598
▁markedly	-12.3601
▁conferences	-12.3605
▁moore	-12.3607
▁vlc	-12.3607
▁tails	-12.3609
un	-12.3609
▁monetar	-12.3611
▁anywhere	-12.3611
▁timeline	-12.3613
▁mp	-12.3619
ha	-12.3621
▁ldp	-12.3623
asks	-12.363
▁surround	-12.3633
▁him	-12.3635
▁88	-12.3636
▁adults	-12.3637
▁warnings	-12.3638
▁pretrain	-12.364
▁pack	-12.3641
▁minus	-12.3642
▁jacobi	-12.3643
shev	-12.3645
▁proportionally	-12.3654
▁stepping	-12.366
▁durations	-12.3665
▁certainty	-12.3665
▁coins	-12.3671
▁shaped	-12.3672
modified	-12.3675
▁delet	-12.3676
▁intruder	-12.3686
▁polytopes	-12.3687
▁39	-12.3688
constraint	-12.3694
▁1.3	-12.3702
▁lookups	-12.3704
monotone	-12.3725
▁heading	-12.3728
▁profound	-12.3731
▁transitivity	-12.3732
▁decidability	-12.3733
▁glance	-12.3733
▁synchronize	-12.3734
▁analogies	-12.3735
▁foot	-12.3735
▁weaken	-12.3737
▁prevailing	-12.3738
▁marine	-12.3739
▁shopping	-12.374
▁hyperlink	-12.374
▁revised	-12.3747
▁conditionally	-12.3751
residential	-12.3754
▁deteriorate	-12.3755
▁amodal	-12.3758
▁stochasticity	-12.3759
▁makers	-12.3761
▁vectorized	-12.3762
calibrated	-12.3762
▁initializ	-12.3764
▁psrs	-12.3769
platform	-12.3773
▁honeypots	-12.3776
▁actuators	-12.3776
▁editors	-12.3778
▁engaged	-12.378
iot	-12.3784
gets	-12.379
▁eps	-12.3792
▁incidents	-12.3794
erely	-12.3799
▁stl	-12.38
▁traced	-12.3801
▁backwards	-12.3803
▁reproduced	-12.3814
▁citizens	-12.3814
▁bone	-12.3821
▁glove	-12.3827
▁realm	-12.3828
▁positioned	-12.383
▁subdivision	-12.3833
▁prepar	-12.3836
pixels	-12.3837
▁merit	-12.3839
▁functor	-12.3841
reduce	-12.3841
▁conjunctions	-12.3843
▁clickbaits	-12.3845
▁upsample	-12.3848
ahead	-12.385
▁matroids	-12.3851
▁contend	-12.3853
▁portal	-12.3854
bank	-12.3859
▁maze	-12.3869
▁fv	-12.387
▁researcher	-12.387
smith	-12.3873
site	-12.3876
streams	-12.3879
▁streets	-12.3879
▁luminance	-12.3879
▁synchrony	-12.3882
▁expressivity	-12.3882
▁monolithic	-12.3884
▁offload	-12.3885
▁worm	-12.3886
▁ofdm	-12.3887
19	-12.3894
continuous	-12.3896
▁administrators	-12.391
▁deeplab	-12.3911
▁transparently	-12.3916
▁raindrops	-12.3918
structures	-12.3918
tag	-12.3918
▁informally	-12.3923
▁retweeting	-12.3924
▁portals	-12.3925
example	-12.3931
imated	-12.3936
▁600	-12.3937
▁deem	-12.3938
▁fm	-12.3944
pairs	-12.3946
▁pf	-12.3948
▁spa	-12.3949
intuitive	-12.3951
▁guessing	-12.3953
▁keyboards	-12.3957
▁59	-12.3965
▁marks	-12.3967
▁secured	-12.3974
augmented	-12.3977
fps	-12.3977
▁alzheimer	-12.398
▁preparation	-12.3983
▁outsource	-12.3983
▁honeypot	-12.3984
▁morpheme	-12.3985
▁fixpoint	-12.3987
▁displacements	-12.3991
▁subsystem	-12.3994
11	-12.3994
head	-12.3997
▁sandbox	-12.3999
recognition	-12.4001
▁actuator	-12.4001
▁adhere	-12.4002
▁season	-12.4004
▁originat	-12.4006
▁viz	-12.4007
▁surfing	-12.4011
▁pools	-12.4016
▁itemset	-12.4017
▁unfair	-12.4018
▁zoom	-12.4026
▁dd	-12.4027
▁regulate	-12.4029
▁aps	-12.4031
▁vicinity	-12.4031
▁subjectivity	-12.4032
▁davis	-12.4036
▁hadamard	-12.4036
▁administrative	-12.4037
▁pcfg	-12.4044
▁bu	-12.4045
list	-12.4046
▁pitfalls	-12.4047
▁jade	-12.4048
▁pdf	-12.4049
▁mpii	-12.405
▁logarithmically	-12.4056
neural	-12.4057
▁sparseness	-12.4057
▁suit	-12.4058
▁ep	-12.4061
▁ob	-12.4061
▁gnn	-12.4062
▁specialize	-12.4062
▁heatmaps	-12.407
▁inspect	-12.4071
▁wishes	-12.4073
han	-12.4074
▁uct	-12.4077
▁terminating	-12.4078
ctorial	-12.4082
lated	-12.4083
▁89	-12.4085
▁dm	-12.4087
▁homes	-12.4088
▁repairing	-12.4089
interest	-12.4089
two	-12.4092
▁leaders	-12.4094
▁nli	-12.4094
▁arousal	-12.4094
▁falling	-12.41
▁bearing	-12.4101
▁debates	-12.4114
▁tubes	-12.4115
ish	-12.4117
▁newman	-12.4128
growing	-12.4128
logarithmic	-12.4134
capacitated	-12.4134
▁ban	-12.4138
▁grained	-12.4139
▁reside	-12.4142
▁skyline	-12.4143
▁modulate	-12.4143
▁quaternion	-12.4146
▁issued	-12.4148
▁justifications	-12.4157
2011	-12.4159
▁expander	-12.4163
▁disrupt	-12.4163
▁consolidate	-12.4184
▁multiferroic	-12.4185
▁offensive	-12.4185
▁unrestricted	-12.4186
▁unidirectional	-12.4187
▁panoptic	-12.4188
▁iaas	-12.4189
rn	-12.4189
sis	-12.4189
▁realizations	-12.419
▁swapping	-12.419
▁parsed	-12.419
▁credible	-12.4191
▁embodied	-12.4193
topic	-12.4193
▁competence	-12.4195
▁applicants	-12.4196
economic	-12.4198
▁scholars	-12.42
05	-12.4201
▁granted	-12.4201
▁overlapped	-12.4202
grain	-12.4204
▁employees	-12.4206
▁galois	-12.4211
track	-12.4217
▁schur	-12.4218
▁omni	-12.4219
▁1024	-12.4219
▁epi	-12.4219
▁stitching	-12.422
▁reserved	-12.422
constant	-12.422
bow	-12.4221
▁recipes	-12.4224
▁rated	-12.4227
▁foundational	-12.4232
▁wbans	-12.4243
▁quantize	-12.425
planning	-12.4254
▁anns	-12.4257
▁mars	-12.4258
dynamic	-12.4269
coverage	-12.4269
omp	-12.4269
definite	-12.4272
▁closures	-12.4272
column	-12.4276
ef	-12.4277
▁cor	-12.4277
empty	-12.4279
monadic	-12.4288
▁retrained	-12.4288
▁watershed	-12.4289
▁visiting	-12.4292
cp	-12.4295
▁palmprint	-12.4296
▁devis	-12.4299
▁passenger	-12.43
▁spelling	-12.4301
▁guideline	-12.4302
▁excel	-12.4304
▁gd	-12.4306
developed	-12.4306
▁jitter	-12.4307
▁patent	-12.4307
optimization	-12.4314
▁classically	-12.4318
▁fluent	-12.432
lived	-12.4321
▁pls	-12.4326
▁underlie	-12.433
▁fruitful	-12.4336
▁posteriors	-12.434
▁egomotion	-12.4341
programming	-12.4342
▁misclassified	-12.4342
▁darpa	-12.4343
readable	-12.4346
▁awgn	-12.4346
▁everything	-12.4348
▁insecure	-12.4348
▁isomap	-12.4351
▁functionally	-12.4351
▁actuation	-12.4352
▁origins	-12.4353
▁subtitles	-12.4354
▁fuzzing	-12.4355
▁outlets	-12.4355
▁equi	-12.4357
▁fpn	-12.436
▁please	-12.4361
▁mmse	-12.4362
▁contrasting	-12.4363
selected	-12.4363
▁43	-12.4364
▁cloth	-12.4365
rnet	-12.4365
▁subclasses	-12.4365
▁flocking	-12.4365
▁cohen	-12.4367
▁sector	-12.4371
▁crawled	-12.4377
▁receding	-12.4379
ik	-12.4386
▁quest	-12.4386
▁66	-12.4387
theoretical	-12.4388
▁accidents	-12.4393
▁organisations	-12.4393
▁cdns	-12.4395
▁supplied	-12.4398
markov	-12.4399
ep	-12.4407
rhaps	-12.4408
▁coping	-12.4416
00	-12.4423
▁estimati	-12.4423
▁tactic	-12.4432
▁cw	-12.4436
ranked	-12.4436
chosen	-12.4439
▁diagnose	-12.444
orthogonal	-12.4445
▁sole	-12.4446
▁grassmannian	-12.4448
▁sram	-12.4449
regret	-12.4449
▁nuisance	-12.4452
2018	-12.4454
translation	-12.4454
▁barycenter	-12.4456
▁1,000	-12.4456
▁spikes	-12.4458
▁overly	-12.4458
▁penetration	-12.446
▁print	-12.4462
▁eas	-12.4465
▁smell	-12.4466
▁delegation	-12.447
occurring	-12.447
▁holograph	-12.4471
▁repaired	-12.4471
tuple	-12.4472
▁gc	-12.4482
stein	-12.4484
adversarial	-12.4485
4.5	-12.4487
ev	-12.4492
▁incentivize	-12.4493
▁excitation	-12.4497
▁promot	-12.4497
▁fluency	-12.45
▁offspring	-12.45
▁memorability	-12.45
▁seasonal	-12.4501
▁unsafe	-12.4504
▁nfrs	-12.4504
▁collaborators	-12.4505
▁llvm	-12.4505
▁fountain	-12.4505
▁ethnicity	-12.4506
▁retention	-12.4506
▁zipf	-12.4507
▁sm	-12.4507
▁cropped	-12.4513
▁faithfully	-12.4514
computing	-12.4515
▁temporar	-12.4516
▁negatives	-12.4517
▁walker	-12.4518
▁impaired	-12.4519
pl	-12.4521
mediated	-12.4522
▁dash	-12.4523
▁overlooked	-12.4523
▁collector	-12.4523
▁friendly	-12.4526
▁enclos	-12.4529
▁hotspots	-12.453
▁listing	-12.4535
▁mat	-12.4536
▁extrapolate	-12.4537
▁rls	-12.4537
gb	-12.4541
▁opposing	-12.4541
ratio	-12.4543
▁foreign	-12.4545
▁myopic	-12.4545
▁gb	-12.4547
▁cones	-12.4549
▁cooperating	-12.455
▁factorize	-12.4554
▁implie	-12.4554
▁countermeasure	-12.4556
▁waveforms	-12.4558
▁elm	-12.4563
▁pros	-12.4563
healing	-12.4569
ut	-12.4584
finitary	-12.4587
mc	-12.4587
ably	-12.4593
▁flag	-12.46
▁sorts	-12.4605
coupled	-12.4607
▁actionable	-12.4608
▁er	-12.461
▁isolat	-12.4611
▁purchases	-12.4611
▁peripheral	-12.4612
▁supervise	-12.4613
▁muscle	-12.4614
▁essay	-12.4614
▁uris	-12.4616
▁retransmission	-12.4616
▁export	-12.4617
▁multiplier	-12.4617
▁rescal	-12.4621
boxes	-12.4624
dr	-12.4624
▁imagine	-12.4625
▁suspect	-12.4627
▁spec	-12.4629
▁streak	-12.4631
▁specialist	-12.4636
ff	-12.4636
▁mario	-12.4637
tl	-12.4638
▁blstm	-12.4638
▁multiuser	-12.4639
▁cancel	-12.464
resnet	-12.464
dataset	-12.464
hot	-12.4645
▁hawk	-12.4646
▁simplifications	-12.4651
▁apple	-12.4651
▁prohibit	-12.4652
▁revolution	-12.4652
▁normalize	-12.4657
attack	-12.4659
▁kan	-12.4659
▁twelve	-12.4661
▁ju	-12.4661
▁fragile	-12.4661
▁synergy	-12.4661
▁2.2	-12.4664
▁coexistence	-12.4665
ring	-12.4665
▁repeatable	-12.4665
▁uplift	-12.4666
▁underpinning	-12.4669
ything	-12.467
▁nc	-12.467
▁interleaved	-12.467
ham	-12.4671
▁investigators	-12.4674
▁borrowed	-12.4675
08	-12.4679
▁82	-12.4679
▁manageable	-12.4682
playing	-12.4684
▁skipp	-12.4684
▁violat	-12.4688
convergence	-12.469
▁adjectives	-12.4692
▁62	-12.4693
▁ontological	-12.4695
▁forth	-12.4695
▁emulation	-12.4696
ph	-12.4696
▁compil	-12.4698
▁follower	-12.4706
▁info	-12.471
▁mixes	-12.4713
▁unigrams	-12.4714
▁stylize	-12.472
▁eu	-12.4721
▁buckets	-12.4725
▁pq	-12.4725
▁meme	-12.473
▁hospitals	-12.4731
▁52	-12.4737
▁sfc	-12.4738
▁spanner	-12.4738
computed	-12.4738
▁facto	-12.4747
▁warehouses	-12.4749
▁ues	-12.475
ami	-12.4751
▁scarc	-12.4756
▁encapsulate	-12.4758
▁substitutes	-12.4761
▁gis	-12.4764
▁interconnect	-12.4764
▁capitalize	-12.4774
▁plates	-12.4778
▁slowdown	-12.4781
gs	-12.4782
▁kinetic	-12.4785
▁wearer	-12.479
▁maximi	-12.4797
▁spp	-12.4799
▁banking	-12.481
▁ye	-12.4814
▁coinductive	-12.4818
▁comparabl	-12.4821
▁chaining	-12.4822
▁banzhaf	-12.4825
▁garbage	-12.4825
▁basketball	-12.4825
▁nano	-12.4826
▁hint	-12.4827
▁exterior	-12.4828
▁binarized	-12.4831
▁reconciliation	-12.4831
▁harvested	-12.4832
▁pathology	-12.4832
▁attainable	-12.4833
▁situated	-12.4834
page	-12.4836
▁ltl	-12.4838
star	-12.484
▁algorithmically	-12.484
▁busy	-12.4841
▁regularisation	-12.4841
▁0.7	-12.4844
▁whitening	-12.4844
▁identifiability	-12.4847
representation	-12.4848
▁synaptic	-12.4853
▁dom	-12.4857
▁printer	-12.4858
▁flaws	-12.4859
▁increments	-12.4864
ordering	-12.4865
▁incompleteness	-12.4871
▁ric	-12.4874
ode	-12.4875
▁soil	-12.4876
▁elaborated	-12.4882
▁retweets	-12.4884
▁pat	-12.4893
reference	-12.4894
▁crops	-12.4894
behaved	-12.4896
▁invariances	-12.4899
interdisciplinar	-12.4902
▁downsample	-12.4906
▁tau	-12.4914
▁append	-12.4914
▁delineate	-12.4915
▁lmp	-12.4916
▁commercially	-12.4924
▁attach	-12.4926
▁cub	-12.4926
▁isps	-12.4927
▁coarser	-12.4927
▁2.3	-12.4934
▁0-1	-12.4935
▁lemmas	-12.4936
nted	-12.4936
▁postures	-12.4937
▁productive	-12.4938
▁disambiguat	-12.4939
technical	-12.4945
▁bitmap	-12.4947
▁predecessor	-12.4947
▁pace	-12.4956
vi	-12.4956
▁quantizer	-12.4957
fixing	-12.4961
▁152	-12.4967
▁happening	-12.4968
chi	-12.4973
▁horizons	-12.4976
▁dictate	-12.4977
pm	-12.498
▁lf	-12.4985
▁quadruped	-12.4992
▁dynamism	-12.4992
▁societies	-12.4992
▁omnidirectional	-12.4992
▁metaprogramming	-12.4993
▁detrimental	-12.4994
▁hypothetical	-12.4995
▁clever	-12.4995
ql	-12.4995
▁docking	-12.4998
degrees	-12.4998
▁objectively	-12.5
then	-12.5
▁bf	-12.5003
▁collaborat	-12.5008
▁vcg	-12.5008
▁mem	-12.5013
▁discern	-12.5016
▁93	-12.5018
▁satisfiable	-12.5018
▁lag	-12.5019
▁mismatched	-12.5023
▁monotonically	-12.5025
▁slim	-12.5026
▁44	-12.5027
▁likelihoods	-12.5031
ars	-12.5036
ating	-12.5037
▁farms	-12.5038
17	-12.504
▁casual	-12.5041
▁outfit	-12.5042
▁homomorphisms	-12.5044
▁aka	-12.5045
▁iou	-12.5047
▁sac	-12.5048
▁promotion	-12.5049
▁puzzles	-12.5052
▁smc	-12.5053
▁colouring	-12.5055
▁gbs	-12.5058
▁taint	-12.5058
root	-12.5058
expression	-12.5061
▁architects	-12.5069
▁wearing	-12.5076
▁delegate	-12.5081
▁crystal	-12.5083
▁aesthetics	-12.5091
ball	-12.5091
▁tradition	-12.5092
▁masked	-12.5093
par	-12.5094
▁berkeley	-12.5097
▁joined	-12.5099
▁ui	-12.5104
▁tunnel	-12.5105
bandwidth	-12.5105
year	-12.5109
▁weigh	-12.5111
▁1.4	-12.5112
▁emphasized	-12.5113
▁impairment	-12.5114
▁renyi	-12.5116
▁homomorphism	-12.5121
▁37	-12.5126
affine	-12.513
▁molecule	-12.5132
▁vb	-12.5135
▁preemptive	-12.5136
▁divergences	-12.5143
▁cheby	-12.5143
▁unwa	-12.5145
▁spn	-12.5146
▁switched	-12.5146
number	-12.5152
▁83	-12.5159
▁ransomware	-12.5161
▁parsimonious	-12.5161
▁heterogenous	-12.5161
▁redundancies	-12.5161
▁cohesion	-12.5161
▁binaries	-12.5161
▁commonalities	-12.5162
▁authorities	-12.5162
▁orthographic	-12.5163
▁foursquare	-12.5163
▁mortality	-12.5164
▁occupy	-12.5164
▁trails	-12.5165
▁73	-12.5165
▁remainder	-12.5166
lu	-12.5166
▁hamper	-12.5167
▁happiness	-12.5167
▁creativity	-12.5167
▁tightness	-12.5167
▁rao	-12.5169
▁truncation	-12.5169
▁dg	-12.5169
▁controversial	-12.5169
▁vanishes	-12.517
▁stm	-12.5171
▁deduction	-12.5171
▁explosive	-12.5171
▁der	-12.5171
▁radically	-12.5172
▁cpr	-12.5174
▁interdependent	-12.5178
▁bargain	-12.518
▁regeneration	-12.5181
▁censored	-12.5183
chan	-12.5185
▁pegs	-12.5186
▁glasses	-12.5186
▁utilis	-12.5188
▁10.	-12.519
▁uda	-12.5193
▁interruptions	-12.5194
▁ht	-12.5196
▁tu	-12.5198
▁plastic	-12.5202
▁isometric	-12.5203
▁verifie	-12.5208
▁assertion	-12.5209
▁photographic	-12.5209
▁mel	-12.5212
similar	-12.5214
toring	-12.5215
▁maneuvers	-12.5218
▁pressing	-12.5221
▁crawlers	-12.5223
▁secur	-12.5224
ue	-12.5224
▁wins	-12.5225
▁sds	-12.5227
▁eg	-12.5233
▁ds	-12.5237
▁imitat	-12.5238
subject	-12.5238
▁encompasse	-12.5239
▁matters	-12.5244
macher	-12.5244
▁exclud	-12.5246
▁flips	-12.5251
▁helper	-12.5264
occur	-12.527
learner	-12.5272
▁prospective	-12.5275
▁panorami	-12.5278
▁lsi	-12.5283
▁rtt	-12.5285
▁debugger	-12.5287
▁mb	-12.5287
▁usa	-12.5287
▁collocation	-12.5289
▁dierent	-12.5289
▁stateless	-12.529
running	-12.5291
effect	-12.5294
▁trouble	-12.5298
▁smith	-12.53
water	-12.5301
▁gro	-12.5302
▁xi	-12.5305
▁dcn	-12.5306
division	-12.5308
▁vantage	-12.531
▁attractor	-12.531
▁handover	-12.5314
resistant	-12.5317
▁chart	-12.532
authorship	-12.5321
diagonal	-12.533
▁arcade	-12.5333
▁pessimistic	-12.5333
▁rehabilitation	-12.5333
▁3.6	-12.5334
▁ourselves	-12.5334
▁1991	-12.5334
▁radiance	-12.5334
▁criticism	-12.5336
▁ppm	-12.5338
▁pencil	-12.534
▁unfamiliar	-12.5341
▁sitting	-12.5343
▁avx	-12.5343
▁vectorial	-12.5344
▁sexual	-12.5345
▁jain	-12.5346
▁eigenfunctions	-12.5349
ani	-12.5351
▁respondents	-12.5353
▁ddpg	-12.5354
▁cavity	-12.5354
▁recognised	-12.5358
▁threefold	-12.5364
▁subscribers	-12.5365
▁calculi	-12.5365
512	-12.5365
▁dfs	-12.5368
droid	-12.5369
▁tampering	-12.537
▁inliers	-12.5372
▁exert	-12.5372
▁reranking	-12.5378
▁gyroscope	-12.5378
▁orient	-12.5383
▁lenet	-12.5384
▁annotator	-12.5387
▁retained	-12.5388
▁structur	-12.5389
▁optimis	-12.5389
▁survive	-12.539
▁linkedin	-12.5391
▁quantifiers	-12.5391
▁ag	-12.5396
▁fonts	-12.5401
▁pde	-12.5401
gl	-12.5404
▁monads	-12.5405
▁ehr	-12.5408
ware	-12.5416
▁proc	-12.5416
hidden	-12.5423
▁quantiles	-12.5425
▁saves	-12.5431
▁martin	-12.5434
▁47	-12.5436
▁pspace	-12.5439
▁dilat	-12.5444
scope	-12.5451
▁hall	-12.5451
▁2.4	-12.5453
▁regulations	-12.5457
axis	-12.5458
sensing	-12.546
▁ser	-12.5461
▁dsr	-12.5461
fm	-12.5461
▁cuboid	-12.5462
▁marketplace	-12.5466
▁disjunction	-12.547
red	-12.547
▁anticipated	-12.5472
▁shortcut	-12.5477
▁coexist	-12.5478
boolean	-12.5479
▁aco	-12.548
▁hp	-12.5483
▁grass	-12.5484
rec	-12.5485
▁semin	-12.5486
▁testable	-12.5487
▁11.	-12.5489
focused	-12.5489
fidelity	-12.5493
decay	-12.5493
▁torque	-12.5494
▁defin	-12.5494
ification	-12.5494
drawn	-12.5496
▁redesign	-12.55
▁mrfs	-12.55
▁101	-12.5502
lly	-12.5503
nash	-12.5506
▁portuguese	-12.5509
▁hydrophobic	-12.5509
▁qaoa	-12.5509
▁forgery	-12.5509
▁specular	-12.5509
▁conformance	-12.5509
▁jordan	-12.5509
▁dropped	-12.551
▁unavailability	-12.551
▁fascinating	-12.5511
strauss	-12.5512
▁politics	-12.5513
▁potts	-12.5513
▁speculation	-12.5514
▁prim	-12.5514
▁synchronisation	-12.5516
▁undertaken	-12.5518
▁conceived	-12.5519
▁geospatial	-12.5519
▁france	-12.5521
▁envisioned	-12.5522
▁chords	-12.5526
▁intercept	-12.5526
▁referenced	-12.5533
▁trades	-12.5534
represented	-12.5536
cast	-12.5541
▁reversal	-12.5542
▁deduced	-12.555
▁landscapes	-12.5551
▁shortly	-12.5557
▁rescaling	-12.5557
▁pins	-12.5559
vid	-12.556
▁gameplay	-12.5561
▁forwarded	-12.5563
▁manga	-12.5564
▁prop	-12.5564
types	-12.5568
▁fb	-12.5571
▁flowers	-12.5572
▁1-1	-12.5573
nce	-12.5577
▁emissions	-12.5577
▁clusterings	-12.5581
classical	-12.5589
▁trait	-12.5591
▁datacenters	-12.5595
▁auditing	-12.5598
▁writers	-12.5603
gp	-12.5604
▁parents	-12.5605
▁narratives	-12.5611
▁promoted	-12.5613
loaded	-12.5616
match	-12.5625
▁paris	-12.5627
cfs	-12.563
▁edited	-12.5638
▁contagion	-12.564
▁wrist	-12.5642
▁hsi	-12.5644
▁sdr	-12.5644
▁denoiser	-12.5644
▁substring	-12.5646
▁ledger	-12.5648
▁substructure	-12.565
▁unknowns	-12.5654
▁strategyproof	-12.5655
▁sfs	-12.5658
encryption	-12.566
conversion	-12.5672
air	-12.5673
▁mount	-12.5675
frontal	-12.5679
chromatic	-12.5681
derived	-12.5683
▁dempster	-12.5687
▁deficiencies	-12.5687
▁supergravity	-12.5688
▁hallucination	-12.5688
▁outdated	-12.5688
▁hexagonal	-12.5688
▁eleven	-12.5688
▁punctuation	-12.5688
▁footage	-12.5688
cap	-12.5688
▁deduplication	-12.5688
▁rectify	-12.5691
▁trickle	-12.5691
▁arbitrage	-12.5691
▁roughness	-12.5692
you	-12.5692
▁idiomatic	-12.5694
▁grey	-12.5695
▁crowdsourc	-12.5696
▁ecological	-12.5696
▁migrate	-12.5698
liance	-12.5699
▁computability	-12.57
▁richness	-12.5701
▁pgas	-12.5702
▁nowcast	-12.5702
▁organic	-12.5702
▁archiving	-12.5702
▁prototyping	-12.5703
▁integrable	-12.5704
▁coined	-12.5712
intended	-12.5712
▁proportions	-12.5715
▁nesting	-12.5718
97	-12.572
▁deployable	-12.5721
▁cyclists	-12.5723
▁latch	-12.5725
▁revisited	-12.5725
▁transversal	-12.5728
▁dmn	-12.5732
▁extrem	-12.5734
lp	-12.5735
labels	-12.5735
ize	-12.5736
▁subtrees	-12.5738
▁essays	-12.5739
▁pad	-12.5747
▁55	-12.5749
dm	-12.5758
▁multipoint	-12.576
hierarchical	-12.5763
ki	-12.5766
▁simon	-12.5766
▁msc	-12.5771
aggregation	-12.5785
▁2.6	-12.5788
decodable	-12.5789
▁den	-12.579
▁publishers	-12.5794
val	-12.5796
ire	-12.5798
ning	-12.5812
▁polyhedron	-12.5817
▁inflection	-12.582
▁pol	-12.582
▁tracklet	-12.5822
▁raindrop	-12.5823
▁household	-12.5824
▁analogues	-12.5825
▁agreed	-12.5825
▁anderson	-12.5827
▁chamber	-12.5829
homogeneous	-12.583
▁poem	-12.5831
bm	-12.5835
▁installation	-12.5836
▁steal	-12.5837
▁clicked	-12.584
▁abort	-12.5842
▁tc	-12.5847
▁favors	-12.5847
▁ssim	-12.5848
▁disclose	-12.5852
enhanced	-12.5853
browsing	-12.5857
▁unambiguous	-12.5861
▁mts	-12.5864
▁pra	-12.5869
▁omniglot	-12.5869
▁erlang	-12.5869
▁valiant	-12.5869
▁stiffness	-12.5869
▁uri	-12.5869
▁fraudulent	-12.587
▁vague	-12.587
▁hdfs	-12.5871
rvfl	-12.5871
▁viterbi	-12.5872
things	-12.5875
▁diamond	-12.5876
▁interactivity	-12.5877
color	-12.5878
▁recruitment	-12.5878
▁crude	-12.5878
▁assemble	-12.5879
▁wyner	-12.5879
▁harmonics	-12.588
▁award	-12.588
▁inaccuracies	-12.588
▁hri	-12.5881
bp	-12.5883
▁pivotal	-12.5883
forms	-12.5883
▁spmv	-12.5884
▁bonus	-12.5884
▁iqa	-12.5885
times	-12.5887
▁unnecessarily	-12.5887
▁ul	-12.5888
▁kth	-12.5889
▁sigma	-12.5891
▁stemming	-12.5891
▁hetnets	-12.5895
▁overloaded	-12.5895
▁transh	-12.5895
▁williams	-12.5904
▁boundedness	-12.5904
▁shrinking	-12.5905
▁approximators	-12.5906
▁attended	-12.5913
▁dq	-12.5913
▁captcha	-12.5914
▁silicon	-12.5918
▁fund	-12.5919
▁invented	-12.5919
▁producers	-12.592
ol	-12.5927
▁criticality	-12.5928
▁nell	-12.5928
facto	-12.593
▁hyperlinks	-12.593
▁alphabets	-12.5931
fs	-12.5936
▁institution	-12.5937
▁cdma	-12.5943
▁incoherence	-12.5945
packetization	-12.5947
pattern	-12.5951
▁distilling	-12.5954
pca	-12.5959
▁gnu	-12.5959
bayesian	-12.5963
▁dat	-12.5963
variant	-12.5966
▁sin	-12.5967
▁sight	-12.5967
layers	-12.5973
coordinate	-12.5973
▁capital	-12.5974
well	-12.5975
▁cultures	-12.5978
exploration	-12.5985
closure	-12.5989
enable	-12.6
1.	-12.6001
▁glimpse	-12.6007
▁contradiction	-12.6008
▁counterexample	-12.6008
▁hypervisor	-12.601
▁customiz	-12.6012
▁sale	-12.6012
▁migrat	-12.6012
▁decent	-12.6012
▁bond	-12.6016
▁qk	-12.6017
quadratic	-12.6019
▁subtree	-12.6022
rigorous	-12.6024
▁digraph	-12.6028
▁unnatural	-12.6028
▁prioritiz	-12.6033
plan	-12.6036
▁vol	-12.6038
understood	-12.6039
▁ensured	-12.604
▁discretize	-12.6041
▁snap	-12.6042
▁blame	-12.6042
▁copper	-12.6043
▁sine	-12.6045
▁tester	-12.6045
▁bci	-12.6046
▁toolkits	-12.6048
negligible	-12.6049
▁spr	-12.6049
pi	-12.6051
citation	-12.6052
evasion	-12.6053
▁urllc	-12.6054
▁kinodynamic	-12.6054
▁stolen	-12.6055
▁simplistic	-12.6055
▁pronounced	-12.6055
▁autonomic	-12.6055
▁modulus	-12.6055
▁fallback	-12.6056
ron	-12.6057
▁vault	-12.6058
▁tangible	-12.6059
flight	-12.6061
▁monoidal	-12.6062
▁czech	-12.6065
▁pus	-12.6065
▁hostile	-12.6065
-2010	-12.6065
▁telephone	-12.6069
▁annual	-12.6069
▁mines	-12.607
▁polarized	-12.607
▁nation	-12.6071
bfgs	-12.6072
▁meetings	-12.6073
▁cfi	-12.6077
▁hoeffding	-12.6079
▁scar	-12.6082
▁contingenc	-12.6082
▁vggnet	-12.6083
▁likes	-12.6091
▁budgets	-12.6098
▁2019	-12.6104
▁uncovered	-12.6105
commutative	-12.6109
▁assure	-12.6112
ld	-12.6117
▁alerts	-12.6121
▁initiatives	-12.6124
▁raters	-12.6124
correlated	-12.6126
▁pump	-12.6132
06	-12.6137
▁logically	-12.6138
▁sex	-12.6139
ich	-12.6145
▁gl	-12.6146
▁gone	-12.6146
▁hyperplanes	-12.6149
▁programmed	-12.6152
magnitude	-12.6154
encoding	-12.6156
discriminative	-12.6157
erefore	-12.6158
dominated	-12.6159
▁hazards	-12.6161
ucb	-12.6163
▁67	-12.6163
elling	-12.617
▁gateways	-12.6175
▁recommenders	-12.6179
▁brane	-12.618
▁evasion	-12.6182
▁jumps	-12.6183
▁unlock	-12.6191
▁communicates	-12.6193
wa	-12.6196
▁tessellation	-12.6196
regions	-12.6196
private	-12.6198
▁stationarity	-12.6201
▁impede	-12.6206
safety	-12.6209
confidence	-12.6209
▁chroma	-12.6209
▁mtc	-12.6212
functions	-12.6212
hour	-12.6214
▁residue	-12.6215
additive	-12.6215
▁viola	-12.6216
▁newer	-12.6216
being	-12.6217
▁synchroniz	-12.6217
uc	-12.623
▁resembl	-12.6232
recall	-12.6232
▁campus	-12.6234
microsoft	-12.6236
kin	-12.6241
▁logit	-12.6242
▁fifteen	-12.6243
▁residence	-12.6243
branes	-12.6243
▁coherency	-12.6243
▁squeezenet	-12.6244
▁yan	-12.6245
▁spring	-12.6246
▁strassen	-12.6246
▁resnext	-12.6246
▁surplus	-12.6246
▁starcraft	-12.6247
▁eve	-12.6247
hungry	-12.6247
▁impli	-12.6258
▁evidences	-12.6258
▁sticker	-12.6259
▁comfortabl	-12.626
▁heisenberg	-12.6261
▁fork	-12.6262
▁profitable	-12.6262
▁acknowledged	-12.6263
▁manufacturers	-12.6264
▁tpc	-12.6265
▁comprehensible	-12.6267
▁exposition	-12.627
▁ricci	-12.627
▁fgsm	-12.6272
▁insightful	-12.6274
▁genprog	-12.6279
▁diversify	-12.6281
▁instrumented	-12.6282
▁distractions	-12.6284
▁communicative	-12.629
▁disseminate	-12.6292
▁rails	-12.6295
▁comp	-12.6298
▁mutants	-12.6298
▁characterised	-12.63
▁lesions	-12.6306
▁organs	-12.6309
▁las	-12.6309
evolving	-12.6309
▁spectrograms	-12.631
blocking	-12.6314
▁saved	-12.6315
▁unaware	-12.6316
▁favourabl	-12.6318
▁pois	-12.6319
cache	-12.6324
▁bach	-12.6326
binary	-12.6333
▁intents	-12.6343
▁2.1	-12.6343
▁unity	-12.6344
▁frontiers	-12.6347
▁remarks	-12.6347
▁mapf	-12.635
▁pyramidal	-12.6351
▁mrc	-12.6351
▁learnability	-12.6355
▁duplicates	-12.6357
▁ka	-12.6365
▁recurr	-12.6366
▁fractions	-12.6367
▁odds	-12.6373
▁3.3	-12.6375
▁mag	-12.6379
▁rid	-12.638
drop	-12.6381
▁overlays	-12.6384
▁gmms	-12.6384
▁downward	-12.6387
▁metropoli	-12.6389
▁rep	-12.6389
iteration	-12.639
▁shock	-12.64
▁browsers	-12.64
active	-12.6404
▁browse	-12.6405
▁plugin	-12.6407
decode	-12.6409
▁resu	-12.641
▁es	-12.6412
▁epidemics	-12.6415
▁restor	-12.6415
▁cn	-12.6422
atory	-12.6425
au	-12.6427
▁turbo	-12.643
▁1987	-12.6435
▁brittle	-12.6435
▁batteries	-12.6435
▁administration	-12.6435
▁newswire	-12.6436
calibration	-12.6436
▁restful	-12.6436
▁cybersecurity	-12.6436
▁sla	-12.6437
▁sam	-12.6437
▁lqr	-12.6438
parameterized	-12.6438
▁gracefully	-12.6438
▁ramsey	-12.6439
▁responsibility	-12.6439
▁rural	-12.644
▁summer	-12.644
▁nondeterminism	-12.6442
lines	-12.6442
▁bwt	-12.6442
▁revolutionized	-12.6442
▁fifo	-12.6443
▁commonplace	-12.6444
▁commuting	-12.6446
▁mosaic	-12.6448
▁uep	-12.6449
▁cray	-12.6452
▁mar	-12.6452
theoretically	-12.6453
▁lru	-12.6454
▁fet	-12.6457
▁outsourcing	-12.6462
▁suppressed	-12.6464
▁alternately	-12.6466
▁divisors	-12.6469
▁conveyed	-12.647
▁smile	-12.6472
scene	-12.6477
▁recipients	-12.6481
▁tiled	-12.6483
▁attacked	-12.6484
▁substituted	-12.6484
▁digraphs	-12.6485
▁anger	-12.6491
▁peg	-12.6492
▁dialogs	-12.6494
▁nilpoten	-12.6501
▁reconcile	-12.6502
▁spns	-12.6511
tr	-12.6512
ily	-12.6512
cr	-12.6513
▁reinforced	-12.6515
suming	-12.6518
▁inapplicable	-12.6532
va	-12.6532
▁cpd	-12.6534
▁zi	-12.6537
▁iml	-12.6538
▁bursts	-12.6538
▁160	-12.654
▁someone	-12.6543
▁61	-12.6545
ists	-12.6551
▁htm	-12.6553
▁multiway	-12.6554
tail	-12.6556
termination	-12.6557
▁instantiations	-12.6563
84	-12.6565
interval	-12.6573
▁sensori	-12.6575
▁haz	-12.6575
mitting	-12.6578
xnet	-12.658
▁shear	-12.658
▁tamper	-12.6581
restricted	-12.6581
▁touchscreen	-12.6582
▁telescope	-12.6584
▁heatmap	-12.6585
▁num	-12.6586
▁kn	-12.6586
▁refactoring	-12.6586
▁calling	-12.6587
▁supercomputer	-12.6588
balanced	-12.6588
▁vanish	-12.6592
▁voices	-12.6598
▁rssi	-12.6599
▁tan	-12.6601
composable	-12.6602
▁historic	-12.6602
▁recipient	-12.6603
▁prophet	-12.6604
▁nir	-12.6604
▁wavelength	-12.6605
▁prevented	-12.6607
▁placements	-12.6609
images	-12.6612
▁crc	-12.6613
▁alg	-12.6613
▁ips	-12.6614
▁dnf	-12.6614
home	-12.6617
▁ti	-12.6618
nmf	-12.6619
▁gale	-12.662
▁kt	-12.6621
▁lett	-12.6625
▁linearity	-12.6627
▁78	-12.6628
partitioning	-12.6628
nns	-12.6629
▁rvfl	-12.6629
▁marl	-12.663
▁august	-12.6631
▁pinyin	-12.6631
▁lactate	-12.6631
▁robocup	-12.6631
▁wrench	-12.6631
▁furniture	-12.6631
▁mscoco	-12.6631
▁zheng	-12.6632
▁hat	-12.6632
▁authenticity	-12.6632
backward	-12.6632
▁familiarity	-12.6635
▁asynchrony	-12.6638
nally	-12.6641
▁intact	-12.6643
▁ergodicity	-12.6644
house	-12.6646
▁sobolev	-12.6646
global	-12.6648
supported	-12.6649
▁terrorist	-12.6649
▁staff	-12.6651
▁elevation	-12.6653
▁klein	-12.6653
▁photon	-12.6654
▁disco	-12.6656
▁feelings	-12.6658
▁symptoms	-12.6658
personal	-12.6658
▁bookmark	-12.6662
▁thumbnails	-12.6663
▁guo	-12.6667
▁everyone	-12.6669
▁ver	-12.6676
▁ada	-12.6678
▁coral	-12.6679
▁diverge	-12.6679
▁tw	-12.668
▁emd	-12.6682
▁substrings	-12.6683
▁groupings	-12.6684
▁fee	-12.6686
▁bugg	-12.6688
▁nms	-12.6688
ors	-12.6688
▁traversed	-12.6689
decoders	-12.6689
effector	-12.6689
tuples	-12.669
▁tilt	-12.6694
▁expanders	-12.6694
linearly	-12.6695
▁orbits	-12.6696
▁tts	-12.6696
▁fov	-12.6697
closed	-12.6704
▁ports	-12.6706
vsky	-12.6709
▁underline	-12.6713
▁fold	-12.6717
▁theme	-12.6722
▁ut	-12.6722
▁proto	-12.6733
centralised	-12.6737
ria	-12.6743
▁sparsify	-12.6747
▁accumulat	-12.675
ology	-12.6756
▁cox	-12.6759
ions	-12.6766
iv	-12.677
▁assisting	-12.6773
▁heights	-12.6775
su	-12.6779
▁elkin	-12.6781
▁reservoir	-12.6784
taining	-12.6784
▁fluctuation	-12.6785
enyi	-12.6791
▁raz	-12.6791
▁fl	-12.6793
synthesis	-12.6793
▁martingale	-12.6795
secure	-12.6795
grade	-12.6798
▁sparsest	-12.6802
situ	-12.6804
web	-12.6814
▁ben	-12.6818
▁auv	-12.682
worthy	-12.682
element	-12.682
▁notification	-12.6821
▁hep	-12.6825
▁ij	-12.6825
determinism	-12.6825
▁dt	-12.6831
▁gromov	-12.6831
▁toeplitz	-12.6831
▁granularities	-12.6831
▁tone	-12.6832
▁typology	-12.6832
▁retrospective	-12.6834
▁erdos	-12.6834
▁deficiency	-12.6834
▁plentiful	-12.6835
▁equip	-12.6835
▁1960	-12.6835
▁casia	-12.6835
▁fnn	-12.6837
▁cuhk	-12.6838
▁winograd	-12.6839
▁bernstein	-12.6839
▁trapping	-12.6839
closeness	-12.6841
▁clipping	-12.6841
▁destroy	-12.6844
▁thesaurus	-12.6844
ou	-12.6845
▁ode	-12.6848
▁degeneration	-12.6849
▁interestingness	-12.6849
▁fds	-12.685
▁ndcg	-12.685
ip	-12.685
▁viruses	-12.6851
▁police	-12.6852
▁paging	-12.6854
▁seizure	-12.6854
terdependencies	-12.6855
ghz	-12.6856
association	-12.6858
▁slack	-12.686
▁billing	-12.686
colorings	-12.6862
2000	-12.6862
maximiz	-12.6866
▁prospects	-12.6867
▁cg	-12.6867
ember	-12.6869
▁poselets	-12.6877
▁cur	-12.6877
▁connectedness	-12.6877
▁delete	-12.6878
▁1.8	-12.6879
▁revenues	-12.688
▁vertically	-12.688
▁ant	-12.6882
▁flipping	-12.6885
mographic	-12.6885
▁lime	-12.6887
rman	-12.6888
prolog	-12.689
▁td	-12.6891
▁degrad	-12.6895
▁struct	-12.6897
▁degeneracy	-12.6909
cv	-12.6913
adapt	-12.6914
resolved	-12.693
▁portraits	-12.6931
ide	-12.6932
▁conventionally	-12.6933
▁tech	-12.6933
.57	-12.6933
bench	-12.6935
▁login	-12.6941
▁strips	-12.6943
▁trips	-12.6948
xml	-12.6948
▁spaced	-12.6951
coco	-12.6952
▁leg	-12.6954
▁omit	-12.6954
categories	-12.6957
▁sinks	-12.6958
▁jumping	-12.6963
▁prm	-12.6963
▁qp	-12.6967
originated	-12.6967
akis	-12.6969
iris	-12.6977
▁temperatures	-12.6978
dimensionality	-12.6979
▁phylogenetic	-12.6981
ini	-12.6982
prediction	-12.6983
▁danger	-12.6984
▁summ	-12.6986
▁subsection	-12.6988
▁museum	-12.699
▁downside	-12.6995
collision	-12.7
▁negotiate	-12.7
▁bitrate	-12.7001
▁invasive	-12.7003
western	-12.701
perfect	-12.7017
▁0.2	-12.7023
▁fsm	-12.7025
▁breach	-12.7025
▁ru	-12.7029
▁dans	-12.703
▁maximis	-12.703
▁rhythm	-12.7031
▁wsj	-12.7035
▁affinities	-12.7035
▁hallmark	-12.7035
▁copied	-12.7036
▁responsiveness	-12.7036
▁stopped	-12.7036
▁nonmonotonic	-12.7037
▁clarity	-12.7037
▁rade	-12.7037
▁memorization	-12.7037
▁bundling	-12.704
▁douglas	-12.7043
▁unspecified	-12.7043
▁duplex	-12.7046
commodity	-12.7047
invasive	-12.7047
▁codec	-12.7048
hr	-12.7048
plp	-12.7048
compliant	-12.705
▁spreads	-12.705
▁levy	-12.705
responding	-12.705
▁fabrication	-12.7051
▁hybridization	-12.7052
editing	-12.7052
faulty	-12.7053
▁erased	-12.7053
dbscan	-12.7056
▁1993	-12.7058
▁mw	-12.7062
ltering	-12.7064
▁alleviated	-12.7067
▁barcodes	-12.7067
▁calendars	-12.707
▁sld	-12.7072
▁shapenet	-12.7074
▁gbps	-12.7076
▁fragmented	-12.7076
▁theft	-12.7077
▁liver	-12.7077
▁excluded	-12.7078
▁infectious	-12.7078
▁fade	-12.708
▁enabler	-12.7082
▁twist	-12.7083
▁nlu	-12.7084
▁replicating	-12.7085
32	-12.7086
▁rotate	-12.7086
▁om	-12.7091
▁buses	-12.7092
processed	-12.7093
▁ceo	-12.7099
modulated	-12.7099
▁cgan	-12.7101
▁intentional	-12.7104
▁58	-12.7105
▁12.	-12.7109
fast	-12.7111
▁jit	-12.7113
▁erasures	-12.7115
ave	-12.712
reconstruction	-12.7125
own	-12.7128
▁amen	-12.7132
▁mul	-12.7133
▁crafting	-12.7137
project	-12.714
▁zones	-12.7142
▁divisible	-12.7146
▁explor	-12.7146
▁detectable	-12.7148
▁rsa	-12.7148
▁kar	-12.7148
ties	-12.715
rays	-12.7159
▁subjected	-12.7159
▁gm	-12.7159
▁cooperatively	-12.7169
isclassification	-12.7171
▁checkers	-12.7173
▁conve	-12.7174
sen	-12.7176
▁judg	-12.7177
second	-12.7179
▁court	-12.718
▁taxis	-12.7181
bl	-12.7182
▁liar	-12.7183
▁revocation	-12.7188
▁sync	-12.7189
▁0.1	-12.719
▁axiom	-12.7191
▁handheld	-12.7194
▁sandpile	-12.7195
▁harvest	-12.7195
▁reversed	-12.7195
▁transpose	-12.7197
▁transceiver	-12.72
▁stn	-12.72
▁rst	-12.7201
▁ko	-12.7208
▁lai	-12.721
character	-12.7211
▁karp	-12.7216
ious	-12.722
▁phys	-12.7221
▁facet	-12.7222
▁gta	-12.7223
▁senders	-12.7226
▁conducts	-12.7231
▁mptcp	-12.7243
▁bovw	-12.7243
▁ecology	-12.7244
▁poker	-12.7244
▁eavesdropping	-12.7244
▁polysemy	-12.7244
▁pinch	-12.7245
▁stealthy	-12.7245
▁temporarily	-12.7246
▁bijective	-12.7246
▁trapped	-12.7248
▁als	-12.7248
▁automl	-12.7249
▁radon	-12.7249
▁nlos	-12.7252
▁sheer	-12.7253
▁breaches	-12.7253
▁fiducial	-12.7255
▁pinterest	-12.7257
▁tabling	-12.7259
▁federal	-12.7259
▁happy	-12.7259
▁directory	-12.7261
▁therapy	-12.7265
▁traction	-12.7267
▁lps	-12.7268
▁ear	-12.7268
▁popularized	-12.7268
▁cms	-12.7269
01	-12.727
▁pursu	-12.7272
▁moser	-12.7273
▁memorized	-12.7273
▁inherited	-12.7276
▁smoother	-12.7278
▁eca	-12.7279
anonymization	-12.7282
▁ed	-12.7284
▁favour	-12.7286
▁seam	-12.7287
▁dsls	-12.7291
▁enhancon	-12.7296
feat	-12.7297
▁torques	-12.7311
▁agricultural	-12.7312
▁gu	-12.7312
▁charts	-12.7312
▁congest	-12.7313
session	-12.7316
cnf	-12.7318
mapping	-12.7322
▁lsa	-12.7328
▁pm	-12.7329
▁modelnet	-12.733
▁watching	-12.7334
▁recognizers	-12.7339
▁discriminatory	-12.734
▁abac	-12.734
▁forbidd	-12.7348
iming	-12.7352
fd	-12.7353
▁purchas	-12.7354
▁knot	-12.7355
▁analyzers	-12.7357
-1.5	-12.7358
▁vq	-12.7358
models	-12.736
▁repetitions	-12.7363
▁psm	-12.7368
▁ecc	-12.7371
▁wan	-12.7374
▁suprem	-12.7374
beit	-12.7375
prover	-12.7379
▁ot	-12.7381
▁paraphrases	-12.7385
▁hom	-12.7385
risk	-12.7385
cf	-12.7392
▁plent	-12.7396
▁entail	-12.74
▁lake	-12.74
▁audiences	-12.7404
▁enrollment	-12.7408
▁filesystem	-12.741
▁thematic	-12.741
raising	-12.7413
▁advertiser	-12.7414
▁distraction	-12.7415
ortex	-12.7415
motivated	-12.7417
▁singleton	-12.7418
▁charges	-12.742
▁dy	-12.7421
▁noma	-12.7426
▁corporate	-12.7434
▁elucidate	-12.7434
▁crimes	-12.7436
▁explorations	-12.7441
▁approximator	-12.7444
▁vnf	-12.7447
dqn	-12.7447
▁silent	-12.7448
dis	-12.7448
▁dijkstra	-12.7456
▁veracity	-12.7456
▁chernoff	-12.7456
▁mizar	-12.7456
▁arbitration	-12.7456
▁cabinet	-12.7456
▁folksonomy	-12.7456
▁trigonometr	-12.7456
▁intermediary	-12.7457
▁excavation	-12.7457
▁abnormalities	-12.7457
▁dvfs	-12.7457
▁wikidata	-12.7457
▁factorizations	-12.7458
▁acceptability	-12.746
▁1988	-12.746
▁discourage	-12.746
▁nfc	-12.746
▁wtf	-12.7461
▁sisr	-12.7461
▁assortativity	-12.7462
▁corr	-12.7463
▁entropic	-12.7466
▁dga	-12.7466
▁subadditive	-12.7468
▁exemplifie	-12.7468
▁quad	-12.7469
submodular	-12.7469
princeton	-12.7469
▁distort	-12.747
▁distrust	-12.7471
▁geography	-12.7472
▁clearview	-12.7474
den	-12.7475
▁springer	-12.7475
▁oscillations	-12.7479
awareness	-12.7481
climbing	-12.7484
▁presentations	-12.7485
▁residents	-12.7486
▁colliding	-12.7486
▁runtimes	-12.7488
▁timescales	-12.7491
▁settles	-12.7491
▁del	-12.7496
▁advocated	-12.7498
▁prompt	-12.75
▁quant	-12.7503
▁coresets	-12.7503
▁richly	-12.7505
▁theta	-12.7506
▁enumerated	-12.7506
string	-12.7507
dnn	-12.7508
▁monograph	-12.7509
▁distinguishable	-12.7509
98	-12.751
ideal	-12.7513
▁icons	-12.7515
transfer	-12.7515
▁screens	-12.7517
▁forged	-12.752
informed	-12.7522
tv	-12.7522
▁ship	-12.7525
▁var	-12.7529
▁dsp	-12.7532
▁damaged	-12.7533
▁indifference	-12.7534
▁charged	-12.7536
▁smpl	-12.7536
▁comply	-12.7537
stationarity	-12.7542
▁bilevel	-12.7544
▁700	-12.7545
▁phonemes	-12.7547
▁revise	-12.755
▁south	-12.755
▁bigrams	-12.755
not	-12.755
▁ped	-12.7552
▁dbns	-12.7555
▁metaphors	-12.7559
▁cvp	-12.7563
▁decomposable	-12.7566
▁qubit	-12.7573
rp	-12.7578
▁iec	-12.7584
▁diagnos	-12.7584
▁borders	-12.7584
▁additively	-12.7589
▁bb	-12.7589
shell	-12.7589
▁retina	-12.7591
-256	-12.7592
angle	-12.7593
▁perceiv	-12.7593
nes	-12.7595
▁foraging	-12.7597
▁fs	-12.7598
atic	-12.7613
▁meteor	-12.7618
lm	-12.7618
adic	-12.7618
▁guild	-12.7619
▁68	-12.762
▁shoot	-12.7623
▁blas	-12.7627
▁classroom	-12.7628
regularization	-12.7632
▁sv	-12.7635
ses	-12.7636
hastings	-12.7638
methods	-12.7639
textual	-12.764
▁1.7	-12.7641
▁ou	-12.7642
fortunately	-12.7651
▁climbing	-12.7651
po	-12.7653
▁slave	-12.7653
explored	-12.7654
packet	-12.7654
▁comfort	-12.7655
▁inlier	-12.766
▁cfn	-12.7662
▁pid	-12.7671
▁quadrature	-12.7673
▁delicate	-12.7673
▁sadness	-12.7674
▁hippocampus	-12.7674
▁crisp	-12.7674
▁supplies	-12.7674
▁mountain	-12.7674
▁comparab	-12.7676
▁stars	-12.7676
▁adhd	-12.7676
▁pertinent	-12.7677
▁poetry	-12.7677
▁umbrella	-12.7678
▁occasionally	-12.7678
▁extensibility	-12.7678
▁doubt	-12.7678
▁vlsi	-12.7678
reduced	-12.7679
▁customization	-12.768
▁predator	-12.7681
▁cuckoo	-12.7682
▁curation	-12.7683
▁transcribed	-12.7683
▁behalf	-12.7683
cultural	-12.7685
▁persuasive	-12.7686
▁accidental	-12.7686
▁borda	-12.7686
▁bright	-12.7687
▁factoid	-12.7692
▁raptor	-12.7694
▁trolls	-12.7694
▁pml	-12.7697
bilinear	-12.7702
proxy	-12.7702
extremal	-12.7703
▁lcl	-12.7703
▁alon	-12.7703
▁superresolution	-12.7704
preemptive	-12.7706
▁informatics	-12.7707
triggered	-12.7707
▁confused	-12.771
▁constructors	-12.7715
uri	-12.7715
targeted	-12.7719
▁dmt	-12.772
estimators	-12.772
safe	-12.7721
▁duplicated	-12.7721
▁cheng	-12.7722
51	-12.7724
▁sharpen	-12.7726
▁supercomputers	-12.7726
▁syntactical	-12.7727
▁activitynet	-12.7729
▁adapters	-12.7729
coherent	-12.7731
where	-12.7732
dd	-12.7734
▁dev	-12.7736
▁retransmissions	-12.7737
▁codecs	-12.7737
▁dic	-12.7738
▁fortran	-12.7739
▁polymer	-12.7739
▁blends	-12.7747
▁iff	-12.7747
▁srcnn	-12.7747
versa	-12.7749
▁realistically	-12.775
▁corrective	-12.775
▁aids	-12.7751
▁vessels	-12.7759
mf	-12.7763
▁46	-12.7767
▁oscillators	-12.7773
▁conquer	-12.7773
community	-12.7773
▁secrets	-12.7773
▁disorders	-12.7775
▁argu	-12.778
automatically	-12.7781
▁hc	-12.7783
ze	-12.7784
▁iron	-12.7786
▁twin	-12.7788
▁gav	-12.7788
maximum	-12.7789
▁tang	-12.779
▁ramp	-12.7799
▁broaden	-12.78
linearities	-12.7803
rmse	-12.7813
simple	-12.7818
▁diagnostics	-12.7821
lt	-12.7823
rates	-12.7826
ow	-12.783
▁spending	-12.7832
▁spacing	-12.7832
ying	-12.7836
▁markup	-12.7844
▁occupation	-12.7844
▁submanifold	-12.7851
▁polish	-12.7851
▁vot	-12.7852
▁rw	-12.7855
fix	-12.7855
▁rewiring	-12.786
▁snake	-12.786
objects	-12.7861
der	-12.7865
▁blockage	-12.7869
▁cond	-12.7876
av	-12.7876
▁translator	-12.7877
shared	-12.7877
▁plaintext	-12.7877
▁stepsize	-12.7879
descent	-12.7879
▁pseudorandom	-12.7883
▁thwart	-12.7886
brane	-12.7886
▁que	-12.7888
▁bicycle	-12.7895
▁lebesgue	-12.7895
▁physarum	-12.7895
▁vegetation	-12.7896
▁simulink	-12.7896
▁sophistication	-12.7896
▁astronomy	-12.7896
▁dropconnect	-12.7896
▁frustration	-12.7896
▁schedulability	-12.7896
▁programmability	-12.7896
▁conception	-12.7897
nf	-12.7897
▁neuroimaging	-12.7898
▁smalltalk	-12.7899
▁economies	-12.7899
▁cryptocurrency	-12.79
▁upc	-12.7901
▁disturb	-12.7902
▁accepting	-12.7903
▁submatrix	-12.7904
conservative	-12.7909
▁rbac	-12.7909
▁mitigated	-12.791
▁abbreviations	-12.7911
3.6	-12.7911
tp	-12.7912
▁subpopulations	-12.7915
hereditary	-12.7916
▁graphlab	-12.7917
▁mason	-12.7918
▁nb	-12.7918
▁rpca	-12.7918
▁attracts	-12.7919
splitting	-12.7919
away	-12.7921
▁travell	-12.7922
▁milp	-12.7922
▁flights	-12.7923
▁merlin	-12.7925
▁nod	-12.7926
▁tissues	-12.7927
qnet	-12.7928
▁reasoner	-12.7929
▁diff	-12.7932
ric	-12.7933
▁absorbing	-12.7935
▁narrowing	-12.7939
▁conventions	-12.7941
robin	-12.7941
convolution	-12.7942
▁mcc	-12.7943
▁enriche	-12.7943
packing	-12.7944
▁horizontally	-12.7947
2003	-12.795
▁preclude	-12.795
▁electronics	-12.7952
▁recombine	-12.7959
▁sectors	-12.7961
negativity	-12.7962
▁matcher	-12.7963
constraints	-12.7964
▁morphemes	-12.7965
▁elect	-12.7965
operative	-12.7969
▁obscure	-12.7971
▁streamline	-12.7972
▁incomparable	-12.7972
▁vid	-12.7973
▁tran	-12.7977
ney	-12.7978
▁ict	-12.798
5,000	-12.798
▁snn	-12.7985
science	-12.7986
▁stepwise	-12.7989
▁thi	-12.7993
▁doc	-12.7994
▁bic	-12.8
▁bnn	-12.8001
▁realiz	-12.8001
change	-12.8003
bnns	-12.8004
▁lra	-12.801
▁accelerometers	-12.8011
▁naively	-12.8015
▁interpreters	-12.8025
▁neur	-12.8025
▁cep	-12.8029
▁sy	-12.8031
compressed	-12.8035
evolution	-12.8036
▁rais	-12.8039
▁04	-12.8039
▁opponents	-12.8039
-6	-12.8044
heuristic	-12.8046
▁defective	-12.8047
▁gsa	-12.8049
logical	-12.805
▁robin	-12.8056
▁wrappe	-12.8057
▁selector	-12.8057
reward	-12.806
▁fingers	-12.8068
▁justice	-12.8071
wing	-12.8072
▁homicide	-12.8074
▁laptop	-12.8076
▁administrator	-12.8076
▁topologically	-12.8079
▁airline	-12.8081
dl	-12.8081
▁kenne	-12.8082
▁maxim	-12.8084
▁establishe	-12.8084
▁cpm	-12.8086
▁196	-12.8086
2010	-12.8089
▁cooccurrence	-12.8092
▁inhibit	-12.8094
▁apriori	-12.8095
▁bts	-12.8105
▁lex	-12.8107
spread	-12.811
▁panorama	-12.8111
▁tele	-12.8111
▁rival	-12.8112
lstms	-12.8113
▁plc	-12.8113
▁tableau	-12.8122
▁mercury	-12.8123
▁repertoire	-12.8123
▁trinket	-12.8123
▁qlsca	-12.8123
▁movielens	-12.8123
▁unattended	-12.8123
▁galton	-12.8123
▁cryptanalysis	-12.8123
▁dutch	-12.8123
▁tsdf	-12.8123
▁unsuccessful	-12.8124
identified	-12.8125
▁determinism	-12.8125
▁hof	-12.8125
▁warps	-12.8125
▁oz	-12.8127
▁autoencoding	-12.8127
▁middlebury	-12.8127
▁segregation	-12.8127
▁adagrad	-12.8127
▁civil	-12.8128
▁spdc	-12.8128
▁repulsion	-12.8128
▁hunt	-12.813
▁kend	-12.813
▁situ	-12.813
▁spiral	-12.8131
▁cider	-12.8131
sketch	-12.8131
▁resizing	-12.8132
lte	-12.8132
▁maturity	-12.8134
▁4.4	-12.8135
▁scribbles	-12.8135
▁tenants	-12.8136
▁periodicity	-12.8136
▁reciprocity	-12.8136
▁adversely	-12.8136
expectation	-12.8139
▁centrally	-12.8139
▁correlator	-12.8141
▁correlat	-12.8142
▁spawn	-12.8143
▁dispersed	-12.8144
ek	-12.8144
sk	-12.8145
▁ccg	-12.8145
▁coarsening	-12.8145
▁comprehend	-12.8146
▁77	-12.8148
▁instructional	-12.8149
cambridge	-12.815
▁brains	-12.8151
▁ios	-12.8153
accelerated	-12.8153
month	-12.8155
▁integrators	-12.8155
▁unforesee	-12.8159
poor	-12.816
▁obviate	-12.816
▁racing	-12.8165
▁microprocessors	-12.8165
chford	-12.8166
▁poa	-12.8169
▁fulfilled	-12.817
▁morse	-12.8171
▁ld	-12.8187
▁biasing	-12.8187
▁barycenters	-12.819
▁dispatching	-12.8194
▁tolerated	-12.8195
▁dss	-12.8196
▁wiring	-12.8197
▁generically	-12.8198
▁restored	-12.8212
▁constellations	-12.8213
▁shield	-12.8216
▁spider	-12.8216
▁calibrat	-12.8218
▁nam	-12.8224
▁informational	-12.8226
▁redirect	-12.8227
▁restaurants	-12.8228
discriminability	-12.8231
route	-12.8233
▁undertake	-12.8241
synchronized	-12.8243
▁hopping	-12.825
▁understandable	-12.8253
▁dither	-12.8258
80	-12.8262
berg	-12.8263
▁deceive	-12.8263
▁pas	-12.8264
▁oil	-12.8264
classes	-12.8271
▁ameliorate	-12.8271
scribed	-12.8271
ys	-12.8271
▁amplitudes	-12.8272
▁lle	-12.8284
▁est	-12.8287
blast	-12.8298
▁stressed	-12.8298
ui	-12.8298
dependencies	-12.83
▁rd	-12.8304
iness	-12.8307
▁cyclist	-12.8309
quantum	-12.831
▁quorum	-12.831
▁instructor	-12.831
▁traitor	-12.8311
▁march	-12.8311
▁webpage	-12.8312
▁dls	-12.8313
▁0.4	-12.8316
▁invoke	-12.8316
▁depot	-12.8317
▁synset	-12.8318
doubling	-12.8319
▁hypernym	-12.8325
▁hip	-12.833
entering	-12.8331
than	-12.8332
forcing	-12.8332
▁magic	-12.8333
▁avenue	-12.8335
▁indian	-12.8336
▁stick	-12.8339
▁neat	-12.834
computation	-12.834
▁avatar	-12.8342
▁scala	-12.8343
▁sdm	-12.8344
▁rerank	-12.8344
ung	-12.8344
gene	-12.8348
▁breakup	-12.8349
spectrum	-12.835
▁macros	-12.8351
▁highways	-12.8353
▁concentrat	-12.8354
▁domestic	-12.8355
▁viscosity	-12.8355
▁aurora	-12.8355
▁polysemous	-12.8355
▁kinship	-12.8355
▁isoperimetric	-12.8355
▁aldous	-12.8355
▁interdiction	-12.8356
▁registry	-12.8356
▁octo	-12.8356
▁extinction	-12.8356
▁dissimilarities	-12.8356
▁cbir	-12.8356
▁ppad	-12.8357
▁declare	-12.8357
▁uncommon	-12.8357
▁800	-12.8358
▁misbehaving	-12.8358
▁chief	-12.8358
▁hamilton	-12.8359
▁rectification	-12.836
▁dyadic	-12.836
▁weibo	-12.8361
▁liberal	-12.8364
▁udp	-12.8365
▁idp	-12.8366
▁idnc	-12.8367
▁marginalized	-12.8367
▁outdoors	-12.8367
▁contamination	-12.8367
▁explainability	-12.8371
▁geotagged	-12.8374
▁distractors	-12.8374
▁flatten	-12.8377
▁mer	-12.8377
▁pickup	-12.8378
▁nips	-12.8379
▁litera	-12.8381
▁realizable	-12.8381
digit	-12.8382
▁pendulum	-12.8382
▁positivity	-12.8382
▁superlinear	-12.8382
ix	-12.8383
▁lesser	-12.8383
▁lsgan	-12.8383
▁ldr	-12.8384
▁4.5	-12.8388
▁sar	-12.839
colouring	-12.8394
▁xiao	-12.8394
regressive	-12.8397
invariance	-12.8398
0.	-12.84
▁ski	-12.84
▁multigraph	-12.8401
▁hydrodynamic	-12.8403
ada	-12.8404
▁curious	-12.8405
▁undersampling	-12.8408
▁geodesics	-12.841
▁lmn	-12.8411
▁stuff	-12.8412
▁substantiate	-12.8414
▁shortcuts	-12.842
▁thinne	-12.842
▁discounting	-12.8422
[...]
